{
  "version": "1.0",
  "truncation": null,
  "padding": null,
  "added_tokens": [
    {
      "id": 0,
      "content": "[PAD]",
      "single_word": false,
      "lstrip": false,
      "rstrip": false,
      "normalized": false,
      "special": true
    },
    {
      "id": 1,
      "content": "[UNK]",
      "single_word": false,
      "lstrip": false,
      "rstrip": false,
      "normalized": false,
      "special": true
    },
    {
      "id": 2,
      "content": "[CLS]",
      "single_word": false,
      "lstrip": false,
      "rstrip": false,
      "normalized": false,
      "special": true
    },
    {
      "id": 3,
      "content": "[SEP]",
      "single_word": false,
      "lstrip": false,
      "rstrip": false,
      "normalized": false,
      "special": true
    },
    {
      "id": 4,
      "content": "[MASK]",
      "single_word": false,
      "lstrip": false,
      "rstrip": false,
      "normalized": false,
      "special": true
    },
    {
      "id": 5,
      "content": "##a",
      "single_word": false,
      "lstrip": false,
      "rstrip": false,
      "normalized": false,
      "special": true
    },
    {
      "id": 6,
      "content": "##b",
      "single_word": false,
      "lstrip": false,
      "rstrip": false,
      "normalized": false,
      "special": true
    },
    {
      "id": 7,
      "content": "##c",
      "single_word": false,
      "lstrip": false,
      "rstrip": false,
      "normalized": false,
      "special": true
    },
    {
      "id": 8,
      "content": "##d",
      "single_word": false,
      "lstrip": false,
      "rstrip": false,
      "normalized": false,
      "special": true
    },
    {
      "id": 9,
      "content": "##e",
      "single_word": false,
      "lstrip": false,
      "rstrip": false,
      "normalized": false,
      "special": true
    },
    {
      "id": 10,
      "content": "##f",
      "single_word": false,
      "lstrip": false,
      "rstrip": false,
      "normalized": false,
      "special": true
    },
    {
      "id": 11,
      "content": "##g",
      "single_word": false,
      "lstrip": false,
      "rstrip": false,
      "normalized": false,
      "special": true
    },
    {
      "id": 12,
      "content": "##h",
      "single_word": false,
      "lstrip": false,
      "rstrip": false,
      "normalized": false,
      "special": true
    },
    {
      "id": 13,
      "content": "##i",
      "single_word": false,
      "lstrip": false,
      "rstrip": false,
      "normalized": false,
      "special": true
    },
    {
      "id": 14,
      "content": "##j",
      "single_word": false,
      "lstrip": false,
      "rstrip": false,
      "normalized": false,
      "special": true
    },
    {
      "id": 15,
      "content": "##k",
      "single_word": false,
      "lstrip": false,
      "rstrip": false,
      "normalized": false,
      "special": true
    },
    {
      "id": 16,
      "content": "##l",
      "single_word": false,
      "lstrip": false,
      "rstrip": false,
      "normalized": false,
      "special": true
    },
    {
      "id": 17,
      "content": "##m",
      "single_word": false,
      "lstrip": false,
      "rstrip": false,
      "normalized": false,
      "special": true
    },
    {
      "id": 18,
      "content": "##n",
      "single_word": false,
      "lstrip": false,
      "rstrip": false,
      "normalized": false,
      "special": true
    },
    {
      "id": 19,
      "content": "##o",
      "single_word": false,
      "lstrip": false,
      "rstrip": false,
      "normalized": false,
      "special": true
    },
    {
      "id": 20,
      "content": "##p",
      "single_word": false,
      "lstrip": false,
      "rstrip": false,
      "normalized": false,
      "special": true
    },
    {
      "id": 21,
      "content": "##q",
      "single_word": false,
      "lstrip": false,
      "rstrip": false,
      "normalized": false,
      "special": true
    },
    {
      "id": 22,
      "content": "##r",
      "single_word": false,
      "lstrip": false,
      "rstrip": false,
      "normalized": false,
      "special": true
    },
    {
      "id": 23,
      "content": "##s",
      "single_word": false,
      "lstrip": false,
      "rstrip": false,
      "normalized": false,
      "special": true
    },
    {
      "id": 24,
      "content": "##t",
      "single_word": false,
      "lstrip": false,
      "rstrip": false,
      "normalized": false,
      "special": true
    },
    {
      "id": 25,
      "content": "##u",
      "single_word": false,
      "lstrip": false,
      "rstrip": false,
      "normalized": false,
      "special": true
    },
    {
      "id": 26,
      "content": "##v",
      "single_word": false,
      "lstrip": false,
      "rstrip": false,
      "normalized": false,
      "special": true
    },
    {
      "id": 27,
      "content": "##w",
      "single_word": false,
      "lstrip": false,
      "rstrip": false,
      "normalized": false,
      "special": true
    },
    {
      "id": 28,
      "content": "##x",
      "single_word": false,
      "lstrip": false,
      "rstrip": false,
      "normalized": false,
      "special": true
    },
    {
      "id": 29,
      "content": "##y",
      "single_word": false,
      "lstrip": false,
      "rstrip": false,
      "normalized": false,
      "special": true
    },
    {
      "id": 30,
      "content": "##z",
      "single_word": false,
      "lstrip": false,
      "rstrip": false,
      "normalized": false,
      "special": true
    }
  ],
  "normalizer": {
    "type": "BertNormalizer",
    "clean_text": true,
    "handle_chinese_chars": true,
    "strip_accents": true,
    "lowercase": true
  },
  "pre_tokenizer": {
    "type": "BertPreTokenizer"
  },
  "post_processor": null,
  "decoder": {
    "type": "WordPiece",
    "prefix": "##",
    "cleanup": true
  },
  "model": {
    "type": "WordPiece",
    "unk_token": "[UNK]",
    "continuing_subword_prefix": "##",
    "max_input_chars_per_word": 100,
    "vocab": {
      "[PAD]": 0,
      "[UNK]": 1,
      "[CLS]": 2,
      "[SEP]": 3,
      "[MASK]": 4,
      "##a": 5,
      "##b": 6,
      "##c": 7,
      "##d": 8,
      "##e": 9,
      "##f": 10,
      "##g": 11,
      "##h": 12,
      "##i": 13,
      "##j": 14,
      "##k": 15,
      "##l": 16,
      "##m": 17,
      "##n": 18,
      "##o": 19,
      "##p": 20,
      "##q": 21,
      "##r": 22,
      "##s": 23,
      "##t": 24,
      "##u": 25,
      "##v": 26,
      "##w": 27,
      "##x": 28,
      "##y": 29,
      "##z": 30,
      "+": 31,
      "-": 32,
      ".": 33,
      "/": 34,
      "0": 35,
      "1": 36,
      "2": 37,
      "3": 38,
      "4": 39,
      "5": 40,
      "6": 41,
      "7": 42,
      "8": 43,
      "9": 44,
      "_": 45,
      "a": 46,
      "b": 47,
      "c": 48,
      "d": 49,
      "e": 50,
      "f": 51,
      "g": 52,
      "h": 53,
      "i": 54,
      "j": 55,
      "k": 56,
      "l": 57,
      "m": 58,
      "n": 59,
      "o": 60,
      "p": 61,
      "q": 62,
      "r": 63,
      "s": 64,
      "t": 65,
      "u": 66,
      "v": 67,
      "w": 68,
      "x": 69,
      "y": 70,
      "z": 71,
      ".js": 72,
      "1d": 73,
      "2d": 74,
      "3d": 75,
      "abandon": 76,
      "abat": 77,
      "abbreviat": 78,
      "aberrant": 79,
      "abhor": 80,
      "abid": 81,
      "ability": 82,
      "ablat": 83,
      "able": 84,
      "ably": 85,
      "aboli": 86,
      "abomina": 87,
      "abort": 88,
      "abound": 89,
      "about": 90,
      "above": 91,
      "abreast": 92,
      "abrogat": 93,
      "abrupt": 94,
      "abscond": 95,
      "absen": 96,
      "absolut": 97,
      "absorb": 98,
      "abstain": 99,
      "abstract": 100,
      "abundan": 101,
      "abus": 102,
      "academ": 103,
      "acced": 104,
      "accelerat": 105,
      "accent": 106,
      "accept": 107,
      "access": 108,
      "accident": 109,
      "acclaim": 110,
      "accommodat": 111,
      "accompan": 112,
      "accomplish": 113,
      "accord": 114,
      "account": 115,
      "accru": 116,
      "accumulat": 117,
      "accur": 118,
      "accus": 119,
      "ace": 120,
      "ache": 121,
      "achiev": 122,
      "acknowledg": 123,
      "acoust": 124,
      "acquaint": 125,
      "acquies": 126,
      "acquir": 127,
      "acquisition": 128,
      "acquit": 129,
      "acronym": 130,
      "act": 131,
      "action": 132,
      "activ": 133,
      "activat": 134,
      "actual": 135,
      "actuat": 136,
      "acute": 137,
      "ad": 138,
      "ada": 139,
      "adapt": 140,
      "add": 141,
      "addendum": 142,
      "addict": 143,
      "addit": 144,
      "address": 145,
      "adept": 146,
      "adequat": 147,
      "adher": 148,
      "adjacen": 149,
      "adjectiv": 150,
      "adjoin": 151,
      "adjust": 152,
      "admin": 153,
      "administrat": 154,
      "admir": 155,
      "admiss": 156,
      "admit": 157,
      "admoni": 158,
      "adobe": 159,
      "adopt": 160,
      "ador": 161,
      "adorn": 162,
      "advanc": 163,
      "advantag": 164,
      "adventur": 165,
      "adverb": 166,
      "advers": 167,
      "advert": 168,
      "advic": 169,
      "advis": 170,
      "advocat": 171,
      "adware": 172,
      "affab": 173,
      "affair": 174,
      "affect": 175,
      "affiliat": 176,
      "affin": 177,
      "affirm": 178,
      "affix": 179,
      "afflict": 180,
      "afford": 181,
      "affront": 182,
      "afraid": 183,
      "after": 184,
      "again": 185,
      "against": 186,
      "age": 187,
      "agenc": 188,
      "agenda": 189,
      "agent": 190,
      "agglomerat": 191,
      "aggravat": 192,
      "aggregat": 193,
      "aggress": 194,
      "aghast": 195,
      "agil": 196,
      "agitat": 197,
      "ago": 198,
      "agree": 199,
      "ahead": 200,
      "aim": 201,
      "air": 202,
      "ajax": 203,
      "aka": 204,
      "al": 205,
      "alack": 206,
      "alacrit": 207,
      "alarm": 208,
      "alert": 209,
      "alex": 210,
      "algebra": 211,
      "algorithm": 212,
      "alias": 213,
      "align": 214,
      "alike": 215,
      "alive": 216,
      "all": 217,
      "alleg": 218,
      "allegor": 219,
      "alleviat": 220,
      "alli": 221,
      "allianc": 222,
      "allocat": 223,
      "allot": 224,
      "allow": 225,
      "allud": 226,
      "allus": 227,
      "ally": 228,
      "alone": 229,
      "along": 230,
      "aloud": 231,
      "alpha": 232,
      "alphabet": 233,
      "already": 234,
      "also": 235,
      "alter": 236,
      "alternat": 237,
      "although": 238,
      "always": 239,
      "am": 240,
      "amass": 241,
      "amaz": 242,
      "amazon": 243,
      "ambi": 244,
      "ambient": 245,
      "ambigu": 246,
      "ambit": 247,
      "amend": 248,
      "amiabl": 249,
      "amid": 250,
      "amiss": 251,
      "amo": 252,
      "among": 253,
      "amount": 254,
      "amper": 255,
      "ampersand": 256,
      "ampl": 257,
      "amplic": 258,
      "amplif": 259,
      "amplitud": 260,
      "amus": 261,
      "an": 262,
      "analog": 263,
      "analys": 264,
      "analytic": 265,
      "analyz": 266,
      "anchor": 267,
      "ancient": 268,
      "and": 269,
      "android": 270,
      "anew": 271,
      "angel": 272,
      "angl": 273,
      "angular": 274,
      "anim": 275,
      "animat": 276,
      "anneal": 277,
      "anniversary": 278,
      "annotat": 279,
      "announc": 280,
      "annoy": 281,
      "annual": 282,
      "anomal": 283,
      "anonym": 284,
      "another": 285,
      "ansi": 286,
      "ansible": 287,
      "answer": 288,
      "antenn": 289,
      "anti": 290,
      "anticipat": 291,
      "anxious": 292,
      "any": 293,
      "apache": 294,
      "apart": 295,
      "apartment": 296,
      "apertur": 297,
      "api": 298,
      "apolog": 299,
      "apostrophe": 300,
      "app": 301,
      "apparent": 302,
      "appeal": 303,
      "appear": 304,
      "appeas": 305,
      "appellation": 306,
      "append": 307,
      "appl": 308,
      "applaud": 309,
      "apple": 310,
      "applet": 311,
      "appli": 312,
      "applianc": 313,
      "applic": 314,
      "applicab": 315,
      "applicant": 316,
      "application": 317,
      "apply": 318,
      "appoint": 319,
      "apposit": 320,
      "apprais": 321,
      "apprecia": 322,
      "apprehen": 323,
      "approach": 324,
      "approb": 325,
      "appropriat": 326,
      "approv": 327,
      "approximat": 328,
      "april": 329,
      "apt": 330,
      "aptly": 331,
      "arbit": 332,
      "arch": 333,
      "architect": 334,
      "archiv": 335,
      "ardent": 336,
      "arduino": 337,
      "arduous": 338,
      "are": 339,
      "area": 340,
      "argu": 341,
      "argument": 342,
      "aris": 343,
      "arithmet": 344,
      "arm": 345,
      "around": 346,
      "arrang": 347,
      "array": 348,
      "arrear": 349,
      "arriv": 350,
      "arrogan": 351,
      "arrow": 352,
      "art": 353,
      "arti": 354,
      "articl": 355,
      "articulat": 356,
      "artificial": 357,
      "artist": 358,
      "as": 359,
      "asap": 360,
      "ascend": 361,
      "ascent": 362,
      "ascertain": 363,
      "ascii": 364,
      "ascrib": 365,
      "asham": 366,
      "aside": 367,
      "ask": 368,
      "asm": 369,
      "asp": 370,
      "aspect": 371,
      "asper": 372,
      "aspir": 373,
      "assail": 374,
      "assault": 375,
      "assembl": 376,
      "assent": 377,
      "assert": 378,
      "assess": 379,
      "asset": 380,
      "assid": 381,
      "assign": 382,
      "assist": 383,
      "associat": 384,
      "assort": 385,
      "assuag": 386,
      "assum": 387,
      "assur": 388,
      "assuranc": 389,
      "astonish": 390,
      "astound": 391,
      "astray": 392,
      "asunder": 393,
      "asymmetr": 394,
      "asymptot": 395,
      "async": 396,
      "atic": 397,
      "ativ": 398,
      "atlas": 399,
      "atmo": 400,
      "atom": 401,
      "aton": 402,
      "attach": 403,
      "attack": 404,
      "attain": 405,
      "attempt": 406,
      "attend": 407,
      "attent": 408,
      "attenuat": 409,
      "attest": 410,
      "attorn": 411,
      "attract": 412,
      "attribut": 413,
      "attrit": 414,
      "audi": 415,
      "audio": 416,
      "audit": 417,
      "augment": 418,
      "august": 419,
      "auth": 420,
      "authent": 421,
      "author": 422,
      "auto": 423,
      "autonom": 424,
      "autumn": 425,
      "auxiliar": 426,
      "avail": 427,
      "avatar": 428,
      "averag": 429,
      "avert": 430,
      "avoid": 431,
      "avow": 432,
      "awake": 433,
      "award": 434,
      "aware": 435,
      "away": 436,
      "awe": 437,
      "awful": 438,
      "awk": 439,
      "aws": 440,
      "axes": 441,
      "axiom": 442,
      "axis": 443,
      "azure": 444,
      "back": 445,
      "bad": 446,
      "badg": 447,
      "baffl": 448,
      "bag": 449,
      "balanc": 450,
      "ball": 451,
      "ban": 452,
      "band": 453,
      "banish": 454,
      "bank": 455,
      "bar": 456,
      "bargain": 457,
      "bart": 458,
      "bas": 459,
      "base": 460,
      "bash": 461,
      "basic": 462,
      "basis": 463,
      "bat": 464,
      "batch": 465,
      "batter": 466,
      "battle": 467,
      "bayes": 468,
      "be": 469,
      "beam": 470,
      "bear": 471,
      "beat": 472,
      "beaut": 473,
      "became": 474,
      "because": 475,
      "becom": 476,
      "been": 477,
      "befor": 478,
      "beg": 479,
      "began": 480,
      "begin": 481,
      "begun": 482,
      "behav": 483,
      "behavio": 484,
      "behaviou": 485,
      "behind": 486,
      "belief": 487,
      "believ": 488,
      "bell": 489,
      "belong": 490,
      "belov": 491,
      "below": 492,
      "bench": 493,
      "bend": 494,
      "beneath": 495,
      "benefic": 496,
      "benefit": 497,
      "bent": 498,
      "bereav": 499,
      "bereft": 500,
      "bert": 501,
      "beside": 502,
      "best": 503,
      "bestow": 504,
      "beta": 505,
      "betray": 506,
      "between": 507,
      "beyond": 508,
      "bi": 509,
      "bias": 510,
      "bifurcat": 511,
      "big": 512,
      "bigram": 513,
      "bill": 514,
      "bin": 515,
      "binanc": 516,
      "bind": 517,
      "bing": 518,
      "bio": 519,
      "bion": 520,
      "bios": 521,
      "bird": 522,
      "bisect": 523,
      "bit": 524,
      "black": 525,
      "blam": 526,
      "blank": 527,
      "bleach": 528,
      "bleak": 529,
      "blend": 530,
      "bless": 531,
      "blew": 532,
      "blind": 533,
      "blink": 534,
      "blob": 535,
      "block": 536,
      "blog": 537,
      "bloom": 538,
      "blossom": 539,
      "blow": 540,
      "blue": 541,
      "blund": 542,
      "blunt": 543,
      "blur": 544,
      "board": 545,
      "boast": 546,
      "body": 547,
      "boil": 548,
      "bold": 549,
      "bond": 550,
      "bone": 551,
      "bonus": 552,
      "book": 553,
      "bool": 554,
      "boom": 555,
      "boost": 556,
      "boot": 557,
      "bor": 558,
      "border": 559,
      "born": 560,
      "borrow": 561,
      "boss": 562,
      "bot": 563,
      "both": 564,
      "bother": 565,
      "bottle": 566,
      "bottom": 567,
      "bought": 568,
      "bounc": 569,
      "bound": 570,
      "bow": 571,
      "bowl": 572,
      "box": 573,
      "boy": 574,
      "brac": 575,
      "brack": 576,
      "brag": 577,
      "brain": 578,
      "brak": 579,
      "branch": 580,
      "brand": 581,
      "brave": 582,
      "breach": 583,
      "break": 584,
      "breath": 585,
      "brevity": 586,
      "bridg": 587,
      "brief": 588,
      "bright": 589,
      "bring": 590,
      "brisk": 591,
      "broach": 592,
      "broad": 593,
      "broke": 594,
      "brother": 595,
      "brought": 596,
      "brows": 597,
      "brush": 598,
      "btw": 599,
      "buch": 600,
      "bucket": 601,
      "budget": 602,
      "buf": 603,
      "bug": 604,
      "buil": 605,
      "bulk": 606,
      "bump": 607,
      "bunch": 608,
      "bundl": 609,
      "bur": 610,
      "burn": 611,
      "burst": 612,
      "bus": 613,
      "business": 614,
      "but": 615,
      "button": 616,
      "buy": 617,
      "by": 618,
      "bye": 619,
      "byte": 620,
      "cable": 621,
      "cach": 622,
      "cad": 623,
      "calcul": 624,
      "calendar": 625,
      "calibrat": 626,
      "call": 627,
      "calm": 628,
      "cam": 629,
      "came": 630,
      "camera": 631,
      "camp": 632,
      "campaign": 633,
      "campus": 634,
      "can": 635,
      "cancel": 636,
      "candid": 637,
      "candidat": 638,
      "candour": 639,
      "canonical": 640,
      "canvas": 641,
      "capab": 642,
      "capacit": 643,
      "capital": 644,
      "caps": 645,
      "capsul": 646,
      "capt": 647,
      "captcha": 648,
      "caption": 649,
      "captivat": 650,
      "captur": 651,
      "car": 652,
      "card": 653,
      "cardinal": 654,
      "care": 655,
      "carr": 656,
      "cart": 657,
      "carv": 658,
      "cas": 659,
      "cascad": 660,
      "case": 661,
      "cast": 662,
      "catalog": 663,
      "catch": 664,
      "categor": 665,
      "cater": 666,
      "caught": 667,
      "caus": 668,
      "cautio": 669,
      "cbow": 670,
      "ceas": 671,
      "ceil": 672,
      "celebrat": 673,
      "cell": 674,
      "center": 675,
      "centr": 676,
      "ceremon": 677,
      "certain": 678,
      "certif": 679,
      "chain": 680,
      "chair": 681,
      "challeng": 682,
      "champ": 683,
      "chanc": 684,
      "chang": 685,
      "channel": 686,
      "chao": 687,
      "chapt": 688,
      "char": 689,
      "character": 690,
      "charg": 691,
      "charit": 692,
      "charm": 693,
      "chart": 694,
      "chat": 695,
      "cheap": 696,
      "cheat": 697,
      "check": 698,
      "cheer": 699,
      "chief": 700,
      "child": 701,
      "chin": 702,
      "chip": 703,
      "choic": 704,
      "choos": 705,
      "chop": 706,
      "chose": 707,
      "chrom": 708,
      "chrome": 709,
      "chronologic": 710,
      "chunk": 711,
      "cipher": 712,
      "circl": 713,
      "circuit": 714,
      "circular": 715,
      "circulat": 716,
      "circum": 717,
      "cisco": 718,
      "cit": 719,
      "citation": 720,
      "civil": 721,
      "claim": 722,
      "clamp": 723,
      "clarif": 724,
      "clarity": 725,
      "clash": 726,
      "class": 727,
      "classif": 728,
      "clause": 729,
      "clean": 730,
      "clear": 731,
      "clever": 732,
      "cli": 733,
      "click": 734,
      "client": 735,
      "climb": 736,
      "cling": 737,
      "clip": 738,
      "clobber": 739,
      "clock": 740,
      "clog": 741,
      "clon": 742,
      "clos": 743,
      "cloth": 744,
      "cloud": 745,
      "club": 746,
      "clue": 747,
      "cluster": 748,
      "clutter": 749,
      "cmd": 750,
      "cmos": 751,
      "cms": 752,
      "cnn": 753,
      "coach": 754,
      "coaxial": 755,
      "cobol": 756,
      "cocoa": 757,
      "cod": 758,
      "code": 759,
      "coder": 760,
      "codif": 761,
      "coefficient": 762,
      "coffee": 763,
      "cofound": 764,
      "cognit": 765,
      "coheren": 766,
      "cohesi": 767,
      "coin": 768,
      "coincid": 769,
      "cold": 770,
      "collaborat": 771,
      "collaps": 772,
      "collat": 773,
      "colleague": 774,
      "collect": 775,
      "college": 776,
      "collid": 777,
      "collinear": 778,
      "collis": 779,
      "collud": 780,
      "collung": 781,
      "colon": 782,
      "color": 783,
      "colour": 784,
      "column": 785,
      "combat": 786,
      "combin": 787,
      "combo": 788,
      "come": 789,
      "comfort": 790,
      "comfy": 791,
      "coming": 792,
      "comma": 793,
      "command": 794,
      "commenc": 795,
      "commend": 796,
      "comment": 797,
      "commerc": 798,
      "commiserat": 799,
      "commiss": 800,
      "commit": 801,
      "commodit": 802,
      "common": 803,
      "commun": 804,
      "communic": 805,
      "commut": 806,
      "compact": 807,
      "compan": 808,
      "compar": 809,
      "compass": 810,
      "compat": 811,
      "compel": 812,
      "compensat": 813,
      "compet": 814,
      "competen": 815,
      "compil": 816,
      "complacen": 817,
      "complai": 818,
      "complement": 819,
      "complet": 820,
      "complex": 821,
      "compli": 822,
      "complian": 823,
      "complicat": 824,
      "compliment": 825,
      "comply": 826,
      "component": 827,
      "compos": 828,
      "compound": 829,
      "comprehen": 830,
      "compres": 831,
      "compris": 832,
      "compromis": 833,
      "compuls": 834,
      "compunction": 835,
      "comput": 836,
      "computer": 837,
      "con": 838,
      "concatenat": 839,
      "concav": 840,
      "conceal": 841,
      "conced": 842,
      "conceit": 843,
      "conceiv": 844,
      "concentrat": 845,
      "concept": 846,
      "concern": 847,
      "concert": 848,
      "concess": 849,
      "conciliat": 850,
      "concis": 851,
      "conclud": 852,
      "conclusi": 853,
      "concord": 854,
      "concret": 855,
      "concurr": 856,
      "condemn": 857,
      "condens": 858,
      "condit": 859,
      "condolenc": 860,
      "conduc": 861,
      "conduct": 862,
      "cone": 863,
      "confer": 864,
      "conferenc": 865,
      "confes": 866,
      "confid": 867,
      "config": 868,
      "confin": 869,
      "confirm": 870,
      "conflat": 871,
      "conflict": 872,
      "confluen": 873,
      "conform": 874,
      "confound": 875,
      "confront": 876,
      "confus": 877,
      "congest": 878,
      "congrat": 879,
      "congratulat": 880,
      "congregat": 881,
      "congress": 882,
      "congru": 883,
      "congruent": 884,
      "conjectur": 885,
      "conjuga": 886,
      "conjunct": 887,
      "connect": 888,
      "conniv": 889,
      "conquer": 890,
      "conscious": 891,
      "consecutiv": 892,
      "consent": 893,
      "conserv": 894,
      "consider": 895,
      "consign": 896,
      "consist": 897,
      "consol": 898,
      "consolidat": 899,
      "consonan": 900,
      "consort": 901,
      "conspic": 902,
      "conspir": 903,
      "const": 904,
      "constit": 905,
      "constrain": 906,
      "constru": 907,
      "construct": 908,
      "consult": 909,
      "consum": 910,
      "contact": 911,
      "contain": 912,
      "contemp": 913,
      "contemplat": 914,
      "contempt": 915,
      "contend": 916,
      "content": 917,
      "contest": 918,
      "context": 919,
      "contigu": 920,
      "contingen": 921,
      "continu": 922,
      "contour": 923,
      "contr": 924,
      "contract": 925,
      "contradict": 926,
      "contrast": 927,
      "contribut": 928,
      "contrit": 929,
      "contriv": 930,
      "control": 931,
      "controver": 932,
      "conundrum": 933,
      "conv": 934,
      "conven": 935,
      "convenien": 936,
      "convent": 937,
      "converg": 938,
      "convers": 939,
      "convert": 940,
      "convex": 941,
      "convey": 942,
      "convict": 943,
      "convinc": 944,
      "conviv": 945,
      "convol": 946,
      "cook": 947,
      "cool": 948,
      "cooperat": 949,
      "coordinat": 950,
      "cope": 951,
      "copi": 952,
      "copy": 953,
      "cord": 954,
      "core": 955,
      "corner": 956,
      "corollar": 957,
      "coroutin": 958,
      "corpora": 959,
      "corpus": 960,
      "correct": 961,
      "correlat": 962,
      "correspond": 963,
      "corroborat": 964,
      "corrupt": 965,
      "cosin": 966,
      "cost": 967,
      "cot": 968,
      "couch": 969,
      "could": 970,
      "counsel": 971,
      "count": 972,
      "counter": 973,
      "coupl": 974,
      "courag": 975,
      "cours": 976,
      "couth": 977,
      "cover": 978,
      "covet": 979,
      "cpu": 980,
      "crack": 981,
      "craft": 982,
      "cramp": 983,
      "crank": 984,
      "crash": 985,
      "crav": 986,
      "crawl": 987,
      "creat": 988,
      "creden": 989,
      "credib": 990,
      "credit": 991,
      "cri": 992,
      "crim": 993,
      "cris": 994,
      "criteri": 995,
      "critic": 996,
      "critique": 997,
      "crm": 998,
      "croach": 999,
      "cron": 1000,
      "crop": 1001,
      "cross": 1002,
      "crowd": 1003,
      "crucial": 1004,
      "crude": 1005,
      "crumbl": 1006,
      "crunch": 1007,
      "crush": 1008,
      "crux": 1009,
      "cry": 1010,
      "crypt": 1011,
      "crypto": 1012,
      "crystal": 1013,
      "css": 1014,
      "cub": 1015,
      "cuda": 1016,
      "cull": 1017,
      "culminat": 1018,
      "cultivat": 1019,
      "cultur": 1020,
      "cumulat": 1021,
      "cur": 1022,
      "curat": 1023,
      "curio": 1024,
      "curl": 1025,
      "currenc": 1026,
      "current": 1027,
      "cursor": 1028,
      "curtail": 1029,
      "curv": 1030,
      "custom": 1031,
      "cut": 1032,
      "cyber": 1033,
      "cycl": 1034,
      "dabbl": 1035,
      "daemon": 1036,
      "damag": 1037,
      "damp": 1038,
      "danc": 1039,
      "dang": 1040,
      "danger": 1041,
      "dangl": 1042,
      "dar": 1043,
      "dark": 1044,
      "darl": 1045,
      "dart": 1046,
      "dash": 1047,
      "dat": 1048,
      "data": 1049,
      "date": 1050,
      "daughter": 1051,
      "daunt": 1052,
      "dawdl": 1053,
      "day": 1054,
      "dbc": 1055,
      "dbms": 1056,
      "ddr": 1057,
      "de": 1058,
      "dead": 1059,
      "deal": 1060,
      "dear": 1061,
      "debat": 1062,
      "debug": 1063,
      "debut": 1064,
      "decad": 1065,
      "decay": 1066,
      "deceit": 1067,
      "deceiv": 1068,
      "decelerat": 1069,
      "december": 1070,
      "decen": 1071,
      "decentraliz": 1072,
      "decept": 1073,
      "decid": 1074,
      "decimal": 1075,
      "decisi": 1076,
      "declar": 1077,
      "declin": 1078,
      "decorat": 1079,
      "decreas": 1080,
      "decrement": 1081,
      "dedicat": 1082,
      "deduc": 1083,
      "deed": 1084,
      "deem": 1085,
      "deep": 1086,
      "def": 1087,
      "default": 1088,
      "defeat": 1089,
      "defect": 1090,
      "defenc": 1091,
      "defend": 1092,
      "defens": 1093,
      "defer": 1094,
      "defi": 1095,
      "defian": 1096,
      "defic": 1097,
      "defin": 1098,
      "definit": 1099,
      "deflat": 1100,
      "deflect": 1101,
      "deform": 1102,
      "defragment": 1103,
      "deft": 1104,
      "defunct": 1105,
      "defus": 1106,
      "defy": 1107,
      "degrad": 1108,
      "degree": 1109,
      "deject": 1110,
      "delay": 1111,
      "delegat": 1112,
      "delet": 1113,
      "deliberat": 1114,
      "delic": 1115,
      "delight": 1116,
      "deliver": 1117,
      "delphi": 1118,
      "delta": 1119,
      "delusion": 1120,
      "delv": 1121,
      "demand": 1122,
      "demo": 1123,
      "democratiz": 1124,
      "demodulat": 1125,
      "demolish": 1126,
      "demonstra": 1127,
      "demot": 1128,
      "demur": 1129,
      "deni": 1130,
      "denot": 1131,
      "dens": 1132,
      "densif": 1133,
      "deny": 1134,
      "depart": 1135,
      "department": 1136,
      "depend": 1137,
      "depict": 1138,
      "deplet": 1139,
      "deplor": 1140,
      "deploy": 1141,
      "deposit": 1142,
      "depot": 1143,
      "deprecat": 1144,
      "depreciat": 1145,
      "depreciate": 1146,
      "depress": 1147,
      "depriv": 1148,
      "depth": 1149,
      "deput": 1150,
      "deque": 1151,
      "derang": 1152,
      "derisi": 1153,
      "deriv": 1154,
      "descen": 1155,
      "descri": 1156,
      "describ": 1157,
      "descript": 1158,
      "desert": 1159,
      "deserv": 1160,
      "design": 1161,
      "designat": 1162,
      "desir": 1163,
      "desk": 1164,
      "despair": 1165,
      "despatch": 1166,
      "desperat": 1167,
      "despit": 1168,
      "despoil": 1169,
      "despond": 1170,
      "destin": 1171,
      "destination": 1172,
      "destroy": 1173,
      "destruct": 1174,
      "detach": 1175,
      "detail": 1176,
      "detain": 1177,
      "detect": 1178,
      "determin": 1179,
      "detract": 1180,
      "dev": 1181,
      "devalu": 1182,
      "devastat": 1183,
      "develop": 1184,
      "deviat": 1185,
      "devic": 1186,
      "devis": 1187,
      "devoid": 1188,
      "devolv": 1189,
      "devot": 1190,
      "dexter": 1191,
      "dia": 1192,
      "diagnos": 1193,
      "diagonal": 1194,
      "diagram": 1195,
      "dial": 1196,
      "dialect": 1197,
      "dialog": 1198,
      "dict": 1199,
      "dictat": 1200,
      "did": 1201,
      "die": 1202,
      "diff": 1203,
      "differ": 1204,
      "differentia": 1205,
      "difficult": 1206,
      "diffiden": 1207,
      "diffus": 1208,
      "dig": 1209,
      "digit": 1210,
      "dignit": 1211,
      "dilat": 1212,
      "dilemma": 1213,
      "diligen": 1214,
      "dilut": 1215,
      "dim": 1216,
      "dimens": 1217,
      "diminish": 1218,
      "din": 1219,
      "dinner": 1220,
      "diod": 1221,
      "dip": 1222,
      "dire": 1223,
      "direct": 1224,
      "dirt": 1225,
      "dis": 1226,
      "disabl": 1227,
      "disappoint": 1228,
      "discard": 1229,
      "discern": 1230,
      "disciplin": 1231,
      "disclos": 1232,
      "discord": 1233,
      "discount": 1234,
      "discourag": 1235,
      "discover": 1236,
      "discreet": 1237,
      "discrep": 1238,
      "discret": 1239,
      "discriminant": 1240,
      "discriminat": 1241,
      "discuss": 1242,
      "disdain": 1243,
      "disgrac": 1244,
      "disguis": 1245,
      "disgust": 1246,
      "dish": 1247,
      "disjoin": 1248,
      "disk": 1249,
      "dismal": 1250,
      "dismay": 1251,
      "dismiss": 1252,
      "disorder": 1253,
      "dispar": 1254,
      "dispatch": 1255,
      "dispel": 1256,
      "dispens": 1257,
      "dispers": 1258,
      "displac": 1259,
      "display": 1260,
      "displeas": 1261,
      "dispos": 1262,
      "disposit": 1263,
      "disprov": 1264,
      "disput": 1265,
      "disqualif": 1266,
      "disregard": 1267,
      "disrespect": 1268,
      "disrupt": 1269,
      "dissect": 1270,
      "disseminat": 1271,
      "dissent": 1272,
      "dissipat": 1273,
      "dissonan": 1274,
      "dissuad": 1275,
      "distanc": 1276,
      "distant": 1277,
      "distill": 1278,
      "distinct": 1279,
      "distinguish": 1280,
      "distort": 1281,
      "distract": 1282,
      "distress": 1283,
      "distribut": 1284,
      "disturb": 1285,
      "div": 1286,
      "diverg": 1287,
      "divers": 1288,
      "diversif": 1289,
      "divert": 1290,
      "divid": 1291,
      "divis": 1292,
      "django": 1293,
      "dll": 1294,
      "dnn": 1295,
      "do": 1296,
      "doat": 1297,
      "doc": 1298,
      "dock": 1299,
      "docker": 1300,
      "doctrin": 1301,
      "document": 1302,
      "dole": 1303,
      "dom": 1304,
      "domain": 1305,
      "domestic": 1306,
      "dominan": 1307,
      "dominat": 1308,
      "donat": 1309,
      "doom": 1310,
      "door": 1311,
      "dos": 1312,
      "dot": 1313,
      "doth": 1314,
      "doubl": 1315,
      "doubt": 1316,
      "down": 1317,
      "draft": 1318,
      "drag": 1319,
      "drain": 1320,
      "dram": 1321,
      "drama": 1322,
      "drank": 1323,
      "drastic": 1324,
      "draw": 1325,
      "dread": 1326,
      "dream": 1327,
      "dress": 1328,
      "drew": 1329,
      "drill": 1330,
      "drink": 1331,
      "driv": 1332,
      "dron": 1333,
      "drop": 1334,
      "drown": 1335,
      "drunk": 1336,
      "drupal": 1337,
      "dry": 1338,
      "dual": 1339,
      "dub": 1340,
      "duc": 1341,
      "duck": 1342,
      "due": 1343,
      "dull": 1344,
      "dump": 1345,
      "duo": 1346,
      "dup": 1347,
      "dupl": 1348,
      "durab": 1349,
      "duration": 1350,
      "during": 1351,
      "dusk": 1352,
      "dust": 1353,
      "dut": 1354,
      "dwel": 1355,
      "dwindl": 1356,
      "dynam": 1357,
      "each": 1358,
      "eager": 1359,
      "ear": 1360,
      "earl": 1361,
      "earn": 1362,
      "earth": 1363,
      "eas": 1364,
      "east": 1365,
      "eat": 1366,
      "ebriet": 1367,
      "echo": 1368,
      "eclips": 1369,
      "ecma": 1370,
      "eco": 1371,
      "ecolog": 1372,
      "econom": 1373,
      "ecu": 1374,
      "ed": 1375,
      "edge": 1376,
      "edit": 1377,
      "educat": 1378,
      "effect": 1379,
      "effic": 1380,
      "efficien": 1381,
      "effort": 1382,
      "eigen": 1383,
      "eight": 1384,
      "either": 1385,
      "eject": 1386,
      "elaborat": 1387,
      "elaps": 1388,
      "elastic": 1389,
      "elde": 1390,
      "elect": 1391,
      "electr": 1392,
      "electrif": 1393,
      "electron": 1394,
      "elegan": 1395,
      "element": 1396,
      "elevat": 1397,
      "eleven": 1398,
      "elicit": 1399,
      "eligib": 1400,
      "eliminat": 1401,
      "ellip": 1402,
      "elongat": 1403,
      "else": 1404,
      "elucidat": 1405,
      "elud": 1406,
      "elusiv": 1407,
      "embark": 1408,
      "embarrass": 1409,
      "embed": 1410,
      "embellish": 1411,
      "ember": 1412,
      "emblem": 1413,
      "embod": 1414,
      "embrac": 1415,
      "emerg": 1416,
      "eminen": 1417,
      "emiss": 1418,
      "emit": 1419,
      "emotion": 1420,
      "emphas": 1421,
      "emphat": 1422,
      "empir": 1423,
      "employ": 1424,
      "empt": 1425,
      "emulat": 1426,
      "enabl": 1427,
      "enact": 1428,
      "encapsulat": 1429,
      "enchant": 1430,
      "encrypt": 1431,
      "encumb": 1432,
      "end": 1433,
      "endanger": 1434,
      "endear": 1435,
      "endeav": 1436,
      "endors": 1437,
      "endur": 1438,
      "enem": 1439,
      "energ": 1440,
      "enforc": 1441,
      "engag": 1442,
      "engine": 1443,
      "engross": 1444,
      "enhanc": 1445,
      "enjoy": 1446,
      "enlarg": 1447,
      "enough": 1448,
      "enquir": 1449,
      "enroll": 1450,
      "ensembl": 1451,
      "ensu": 1452,
      "ensur": 1453,
      "entail": 1454,
      "entangl": 1455,
      "enter": 1456,
      "enterpris": 1457,
      "entertain": 1458,
      "enthusiast": 1459,
      "entic": 1460,
      "entire": 1461,
      "entit": 1462,
      "entitl": 1463,
      "entr": 1464,
      "entrain": 1465,
      "entrance": 1466,
      "entrant": 1467,
      "entrap": 1468,
      "entre": 1469,
      "entreat": 1470,
      "entrench": 1471,
      "entrop": 1472,
      "entropic": 1473,
      "entrust": 1474,
      "enum": 1475,
      "enumer": 1476,
      "envelop": 1477,
      "envi": 1478,
      "environ": 1479,
      "envision": 1480,
      "epic": 1481,
      "epilog": 1482,
      "episod": 1483,
      "epoch": 1484,
      "equal": 1485,
      "equaliz": 1486,
      "equat": 1487,
      "equi": 1488,
      "equip": 1489,
      "equit": 1490,
      "er": 1491,
      "era": 1492,
      "eradicat": 1493,
      "eras": 1494,
      "ergonom": 1495,
      "erlang": 1496,
      "errand": 1497,
      "errant": 1498,
      "erroneous": 1499,
      "error": 1500,
      "es": 1501,
      "escalat": 1502,
      "escap": 1503,
      "escort": 1504,
      "especial": 1505,
      "essen": 1506,
      "essential": 1507,
      "establish": 1508,
      "estate": 1509,
      "esteem": 1510,
      "estima": 1511,
      "etc": 1512,
      "etern": 1513,
      "ether": 1514,
      "euclid": 1515,
      "euler": 1516,
      "euro": 1517,
      "evad": 1518,
      "evaluat": 1519,
      "evaporat": 1520,
      "evas": 1521,
      "even": 1522,
      "evening": 1523,
      "event": 1524,
      "ever": 1525,
      "every": 1526,
      "evict": 1527,
      "eviden": 1528,
      "evinc": 1529,
      "evok": 1530,
      "evolut": 1531,
      "evolv": 1532,
      "exact": 1533,
      "exaggerat": 1534,
      "exam": 1535,
      "examin": 1536,
      "exampl": 1537,
      "exceed": 1538,
      "excel": 1539,
      "except": 1540,
      "excess": 1541,
      "excit": 1542,
      "exclud": 1543,
      "exclus": 1544,
      "exclusiv": 1545,
      "excus": 1546,
      "exec": 1547,
      "execut": 1548,
      "exempl": 1549,
      "exempt": 1550,
      "exercis": 1551,
      "exert": 1552,
      "exhaust": 1553,
      "exhibit": 1554,
      "exif": 1555,
      "exigen": 1556,
      "exist": 1557,
      "exit": 1558,
      "expand": 1559,
      "expans": 1560,
      "expect": 1561,
      "expedien": 1562,
      "expedit": 1563,
      "expedite": 1564,
      "expend": 1565,
      "expens": 1566,
      "experien": 1567,
      "experiment": 1568,
      "expert": 1569,
      "expir": 1570,
      "explain": 1571,
      "explanat": 1572,
      "explic": 1573,
      "explod": 1574,
      "exploit": 1575,
      "explor": 1576,
      "explos": 1577,
      "expo": 1578,
      "exponent": 1579,
      "export": 1580,
      "expos": 1581,
      "expound": 1582,
      "express": 1583,
      "exten": 1584,
      "extenuat": 1585,
      "exterior": 1586,
      "extern": 1587,
      "extinguish": 1588,
      "extra": 1589,
      "extract": 1590,
      "extrapolat": 1591,
      "extravagan": 1592,
      "extrem": 1593,
      "extricat": 1594,
      "extrinsic": 1595,
      "exult": 1596,
      "eye": 1597,
      "fabl": 1598,
      "fabric": 1599,
      "fac": 1600,
      "face": 1601,
      "facilit": 1602,
      "fact": 1603,
      "factor": 1604,
      "fad": 1605,
      "fail": 1606,
      "faint": 1607,
      "fair": 1608,
      "faith": 1609,
      "fake": 1610,
      "fall": 1611,
      "false": 1612,
      "fame": 1613,
      "famil": 1614,
      "familiar": 1615,
      "famous": 1616,
      "fan": 1617,
      "fanc": 1618,
      "fantas": 1619,
      "faq": 1620,
      "far": 1621,
      "fare": 1622,
      "farth": 1623,
      "fascinat": 1624,
      "fashion": 1625,
      "fast": 1626,
      "fasten": 1627,
      "fastidious": 1628,
      "fat": 1629,
      "fatal": 1630,
      "father": 1631,
      "fathom": 1632,
      "fatig": 1633,
      "fault": 1634,
      "favo": 1635,
      "fear": 1636,
      "feasib": 1637,
      "featur": 1638,
      "february": 1639,
      "fed": 1640,
      "federal": 1641,
      "federat": 1642,
      "feebl": 1643,
      "feed": 1644,
      "feel": 1645,
      "fees": 1646,
      "feet": 1647,
      "feign": 1648,
      "felic": 1649,
      "fell": 1650,
      "fellow": 1651,
      "felt": 1652,
      "female": 1653,
      "femin": 1654,
      "fenc": 1655,
      "fend": 1656,
      "festiv": 1657,
      "fetch": 1658,
      "few": 1659,
      "ficat": 1660,
      "ficial": 1661,
      "fickl": 1662,
      "fide": 1663,
      "fidel": 1664,
      "fidget": 1665,
      "field": 1666,
      "fift": 1667,
      "fight": 1668,
      "figur": 1669,
      "file": 1670,
      "fill": 1671,
      "filt": 1672,
      "filtrat": 1673,
      "fin": 1674,
      "final": 1675,
      "financ": 1676,
      "find": 1677,
      "fine": 1678,
      "finger": 1679,
      "finish": 1680,
      "finit": 1681,
      "fir": 1682,
      "fire": 1683,
      "firm": 1684,
      "first": 1685,
      "fish": 1686,
      "fit": 1687,
      "five": 1688,
      "fix": 1689,
      "fixat": 1690,
      "flag": 1691,
      "flam": 1692,
      "flare": 1693,
      "flash": 1694,
      "flask": 1695,
      "flat": 1696,
      "flav": 1697,
      "flaw": 1698,
      "flect": 1699,
      "fled": 1700,
      "flee": 1701,
      "fleet": 1702,
      "flew": 1703,
      "flex": 1704,
      "fli": 1705,
      "flick": 1706,
      "flight": 1707,
      "fling": 1708,
      "flip": 1709,
      "flirt": 1710,
      "float": 1711,
      "flock": 1712,
      "flood": 1713,
      "floor": 1714,
      "flopp": 1715,
      "flourish": 1716,
      "flow": 1717,
      "fluctuat": 1718,
      "fluen": 1719,
      "fluff": 1720,
      "flung": 1721,
      "flurr": 1722,
      "flush": 1723,
      "flutter": 1724,
      "flux": 1725,
      "fly": 1726,
      "focal": 1727,
      "focus": 1728,
      "fog": 1729,
      "fold": 1730,
      "foll": 1731,
      "follow": 1732,
      "fond": 1733,
      "font": 1734,
      "food": 1735,
      "fool": 1736,
      "foot": 1737,
      "fopp": 1738,
      "for": 1739,
      "foray": 1740,
      "forb": 1741,
      "forbear": 1742,
      "forbid": 1743,
      "forbor": 1744,
      "forc": 1745,
      "fore": 1746,
      "forebod": 1747,
      "foresee": 1748,
      "forest": 1749,
      "foretell": 1750,
      "forever": 1751,
      "forfeit": 1752,
      "forgav": 1753,
      "forge": 1754,
      "forget": 1755,
      "forgiv": 1756,
      "forgo": 1757,
      "forgot": 1758,
      "fork": 1759,
      "form": 1760,
      "formaliz": 1761,
      "format": 1762,
      "formul": 1763,
      "formulat": 1764,
      "forswear": 1765,
      "forth": 1766,
      "fortif": 1767,
      "fortran": 1768,
      "fortun": 1769,
      "forum": 1770,
      "forward": 1771,
      "foster": 1772,
      "fought": 1773,
      "found": 1774,
      "four": 1775,
      "fox": 1776,
      "fps": 1777,
      "fract": 1778,
      "fraction": 1779,
      "fragil": 1780,
      "fragment": 1781,
      "fragran": 1782,
      "fram": 1783,
      "framework": 1784,
      "franca": 1785,
      "frantic": 1786,
      "fraud": 1787,
      "free": 1788,
      "freelanc": 1789,
      "freez": 1790,
      "frequen": 1791,
      "fresh": 1792,
      "fri": 1793,
      "friend": 1794,
      "fright": 1795,
      "from": 1796,
      "front": 1797,
      "froz": 1798,
      "frugal": 1799,
      "fruit": 1800,
      "frustrat": 1801,
      "frustum": 1802,
      "ftp": 1803,
      "fuck": 1804,
      "fuel": 1805,
      "ful": 1806,
      "fulfil": 1807,
      "full": 1808,
      "fumbl": 1809,
      "fun": 1810,
      "func": 1811,
      "fund": 1812,
      "fundament": 1813,
      "funder": 1814,
      "fungib": 1815,
      "funnel": 1816,
      "furbish": 1817,
      "furcat": 1818,
      "further": 1819,
      "fus": 1820,
      "futur": 1821,
      "fuzz": 1822,
      "gadget": 1823,
      "gain": 1824,
      "gallant": 1825,
      "galler": 1826,
      "gam": 1827,
      "gambl": 1828,
      "game": 1829,
      "gamif": 1830,
      "gan": 1831,
      "gap": 1832,
      "garbag": 1833,
      "garment": 1834,
      "gat": 1835,
      "gather": 1836,
      "gaug": 1837,
      "gauss": 1838,
      "gave": 1839,
      "gaz": 1840,
      "gb": 1841,
      "gcc": 1842,
      "geek": 1843,
      "gem": 1844,
      "gemini": 1845,
      "gen": 1846,
      "gener": 1847,
      "general": 1848,
      "generat": 1849,
      "generic": 1850,
      "genet": 1851,
      "geni": 1852,
      "gentl": 1853,
      "genuin": 1854,
      "geo": 1855,
      "gestur": 1856,
      "get": 1857,
      "gether": 1858,
      "ghost": 1859,
      "giant": 1860,
      "gift": 1861,
      "gig": 1862,
      "giga": 1863,
      "gigant": 1864,
      "girl": 1865,
      "gist": 1866,
      "git": 1867,
      "giv": 1868,
      "glad": 1869,
      "glanc": 1870,
      "glar": 1871,
      "glass": 1872,
      "glean": 1873,
      "glee": 1874,
      "glimps": 1875,
      "glitch": 1876,
      "glob": 1877,
      "gloom": 1878,
      "glor": 1879,
      "gloss": 1880,
      "glow": 1881,
      "glue": 1882,
      "glyph": 1883,
      "gnome": 1884,
      "gnu": 1885,
      "go": 1886,
      "goal": 1887,
      "gold": 1888,
      "gonal": 1889,
      "good": 1890,
      "googl": 1891,
      "gorgeous": 1892,
      "got": 1893,
      "goto": 1894,
      "govern": 1895,
      "gps": 1896,
      "gpt": 1897,
      "gpu": 1898,
      "grab": 1899,
      "grace": 1900,
      "gracious": 1901,
      "grad": 1902,
      "gradat": 1903,
      "gradient": 1904,
      "gradl": 1905,
      "gradual": 1906,
      "graduat": 1907,
      "gram": 1908,
      "gramm": 1909,
      "grand": 1910,
      "grant": 1911,
      "granular": 1912,
      "graph": 1913,
      "graphic": 1914,
      "grappl": 1915,
      "grasp": 1916,
      "grat": 1917,
      "grate": 1918,
      "gratif": 1919,
      "grav": 1920,
      "gravit": 1921,
      "gray": 1922,
      "great": 1923,
      "greed": 1924,
      "greet": 1925,
      "grep": 1926,
      "grew": 1927,
      "grid": 1928,
      "griev": 1929,
      "grind": 1930,
      "grip": 1931,
      "groom": 1932,
      "groov": 1933,
      "gross": 1934,
      "ground": 1935,
      "group": 1936,
      "grow": 1937,
      "grpc": 1938,
      "grudg": 1939,
      "gruel": 1940,
      "grunt": 1941,
      "gsm": 1942,
      "guarante": 1943,
      "guard": 1944,
      "guess": 1945,
      "guest": 1946,
      "gui": 1947,
      "guid": 1948,
      "guilt": 1949,
      "habit": 1950,
      "hack": 1951,
      "hackathon": 1952,
      "had": 1953,
      "hadoop": 1954,
      "hail": 1955,
      "half": 1956,
      "halt": 1957,
      "hamper": 1958,
      "hand": 1959,
      "handl": 1960,
      "hang": 1961,
      "happ": 1962,
      "happen": 1963,
      "hapt": 1964,
      "hard": 1965,
      "harm": 1966,
      "harmon": 1967,
      "harness": 1968,
      "harsh": 1969,
      "has": 1970,
      "hash": 1971,
      "haskell": 1972,
      "hassl": 1973,
      "hast": 1974,
      "hat": 1975,
      "hatr": 1976,
      "haul": 1977,
      "haunt": 1978,
      "hav": 1979,
      "hazard": 1980,
      "hdd": 1981,
      "hdmi": 1982,
      "he": 1983,
      "head": 1984,
      "heal": 1985,
      "health": 1986,
      "heap": 1987,
      "hear": 1988,
      "heart": 1989,
      "heat": 1990,
      "heather": 1991,
      "heav": 1992,
      "heaven": 1993,
      "hedron": 1994,
      "height": 1995,
      "heir": 1996,
      "held": 1997,
      "hello": 1998,
      "help": 1999,
      "hence": 2000,
      "her": 2001,
      "here": 2002,
      "hereby": 2003,
      "hesitat": 2004,
      "heter": 2005,
      "heuristic": 2006,
      "hex": 2007,
      "hi": 2008,
      "hiber": 2009,
      "hid": 2010,
      "hierarch": 2011,
      "high": 2012,
      "hijack": 2013,
      "him": 2014,
      "hinder": 2015,
      "hindranc": 2016,
      "hint": 2017,
      "hir": 2018,
      "his": 2019,
      "hist": 2020,
      "histor": 2021,
      "hit": 2022,
      "hither": 2023,
      "hiv": 2024,
      "hold": 2025,
      "holi": 2026,
      "holistic": 2027,
      "holo": 2028,
      "home": 2029,
      "homo": 2030,
      "homogen": 2031,
      "honest": 2032,
      "honour": 2033,
      "hood": 2034,
      "hook": 2035,
      "hop": 2036,
      "horizon": 2037,
      "horr": 2038,
      "horribl": 2039,
      "horror": 2040,
      "hospit": 2041,
      "host": 2042,
      "hot": 2043,
      "hour": 2044,
      "house": 2045,
      "hover": 2046,
      "how": 2047,
      "howbeit": 2048,
      "html": 2049,
      "http": 2050,
      "hub": 2051,
      "hug": 2052,
      "huge": 2053,
      "human": 2054,
      "humbl": 2055,
      "humour": 2056,
      "hundred": 2057,
      "hung": 2058,
      "hunt": 2059,
      "hurr": 2060,
      "hurt": 2061,
      "husband": 2062,
      "hush": 2063,
      "hybrid": 2064,
      "hype": 2065,
      "hyper": 2066,
      "hypoth": 2067,
      "ic": 2068,
      "icon": 2069,
      "idea": 2070,
      "ideal": 2071,
      "ident": 2072,
      "identif": 2073,
      "idiom": 2074,
      "idol": 2075,
      "ight": 2076,
      "ignit": 2077,
      "ignor": 2078,
      "ill": 2079,
      "illuminat": 2080,
      "illus": 2081,
      "illustrat": 2082,
      "imag": 2083,
      "imagin": 2084,
      "imbue": 2085,
      "imburs": 2086,
      "imitat": 2087,
      "immediat": 2088,
      "immens": 2089,
      "immers": 2090,
      "imminent": 2091,
      "immut": 2092,
      "impact": 2093,
      "impair": 2094,
      "impart": 2095,
      "imped": 2096,
      "impel": 2097,
      "impend": 2098,
      "impersonat": 2099,
      "impertinen": 2100,
      "impet": 2101,
      "impl": 2102,
      "implant": 2103,
      "implement": 2104,
      "implicat": 2105,
      "implicit": 2106,
      "import": 2107,
      "impos": 2108,
      "impossib": 2109,
      "impress": 2110,
      "improv": 2111,
      "impuden": 2112,
      "impuls": 2113,
      "impur": 2114,
      "imput": 2115,
      "in": 2116,
      "inasmuch": 2117,
      "inaugurat": 2118,
      "incent": 2119,
      "incept": 2120,
      "inch": 2121,
      "incident": 2122,
      "incit": 2123,
      "inclin": 2124,
      "includ": 2125,
      "inclus": 2126,
      "incognito": 2127,
      "increas": 2128,
      "incredibl": 2129,
      "increment": 2130,
      "incubat": 2131,
      "incumben": 2132,
      "incur": 2133,
      "indebt": 2134,
      "indeed": 2135,
      "indelibl": 2136,
      "indent": 2137,
      "index": 2138,
      "indic": 2139,
      "indicat": 2140,
      "indign": 2141,
      "individual": 2142,
      "indolen": 2143,
      "indub": 2144,
      "induc": 2145,
      "induct": 2146,
      "indulg": 2147,
      "industr": 2148,
      "inert": 2149,
      "infatuat": 2150,
      "infect": 2151,
      "infer": 2152,
      "inflat": 2153,
      "inflect": 2154,
      "inflict": 2155,
      "info": 2156,
      "inforc": 2157,
      "inform": 2158,
      "infra": 2159,
      "infring": 2160,
      "infus": 2161,
      "ing": 2162,
      "ingen": 2163,
      "ingest": 2164,
      "ingrain": 2165,
      "ingrat": 2166,
      "ingress": 2167,
      "inherent": 2168,
      "inherit": 2169,
      "inhibit": 2170,
      "inimitab": 2171,
      "init": 2172,
      "initializ": 2173,
      "initiat": 2174,
      "inject": 2175,
      "injur": 2176,
      "ink": 2177,
      "inlin": 2178,
      "innate": 2179,
      "inner": 2180,
      "inno": 2181,
      "innoc": 2182,
      "innocent": 2183,
      "innovat": 2184,
      "input": 2185,
      "inquir": 2186,
      "inquisit": 2187,
      "inroad": 2188,
      "insan": 2189,
      "insert": 2190,
      "insight": 2191,
      "insinuat": 2192,
      "insist": 2193,
      "inso": 2194,
      "insolen": 2195,
      "insolv": 2196,
      "inspect": 2197,
      "inspir": 2198,
      "inst": 2199,
      "instabil": 2200,
      "install": 2201,
      "instanc": 2202,
      "instant": 2203,
      "instat": 2204,
      "instead": 2205,
      "instigat": 2206,
      "instinct": 2207,
      "institut": 2208,
      "instruct": 2209,
      "instrument": 2210,
      "insuff": 2211,
      "insult": 2212,
      "insur": 2213,
      "int": 2214,
      "intact": 2215,
      "integer": 2216,
      "integr": 2217,
      "integrat": 2218,
      "intel": 2219,
      "intellect": 2220,
      "intelli": 2221,
      "intelligen": 2222,
      "inten": 2223,
      "intend": 2224,
      "intens": 2225,
      "intent": 2226,
      "inter": 2227,
      "interact": 2228,
      "intercept": 2229,
      "interest": 2230,
      "interfac": 2231,
      "interfer": 2232,
      "interim": 2233,
      "interior": 2234,
      "intermiss": 2235,
      "intermitt": 2236,
      "intern": 2237,
      "international": 2238,
      "internet": 2239,
      "interpolat": 2240,
      "interpret": 2241,
      "interrupt": 2242,
      "interval": 2243,
      "interven": 2244,
      "intim": 2245,
      "into": 2246,
      "intra": 2247,
      "intract": 2248,
      "intric": 2249,
      "intrigu": 2250,
      "intrinsic": 2251,
      "intro": 2252,
      "introduc": 2253,
      "intrusiv": 2254,
      "intuit": 2255,
      "inur": 2256,
      "invad": 2257,
      "invasi": 2258,
      "invent": 2259,
      "invers": 2260,
      "invert": 2261,
      "invest": 2262,
      "investigat": 2263,
      "invigorat": 2264,
      "invit": 2265,
      "invocat": 2266,
      "invoic": 2267,
      "invok": 2268,
      "involv": 2269,
      "ion": 2270,
      "ios": 2271,
      "iris": 2272,
      "irksome": 2273,
      "irrational": 2274,
      "irregular": 2275,
      "irrelevant": 2276,
      "irreplac": 2277,
      "irresist": 2278,
      "irrespect": 2279,
      "irrita": 2280,
      "is": 2281,
      "iso": 2282,
      "isolat": 2283,
      "issu": 2284,
      "istic": 2285,
      "it": 2286,
      "item": 2287,
      "itera": 2288,
      "ity": 2289,
      "jam": 2290,
      "january": 2291,
      "jasmin": 2292,
      "java": 2293,
      "jdk": 2294,
      "jdo": 2295,
      "jealous": 2296,
      "jenkins": 2297,
      "jest": 2298,
      "jet": 2299,
      "jinja": 2300,
      "jira": 2301,
      "jitter": 2302,
      "job": 2303,
      "joic": 2304,
      "join": 2305,
      "jok": 2306,
      "joomla": 2307,
      "jott": 2308,
      "journ": 2309,
      "journal": 2310,
      "joy": 2311,
      "jpeg": 2312,
      "jpg": 2313,
      "jre": 2314,
      "json": 2315,
      "judg": 2316,
      "judic": 2317,
      "juggl": 2318,
      "july": 2319,
      "jump": 2320,
      "junct": 2321,
      "june": 2322,
      "junior": 2323,
      "junk": 2324,
      "jupyter": 2325,
      "just": 2326,
      "justic": 2327,
      "justif": 2328,
      "jut": 2329,
      "juvenat": 2330,
      "jvm": 2331,
      "jwt": 2332,
      "kanban": 2333,
      "kde": 2334,
      "keen": 2335,
      "keep": 2336,
      "kept": 2337,
      "keras": 2338,
      "kernel": 2339,
      "key": 2340,
      "kick": 2341,
      "kill": 2342,
      "kilo": 2343,
      "kind": 2344,
      "king": 2345,
      "kit": 2346,
      "kivy": 2347,
      "knack": 2348,
      "knew": 2349,
      "knock": 2350,
      "know": 2351,
      "knowledg": 2352,
      "kotlin": 2353,
      "kubernet": 2354,
      "lab": 2355,
      "label": 2356,
      "labo": 2357,
      "laborator": 2358,
      "labour": 2359,
      "lace": 2360,
      "lack": 2361,
      "lag": 2362,
      "lagrang": 2363,
      "laid": 2364,
      "lambd": 2365,
      "lan": 2366,
      "lanc": 2367,
      "land": 2368,
      "lang": 2369,
      "languag": 2370,
      "lap": 2371,
      "laps": 2372,
      "laravel": 2373,
      "large": 2374,
      "lash": 2375,
      "last": 2376,
      "latch": 2377,
      "late": 2378,
      "laten": 2379,
      "lateral": 2380,
      "latin": 2381,
      "latitud": 2382,
      "latter": 2383,
      "laugh": 2384,
      "launch": 2385,
      "lavish": 2386,
      "law": 2387,
      "lay": 2388,
      "layer": 2389,
      "layout": 2390,
      "laz": 2391,
      "lda": 2392,
      "lead": 2393,
      "leaf": 2394,
      "leak": 2395,
      "lean": 2396,
      "leap": 2397,
      "learn": 2398,
      "leas": 2399,
      "leav": 2400,
      "lect": 2401,
      "led": 2402,
      "left": 2403,
      "legac": 2404,
      "legal": 2405,
      "legend": 2406,
      "legib": 2407,
      "legitim": 2408,
      "lemma": 2409,
      "lend": 2410,
      "length": 2411,
      "lens": 2412,
      "lent": 2413,
      "less": 2414,
      "lesson": 2415,
      "let": 2416,
      "letter": 2417,
      "level": 2418,
      "leverag": 2419,
      "leverat": 2420,
      "levitat": 2421,
      "levity": 2422,
      "lex": 2423,
      "lexic": 2424,
      "liab": 2425,
      "lib": 2426,
      "liberal": 2427,
      "libert": 2428,
      "libr": 2429,
      "licens": 2430,
      "licentious": 2431,
      "lidar": 2432,
      "lie": 2433,
      "life": 2434,
      "lift": 2435,
      "light": 2436,
      "lik": 2437,
      "limit": 2438,
      "lin": 2439,
      "line": 2440,
      "lingu": 2441,
      "linguist": 2442,
      "link": 2443,
      "linux": 2444,
      "liquidat": 2445,
      "list": 2446,
      "listen": 2447,
      "liter": 2448,
      "litera": 2449,
      "littl": 2450,
      "liv": 2451,
      "llama": 2452,
      "llm": 2453,
      "llvm": 2454,
      "load": 2455,
      "local": 2456,
      "locat": 2457,
      "lock": 2458,
      "lodg": 2459,
      "log": 2460,
      "logarithm": 2461,
      "logic": 2462,
      "logistic": 2463,
      "logit": 2464,
      "lonel": 2465,
      "long": 2466,
      "look": 2467,
      "loom": 2468,
      "loop": 2469,
      "loose": 2470,
      "los": 2471,
      "loud": 2472,
      "lov": 2473,
      "low": 2474,
      "loyal": 2475,
      "lstm": 2476,
      "luck": 2477,
      "lumin": 2478,
      "lurk": 2479,
      "luxur": 2480,
      "ly": 2481,
      "mac": 2482,
      "machin": 2483,
      "macro": 2484,
      "mad": 2485,
      "made": 2486,
      "magic": 2487,
      "magnet": 2488,
      "magnif": 2489,
      "magnitud": 2490,
      "mail": 2491,
      "main": 2492,
      "mainfram": 2493,
      "maintain": 2494,
      "mainten": 2495,
      "majest": 2496,
      "major": 2497,
      "mak": 2498,
      "male": 2499,
      "malic": 2500,
      "mama": 2501,
      "man": 2502,
      "manag": 2503,
      "mandat": 2504,
      "maneuver": 2505,
      "manifest": 2506,
      "manipul": 2507,
      "manual": 2508,
      "manufactur": 2509,
      "many": 2510,
      "map": 2511,
      "march": 2512,
      "margin": 2513,
      "marginal": 2514,
      "mark": 2515,
      "market": 2516,
      "marr": 2517,
      "marriag": 2518,
      "marshall": 2519,
      "mash": 2520,
      "mask": 2521,
      "mass": 2522,
      "master": 2523,
      "mat": 2524,
      "match": 2525,
      "material": 2526,
      "math": 2527,
      "matric": 2528,
      "matrimon": 2529,
      "matrix": 2530,
      "matter": 2531,
      "matur": 2532,
      "max": 2533,
      "may": 2534,
      "meal": 2535,
      "mean": 2536,
      "measur": 2537,
      "mechan": 2538,
      "mechanic": 2539,
      "meddl": 2540,
      "medi": 2541,
      "media": 2542,
      "medic": 2543,
      "meditat": 2544,
      "meet": 2545,
      "mega": 2546,
      "melanchol": 2547,
      "meld": 2548,
      "melod": 2549,
      "mem": 2550,
      "member": 2551,
      "memor": 2552,
      "men": 2553,
      "ment": 2554,
      "mention": 2555,
      "mentor": 2556,
      "menu": 2557,
      "mercant": 2558,
      "merchan": 2559,
      "mere": 2560,
      "merg": 2561,
      "merit": 2562,
      "mesh": 2563,
      "mess": 2564,
      "messag": 2565,
      "met": 2566,
      "meta": 2567,
      "metal": 2568,
      "metaphor": 2569,
      "meter": 2570,
      "method": 2571,
      "metr": 2572,
      "micro": 2573,
      "mid": 2574,
      "middl": 2575,
      "might": 2576,
      "migrat": 2577,
      "mild": 2578,
      "mile": 2579,
      "milli": 2580,
      "million": 2581,
      "mimic": 2582,
      "min": 2583,
      "mince": 2584,
      "mind": 2585,
      "mine": 2586,
      "mini": 2587,
      "miniatur": 2588,
      "minif": 2589,
      "minor": 2590,
      "minus": 2591,
      "minute": 2592,
      "mirror": 2593,
      "mirth": 2594,
      "mis": 2595,
      "miscellaneous": 2596,
      "miser": 2597,
      "miss": 2598,
      "mission": 2599,
      "misspel": 2600,
      "misspen": 2601,
      "mistake": 2602,
      "mitigat": 2603,
      "mix": 2604,
      "mixture": 2605,
      "mobil": 2606,
      "mock": 2607,
      "mod": 2608,
      "modal": 2609,
      "model": 2610,
      "modem": 2611,
      "moderat": 2612,
      "modern": 2613,
      "modest": 2614,
      "modif": 2615,
      "modul": 2616,
      "moment": 2617,
      "mon": 2618,
      "mone": 2619,
      "money": 2620,
      "mongo": 2621,
      "monitor": 2622,
      "mono": 2623,
      "monolith": 2624,
      "monoton": 2625,
      "month": 2626,
      "moon": 2627,
      "moor": 2628,
      "moral": 2629,
      "more": 2630,
      "morning": 2631,
      "morph": 2632,
      "morrow": 2633,
      "mortif": 2634,
      "most": 2635,
      "mother": 2636,
      "motion": 2637,
      "motiv": 2638,
      "motivat": 2639,
      "motor": 2640,
      "mount": 2641,
      "mountain": 2642,
      "mouse": 2643,
      "mov": 2644,
      "much": 2645,
      "mull": 2646,
      "multi": 2647,
      "multipl": 2648,
      "multiplatform": 2649,
      "multiplay": 2650,
      "multiple": 2651,
      "multiplex": 2652,
      "multiplicat": 2653,
      "murmur": 2654,
      "mus": 2655,
      "music": 2656,
      "must": 2657,
      "mut": 2658,
      "mutab": 2659,
      "mutat": 2660,
      "mutex": 2661,
      "mutter": 2662,
      "mutual": 2663,
      "mvc": 2664,
      "mvp": 2665,
      "myster": 2666,
      "mystif": 2667,
      "nab": 2668,
      "nail": 2669,
      "naive": 2670,
      "nam": 2671,
      "nano": 2672,
      "narrat": 2673,
      "narrow": 2674,
      "nascen": 2675,
      "nation": 2676,
      "nativ": 2677,
      "natur": 2678,
      "navi": 2679,
      "navigat": 2680,
      "near": 2681,
      "neat": 2682,
      "necess": 2683,
      "neck": 2684,
      "need": 2685,
      "negat": 2686,
      "negativ": 2687,
      "neglect": 2688,
      "neglig": 2689,
      "negotiat": 2690,
      "neighbo": 2691,
      "neither": 2692,
      "nerv": 2693,
      "ness": 2694,
      "net": 2695,
      "network": 2696,
      "neur": 2697,
      "neutral": 2698,
      "never": 2699,
      "new": 2700,
      "newb": 2701,
      "next": 2702,
      "ng": 2703,
      "nice": 2704,
      "niche": 2705,
      "nifty": 2706,
      "nigh": 2707,
      "night": 2708,
      "nin": 2709,
      "nine": 2710,
      "nlp": 2711,
      "nltk": 2712,
      "no": 2713,
      "nod": 2714,
      "node": 2715,
      "nois": 2716,
      "nom": 2717,
      "nomi": 2718,
      "nominal": 2719,
      "nominat": 2720,
      "non": 2721,
      "noname": 2722,
      "none": 2723,
      "nonempt": 2724,
      "nonexisten": 2725,
      "nonsens": 2726,
      "noone": 2727,
      "nope": 2728,
      "nor": 2729,
      "norm": 2730,
      "normaliz": 2731,
      "north": 2732,
      "not": 2733,
      "notat": 2734,
      "note": 2735,
      "nothing": 2736,
      "notic": 2737,
      "notif": 2738,
      "notion": 2739,
      "notorious": 2740,
      "nought": 2741,
      "noun": 2742,
      "nourish": 2743,
      "novel": 2744,
      "november": 2745,
      "novic": 2746,
      "novitiat": 2747,
      "now": 2748,
      "nuance": 2749,
      "null": 2750,
      "num": 2751,
      "numb": 2752,
      "numer": 2753,
      "nurs": 2754,
      "nut": 2755,
      "oath": 2756,
      "obedien": 2757,
      "obey": 2758,
      "obfuscat": 2759,
      "obj": 2760,
      "object": 2761,
      "oblig": 2762,
      "obliquity": 2763,
      "obliterat": 2764,
      "obscur": 2765,
      "observ": 2766,
      "obsess": 2767,
      "obsolet": 2768,
      "obstacl": 2769,
      "obstinate": 2770,
      "obstruct": 2771,
      "obtain": 2772,
      "obtrud": 2773,
      "obviat": 2774,
      "obvious": 2775,
      "occasion": 2776,
      "occlud": 2777,
      "occlusion": 2778,
      "occup": 2779,
      "occur": 2780,
      "ocr": 2781,
      "octa": 2782,
      "october": 2783,
      "odd": 2784,
      "odious": 2785,
      "oem": 2786,
      "of": 2787,
      "off": 2788,
      "offenc": 2789,
      "offend": 2790,
      "offens": 2791,
      "offer": 2792,
      "offic": 2793,
      "official": 2794,
      "offset": 2795,
      "often": 2796,
      "ok": 2797,
      "okay": 2798,
      "old": 2799,
      "omit": 2800,
      "on": 2801,
      "once": 2802,
      "one": 2803,
      "onerous": 2804,
      "only": 2805,
      "opaci": 2806,
      "opaque": 2807,
      "open": 2808,
      "oper": 2809,
      "operand": 2810,
      "operat": 2811,
      "opinion": 2812,
      "opponent": 2813,
      "opportun": 2814,
      "oppos": 2815,
      "opposs": 2816,
      "oppress": 2817,
      "ops": 2818,
      "opt": 2819,
      "optic": 2820,
      "optim": 2821,
      "optimal": 2822,
      "optimis": 2823,
      "optimiz": 2824,
      "option": 2825,
      "or": 2826,
      "oracle": 2827,
      "orchestrat": 2828,
      "order": 2829,
      "ordinal": 2830,
      "ordinar": 2831,
      "ordinat": 2832,
      "organic": 2833,
      "organiz": 2834,
      "orient": 2835,
      "origin": 2836,
      "ornament": 2837,
      "ortho": 2838,
      "oscill": 2839,
      "oscillat": 2840,
      "osten": 2841,
      "other": 2842,
      "ought": 2843,
      "our": 2844,
      "oust": 2845,
      "out": 2846,
      "outage": 2847,
      "outer": 2848,
      "outlast": 2849,
      "output": 2850,
      "outrag": 2851,
      "over": 2852,
      "overlap": 2853,
      "overrid": 2854,
      "ow": 2855,
      "own": 2856,
      "pac": 2857,
      "pack": 2858,
      "packag": 2859,
      "pad": 2860,
      "pag": 2861,
      "paid": 2862,
      "pain": 2863,
      "paint": 2864,
      "pair": 2865,
      "pal": 2866,
      "pale": 2867,
      "palette": 2868,
      "palpab": 2869,
      "panel": 2870,
      "pang": 2871,
      "paper": 2872,
      "para": 2873,
      "parabol": 2874,
      "parad": 2875,
      "paradigm": 2876,
      "paradox": 2877,
      "paragraph": 2878,
      "parallax": 2879,
      "parallel": 2880,
      "param": 2881,
      "parcel": 2882,
      "pardon": 2883,
      "parent": 2884,
      "parity": 2885,
      "park": 2886,
      "pars": 2887,
      "part": 2888,
      "partak": 2889,
      "particip": 2890,
      "particl": 2891,
      "particular": 2892,
      "partner": 2893,
      "pass": 2894,
      "passag": 2895,
      "passiv": 2896,
      "past": 2897,
      "patch": 2898,
      "patent": 2899,
      "path": 2900,
      "patholog": 2901,
      "patien": 2902,
      "patron": 2903,
      "patronag": 2904,
      "pattern": 2905,
      "paus": 2906,
      "pav": 2907,
      "pay": 2908,
      "pdf": 2909,
      "pdo": 2910,
      "peac": 2911,
      "peak": 2912,
      "peculiar": 2913,
      "pedia": 2914,
      "peek": 2915,
      "peep": 2916,
      "peer": 2917,
      "pen": 2918,
      "penal": 2919,
      "pencil": 2920,
      "pend": 2921,
      "penetrat": 2922,
      "pens": 2923,
      "pent": 2924,
      "peopl": 2925,
      "per": 2926,
      "perceiv": 2927,
      "percent": 2928,
      "percept": 2929,
      "perchance": 2930,
      "perennial": 2931,
      "perfect": 2932,
      "perform": 2933,
      "perhaps": 2934,
      "period": 2935,
      "peripher": 2936,
      "perl": 2937,
      "permanent": 2938,
      "permeat": 2939,
      "permiss": 2940,
      "permit": 2941,
      "permut": 2942,
      "perpendicular": 2943,
      "perpetua": 2944,
      "perplex": 2945,
      "persever": 2946,
      "persist": 2947,
      "person": 2948,
      "perspectiv": 2949,
      "persuad": 2950,
      "persuas": 2951,
      "pertain": 2952,
      "pertin": 2953,
      "perturb": 2954,
      "perus": 2955,
      "pervad": 2956,
      "pervas": 2957,
      "pessimi": 2958,
      "peta": 2959,
      "phase": 2960,
      "phenomen": 2961,
      "philosoph": 2962,
      "phish": 2963,
      "phone": 2964,
      "phonet": 2965,
      "phono": 2966,
      "photo": 2967,
      "php": 2968,
      "phras": 2969,
      "physic": 2970,
      "pick": 2971,
      "pict": 2972,
      "pictur": 2973,
      "piece": 2974,
      "pile": 2975,
      "pilfer": 2976,
      "pilot": 2977,
      "pin": 2978,
      "ping": 2979,
      "pioneer": 2980,
      "pip": 2981,
      "pipe": 2982,
      "pipeline": 2983,
      "pit": 2984,
      "pitch": 2985,
      "pivot": 2986,
      "pix": 2987,
      "pixel": 2988,
      "plac": 2989,
      "plagued": 2990,
      "plain": 2991,
      "plan": 2992,
      "planar": 2993,
      "plane": 2994,
      "planet": 2995,
      "plast": 2996,
      "platform": 2997,
      "plausib": 2998,
      "play": 2999,
      "plead": 3000,
      "pleas": 3001,
      "pleasure": 3002,
      "pledg": 3003,
      "plent": 3004,
      "plex": 3005,
      "plot": 3006,
      "plug": 3007,
      "plung": 3008,
      "plural": 3009,
      "plus": 3010,
      "poach": 3011,
      "pocket": 3012,
      "pod": 3013,
      "podcast": 3014,
      "poem": 3015,
      "point": 3016,
      "polar": 3017,
      "polic": 3018,
      "polish": 3019,
      "polit": 3020,
      "poll": 3021,
      "poly": 3022,
      "ponder": 3023,
      "pool": 3024,
      "poor": 3025,
      "pop": 3026,
      "popular": 3027,
      "populat": 3028,
      "port": 3029,
      "portal": 3030,
      "portion": 3031,
      "pos": 3032,
      "posit": 3033,
      "positiv": 3034,
      "possess": 3035,
      "possib": 3036,
      "post": 3037,
      "postgres": 3038,
      "postpon": 3039,
      "potent": 3040,
      "pour": 3041,
      "pow": 3042,
      "power": 3043,
      "practi": 3044,
      "pragm": 3045,
      "prais": 3046,
      "pray": 3047,
      "pre": 3048,
      "preach": 3049,
      "preambl": 3050,
      "preced": 3051,
      "precedent": 3052,
      "precious": 3053,
      "precipit": 3054,
      "precis": 3055,
      "preclud": 3056,
      "predat": 3057,
      "predecess": 3058,
      "predica": 3059,
      "predict": 3060,
      "prefer": 3061,
      "prejudic": 3062,
      "preliminar": 3063,
      "premier": 3064,
      "premis": 3065,
      "premium": 3066,
      "preneur": 3067,
      "prepar": 3068,
      "prepend": 3069,
      "present": 3070,
      "preserv": 3071,
      "preset": 3072,
      "presid": 3073,
      "press": 3074,
      "pressur": 3075,
      "presum": 3076,
      "pretenc": 3077,
      "pretend": 3078,
      "pretens": 3079,
      "prett": 3080,
      "prevail": 3081,
      "prevent": 3082,
      "previous": 3083,
      "pric": 3084,
      "pride": 3085,
      "prim": 3086,
      "primar": 3087,
      "primitiv": 3088,
      "princip": 3089,
      "print": 3090,
      "prior": 3091,
      "privat": 3092,
      "privileg": 3093,
      "priz": 3094,
      "prize": 3095,
      "pro": 3096,
      "prob": 3097,
      "probab": 3098,
      "problem": 3099,
      "procedur": 3100,
      "proceed": 3101,
      "process": 3102,
      "processor": 3103,
      "procrastinat": 3104,
      "procur": 3105,
      "prodd": 3106,
      "produc": 3107,
      "product": 3108,
      "profess": 3109,
      "profession": 3110,
      "profic": 3111,
      "profil": 3112,
      "profit": 3113,
      "program": 3114,
      "progress": 3115,
      "prohibit": 3116,
      "project": 3117,
      "proliferat": 3118,
      "prolog": 3119,
      "prolong": 3120,
      "prominen": 3121,
      "promis": 3122,
      "promot": 3123,
      "prompt": 3124,
      "pron": 3125,
      "pronoun": 3126,
      "pronunc": 3127,
      "proof": 3128,
      "prop": 3129,
      "propagat": 3130,
      "propensit": 3131,
      "proper": 3132,
      "prophe": 3133,
      "proportion": 3134,
      "propos": 3135,
      "propriet": 3136,
      "pros": 3137,
      "prospect": 3138,
      "prosper": 3139,
      "protect": 3140,
      "protest": 3141,
      "proto": 3142,
      "protocol": 3143,
      "prototyp": 3144,
      "protract": 3145,
      "protrud": 3146,
      "proud": 3147,
      "prov": 3148,
      "provid": 3149,
      "provis": 3150,
      "provocation": 3151,
      "provok": 3152,
      "prox": 3153,
      "proxim": 3154,
      "pruden": 3155,
      "prun": 3156,
      "pseudo": 3157,
      "publ": 3158,
      "public": 3159,
      "publish": 3160,
      "puff": 3161,
      "pull": 3162,
      "puls": 3163,
      "pump": 3164,
      "punct": 3165,
      "punish": 3166,
      "punk": 3167,
      "pupil": 3168,
      "pur": 3169,
      "purchas": 3170,
      "purg": 3171,
      "purpos": 3172,
      "pursu": 3173,
      "push": 3174,
      "put": 3175,
      "puzzl": 3176,
      "py": 3177,
      "pyramid": 3178,
      "python": 3179,
      "qa": 3180,
      "quad": 3181,
      "quaint": 3182,
      "qualif": 3183,
      "qualit": 3184,
      "quant": 3185,
      "quantif": 3186,
      "quarrel": 3187,
      "quart": 3188,
      "quarter": 3189,
      "quaternion": 3190,
      "que": 3191,
      "queen": 3192,
      "queer": 3193,
      "quer": 3194,
      "quest": 3195,
      "question": 3196,
      "queu": 3197,
      "quick": 3198,
      "quiet": 3199,
      "quint": 3200,
      "quir": 3201,
      "quit": 3202,
      "quiver": 3203,
      "quiz": 3204,
      "quot": 3205,
      "rac": 3206,
      "rad": 3207,
      "radiat": 3208,
      "radic": 3209,
      "radio": 3210,
      "radius": 3211,
      "rag": 3212,
      "raid": 3213,
      "rail": 3214,
      "rain": 3215,
      "rais": 3216,
      "rall": 3217,
      "ram": 3218,
      "rambl": 3219,
      "ramp": 3220,
      "ran": 3221,
      "rand": 3222,
      "random": 3223,
      "rang": 3224,
      "rank": 3225,
      "ransom": 3226,
      "rapid": 3227,
      "raptur": 3228,
      "rar": 3229,
      "raspberry": 3230,
      "raster": 3231,
      "rat": 3232,
      "rather": 3233,
      "ratio": 3234,
      "rational": 3235,
      "rav": 3236,
      "ravel": 3237,
      "raw": 3238,
      "ray": 3239,
      "re": 3240,
      "reach": 3241,
      "react": 3242,
      "read": 3243,
      "readapt": 3244,
      "ready": 3245,
      "real": 3246,
      "realiz": 3247,
      "realm": 3248,
      "reanimat": 3249,
      "rear": 3250,
      "rearrang": 3251,
      "reason": 3252,
      "rebut": 3253,
      "recap": 3254,
      "recaptur": 3255,
      "receipt": 3256,
      "receiv": 3257,
      "recent": 3258,
      "recept": 3259,
      "recipe": 3260,
      "recipient": 3261,
      "reciproc": 3262,
      "recit": 3263,
      "reckless": 3264,
      "reckon": 3265,
      "recogni": 3266,
      "recommend": 3267,
      "reconcil": 3268,
      "record": 3269,
      "recover": 3270,
      "recruit": 3271,
      "rectang": 3272,
      "rectif": 3273,
      "recur": 3274,
      "recurren": 3275,
      "recurs": 3276,
      "redact": 3277,
      "redis": 3278,
      "rediscover": 3279,
      "redistribut": 3280,
      "reduc": 3281,
      "redundan": 3282,
      "redux": 3283,
      "ref": 3284,
      "refactor": 3285,
      "refer": 3286,
      "refetch": 3287,
      "refil": 3288,
      "refill": 3289,
      "refin": 3290,
      "refit": 3291,
      "reflect": 3292,
      "reflex": 3293,
      "refocus": 3294,
      "reform": 3295,
      "reformat": 3296,
      "reformulat": 3297,
      "refract": 3298,
      "refrain": 3299,
      "refresh": 3300,
      "refund": 3301,
      "refurbish": 3302,
      "refus": 3303,
      "refut": 3304,
      "regain": 3305,
      "regard": 3306,
      "regex": 3307,
      "region": 3308,
      "regist": 3309,
      "regress": 3310,
      "regret": 3311,
      "regular": 3312,
      "regulat": 3313,
      "reif": 3314,
      "reign": 3315,
      "reject": 3316,
      "relat": 3317,
      "relax": 3318,
      "releas": 3319,
      "relegat": 3320,
      "relent": 3321,
      "relevan": 3322,
      "reliab": 3323,
      "relian": 3324,
      "reliev": 3325,
      "relinquish": 3326,
      "relish": 3327,
      "reluctan": 3328,
      "rely": 3329,
      "remain": 3330,
      "remed": 3331,
      "rememb": 3332,
      "remembr": 3333,
      "remind": 3334,
      "remiss": 3335,
      "remonstra": 3336,
      "remot": 3337,
      "remov": 3338,
      "render": 3339,
      "renounc": 3340,
      "renovat": 3341,
      "renown": 3342,
      "rent": 3343,
      "repair": 3344,
      "repeat": 3345,
      "repent": 3346,
      "repetit": 3347,
      "repl": 3348,
      "repla": 3349,
      "replac": 3350,
      "replenish": 3351,
      "replet": 3352,
      "replic": 3353,
      "report": 3354,
      "repositor": 3355,
      "reprehen": 3356,
      "represent": 3357,
      "reproach": 3358,
      "reput": 3359,
      "reputa": 3360,
      "reque": 3361,
      "request": 3362,
      "requi": 3363,
      "requir": 3364,
      "requisit": 3365,
      "requit": 3366,
      "rescind": 3367,
      "rescu": 3368,
      "reserv": 3369,
      "reset": 3370,
      "resid": 3371,
      "resident": 3372,
      "resilien": 3373,
      "resist": 3374,
      "resolut": 3375,
      "resolv": 3376,
      "resonat": 3377,
      "respect": 3378,
      "respon": 3379,
      "rest": 3380,
      "restart": 3381,
      "restat": 3382,
      "restaurant": 3383,
      "restor": 3384,
      "restrain": 3385,
      "restrict": 3386,
      "restruct": 3387,
      "result": 3388,
      "resum": 3389,
      "resurrect": 3390,
      "retail": 3391,
      "retain": 3392,
      "retent": 3393,
      "retir": 3394,
      "retort": 3395,
      "retract": 3396,
      "retriev": 3397,
      "retro": 3398,
      "return": 3399,
      "revamp": 3400,
      "revanc": 3401,
      "reveal": 3402,
      "revel": 3403,
      "revenue": 3404,
      "revers": 3405,
      "revert": 3406,
      "review": 3407,
      "revis": 3408,
      "revisit": 3409,
      "reviv": 3410,
      "revocat": 3411,
      "revok": 3412,
      "revolt": 3413,
      "revolut": 3414,
      "revolv": 3415,
      "reward": 3416,
      "rgb": 3417,
      "rich": 3418,
      "rid": 3419,
      "ridd": 3420,
      "ridicul": 3421,
      "right": 3422,
      "rigid": 3423,
      "rigorous": 3424,
      "rimm": 3425,
      "ring": 3426,
      "rip": 3427,
      "ris": 3428,
      "risk": 3429,
      "rival": 3430,
      "river": 3431,
      "rnn": 3432,
      "road": 3433,
      "roam": 3434,
      "roast": 3435,
      "robo": 3436,
      "robot": 3437,
      "robust": 3438,
      "rock": 3439,
      "roi": 3440,
      "rol": 3441,
      "role": 3442,
      "roll": 3443,
      "roman": 3444,
      "room": 3445,
      "root": 3446,
      "rose": 3447,
      "rotat": 3448,
      "rough": 3449,
      "round": 3450,
      "rous": 3451,
      "rout": 3452,
      "routine": 3453,
      "row": 3454,
      "rpc": 3455,
      "rpg": 3456,
      "rsa": 3457,
      "rss": 3458,
      "rtti": 3459,
      "rubber": 3460,
      "rubric": 3461,
      "ruby": 3462,
      "rude": 3463,
      "rudimen": 3464,
      "rue": 3465,
      "rugged": 3466,
      "ruin": 3467,
      "rul": 3468,
      "ruminat": 3469,
      "rumor": 3470,
      "rumour": 3471,
      "run": 3472,
      "rush": 3473,
      "rust": 3474,
      "saas": 3475,
      "sad": 3476,
      "saf": 3477,
      "safar": 3478,
      "sagac": 3479,
      "said": 3480,
      "sail": 3481,
      "sal": 3482,
      "salar": 3483,
      "same": 3484,
      "sampl": 3485,
      "samsung": 3486,
      "sang": 3487,
      "sanit": 3488,
      "sank": 3489,
      "satellit": 3490,
      "satisf": 3491,
      "satur": 3492,
      "saturat": 3493,
      "sauc": 3494,
      "saunter": 3495,
      "sav": 3496,
      "saw": 3497,
      "sawed": 3498,
      "sawn": 3499,
      "say": 3500,
      "scal": 3501,
      "scalar": 3502,
      "scan": 3503,
      "scant": 3504,
      "scap": 3505,
      "scar": 3506,
      "scatter": 3507,
      "scen": 3508,
      "scenar": 3509,
      "scept": 3510,
      "schedul": 3511,
      "schem": 3512,
      "scholar": 3513,
      "school": 3514,
      "sci": 3515,
      "scien": 3516,
      "scold": 3517,
      "scop": 3518,
      "scor": 3519,
      "scout": 3520,
      "scrab": 3521,
      "scrambl": 3522,
      "scrap": 3523,
      "scratch": 3524,
      "scream": 3525,
      "screen": 3526,
      "screw": 3527,
      "scrib": 3528,
      "script": 3529,
      "scroll": 3530,
      "scrum": 3531,
      "scrup": 3532,
      "scrut": 3533,
      "scrutiniz": 3534,
      "sdk": 3535,
      "sea": 3536,
      "seal": 3537,
      "seam": 3538,
      "search": 3539,
      "season": 3540,
      "seat": 3541,
      "second": 3542,
      "secret": 3543,
      "sect": 3544,
      "secur": 3545,
      "sedat": 3546,
      "seduc": 3547,
      "see": 3548,
      "seed": 3549,
      "seek": 3550,
      "seem": 3551,
      "seen": 3552,
      "sees": 3553,
      "segment": 3554,
      "segregat": 3555,
      "segue": 3556,
      "seiz": 3557,
      "seldom": 3558,
      "select": 3559,
      "self": 3560,
      "sell": 3561,
      "selv": 3562,
      "semantic": 3563,
      "semaphor": 3564,
      "sembl": 3565,
      "semi": 3566,
      "seminar": 3567,
      "seminat": 3568,
      "send": 3569,
      "senior": 3570,
      "sens": 3571,
      "sensation": 3572,
      "sensitiv": 3573,
      "sensor": 3574,
      "sent": 3575,
      "sentenc": 3576,
      "sentiment": 3577,
      "seo": 3578,
      "separ": 3579,
      "september": 3580,
      "seque": 3581,
      "serial": 3582,
      "serializ": 3583,
      "series": 3584,
      "serious": 3585,
      "serv": 3586,
      "server": 3587,
      "servic": 3588,
      "session": 3589,
      "set": 3590,
      "settl": 3591,
      "setup": 3592,
      "seven": 3593,
      "sever": 3594,
      "several": 3595,
      "sex": 3596,
      "sgd": 3597,
      "shad": 3598,
      "shadow": 3599,
      "shak": 3600,
      "shall": 3601,
      "shallow": 3602,
      "sham": 3603,
      "shan": 3604,
      "shap": 3605,
      "shar": 3606,
      "shard": 3607,
      "sharp": 3608,
      "she": 3609,
      "shed": 3610,
      "sheet": 3611,
      "shell": 3612,
      "shelter": 3613,
      "shift": 3614,
      "shin": 3615,
      "ship": 3616,
      "shock": 3617,
      "shoe": 3618,
      "shone": 3619,
      "shook": 3620,
      "shoot": 3621,
      "shop": 3622,
      "short": 3623,
      "shot": 3624,
      "should": 3625,
      "shout": 3626,
      "show": 3627,
      "shrank": 3628,
      "shrink": 3629,
      "shrunk": 3630,
      "shuffl": 3631,
      "shut": 3632,
      "shy": 3633,
      "sick": 3634,
      "side": 3635,
      "sigh": 3636,
      "sight": 3637,
      "sigmoid": 3638,
      "sign": 3639,
      "signal": 3640,
      "signatur": 3641,
      "signif": 3642,
      "silen": 3643,
      "silhouett": 3644,
      "silicon": 3645,
      "sill": 3646,
      "silver": 3647,
      "similar": 3648,
      "simpl": 3649,
      "simplic": 3650,
      "simplif": 3651,
      "simulat": 3652,
      "simultaneous": 3653,
      "since": 3654,
      "sincere": 3655,
      "sing": 3656,
      "singl": 3657,
      "singular": 3658,
      "sink": 3659,
      "sinop": 3660,
      "sinus": 3661,
      "sion": 3662,
      "sister": 3663,
      "sit": 3664,
      "site": 3665,
      "situat": 3666,
      "six": 3667,
      "siz": 3668,
      "size": 3669,
      "skeleton": 3670,
      "skept": 3671,
      "sketch": 3672,
      "skew": 3673,
      "skill": 3674,
      "skip": 3675,
      "sky": 3676,
      "skype": 3677,
      "slack": 3678,
      "slain": 3679,
      "slam": 3680,
      "slang": 3681,
      "slash": 3682,
      "slav": 3683,
      "slay": 3684,
      "sleek": 3685,
      "sleep": 3686,
      "sleet": 3687,
      "slept": 3688,
      "slew": 3689,
      "slic": 3690,
      "slid": 3691,
      "slight": 3692,
      "slim": 3693,
      "sling": 3694,
      "slip": 3695,
      "slit": 3696,
      "slither": 3697,
      "slop": 3698,
      "slot": 3699,
      "slow": 3700,
      "slugg": 3701,
      "slumber": 3702,
      "slung": 3703,
      "sly": 3704,
      "smack": 3705,
      "small": 3706,
      "smart": 3707,
      "smash": 3708,
      "smell": 3709,
      "smil": 3710,
      "smit": 3711,
      "smok": 3712,
      "smooth": 3713,
      "snap": 3714,
      "sneak": 3715,
      "sneer": 3716,
      "sniff": 3717,
      "snip": 3718,
      "snow": 3719,
      "so": 3720,
      "soap": 3721,
      "soar": 3722,
      "sober": 3723,
      "social": 3724,
      "sociat": 3725,
      "societ": 3726,
      "sock": 3727,
      "socket": 3728,
      "soft": 3729,
      "software": 3730,
      "solace": 3731,
      "sold": 3732,
      "solely": 3733,
      "solemn": 3734,
      "solicit": 3735,
      "solid": 3736,
      "solitar": 3737,
      "solution": 3738,
      "solv": 3739,
      "some": 3740,
      "son": 3741,
      "song": 3742,
      "soon": 3743,
      "sooth": 3744,
      "sophisticat": 3745,
      "sorrow": 3746,
      "sorry": 3747,
      "sort": 3748,
      "sought": 3749,
      "soul": 3750,
      "sound": 3751,
      "soup": 3752,
      "sourc": 3753,
      "south": 3754,
      "spac": 3755,
      "space": 3756,
      "spam": 3757,
      "span": 3758,
      "spar": 3759,
      "spark": 3760,
      "spars": 3761,
      "spatial": 3762,
      "spawn": 3763,
      "speak": 3764,
      "spec": 3765,
      "speci": 3766,
      "special": 3767,
      "specializ": 3768,
      "specif": 3769,
      "spect": 3770,
      "spectr": 3771,
      "speculat": 3772,
      "speech": 3773,
      "speed": 3774,
      "spel": 3775,
      "spen": 3776,
      "spend": 3777,
      "spher": 3778,
      "spill": 3779,
      "spin": 3780,
      "spirit": 3781,
      "spit": 3782,
      "splash": 3783,
      "splay": 3784,
      "splend": 3785,
      "splic": 3786,
      "splin": 3787,
      "split": 3788,
      "spoil": 3789,
      "spoke": 3790,
      "sponsor": 3791,
      "spontane": 3792,
      "spoof": 3793,
      "spool": 3794,
      "spoon": 3795,
      "sport": 3796,
      "spot": 3797,
      "sprang": 3798,
      "spread": 3799,
      "spring": 3800,
      "sprinkl": 3801,
      "sprint": 3802,
      "sprung": 3803,
      "spurious": 3804,
      "spurn": 3805,
      "spy": 3806,
      "spyder": 3807,
      "sql": 3808,
      "squar": 3809,
      "squeez": 3810,
      "stab": 3811,
      "stabil": 3812,
      "stabl": 3813,
      "stack": 3814,
      "staff": 3815,
      "stag": 3816,
      "stagnat": 3817,
      "stair": 3818,
      "stak": 3819,
      "stakeholder": 3820,
      "stale": 3821,
      "stall": 3822,
      "stamp": 3823,
      "stand": 3824,
      "standard": 3825,
      "standby": 3826,
      "star": 3827,
      "stare": 3828,
      "start": 3829,
      "startup": 3830,
      "stash": 3831,
      "stat": 3832,
      "static": 3833,
      "station": 3834,
      "stationar": 3835,
      "statistic": 3836,
      "status": 3837,
      "stay": 3838,
      "std": 3839,
      "stead": 3840,
      "steal": 3841,
      "steam": 3842,
      "steep": 3843,
      "steer": 3844,
      "stemm": 3845,
      "stencil": 3846,
      "step": 3847,
      "stereo": 3848,
      "stick": 3849,
      "still": 3850,
      "stimul": 3851,
      "stipulat": 3852,
      "stir": 3853,
      "stochast": 3854,
      "stock": 3855,
      "stoke": 3856,
      "stole": 3857,
      "ston": 3858,
      "stood": 3859,
      "stoop": 3860,
      "stop": 3861,
      "stor": 3862,
      "storag": 3863,
      "storm": 3864,
      "story": 3865,
      "stout": 3866,
      "straggl": 3867,
      "straight": 3868,
      "strain": 3869,
      "straiv": 3870,
      "strang": 3871,
      "strap": 3872,
      "strat": 3873,
      "strateg": 3874,
      "stratif": 3875,
      "stray": 3876,
      "stream": 3877,
      "street": 3878,
      "stren": 3879,
      "strength": 3880,
      "stress": 3881,
      "stretch": 3882,
      "strick": 3883,
      "strict": 3884,
      "strid": 3885,
      "strik": 3886,
      "string": 3887,
      "strip": 3888,
      "striv": 3889,
      "strode": 3890,
      "strok": 3891,
      "strong": 3892,
      "strov": 3893,
      "struck": 3894,
      "struct": 3895,
      "struggl": 3896,
      "stub": 3897,
      "stuck": 3898,
      "stud": 3899,
      "student": 3900,
      "studio": 3901,
      "stuff": 3902,
      "stumbl": 3903,
      "stump": 3904,
      "stun": 3905,
      "stupid": 3906,
      "styl": 3907,
      "sub": 3908,
      "subdu": 3909,
      "subject": 3910,
      "submiss": 3911,
      "submit": 3912,
      "subscrib": 3913,
      "subsid": 3914,
      "subsist": 3915,
      "substan": 3916,
      "substantiat": 3917,
      "substitut": 3918,
      "subtl": 3919,
      "subtract": 3920,
      "succe": 3921,
      "succinct": 3922,
      "such": 3923,
      "sudden": 3924,
      "sue": 3925,
      "suffer": 3926,
      "suffic": 3927,
      "suffix": 3928,
      "suggest": 3929,
      "suit": 3930,
      "sull": 3931,
      "summ": 3932,
      "summa": 3933,
      "summer": 3934,
      "summit": 3935,
      "summon": 3936,
      "sun": 3937,
      "sung": 3938,
      "sunk": 3939,
      "super": 3940,
      "supervis": 3941,
      "supper": 3942,
      "suppl": 3943,
      "supplant": 3944,
      "supplement": 3945,
      "support": 3946,
      "suppos": 3947,
      "suppress": 3948,
      "suprem": 3949,
      "sure": 3950,
      "surf": 3951,
      "surfac": 3952,
      "surg": 3953,
      "surmis": 3954,
      "surpass": 3955,
      "surpris": 3956,
      "surrender": 3957,
      "surrogate": 3958,
      "surround": 3959,
      "surveill": 3960,
      "survey": 3961,
      "surviv": 3962,
      "susceptib": 3963,
      "suspect": 3964,
      "suspend": 3965,
      "suspens": 3966,
      "suspic": 3967,
      "sustain": 3968,
      "svd": 3969,
      "svg": 3970,
      "svm": 3971,
      "svn": 3972,
      "swap": 3973,
      "sway": 3974,
      "swear": 3975,
      "sweep": 3976,
      "sweet": 3977,
      "swell": 3978,
      "swept": 3979,
      "swift": 3980,
      "swin": 3981,
      "swip": 3982,
      "swish": 3983,
      "switch": 3984,
      "swoop": 3985,
      "swung": 3986,
      "syllabl": 3987,
      "symbol": 3988,
      "symmetr": 3989,
      "sympath": 3990,
      "sync": 3991,
      "synchron": 3992,
      "synonym": 3993,
      "synopsis": 3994,
      "synt": 3995,
      "syntax": 3996,
      "synth": 3997,
      "synthes": 3998,
      "synthet": 3999,
      "sys": 4000,
      "system": 4001,
      "tab": 4002,
      "tabl": 4003,
      "tabul": 4004,
      "tackl": 4005,
      "tact": 4006,
      "tactic": 4007,
      "tag": 4008,
      "tail": 4009,
      "tailor": 4010,
      "tak": 4011,
      "take": 4012,
      "talent": 4013,
      "talk": 4014,
      "tall": 4015,
      "tam": 4016,
      "tamper": 4017,
      "tangent": 4018,
      "tangibl": 4019,
      "tangl": 4020,
      "tap": 4021,
      "tar": 4022,
      "target": 4023,
      "task": 4024,
      "tast": 4025,
      "taught": 4026,
      "tax": 4027,
      "tea": 4028,
      "teach": 4029,
      "team": 4030,
      "tear": 4031,
      "teas": 4032,
      "tech": 4033,
      "techni": 4034,
      "technolog": 4035,
      "tedious": 4036,
      "tele": 4037,
      "tell": 4038,
      "temp": 4039,
      "temper": 4040,
      "temperatur": 4041,
      "templat": 4042,
      "tempor": 4043,
      "tempt": 4044,
      "ten": 4045,
      "tenabl": 4046,
      "tenacious": 4047,
      "tend": 4048,
      "tendenc": 4049,
      "tender": 4050,
      "tens": 4051,
      "tensor": 4052,
      "tentat": 4053,
      "tera": 4054,
      "term": 4055,
      "termin": 4056,
      "terminal": 4057,
      "terminat": 4058,
      "terrain": 4059,
      "terribl": 4060,
      "terrif": 4061,
      "terse": 4062,
      "tessellat": 4063,
      "test": 4064,
      "testimonial": 4065,
      "tether": 4066,
      "text": 4067,
      "than": 4068,
      "thank": 4069,
      "that": 4070,
      "thaw": 4071,
      "the": 4072,
      "theft": 4073,
      "their": 4074,
      "them": 4075,
      "then": 4076,
      "theor": 4077,
      "theorem": 4078,
      "ther": 4079,
      "there": 4080,
      "thereby": 4081,
      "therm": 4082,
      "thes": 4083,
      "thesa": 4084,
      "thesis": 4085,
      "thest": 4086,
      "theta": 4087,
      "they": 4088,
      "thick": 4089,
      "thin": 4090,
      "thing": 4091,
      "think": 4092,
      "thir": 4093,
      "third": 4094,
      "thirt": 4095,
      "this": 4096,
      "thither": 4097,
      "thorough": 4098,
      "those": 4099,
      "though": 4100,
      "thought": 4101,
      "thous": 4102,
      "thousand": 4103,
      "thread": 4104,
      "threat": 4105,
      "three": 4106,
      "thres": 4107,
      "threw": 4108,
      "thrice": 4109,
      "thrift": 4110,
      "thrill": 4111,
      "thriv": 4112,
      "through": 4113,
      "throw": 4114,
      "thrust": 4115,
      "thumb": 4116,
      "thumbnail": 4117,
      "thunder": 4118,
      "thunk": 4119,
      "thus": 4120,
      "thwart": 4121,
      "tick": 4122,
      "ticket": 4123,
      "tier": 4124,
      "tight": 4125,
      "til": 4126,
      "till": 4127,
      "tilt": 4128,
      "tim": 4129,
      "time": 4130,
      "timid": 4131,
      "tinker": 4132,
      "tiny": 4133,
      "tion": 4134,
      "tip": 4135,
      "tir": 4136,
      "titl": 4137,
      "to": 4138,
      "together": 4139,
      "toggl": 4140,
      "token": 4141,
      "told": 4142,
      "tolera": 4143,
      "tolerat": 4144,
      "tomorrow": 4145,
      "tone": 4146,
      "tong": 4147,
      "too": 4148,
      "took": 4149,
      "tool": 4150,
      "tooth": 4151,
      "top": 4152,
      "topic": 4153,
      "topolog": 4154,
      "torch": 4155,
      "tore": 4156,
      "torment": 4157,
      "torn": 4158,
      "torrent": 4159,
      "toss": 4160,
      "total": 4161,
      "totter": 4162,
      "touch": 4163,
      "tough": 4164,
      "tour": 4165,
      "tournament": 4166,
      "tout": 4167,
      "toward": 4168,
      "town": 4169,
      "tpu": 4170,
      "trac": 4171,
      "track": 4172,
      "tract": 4173,
      "trad": 4174,
      "tradition": 4175,
      "traff": 4176,
      "trail": 4177,
      "train": 4178,
      "trait": 4179,
      "trajector": 4180,
      "tranquil": 4181,
      "trans": 4182,
      "transact": 4183,
      "transceiv": 4184,
      "transcend": 4185,
      "transclud": 4186,
      "transcrib": 4187,
      "transcript": 4188,
      "transduc": 4189,
      "transduct": 4190,
      "transfer": 4191,
      "transform": 4192,
      "transgress": 4193,
      "transient": 4194,
      "transist": 4195,
      "transit": 4196,
      "translat": 4197,
      "transliterat": 4198,
      "translucen": 4199,
      "transmiss": 4200,
      "transmit": 4201,
      "transparen": 4202,
      "transpil": 4203,
      "transplant": 4204,
      "transport": 4205,
      "transpos": 4206,
      "trap": 4207,
      "trash": 4208,
      "travel": 4209,
      "travers": 4210,
      "tray": 4211,
      "treach": 4212,
      "tread": 4213,
      "treasur": 4214,
      "treat": 4215,
      "tree": 4216,
      "trembl": 4217,
      "tremend": 4218,
      "trend": 4219,
      "tri": 4220,
      "trial": 4221,
      "triang": 4222,
      "triangul": 4223,
      "trick": 4224,
      "trie": 4225,
      "trifl": 4226,
      "trigger": 4227,
      "trim": 4228,
      "tripl": 4229,
      "triumph": 4230,
      "trivial": 4231,
      "trodden": 4232,
      "trojan": 4233,
      "trop": 4234,
      "troubl": 4235,
      "tru": 4236,
      "true": 4237,
      "truncat": 4238,
      "trunk": 4239,
      "trust": 4240,
      "truth": 4241,
      "try": 4242,
      "tues": 4243,
      "tun": 4244,
      "tunel": 4245,
      "tunnel": 4246,
      "tupl": 4247,
      "turbo": 4248,
      "turn": 4249,
      "tutor": 4250,
      "tv": 4251,
      "tweak": 4252,
      "tweet": 4253,
      "twelve": 4254,
      "twent": 4255,
      "twice": 4256,
      "twiddl": 4257,
      "twilight": 4258,
      "twin": 4259,
      "twink": 4260,
      "twist": 4261,
      "twitch": 4262,
      "twitter": 4263,
      "two": 4264,
      "txt": 4265,
      "typ": 4266,
      "type": 4267,
      "typical": 4268,
      "typo": 4269,
      "ubiquit": 4270,
      "ubuntu": 4271,
      "ugl": 4272,
      "ui": 4273,
      "uint": 4274,
      "ultimat": 4275,
      "ultra": 4276,
      "uml": 4277,
      "un": 4278,
      "unar": 4279,
      "under": 4280,
      "underneath": 4281,
      "understand": 4282,
      "understood": 4283,
      "underwent": 4284,
      "unfurl": 4285,
      "unicode": 4286,
      "unicorn": 4287,
      "unif": 4288,
      "unifi": 4289,
      "uniform": 4290,
      "union": 4291,
      "unique": 4292,
      "unit": 4293,
      "unity": 4294,
      "univers": 4295,
      "unix": 4296,
      "unleash": 4297,
      "untaint": 4298,
      "until": 4299,
      "unveil": 4300,
      "uous": 4301,
      "up": 4302,
      "upbraid": 4303,
      "updat": 4304,
      "upend": 4305,
      "upgrad": 4306,
      "upon": 4307,
      "upp": 4308,
      "upped": 4309,
      "upper": 4310,
      "upsert": 4311,
      "upset": 4312,
      "uptill": 4313,
      "urban": 4314,
      "urg": 4315,
      "urgen": 4316,
      "url": 4317,
      "us": 4318,
      "usab": 4319,
      "usag": 4320,
      "usb": 4321,
      "use": 4322,
      "user": 4323,
      "usual": 4324,
      "utf": 4325,
      "util": 4326,
      "utmost": 4327,
      "utter": 4328,
      "ux": 4329,
      "vacan": 4330,
      "vacat": 4331,
      "vagar": 4332,
      "vague": 4333,
      "vain": 4334,
      "val": 4335,
      "valen": 4336,
      "valenc": 4337,
      "valent": 4338,
      "valid": 4339,
      "valley": 4340,
      "valu": 4341,
      "vanish": 4342,
      "vanit": 4343,
      "var": 4344,
      "variab": 4345,
      "variabl": 4346,
      "variad": 4347,
      "varianc": 4348,
      "variant": 4349,
      "variat": 4350,
      "varie": 4351,
      "various": 4352,
      "vary": 4353,
      "vast": 4354,
      "vaunt": 4355,
      "vector": 4356,
      "vehicl": 4357,
      "vendor": 4358,
      "ventilat": 4359,
      "ventur": 4360,
      "venue": 4361,
      "verac": 4362,
      "verb": 4363,
      "verbal": 4364,
      "verbos": 4365,
      "verdur": 4366,
      "veri": 4367,
      "verif": 4368,
      "verity": 4369,
      "vers": 4370,
      "versa": 4371,
      "versatil": 4372,
      "version": 4373,
      "versus": 4374,
      "vertex": 4375,
      "vertic": 4376,
      "very": 4377,
      "veto": 4378,
      "vexat": 4379,
      "vga": 4380,
      "vgg": 4381,
      "via": 4382,
      "viab": 4383,
      "vib": 4384,
      "vibr": 4385,
      "vici": 4386,
      "vict": 4387,
      "victim": 4388,
      "video": 4389,
      "view": 4390,
      "vigorous": 4391,
      "vigour": 4392,
      "village": 4393,
      "vindic": 4394,
      "violat": 4395,
      "violen": 4396,
      "viral": 4397,
      "virtual": 4398,
      "virtue": 4399,
      "virus": 4400,
      "vis": 4401,
      "visib": 4402,
      "vision": 4403,
      "visit": 4404,
      "visual": 4405,
      "vital": 4406,
      "vivac": 4407,
      "vocabular": 4408,
      "vocal": 4409,
      "vocat": 4410,
      "voic": 4411,
      "void": 4412,
      "voip": 4413,
      "volatil": 4414,
      "volt": 4415,
      "volub": 4416,
      "volum": 4417,
      "volunt": 4418,
      "vot": 4419,
      "vouch": 4420,
      "vow": 4421,
      "vowel": 4422,
      "vpn": 4423,
      "vr": 4424,
      "vs": 4425,
      "vue": 4426,
      "vulgar": 4427,
      "vulner": 4428,
      "wait": 4429,
      "waiv": 4430,
      "wak": 4431,
      "walk": 4432,
      "wall": 4433,
      "wan": 4434,
      "wander": 4435,
      "want": 4436,
      "war": 4437,
      "ward": 4438,
      "ware": 4439,
      "warm": 4440,
      "warn": 4441,
      "warp": 4442,
      "warrant": 4443,
      "was": 4444,
      "wash": 4445,
      "wasm": 4446,
      "wast": 4447,
      "watch": 4448,
      "water": 4449,
      "wav": 4450,
      "wavelet": 4451,
      "way": 4452,
      "we": 4453,
      "weak": 4454,
      "wear": 4455,
      "weather": 4456,
      "web": 4457,
      "webinar": 4458,
      "wedg": 4459,
      "week": 4460,
      "weigh": 4461,
      "weight": 4462,
      "weird": 4463,
      "wel": 4464,
      "welcom": 4465,
      "weld": 4466,
      "well": 4467,
      "went": 4468,
      "wept": 4469,
      "were": 4470,
      "west": 4471,
      "wet": 4472,
      "what": 4473,
      "whelm": 4474,
      "when": 4475,
      "whence": 4476,
      "where": 4477,
      "whether": 4478,
      "which": 4479,
      "while": 4480,
      "whilst": 4481,
      "whim": 4482,
      "whip": 4483,
      "whirl": 4484,
      "whisp": 4485,
      "whistl": 4486,
      "white": 4487,
      "whither": 4488,
      "who": 4489,
      "whole": 4490,
      "whop": 4491,
      "why": 4492,
      "wick": 4493,
      "wide": 4494,
      "widget": 4495,
      "widow": 4496,
      "width": 4497,
      "wield": 4498,
      "wife": 4499,
      "wifi": 4500,
      "wiki": 4501,
      "wil": 4502,
      "wild": 4503,
      "will": 4504,
      "willing": 4505,
      "win": 4506,
      "wind": 4507,
      "window": 4508,
      "winter": 4509,
      "wip": 4510,
      "wire": 4511,
      "wise": 4512,
      "wish": 4513,
      "with": 4514,
      "within": 4515,
      "without": 4516,
      "witness": 4517,
      "witt": 4518,
      "wiv": 4519,
      "wizard": 4520,
      "wlan": 4521,
      "woke": 4522,
      "woman": 4523,
      "women": 4524,
      "won": 4525,
      "wonder": 4526,
      "wont": 4527,
      "wood": 4528,
      "wor": 4529,
      "word": 4530,
      "work": 4531,
      "world": 4532,
      "worr": 4533,
      "wors": 4534,
      "worship": 4535,
      "worth": 4536,
      "would": 4537,
      "wound": 4538,
      "wrap": 4539,
      "wreak": 4540,
      "wretch": 4541,
      "wright": 4542,
      "writ": 4543,
      "wrong": 4544,
      "wrote": 4545,
      "www": 4546,
      "x64": 4547,
      "x86": 4548,
      "xml": 4549,
      "xor": 4550,
      "yaml": 4551,
      "yeah": 4552,
      "year": 4553,
      "yellow": 4554,
      "yes": 4555,
      "yet": 4556,
      "yield": 4557,
      "you": 4558,
      "young": 4559,
      "your": 4560,
      "youth": 4561,
      "youtube": 4562,
      "zero": 4563,
      "zip": 4564,
      "zon": 4565,
      "zoom": 4566,
      "##0": 4567,
      "##1": 4568,
      "##2": 4569,
      "##3": 4570,
      "##4": 4571,
      "##5": 4572,
      "##6": 4573,
      "##7": 4574,
      "##8": 4575,
      "##9": 4576,
      "##est": 4577,
      "##edly": 4578,
      "##ful": 4579,
      "##day": 4580,
      "##after": 4581,
      "##in": 4582,
      "##ing": 4583,
      "##ive": 4584,
      "##is": 4585,
      "##er": 4586,
      "##es": 4587,
      "##ed": 4588,
      "##ion": 4589,
      "##ment": 4590,
      "##less": 4591,
      "##ness": 4592,
      "##ly": 4593,
      "##al": 4594,
      "##ally": 4595,
      "##ous": 4596,
      "##ability": 4597,
      "##able": 4598,
      "##ably": 4599,
      "##ely": 4600,
      "##ently": 4601,
      "##ately": 4602,
      "##tion": 4603,
      "##ity": 4604,
      "##or": 4605,
      "##ior": 4606,
      "##up": 4607,
      "##out": 4608,
      "##about": 4609,
      "##over": 4610,
      "##fore": 4611,
      "##upon": 4612,
      "##self": 4613,
      "##time": 4614,
      "##ware": 4615,
      "##ever": 4616,
      "##some": 4617,
      "##back": 4618,
      "##ic": 4619,
      "##pad": 4620,
      "##mat": 4621,
      "##plot": 4622,
      "##lib": 4623,
      "##graph": 4624,
      "##shop": 4625,
      "##real": 4626,
      "##math": 4627,
      "##atic": 4628,
      "##noon": 4629,
      "##logic": 4630,
      "##load": 4631,
      "##ify": 4632,
      "##of": 4633,
      "##off": 4634,
      "##date": 4635,
      "##on": 4636,
      "##down": 4637,
      "##work": 4638,
      "##code": 4639,
      "##type": 4640,
      "##cod": 4641,
      "##ative": 4642,
      "##struct": 4643,
      "##fix": 4644,
      "##made": 4645,
      "##mak": 4646,
      "##ant": 4647,
      "##liv": 4648,
      "##norm": 4649,
      "##rich": 4650,
      "##queu": 4651,
      "##tech": 4652,
      "##search": 4653,
      "##advantag": 4654,
      "##agree": 4655,
      "##allow": 4656,
      "##ambigu": 4657,
      "##appear": 4658,
      "##abilities": 4659,
      "##tast": 4660,
      "##script": 4661,
      "##book": 4662,
      "##system": 4663,
      "##mail": 4664,
      "##case": 4665,
      "##list": 4666,
      "##coming": 4667,
      "##cut": 4668,
      "##fall": 4669,
      "##step": 4670,
      "##link": 4671,
      "##bar": 4672,
      "##line": 4673,
      "##flow": 4674,
      "##fus": 4675,
      "##diffus": 4676,
      "##locat": 4677,
      "##lock": 4678,
      "##activat": 4679,
      "##transform": 4680,
      "##solv": 4681,
      "##solution": 4682,
      "##sociat": 4683,
      "##equal": 4684,
      "##efficien": 4685,
      "##effect": 4686,
      "##elegan": 4687,
      "##ebriet": 4688,
      "##eligib": 4689,
      "##scrib": 4690,
      "##stream": 4691,
      "##quiet": 4692,
      "##paint": 4693,
      "##age": 4694,
      "##pag": 4695,
      "##ordinar": 4696,
      "##sampl": 4697,
      "##to": 4698,
      "##operat": 4699,
      "##ship": 4700,
      "##process": 4701,
      "##relat": 4702,
      "##tun": 4703,
      "##fortun": 4704,
      "##point": 4705,
      "##through": 4706,
      "##stag": 4707,
      "##manag": 4708,
      "##pack": 4709,
      "##packag": 4710,
      "##lang": 4711,
      "##languag": 4712,
      "##storag": 4713,
      "##fast": 4714,
      "##propagat": 4715,
      "##engag": 4716,
      "##damag": 4717,
      "##fastidious": 4718,
      "##top": 4719,
      "##web": 4720,
      "##cord": 4721,
      "##install": 4722,
      "##game": 4723,
      "##mongo": 4724,
      "##test": 4725,
      "##dev": 4726,
      "##torch": 4727,
      "##cuda": 4728,
      "##charm": 4729,
      "##pos": 4730,
      "##obj": 4731,
      "##compil": 4732,
      "##compos": 4733,
      "##compres": 4734,
      "##construct": 4735,
      "##convol": 4736,
      "##dispos": 4737,
      "##differ": 4738,
      "##direct": 4739,
      "##discreet": 4740,
      "##discret": 4741,
      "##disput": 4742,
      "##distinct": 4743,
      "##dispens": 4744,
      "##door": 4745,
      "##valid": 4746,
      "##valu": 4747,
      "##variabl": 4748,
      "##varianc": 4749,
      "##variant": 4750,
      "##tabl": 4751,
      "##phone": 4752,
      "##crypt": 4753,
      "##record": 4754,
      "##view": 4755,
      "##cycl": 4756,
      "##boost": 4757,
      "##delta": 4758,
      "##grad": 4759,
      "##updat": 4760,
      "##ward": 4761,
      "##grand": 4762,
      "##cast": 4763,
      "##mention": 4764,
      "##quarter": 4765,
      "##python": 4766,
      "##escap": 4767,
      "##exact": 4768,
      "##excus": 4769,
      "##expens": 4770,
      "##experien": 4771,
      "##express": 4772,
      "##famous": 4773,
      "##feasib": 4774,
      "##estima": 4775,
      "##class": 4776,
      "##cloud": 4777,
      "##channel": 4778,
      "##byte": 4779,
      "##comput": 4780,
      "##conceiv": 4781,
      "##condit": 4782,
      "##config": 4783,
      "##defin": 4784,
      "##determin": 4785,
      "##discover": 4786,
      "##task": 4787,
      "##map": 4788,
      "##check": 4789,
      "##connect": 4790,
      "##consider": 4791,
      "##creat": 4792,
      "##crawl": 4793,
      "##mark": 4794,
      "##declar": 4795,
      "##deliver": 4796,
      "##deploy": 4797,
      "##design": 4798,
      "##draw": 4799,
      "##enter": 4800,
      "##establish": 4801,
      "##examin": 4802,
      "##count": 4803,
      "##group": 4804,
      "##hash": 4805,
      "##mask": 4806,
      "##center": 4807,
      "##account": 4808,
      "##area": 4809,
      "##array": 4810,
      "##cluster": 4811,
      "##collect": 4812,
      "##command": 4813,
      "##complex": 4814,
      "##conscious": 4815,
      "##contain": 4816,
      "##divid": 4817,
      "##divis": 4818,
      "##document": 4819,
      "##domain": 4820,
      "##element": 4821,
      "##field": 4822,
      "##fold": 4823,
      "##gradient": 4824,
      "##sect": 4825,
      "##seque": 4826,
      "##set": 4827,
      "##space": 4828,
      "##strat": 4829,
      "##piece": 4830,
      "##title": 4831,
      "##tree": 4832,
      "##typ": 4833,
      "##variet": 4834,
      "##vocabular": 4835,
      "##version": 4836,
      "##word": 4837,
      "##wise": 4838,
      "##variat": 4839,
      "##data": 4840,
      "##board": 4841,
      "##lingu": 4842,
      "##classif": 4843,
      "##clutter": 4844,
      "##not": 4845,
      "##notat": 4846,
      "##quest": 4847,
      "##arm": 4848,
      "##attack": 4849,
      "##bion": 4850,
      "##crim": 4851,
      "##net": 4852,
      "##punk": 4853,
      "##secur": 4854,
      "##sport": 4855,
      "##vision": 4856,
      "##zon": 4857,
      "##scien": 4858,
      "##nois": 4859,
      "##nominat": 4860,
      "##normaliz": 4861,
      "##mystif": 4862,
      "##think": 4863,
      "##critic": 4864,
      "##gram": 4865,
      "##tool": 4866,
      "##prov": 4867,
      "##regard": 4868,
      "##respect": 4869,
      "##entangl": 4870,
      "##grunt": 4871,
      "##inclin": 4872,
      "##inform": 4873,
      "##ingen": 4874,
      "##interest": 4875,
      "##junct": 4876,
      "##cach": 4877,
      "##lik": 4878,
      "##order": 4879,
      "##patch": 4880,
      "##satisf": 4881,
      "##plac": 4882,
      "##pleas": 4883,
      "##seminat": 4884,
      "##servic": 4885,
      "##similar": 4886,
      "##proportion": 4887,
      "##approb": 4888,
      "##approv": 4889,
      "##assembl": 4890,
      "##associat": 4891,
      "##charg": 4892,
      "##claim": 4893,
      "##clos": 4894,
      "##concert": 4895,
      "##trust": 4896,
      "##util": 4897,
      "##file": 4898,
      "##click": 4899,
      "##rank": 4900,
      "##right": 4901,
      "##scal": 4902,
      "##side": 4903,
      "##size": 4904,
      "##siz": 4905,
      "##stair": 4906,
      "##turn": 4907,
      "##gen": 4908,
      "##talk": 4909,
      "##team": 4910,
      "##box": 4911,
      "##power": 4912,
      "##hub": 4913,
      "##lab": 4914,
      "##bit": 4915,
      "##away": 4916,
      "##ignor": 4917,
      "##hunt": 4918,
      "##felt": 4919,
      "##weight": 4920,
      "##world": 4921,
      "##desk": 4922,
      "##accur": 4923,
      "##action": 4924,
      "##activ": 4925,
      "##adequat": 4926,
      "##admiss": 4927,
      "##advert": 4928,
      "##advis": 4929,
      "##apprecia": 4930,
      "##appropriat": 4931,
      "##argu": 4932,
      "##attent": 4933,
      "##bound": 4934,
      "##buil": 4935,
      "##capab": 4936,
      "##cautio": 4937,
      "##coheren": 4938,
      "##come": 4939,
      "##commod": 4940,
      "##compar": 4941,
      "##compat": 4942,
      "##complet": 4943,
      "##comprehen": 4944,
      "##conclusi": 4945,
      "##congru": 4946,
      "##consist": 4947,
      "##conspic": 4948,
      "##const": 4949,
      "##convenien": 4950,
      "##corpora": 4951,
      "##correct": 4952,
      "##fatuat": 4953,
      "##fanc": 4954,
      "##control": 4955,
      "##panel": 4956,
      "##metr": 4957,
      "##trop": 4958,
      "##body": 4959,
      "##how": 4960,
      "##except": 4961,
      "##follow": 4962,
      "##look": 4963,
      "##driv": 4964,
      "##api": 4965,
      "##shap": 4966,
      "##shuffl": 4967,
      "##sign": 4968,
      "##signif": 4969,
      "##produc": 4970,
      "##js": 4971,
      "##fragment": 4972,
      "##rang": 4973,
      "##dram": 4974,
      "##brows": 4975,
      "##develop": 4976,
      "##cam": 4977,
      "##font": 4978,
      "##form": 4979,
      "##hook": 4980,
      "##host": 4981,
      "##interfac": 4982,
      "##master": 4983,
      "##kit": 4984,
      "##log": 4985,
      "##client": 4986,
      "##component": 4987,
      "##request": 4988,
      "##scop": 4989,
      "##server": 4990,
      "##site": 4991,
      "##socket": 4992,
      "##stor": 4993,
      "##summit": 4994,
      "##trend": 4995,
      "##xml": 4996,
      "##fare": 4997,
      "##from": 4998,
      "##paper": 4999,
      "##app": 5000,
      "##just": 5001,
      "##justif": 5002,
      "##kind": 5003,
      "##know": 5004,
      "##label": 5005,
      "##law": 5006,
      "##learn": 5007,
      "##licens": 5008,
      "##limit": 5009,
      "##valent": 5010,
      "##luck": 5011,
      "##maintain": 5012,
      "##man": 5013,
      "##marr": 5014,
      "##marshall": 5015,
      "##match": 5016,
      "##merit": 5017,
      "##mistak": 5018,
      "##mix": 5019,
      "##mirth": 5020,
      "##modif": 5021,
      "##modul": 5022,
      "##motivat": 5023,
      "##mount": 5024,
      "##multipl": 5025,
      "##mut": 5026,
      "##nam": 5027,
      "##natur": 5028,
      "##necess": 5029,
      "##need": 5030,
      "##object": 5031,
      "##observ": 5032,
      "##parallel": 5033,
      "##paus": 5034,
      "##perceiv": 5035,
      "##permit": 5036,
      "##paid": 5037,
      "##pardon": 5038,
      "##pair": 5039,
      "##organiz": 5040,
      "##occup": 5041,
      "##notic": 5042,
      "##ostentat": 5043,
      "##optimiz": 5044,
      "##open": 5045,
      "##official": 5046,
      "##persuad": 5047,
      "##plan": 5048,
      "##plug": 5049,
      "##polish": 5050,
      "##practic": 5051,
      "##pool": 5052,
      "##popular": 5053,
      "##precedent": 5054,
      "##predict": 5055,
      "##prepar": 5056,
      "##pretend": 5057,
      "##prett": 5058,
      "##print": 5059,
      "##privileg": 5060,
      "##profession": 5061,
      "##profit": 5062,
      "##protect": 5063,
      "##provid": 5064,
      "##publish": 5065,
      "##qualif": 5066,
      "##question": 5067,
      "##quot": 5068,
      "##ravel": 5069,
      "##reach": 5070,
      "##read": 5071,
      "##ready": 5072,
      "##reason": 5073,
      "##receiv": 5074,
      "##recogniz": 5075,
      "##recover": 5076,
      "##register": 5077,
      "##regulat": 5078,
      "##reliabl": 5079,
      "##requir": 5080,
      "##requit": 5081,
      "##reserv": 5082,
      "##resolv": 5083,
      "##respon": 5084,
      "##restrict": 5085,
      "##reveal": 5086,
      "##rival": 5087,
      "##roll": 5088,
      "##saf": 5089,
      "##said": 5090,
      "##sav": 5091,
      "##say": 5092,
      "##season": 5093,
      "##see": 5094,
      "##seen": 5095,
      "##segment": 5096,
      "##select": 5097,
      "##releas": 5098,
      "##sell": 5099,
      "##sentiment": 5100,
      "##serial": 5101,
      "##settl": 5102,
      "##shak": 5103,
      "##shar": 5104,
      "##shift": 5105,
      "##send": 5106,
      "##skill": 5107,
      "##smooth": 5108,
      "##solicit": 5109,
      "##sort": 5110,
      "##specif": 5111,
      "##spent": 5112,
      "##splash": 5113,
      "##sponsor": 5114,
      "##stabl": 5115,
      "##stat": 5116,
      "##stead": 5117,
      "##stick": 5118,
      "##stop": 5119,
      "##stud": 5120,
      "##subscrib": 5121,
      "##substantiat": 5122,
      "##success": 5123,
      "##suit": 5124,
      "##sull": 5125,
      "##supervis": 5126,
      "##support": 5127,
      "##sure": 5128,
      "##surpris": 5129,
      "##suspect": 5130,
      "##suspicio": 5131,
      "##sustain": 5132,
      "##synchron": 5133,
      "##target": 5134,
      "##templat": 5135,
      "##tenabl": 5136,
      "##terminat": 5137,
      "##tether": 5138,
      "##told": 5139,
      "##touch": 5140,
      "##toward": 5141,
      "##track": 5142,
      "##train": 5143,
      "##transcrib": 5144,
      "##translat": 5145,
      "##treat": 5146,
      "##truth": 5147,
      "##twin": 5148,
      "##typic": 5149,
      "##usab": 5150,
      "##use": 5151,
      "##usual": 5152,
      "##vary": 5153,
      "##worth": 5154,
      "##front": 5155,
      "##wrap": 5156,
      "##willing": 5157,
      "##verif": 5158,
      "##visit": 5159,
      "##want": 5160,
      "##watch": 5161,
      "##welcom": 5162,
      "##well": 5163,
      "##whole": 5164,
      "##wield": 5165,
      "##wind": 5166,
      "##wound": 5167,
      "##wont": 5168,
      "##writ": 5169,
      "##beat": 5170,
      "##zip": 5171,
      "##grow": 5172,
      "##heav": 5173,
      "##held": 5174,
      "##hold": 5175,
      "##lift": 5176,
      "##most": 5177,
      "##start": 5178,
      "##ris": 5179,
      "##swing": 5180,
      "##take": 5181,
      "##vot": 5182,
      "##pars": 5183,
      "##friend": 5184,
      "##engine": 5185,
      "##torrent": 5186,
      "##error": 5187,
      "##model": 5188,
      "##port": 5189,
      "##studio": 5190,
      "##around": 5191,
      "##pro": 5192,
      "##craft": 5193,
      "##optimal": 5194,
      "##part": 5195,
      "##ordinat": 5196,
      "##pixel": 5197,
      "##problem": 5198,
      "##quer": 5199,
      "##routine": 5200,
      "##vers": 5201,
      "##program": 5202,
      "##gpt": 5203,
      "##architect": 5204,
      "##bench": 5205,
      "##chip": 5206,
      "##electron": 5207,
      "##framework": 5208,
      "##grid": 5209,
      "##messag": 5210,
      "##mobil": 5211,
      "##sensor": 5212,
      "##soft": 5213,
      "##second": 5214,
      "##wav": 5215,
      "##journ": 5216,
      "##night": 5217,
      "##summer": 5218,
      "##ston": 5219,
      "##blow": 5220,
      "##collinear": 5221,
      "##color": 5222,
      "##core": 5223,
      "##devic": 5224,
      "##dimens": 5225,
      "##factor": 5226,
      "##func": 5227,
      "##index": 5228,
      "##layer": 5229,
      "##level": 5230,
      "##head": 5231,
      "##media": 5232,
      "##modal": 5233,
      "##nation": 5234,
      "##nomi": 5235,
      "##method": 5236,
      "##project": 5237,
      "##processor": 5238,
      "##resolut": 5239,
      "##protocol": 5240,
      "##region": 5241,
      "##thread": 5242,
      "##sql": 5243,
      "##param": 5244,
      "##face": 5245,
      "##particl": 5246,
      "##pass": 5247,
      "##hav": 5248,
      "##compass": 5249,
      "##croach": 5250,
      "##courag": 5251,
      "##pedia": 5252,
      "##giv": 5253,
      "##guid": 5254,
      "##align": 5255,
      "##appl": 5256,
      "##behav": 5257,
      "##chief": 5258,
      "##communic": 5259,
      "##concept": 5260,
      "##conduct": 5261,
      "##ratio": 5262,
      "##fit": 5263,
      "##interpret": 5264,
      "##lead": 5265,
      "##constru": 5266,
      "##mind": 5267,
      "##the": 5268,
      "##together": 5269,
      "##string": 5270,
      "##counter": 5271,
      "##act": 5272,
      "##clock": 5273,
      "##measur": 5274,
      "##ficial": 5275,
      "##fact": 5276,
      "##human": 5277,
      "##impos": 5278,
      "##intelli": 5279,
      "##intend": 5280,
      "##shin": 5281,
      "##add": 5282,
      "##intent": 5283,
      "##interpolat": 5284,
      "##interrupt": 5285,
      "##lateral": 5286,
      "##implement": 5287,
      "##import": 5288,
      "##impress": 5289,
      "##init": 5290,
      "##initiat": 5291,
      "##inspir": 5292,
      "##imped": 5293,
      "##imagin": 5294,
      "##inforc": 5295,
      "##insert": 5296,
      "##instat": 5297,
      "##integr": 5298,
      "##invent": 5299,
      "##issu": 5300,
      "##iterat": 5301,
      "##joic": 5302,
      "##join": 5303,
      "##introduc": 5304,
      "##launch": 5305,
      "##juvenat": 5306,
      "##lay": 5307,
      "##laps": 5308,
      "##laid": 5309,
      "##layout": 5310,
      "##letter": 5311,
      "##virus": 5312,
      "##alias": 5313,
      "##merg": 5314,
      "##motiv": 5315,
      "##pilot": 5316,
      "##play": 5317,
      "##regress": 5318,
      "##repl": 5319,
      "##rotat": 5320,
      "##scroll": 5321,
      "##wait": 5322,
      "##while": 5323,
      "##woke": 5324,
      "##bone": 5325,
      "##drop": 5326,
      "##end": 5327,
      "##ground": 5328,
      "##light": 5329,
      "##slash": 5330,
      "##trac": 5331,
      "##centr": 5332,
      "##soup": 5333,
      "##hand": 5334,
      "##scor": 5335,
      "##represent": 5336,
      "##rat": 5337,
      "##perform": 5338,
      "##break": 5339,
      "##keep": 5340,
      "##room": 5341,
      "##access": 5342,
      "##sens": 5343,
      "##content": 5344,
      "##continu": 5345,
      "##cours": 5346,
      "##commerc": 5347,
      "##text": 5348,
      "##vector": 5349,
      "##lumin": 5350,
      "##magnet": 5351,
      "##mechanic": 5352,
      "##techni": 5353,
      "##sincere": 5354,
      "##scrut": 5355,
      "##sensitiv": 5356,
      "##sent": 5357,
      "##separ": 5358,
      "##hood": 5359,
      "##span": 5360,
      "##hack": 5361,
      "##std": 5362,
      "##took": 5363,
      "##us": 5364,
      "##understand": 5365,
      "##understood": 5366,
      "##sourc": 5367,
      "##stack": 5368,
      "##street": 5369,
      "##offic": 5370,
      "##gonal": 5371,
      "##selv": 5372,
      "##lie": 5373,
      "##spoke": 5374,
      "##staff": 5375,
      "##stand": 5376,
      "##stay": 5377,
      "##strip": 5378,
      "##weigh": 5379,
      "##came": 5380,
      "##care": 5381,
      "##commit": 5382,
      "##complicat": 5383,
      "##crowd": 5384,
      "##debug": 5385,
      "##depend": 5386,
      "##hast": 5387,
      "##haul": 5388,
      "##hear": 5389,
      "##heat": 5390,
      "##kill": 5391,
      "##pric": 5392,
      "##relian": 5393,
      "##run": 5394,
      "##saturat": 5395,
      "##shadow": 5396,
      "##simplif": 5397,
      "##stock": 5398,
      "##throw": 5399,
      "##tak": 5400,
      "##shoot": 5401,
      "##sight": 5402,
      "##saw": 5403,
      "##sea": 5404,
      "##whelm": 5405,
      "##wrote": 5406,
      "##meter": 5407,
      "##morph": 5408,
      "##hedron": 5409,
      "##synth": 5410,
      "##forc": 5411,
      "##go": 5412,
      "##wide": 5413,
      "##abat": 5414,
      "##accept": 5415,
      "##achiev": 5416,
      "##adjust": 5417,
      "##adorn": 5418,
      "##affect": 5419,
      "##afraid": 5420,
      "##announc": 5421,
      "##answer": 5422,
      "##assign": 5423,
      "##attach": 5424,
      "##attain": 5425,
      "##attend": 5426,
      "##attract": 5427,
      "##author": 5428,
      "##avail": 5429,
      "##avoid": 5430,
      "##balanc": 5431,
      "##bleach": 5432,
      "##becom": 5433,
      "##believ": 5434,
      "##branch": 5435,
      "##brand": 5436,
      "##broke": 5437,
      "##buf": 5438,
      "##bundl": 5439,
      "##categor": 5440,
      "##caught": 5441,
      "##ceremon": 5442,
      "##certain": 5443,
      "##chain": 5444,
      "##chang": 5445,
      "##chart": 5446,
      "##civil": 5447,
      "##clear": 5448,
      "##comfort": 5449,
      "##comment": 5450,
      "##common": 5451,
      "##compet": 5452,
      "##compromis": 5453,
      "##concern": 5454,
      "##confirm": 5455,
      "##constrain": 5456,
      "##convent": 5457,
      "##convinc": 5458,
      "##coordinat": 5459,
      "##correlat": 5460,
      "##coupl": 5461,
      "##couth": 5462,
      "##cover": 5463,
      "##curat": 5464,
      "##daunt": 5465,
      "##decid": 5466,
      "##copy": 5467,
      "##contest": 5468,
      "##bred": 5469,
      "##graduat": 5470,
      "##deni": 5471,
      "##serializ": 5472,
      "##stabiliz": 5473,
      "##guard": 5474,
      "##spatial": 5475,
      "##posit": 5476,
      "##oper": 5477,
      "##visib": 5478,
      "##volunt": 5479,
      "##cell": 5480,
      "##batch": 5481,
      "##computer": 5482,
      "##chrom": 5483,
      "##shell": 5484,
      "##auth": 5485,
      "##ops": 5486,
      "##combin": 5487,
      "##calcul": 5488,
      "##calibrat": 5489,
      "##call": 5490,
      "##certif": 5491,
      "##base": 5492,
      "##bind": 5493,
      "##boot": 5494,
      "##born": 5495,
      "##assuranc": 5496,
      "##assess": 5497,
      "##bas": 5498,
      "##analys": 5499,
      "##affirm": 5500,
      "##essential": 5501,
      "##possess": 5502,
      "##requisit": 5503,
      "##rout": 5504,
      "##filt": 5505,
      "##phras": 5506,
      "##menu": 5507,
      "##entr": 5508,
      "##generat": 5509,
      "##imburs": 5510,
      "##sembl": 5511,
      "##spect": 5512,
      "##try": 5513,
      "##unit": 5514,
      "##union": 5515,
      "##tweet": 5516,
      "##shot": 5517,
      "##one": 5518,
      "##thing": 5519,
      "##way": 5520,
      "##what": 5521,
      "##where": 5522,
      "##more": 5523,
      "##alone": 5524,
      "##forward": 5525,
      "##due": 5526,
      "##doubt": 5527,
      "##detect": 5528,
      "##deserv": 5529,
      "##desir": 5530,
      "##discern": 5531,
      "##disclos": 5532,
      "##distinguish": 5533,
      "##evaluat": 5534,
      "##exampl": 5535,
      "##expect": 5536,
      "##expir": 5537,
      "##explain": 5538,
      "##exploit": 5539,
      "##explor": 5540,
      "##fair": 5541,
      "##equi": 5542,
      "##employ": 5543,
      "##eas": 5544,
      "##familiar": 5545,
      "##fill": 5546,
      "##feel": 5547,
      "##focus": 5548,
      "##feign": 5549,
      "##format": 5550,
      "##freez": 5551,
      "##frequen": 5552,
      "##fulfil": 5553,
      "##fund": 5554,
      "##foresee": 5555,
      "##forget": 5556,
      "##identif": 5557,
      "##help": 5558,
      "##handl": 5559,
      "##happ": 5560,
      "##gracious": 5561,
      "##grate": 5562,
      "##health": 5563,
      "##geni": 5564,
      "##hid": 5565,
      "##heed": 5566,
      "##guess": 5567,
      "##gallant": 5568,
      "##dog": 5569,
      "##land": 5570,
      "##char": 5571,
      "##press": 5572,
      "##round": 5573,
      "##dominan": 5574,
      "##dominat": 5575,
      "##fetch": 5576,
      "##dock": 5577,
      "##pay": 5578,
      "##doc": 5579,
      "##dos": 5580,
      "##matur": 5581,
      "##submiss": 5582,
      "##submit": 5583,
      "##surg": 5584,
      "##sync": 5585,
      "##colon": 5586,
      "##men": 5587,
      "##valenc": 5588,
      "##dom": 5589,
      "##public": 5590,
      "##puls": 5591,
      "##purpos": 5592,
      "##schedul": 5593,
      "##cas": 5594,
      "##numer": 5595,
      "##cad": 5596,
      "##tude": 5597,
      "##late": 5598,
      "##band": 5599,
      "##ref": 5600,
      "##val": 5601,
      "##referenc": 5602,
      "##geo": 5603,
      "##refut": 5604,
      "##reduc": 5605,
      "##expert": 5606,
      "##bean": 5607,
      "##scap": 5608,
      "##mov": 5609,
      "##ubuntu": 5610,
      "##commut": 5611,
      "##complian": 5612,
      "##contigu": 5613,
      "##convex": 5614,
      "##empt": 5615,
      "##exist": 5616,
      "##litera": 5617,
      "##local": 5618,
      "##monoton": 5619,
      "##occur": 5620,
      "##plus": 5621,
      "##regular": 5622,
      "##relevan": 5623,
      "##standard": 5624,
      "##stationar": 5625,
      "##trivial": 5626,
      "##zero": 5627,
      "##here": 5628,
      "##spher": 5629,
      "##cipher": 5630,
      "##distant": 5631,
      "##singular": 5632,
      "##vocat": 5633,
      "##loop": 5634,
      "##path": 5635,
      "##stash": 5636,
      "##wire": 5637,
      "##lens": 5638,
      "##key": 5639,
      "##spot": 5640,
      "##far": 5641,
      "##depth": 5642,
      "##fram": 5643,
      "##decimal": 5644,
      "##patien": 5645,
      "##perfect": 5646,
      "##precis": 5647,
      "##proper": 5648,
      "##propriet": 5649,
      "##probab": 5650,
      "##prim": 5651,
      "##ident": 5652,
      "##pruden": 5653,
      "##describ": 5654,
      "##finit": 5655,
      "##flam": 5656,
      "##habit": 5657,
      "##leav": 5658,
      "##judg": 5659,
      "##lac": 5660,
      "##pod": 5661,
      "##meet": 5662,
      "##led": 5663,
      "##mission": 5664,
      "##do": 5665,
      "##sheet": 5666,
      "##card": 5667,
      "##put": 5668,
      "##flect": 5669,
      "##stamp": 5670,
      "##gono": 5671,
      "##ask": 5672,
      "##bias": 5673,
      "##mean": 5674,
      "##flex": 5675,
      "##fluen": 5676,
      "##flux": 5677,
      "##delic": 5678,
      "##definit": 5679,
      "##decisi": 5680,
      "##fatig": 5681,
      "##congruent": 5682,
      "##polit": 5683,
      "##migrat": 5684,
      "##polar": 5685,
      "##vis": 5686,
      "##itera": 5687,
      "##technolog": 5688,
      "##conform": 5689,
      "##did": 5690,
      "##spread": 5691,
      "##length": 5692,
      "##let": 5693,
      "##bot": 5694,
      "##driver": 5695,
      "##block": 5696,
      "##battle": 5697,
      "##qualit": 5698,
      "##school": 5699,
      "##sprint": 5700,
      "##styl": 5701,
      "##review": 5702,
      "##robot": 5703,
      "##descen": 5704,
      "##federat": 5705,
      "##scan": 5706,
      "##auto": 5707,
      "##info": 5708,
      "##duplicat": 5709,
      "##dream": 5710,
      "##hap": 5711,
      "##ran": 5712,
      "##spark": 5713,
      "##arch": 5714,
      "##found": 5715,
      "##gb": 5716,
      "##deem": 5717,
      "##tell": 5718,
      "##ball": 5719,
      "##even": 5720,
      "##equivocal": 5721,
      "##favo": 5722,
      "##finish": 5723,
      "##fath": 5724,
      "##topic": 5725,
      "##total": 5726,
      "##aware": 5727,
      "##negotiat": 5728,
      "##new": 5729,
      "##matrix": 5730,
      "##screen": 5731,
      "##sock": 5732,
      "##forgiv": 5733,
      "##admin": 5734,
      "##house": 5735,
      "##gam": 5736,
      "##fps": 5737,
      "##drew": 5738,
      "##mod": 5739,
      "##distanc": 5740,
      "##apply": 5741,
      "##appli": 5742,
      "##trie": 5743,
      "##ible": 5744,
      "##ibly": 5745,
      "##ility": 5746,
      "##walk": 5747,
      "##instan": 5748,
      "##lemma": 5749,
      "##px": 5750,
      "##bart": 5751
    }
  }
}