{
  "version": "1.0",
  "truncation": null,
  "padding": null,
  "added_tokens": [
    {
      "id": 0,
      "content": "[PAD]",
      "single_word": false,
      "lstrip": false,
      "rstrip": false,
      "normalized": false,
      "special": true
    },
    {
      "id": 1,
      "content": "[UNK]",
      "single_word": false,
      "lstrip": false,
      "rstrip": false,
      "normalized": false,
      "special": true
    },
    {
      "id": 2,
      "content": "[CLS]",
      "single_word": false,
      "lstrip": false,
      "rstrip": false,
      "normalized": false,
      "special": true
    },
    {
      "id": 3,
      "content": "[SEP]",
      "single_word": false,
      "lstrip": false,
      "rstrip": false,
      "normalized": false,
      "special": true
    },
    {
      "id": 4,
      "content": "[MASK]",
      "single_word": false,
      "lstrip": false,
      "rstrip": false,
      "normalized": false,
      "special": true
    },
    {
      "id": 5,
      "content": "##a",
      "single_word": false,
      "lstrip": false,
      "rstrip": false,
      "normalized": false,
      "special": true
    },
    {
      "id": 6,
      "content": "##b",
      "single_word": false,
      "lstrip": false,
      "rstrip": false,
      "normalized": false,
      "special": true
    },
    {
      "id": 7,
      "content": "##c",
      "single_word": false,
      "lstrip": false,
      "rstrip": false,
      "normalized": false,
      "special": true
    },
    {
      "id": 8,
      "content": "##d",
      "single_word": false,
      "lstrip": false,
      "rstrip": false,
      "normalized": false,
      "special": true
    },
    {
      "id": 9,
      "content": "##e",
      "single_word": false,
      "lstrip": false,
      "rstrip": false,
      "normalized": false,
      "special": true
    },
    {
      "id": 10,
      "content": "##f",
      "single_word": false,
      "lstrip": false,
      "rstrip": false,
      "normalized": false,
      "special": true
    },
    {
      "id": 11,
      "content": "##g",
      "single_word": false,
      "lstrip": false,
      "rstrip": false,
      "normalized": false,
      "special": true
    },
    {
      "id": 12,
      "content": "##h",
      "single_word": false,
      "lstrip": false,
      "rstrip": false,
      "normalized": false,
      "special": true
    },
    {
      "id": 13,
      "content": "##i",
      "single_word": false,
      "lstrip": false,
      "rstrip": false,
      "normalized": false,
      "special": true
    },
    {
      "id": 14,
      "content": "##j",
      "single_word": false,
      "lstrip": false,
      "rstrip": false,
      "normalized": false,
      "special": true
    },
    {
      "id": 15,
      "content": "##k",
      "single_word": false,
      "lstrip": false,
      "rstrip": false,
      "normalized": false,
      "special": true
    },
    {
      "id": 16,
      "content": "##l",
      "single_word": false,
      "lstrip": false,
      "rstrip": false,
      "normalized": false,
      "special": true
    },
    {
      "id": 17,
      "content": "##m",
      "single_word": false,
      "lstrip": false,
      "rstrip": false,
      "normalized": false,
      "special": true
    },
    {
      "id": 18,
      "content": "##n",
      "single_word": false,
      "lstrip": false,
      "rstrip": false,
      "normalized": false,
      "special": true
    },
    {
      "id": 19,
      "content": "##o",
      "single_word": false,
      "lstrip": false,
      "rstrip": false,
      "normalized": false,
      "special": true
    },
    {
      "id": 20,
      "content": "##p",
      "single_word": false,
      "lstrip": false,
      "rstrip": false,
      "normalized": false,
      "special": true
    },
    {
      "id": 21,
      "content": "##q",
      "single_word": false,
      "lstrip": false,
      "rstrip": false,
      "normalized": false,
      "special": true
    },
    {
      "id": 22,
      "content": "##r",
      "single_word": false,
      "lstrip": false,
      "rstrip": false,
      "normalized": false,
      "special": true
    },
    {
      "id": 23,
      "content": "##s",
      "single_word": false,
      "lstrip": false,
      "rstrip": false,
      "normalized": false,
      "special": true
    },
    {
      "id": 24,
      "content": "##t",
      "single_word": false,
      "lstrip": false,
      "rstrip": false,
      "normalized": false,
      "special": true
    },
    {
      "id": 25,
      "content": "##u",
      "single_word": false,
      "lstrip": false,
      "rstrip": false,
      "normalized": false,
      "special": true
    },
    {
      "id": 26,
      "content": "##v",
      "single_word": false,
      "lstrip": false,
      "rstrip": false,
      "normalized": false,
      "special": true
    },
    {
      "id": 27,
      "content": "##w",
      "single_word": false,
      "lstrip": false,
      "rstrip": false,
      "normalized": false,
      "special": true
    },
    {
      "id": 28,
      "content": "##x",
      "single_word": false,
      "lstrip": false,
      "rstrip": false,
      "normalized": false,
      "special": true
    },
    {
      "id": 29,
      "content": "##y",
      "single_word": false,
      "lstrip": false,
      "rstrip": false,
      "normalized": false,
      "special": true
    },
    {
      "id": 30,
      "content": "##z",
      "single_word": false,
      "lstrip": false,
      "rstrip": false,
      "normalized": false,
      "special": true
    }
  ],
  "normalizer": {
    "type": "BertNormalizer",
    "clean_text": true,
    "handle_chinese_chars": true,
    "strip_accents": true,
    "lowercase": true
  },
  "pre_tokenizer": {
    "type": "BertPreTokenizer"
  },
  "post_processor": null,
  "decoder": {
    "type": "WordPiece",
    "prefix": "##",
    "cleanup": true
  },
  "model": {
    "type": "WordPiece",
    "unk_token": "[UNK]",
    "continuing_subword_prefix": "##",
    "max_input_chars_per_word": 100,
    "vocab": {
      "[PAD]": 0,
      "[UNK]": 1,
      "[CLS]": 2,
      "[SEP]": 3,
      "[MASK]": 4,
      "##a": 5,
      "##b": 6,
      "##c": 7,
      "##d": 8,
      "##e": 9,
      "##f": 10,
      "##g": 11,
      "##h": 12,
      "##i": 13,
      "##j": 14,
      "##k": 15,
      "##l": 16,
      "##m": 17,
      "##n": 18,
      "##o": 19,
      "##p": 20,
      "##q": 21,
      "##r": 22,
      "##s": 23,
      "##t": 24,
      "##u": 25,
      "##v": 26,
      "##w": 27,
      "##x": 28,
      "##y": 29,
      "##z": 30,
      "+": 31,
      "-": 32,
      ".": 33,
      "/": 34,
      "0": 35,
      "1": 36,
      "2": 37,
      "3": 38,
      "4": 39,
      "5": 40,
      "6": 41,
      "7": 42,
      "8": 43,
      "9": 44,
      "_": 45,
      "a": 46,
      "b": 47,
      "c": 48,
      "d": 49,
      "e": 50,
      "f": 51,
      "g": 52,
      "h": 53,
      "i": 54,
      "j": 55,
      "k": 56,
      "l": 57,
      "m": 58,
      "n": 59,
      "o": 60,
      "p": 61,
      "q": 62,
      "r": 63,
      "s": 64,
      "t": 65,
      "u": 66,
      "v": 67,
      "w": 68,
      "x": 69,
      "y": 70,
      "z": 71,
      ".js": 72,
      "1d": 73,
      "2d": 74,
      "3d": 75,
      "abandon": 76,
      "abat": 77,
      "abbreviat": 78,
      "aberrant": 79,
      "abhor": 80,
      "abid": 81,
      "ability": 82,
      "ablat": 83,
      "able": 84,
      "aboli": 85,
      "abomina": 86,
      "abort": 87,
      "abound": 88,
      "about": 89,
      "above": 90,
      "abreast": 91,
      "abrogat": 92,
      "abrupt": 93,
      "abscond": 94,
      "absen": 95,
      "absolut": 96,
      "absorb": 97,
      "abstain": 98,
      "abstract": 99,
      "abundan": 100,
      "abus": 101,
      "academ": 102,
      "acced": 103,
      "accelerat": 104,
      "accent": 105,
      "accept": 106,
      "access": 107,
      "accident": 108,
      "acclaim": 109,
      "accommodat": 110,
      "accomplish": 111,
      "accord": 112,
      "account": 113,
      "accrue": 114,
      "accumulat": 115,
      "accur": 116,
      "accus": 117,
      "ache": 118,
      "achiev": 119,
      "acoust": 120,
      "acquaint": 121,
      "acquies": 122,
      "acquir": 123,
      "acquisition": 124,
      "acquit": 125,
      "acronym": 126,
      "act": 127,
      "action": 128,
      "activ": 129,
      "activat": 130,
      "actual": 131,
      "actuat": 132,
      "acute": 133,
      "ada": 134,
      "adapt": 135,
      "add": 136,
      "addendum": 137,
      "addict": 138,
      "addit": 139,
      "address": 140,
      "adept": 141,
      "adequat": 142,
      "adher": 143,
      "adjacen": 144,
      "adjectiv": 145,
      "adjoin": 146,
      "adjust": 147,
      "admin": 148,
      "admir": 149,
      "admiss": 150,
      "admit": 151,
      "adobe": 152,
      "adopt": 153,
      "ador": 154,
      "adorn": 155,
      "advanc": 156,
      "advantag": 157,
      "adventur": 158,
      "advers": 159,
      "advert": 160,
      "advic": 161,
      "advis": 162,
      "adware": 163,
      "affab": 164,
      "affair": 165,
      "affect": 166,
      "affiliat": 167,
      "affin": 168,
      "affirm": 169,
      "affix": 170,
      "afflict": 171,
      "afford": 172,
      "affront": 173,
      "afraid": 174,
      "after": 175,
      "again": 176,
      "against": 177,
      "age": 178,
      "agenc": 179,
      "agenda": 180,
      "agent": 181,
      "agglomerat": 182,
      "aggravat": 183,
      "aggregat": 184,
      "aggress": 185,
      "aghast": 186,
      "agil": 187,
      "agitat": 188,
      "ago": 189,
      "agree": 190,
      "ahead": 191,
      "aim": 192,
      "air": 193,
      "ajax": 194,
      "aka": 195,
      "al": 196,
      "alack": 197,
      "alacrit": 198,
      "alarm": 199,
      "alert": 200,
      "alex": 201,
      "algebra": 202,
      "algorithm": 203,
      "alias": 204,
      "align": 205,
      "alike": 206,
      "alive": 207,
      "all": 208,
      "alleg": 209,
      "allegor": 210,
      "alleviat": 211,
      "alli": 212,
      "allianc": 213,
      "allocat": 214,
      "allot": 215,
      "allow": 216,
      "allud": 217,
      "allus": 218,
      "ally": 219,
      "alone": 220,
      "along": 221,
      "aloud": 222,
      "alpha": 223,
      "alphabet": 224,
      "already": 225,
      "also": 226,
      "alter": 227,
      "alternat": 228,
      "although": 229,
      "always": 230,
      "am": 231,
      "amass": 232,
      "amaz": 233,
      "amazon": 234,
      "ambi": 235,
      "ambient": 236,
      "ambigu": 237,
      "ambit": 238,
      "amend": 239,
      "amiabl": 240,
      "amid": 241,
      "amiss": 242,
      "amo": 243,
      "among": 244,
      "amount": 245,
      "amper": 246,
      "ampersand": 247,
      "ampl": 248,
      "amplic": 249,
      "amplif": 250,
      "amplitud": 251,
      "amus": 252,
      "an": 253,
      "analog": 254,
      "analys": 255,
      "analytic": 256,
      "analyz": 257,
      "anchor": 258,
      "ancient": 259,
      "and": 260,
      "android": 261,
      "anew": 262,
      "angel": 263,
      "angl": 264,
      "angular": 265,
      "anim": 266,
      "animat": 267,
      "anneal": 268,
      "anniversary": 269,
      "annotat": 270,
      "announc": 271,
      "annoy": 272,
      "annual": 273,
      "anomal": 274,
      "anonym": 275,
      "another": 276,
      "ansi": 277,
      "ansible": 278,
      "answer": 279,
      "antenn": 280,
      "anti": 281,
      "anticipat": 282,
      "anxious": 283,
      "any": 284,
      "apache": 285,
      "apart": 286,
      "apartment": 287,
      "apertur": 288,
      "api": 289,
      "apolog": 290,
      "apostrophe": 291,
      "app": 292,
      "apparent": 293,
      "appeal": 294,
      "appear": 295,
      "appeas": 296,
      "appellation": 297,
      "append": 298,
      "appl": 299,
      "applaud": 300,
      "apple": 301,
      "applet": 302,
      "applianc": 303,
      "applic": 304,
      "appoint": 305,
      "apposit": 306,
      "apprais": 307,
      "apprecia": 308,
      "apprehen": 309,
      "approach": 310,
      "approb": 311,
      "appropriat": 312,
      "approv": 313,
      "approximat": 314,
      "april": 315,
      "apt": 316,
      "aptly": 317,
      "arbit": 318,
      "arch": 319,
      "architect": 320,
      "archiv": 321,
      "ardent": 322,
      "arduino": 323,
      "arduous": 324,
      "are": 325,
      "area": 326,
      "argu": 327,
      "argument": 328,
      "aris": 329,
      "arithmet": 330,
      "arm": 331,
      "around": 332,
      "arrang": 333,
      "array": 334,
      "arrear": 335,
      "arriv": 336,
      "arrogan": 337,
      "arrow": 338,
      "art": 339,
      "arti": 340,
      "articl": 341,
      "articulat": 342,
      "artificial": 343,
      "artist": 344,
      "as": 345,
      "asap": 346,
      "ascend": 347,
      "ascent": 348,
      "ascertain": 349,
      "ascii": 350,
      "ascrib": 351,
      "asham": 352,
      "aside": 353,
      "ask": 354,
      "asm": 355,
      "asp": 356,
      "aspect": 357,
      "asper": 358,
      "aspir": 359,
      "assail": 360,
      "assault": 361,
      "assembl": 362,
      "assent": 363,
      "assert": 364,
      "assess": 365,
      "asset": 366,
      "assid": 367,
      "assign": 368,
      "assist": 369,
      "associat": 370,
      "assort": 371,
      "assuag": 372,
      "assum": 373,
      "assur": 374,
      "assuranc": 375,
      "astonish": 376,
      "astound": 377,
      "astray": 378,
      "asunder": 379,
      "asymmetr": 380,
      "asymptot": 381,
      "async": 382,
      "atic": 383,
      "ativ": 384,
      "atlas": 385,
      "atmo": 386,
      "atom": 387,
      "aton": 388,
      "attach": 389,
      "attack": 390,
      "attain": 391,
      "attempt": 392,
      "attend": 393,
      "attent": 394,
      "attenuat": 395,
      "attest": 396,
      "attorn": 397,
      "attract": 398,
      "attribut": 399,
      "attrit": 400,
      "audi": 401,
      "audio": 402,
      "audit": 403,
      "augment": 404,
      "august": 405,
      "auth": 406,
      "authent": 407,
      "author": 408,
      "auto": 409,
      "autonom": 410,
      "autumn": 411,
      "auxiliar": 412,
      "avail": 413,
      "avatar": 414,
      "averag": 415,
      "avert": 416,
      "avoid": 417,
      "avow": 418,
      "awak": 419,
      "award": 420,
      "aware": 421,
      "away": 422,
      "awe": 423,
      "awful": 424,
      "awk": 425,
      "aws": 426,
      "axes": 427,
      "axiom": 428,
      "axis": 429,
      "azure": 430,
      "back": 431,
      "bad": 432,
      "badg": 433,
      "baffl": 434,
      "bag": 435,
      "balanc": 436,
      "ball": 437,
      "ban": 438,
      "band": 439,
      "banish": 440,
      "bank": 441,
      "bar": 442,
      "bas": 443,
      "base": 444,
      "bash": 445,
      "basic": 446,
      "basis": 447,
      "bat": 448,
      "batch": 449,
      "batter": 450,
      "battle": 451,
      "bayes": 452,
      "be": 453,
      "beam": 454,
      "bear": 455,
      "beat": 456,
      "beaut": 457,
      "became": 458,
      "because": 459,
      "becom": 460,
      "been": 461,
      "befor": 462,
      "beg": 463,
      "began": 464,
      "begin": 465,
      "begun": 466,
      "behav": 467,
      "behavio": 468,
      "behaviou": 469,
      "behind": 470,
      "belief": 471,
      "believ": 472,
      "bell": 473,
      "belong": 474,
      "bench": 475,
      "bend": 477,
      "beneath": 477,
      "benefic": 478,
      "benefit": 479,
      "bent": 480,
      "bereav": 481,
      "bereft": 482,
      "bert": 483,
      "beside": 484,
      "best": 485,
      "bestow": 486,
      "beta": 487,
      "betray": 488,
      "between": 489,
      "beyond": 490,
      "bi": 491,
      "bias": 492,
      "bifurcat": 493,
      "big": 494,
      "bigram": 495,
      "bill": 496,
      "bin": 497,
      "binanc": 498,
      "bind": 499,
      "bing": 500,
      "bio": 501,
      "bion": 502,
      "bios": 503,
      "bird": 504,
      "bisect": 505,
      "bit": 506,
      "black": 507,
      "blam": 508,
      "blank": 509,
      "bleach": 510,
      "bleak": 511,
      "blend": 512,
      "bless": 513,
      "blew": 514,
      "blind": 515,
      "blink": 516,
      "blob": 517,
      "block": 518,
      "blog": 519,
      "bloom": 520,
      "blossom": 521,
      "blow": 522,
      "blue": 523,
      "blund": 524,
      "blunt": 525,
      "blur": 526,
      "board": 527,
      "boast": 528,
      "body": 529,
      "boil": 530,
      "bold": 531,
      "bond": 532,
      "bone": 533,
      "bonus": 534,
      "book": 535,
      "bool": 536,
      "boom": 537,
      "boost": 538,
      "boot": 539,
      "bor": 540,
      "border": 541,
      "born": 542,
      "borrow": 543,
      "boss": 544,
      "bot": 545,
      "both": 546,
      "bother": 547,
      "bottle": 548,
      "bottom": 549,
      "bought": 550,
      "bounc": 551,
      "bound": 552,
      "bow": 553,
      "bowl": 554,
      "box": 555,
      "boy": 556,
      "brac": 557,
      "brack": 558,
      "brag": 559,
      "brain": 560,
      "brak": 561,
      "branch": 562,
      "brand": 563,
      "brave": 564,
      "breach": 565,
      "break": 566,
      "breath": 567,
      "brevity": 568,
      "bridg": 569,
      "brief": 570,
      "bright": 571,
      "bring": 572,
      "brisk": 573,
      "broach": 574,
      "broad": 575,
      "broke": 576,
      "brother": 577,
      "brought": 578,
      "brows": 579,
      "brush": 580,
      "btw": 581,
      "buch": 582,
      "bucket": 583,
      "budget": 584,
      "buf": 585,
      "bug": 586,
      "buil": 587,
      "bulk": 588,
      "bump": 589,
      "bunch": 590,
      "bundl": 591,
      "bur": 592,
      "burn": 593,
      "burst": 594,
      "bus": 595,
      "business": 596,
      "but": 597,
      "button": 598,
      "buy": 599,
      "by": 600,
      "bye": 601,
      "byte": 602,
      "cable": 603,
      "cach": 604,
      "cad": 605,
      "calcul": 606,
      "calendar": 607,
      "calibrat": 608,
      "call": 609,
      "calm": 610,
      "cam": 611,
      "came": 612,
      "camera": 613,
      "camp": 614,
      "campaign": 615,
      "campus": 616,
      "can": 617,
      "cancel": 618,
      "candid": 619,
      "candidat": 620,
      "canonical": 621,
      "canvas": 622,
      "capab": 623,
      "capacit": 624,
      "capital": 625,
      "caps": 626,
      "capsul": 627,
      "capt": 628,
      "captcha": 629,
      "caption": 630,
      "captivat": 631,
      "captur": 632,
      "car": 633,
      "card": 634,
      "cardinal": 635,
      "care": 636,
      "carr": 637,
      "cart": 638,
      "carv": 639,
      "cas": 640,
      "cascad": 641,
      "case": 642,
      "cast": 643,
      "catalog": 644,
      "catch": 645,
      "categor": 646,
      "caught": 647,
      "caus": 648,
      "cautio": 649,
      "cbow": 650,
      "ceas": 651,
      "ceil": 652,
      "celebrat": 653,
      "cell": 654,
      "center": 655,
      "centr": 656,
      "ceremon": 657,
      "certain": 658,
      "certif": 659,
      "chain": 660,
      "chair": 661,
      "challeng": 662,
      "champ": 663,
      "chanc": 664,
      "chang": 665,
      "channel": 666,
      "chao": 667,
      "chapt": 668,
      "char": 669,
      "character": 670,
      "charg": 671,
      "charit": 672,
      "charm": 673,
      "chart": 674,
      "chat": 675,
      "cheap": 676,
      "cheat": 677,
      "check": 678,
      "cheer": 679,
      "chief": 680,
      "child": 681,
      "chin": 682,
      "chip": 683,
      "choic": 684,
      "choos": 685,
      "chop": 686,
      "chose": 687,
      "chrom": 688,
      "chronologic": 689,
      "chunk": 690,
      "cipher": 691,
      "circl": 692,
      "circuit": 693,
      "circular": 694,
      "circulat": 695,
      "circum": 696,
      "cisco": 697,
      "cit": 698,
      "citation": 699,
      "civil": 700,
      "claim": 701,
      "clamp": 702,
      "clarif": 703,
      "clarity": 704,
      "clash": 705,
      "class": 706,
      "classif": 707,
      "clause": 708,
      "clean": 709,
      "clear": 710,
      "clever": 711,
      "cli": 712,
      "click": 713,
      "client": 714,
      "climb": 715,
      "cling": 716,
      "clip": 717,
      "clobber": 718,
      "clock": 719,
      "clog": 720,
      "clon": 721,
      "clos": 722,
      "cloth": 723,
      "cloud": 724,
      "club": 725,
      "clue": 726,
      "cluster": 727,
      "clutter": 728,
      "cmd": 729,
      "cmos": 730,
      "cms": 731,
      "cnn": 732,
      "coach": 733,
      "coaxial": 734,
      "cobol": 735,
      "cocoa": 736,
      "cod": 737,
      "code": 738,
      "codif": 739,
      "coefficient": 740,
      "coffee": 741,
      "cofound": 742,
      "cognit": 743,
      "coheren": 744,
      "cohesi": 745,
      "coin": 746,
      "coincid": 747,
      "cold": 748,
      "collaborat": 749,
      "collaps": 750,
      "collat": 751,
      "colleague": 752,
      "collect": 753,
      "college": 754,
      "collid": 755,
      "collinear": 756,
      "collis": 757,
      "collud": 758,
      "collung": 759,
      "colon": 760,
      "color": 761,
      "colour": 762,
      "column": 763,
      "combat": 764,
      "combin": 765,
      "combo": 766,
      "come": 767,
      "comfort": 768,
      "comfy": 769,
      "coming": 770,
      "comma": 771,
      "command": 772,
      "commenc": 773,
      "commend": 774,
      "comment": 775,
      "commerc": 776,
      "commiserat": 777,
      "commiss": 778,
      "commit": 779,
      "commodit": 780,
      "common": 781,
      "commun": 782,
      "communic": 783,
      "commut": 784,
      "compact": 785,
      "compan": 786,
      "compar": 787,
      "compass": 788,
      "compat": 789,
      "compel": 790,
      "compensat": 791,
      "compet": 792,
      "competen": 793,
      "compil": 794,
      "complacen": 795,
      "complai": 796,
      "complement": 797,
      "complet": 798,
      "complex": 799,
      "compli": 800,
      "complian": 801,
      "complicat": 802,
      "compliment": 803,
      "comply": 804,
      "component": 805,
      "compos": 806,
      "compound": 807,
      "comprehen": 808,
      "compres": 809,
      "compris": 810,
      "compromis": 811,
      "compuls": 812,
      "comput": 813,
      "computer": 814,
      "concatenat": 815,
      "concav": 816,
      "conceal": 817,
      "conced": 818,
      "conceit": 819,
      "conceiv": 820,
      "concentrat": 821,
      "concept": 822,
      "concern": 823,
      "concert": 824,
      "concess": 825,
      "conciliat": 826,
      "concis": 827,
      "conclud": 828,
      "conclusi": 829,
      "concord": 830,
      "concret": 831,
      "concurr": 832,
      "condemn": 833,
      "condens": 834,
      "condit": 835,
      "condolenc": 836,
      "conduc": 837,
      "conduct": 838,
      "cone": 839,
      "confer": 840,
      "conferenc": 841,
      "confes": 842,
      "confid": 843,
      "config": 844,
      "confin": 845,
      "confirm": 846,
      "conflat": 847,
      "conflict": 848,
      "confluen": 849,
      "conform": 850,
      "confound": 851,
      "confront": 852,
      "confus": 853,
      "congest": 854,
      "congrat": 855,
      "congratulat": 856,
      "congregat": 857,
      "congress": 858,
      "congru": 859,
      "congruent": 860,
      "conjectur": 861,
      "conjuga": 862,
      "conjunct": 863,
      "connect": 864,
      "conniv": 865,
      "conquer": 866,
      "conscious": 867,
      "consecutiv": 868,
      "consent": 869,
      "conserv": 870,
      "consider": 871,
      "consign": 872,
      "consist": 873,
      "consol": 874,
      "consolidat": 875,
      "consonan": 876,
      "consort": 877,
      "conspic": 878,
      "conspir": 879,
      "const": 880,
      "constit": 881,
      "constrain": 882,
      "constru": 883,
      "construct": 884,
      "consult": 885,
      "consum": 886,
      "contact": 887,
      "contain": 888,
      "contemp": 889,
      "contemplat": 890,
      "contempt": 891,
      "contend": 892,
      "content": 893,
      "contest": 894,
      "context": 895,
      "contigu": 896,
      "contingen": 897,
      "continu": 898,
      "contour": 899,
      "contr": 900,
      "contract": 901,
      "contradict": 902,
      "contrast": 903,
      "contribut": 904,
      "contrit": 905,
      "contriv": 906,
      "control": 907,
      "controver": 908,
      "conundrum": 909,
      "conv": 910,
      "conven": 911,
      "convenien": 912,
      "convent": 913,
      "converg": 914,
      "convers": 915,
      "convert": 916,
      "convex": 917,
      "convey": 918,
      "convict": 919,
      "convinc": 920,
      "conviv": 921,
      "convol": 922,
      "cook": 923,
      "cool": 924,
      "cooperat": 925,
      "coordinat": 926,
      "copi": 927,
      "copy": 928,
      "cord": 929,
      "core": 930,
      "corner": 931,
      "corollar": 932,
      "coroutin": 933,
      "corpora": 934,
      "corpus": 935,
      "correct": 936,
      "correlat": 937,
      "correspond": 938,
      "corroborat": 939,
      "corrupt": 940,
      "cosin": 941,
      "cost": 942,
      "couch": 943,
      "could": 944,
      "counsel": 945,
      "count": 946,
      "counter": 947,
      "coupl": 948,
      "courag": 949,
      "cours": 950,
      "couth": 951,
      "cover": 952,
      "covet": 953,
      "cpu": 954,
      "crack": 955,
      "craft": 956,
      "cramp": 957,
      "crank": 958,
      "crash": 959,
      "crav": 960,
      "crawl": 961,
      "creat": 962,
      "creden": 963,
      "credib": 964,
      "credit": 965,
      "cri": 966,
      "crim": 967,
      "cris": 968,
      "criteri": 969,
      "critic": 970,
      "critique": 971,
      "crm": 972,
      "croach": 973,
      "cron": 974,
      "crop": 975,
      "cross": 976,
      "crowd": 977,
      "crucial": 978,
      "crude": 979,
      "crumbl": 980,
      "crunch": 981,
      "crush": 982,
      "crux": 983,
      "cry": 984,
      "crypt": 985,
      "crypto": 986,
      "crystal": 987,
      "css": 988,
      "cub": 989,
      "cuda": 990,
      "cull": 991,
      "culminat": 992,
      "cultivat": 993,
      "cultur": 994,
      "cumulat": 995,
      "cur": 996,
      "curat": 997,
      "curio": 998,
      "curl": 999,
      "currenc": 1000,
      "current": 1001,
      "cursor": 1002,
      "curtail": 1003,
      "curv": 1004,
      "custom": 1005,
      "cut": 1006,
      "cyber": 1007,
      "cycl": 1008,
      "dabbl": 1009,
      "daemon": 1010,
      "damag": 1011,
      "damp": 1012,
      "danc": 1013,
      "dang": 1014,
      "danger": 1015,
      "dangl": 1016,
      "dar": 1017,
      "dark": 1018,
      "darl": 1019,
      "dart": 1020,
      "dash": 1021,
      "dat": 1022,
      "data": 1023,
      "date": 1024,
      "daughter": 1025,
      "daunt": 1026,
      "dawdl": 1027,
      "day": 1028,
      "dbc": 1029,
      "dbms": 1030,
      "ddr": 1031,
      "de": 1032,
      "dead": 1033,
      "deal": 1034,
      "dear": 1035,
      "debat": 1036,
      "debug": 1037,
      "debut": 1038,
      "decad": 1039,
      "decay": 1040,
      "deceit": 1041,
      "deceiv": 1042,
      "decelerat": 1043,
      "december": 1044,
      "decen": 1045,
      "decentraliz": 1046,
      "decept": 1047,
      "decid": 1048,
      "decimal": 1049,
      "decisi": 1050,
      "declar": 1051,
      "declin": 1052,
      "decorat": 1053,
      "decreas": 1054,
      "decrement": 1055,
      "dedicat": 1056,
      "deduc": 1057,
      "deed": 1058,
      "deem": 1059,
      "deep": 1060,
      "def": 1061,
      "default": 1062,
      "defeat": 1063,
      "defect": 1064,
      "defenc": 1065,
      "defend": 1066,
      "defens": 1067,
      "defer": 1068,
      "defi": 1069,
      "defian": 1070,
      "defic": 1071,
      "defin": 1072,
      "definit": 1073,
      "deflat": 1074,
      "deflect": 1075,
      "deform": 1076,
      "deft": 1077,
      "defus": 1078,
      "degrad": 1079,
      "degree": 1080,
      "delay": 1081,
      "delegat": 1082,
      "delet": 1083,
      "deliberat": 1084,
      "delic": 1085,
      "delight": 1086,
      "deliver": 1087,
      "delphi": 1088,
      "delta": 1089,
      "delv": 1090,
      "demand": 1091,
      "demo": 1092,
      "demodulat": 1093,
      "demolish": 1094,
      "demonstra": 1095,
      "demot": 1096,
      "deni": 1097,
      "dens": 1098,
      "densif": 1099,
      "depart": 1100,
      "department": 1101,
      "depend": 1102,
      "depict": 1103,
      "deplet": 1104,
      "deploy": 1105,
      "deposit": 1106,
      "deprecat": 1107,
      "depreciat": 1108,
      "depreciate": 1109,
      "depress": 1110,
      "depriv": 1111,
      "depth": 1112,
      "deput": 1113,
      "deque": 1114,
      "derang": 1115,
      "deriv": 1116,
      "descen": 1117,
      "descri": 1118,
      "describ": 1119,
      "descript": 1120,
      "desert": 1121,
      "deserv": 1122,
      "design": 1123,
      "designat": 1124,
      "desir": 1125,
      "desk": 1126,
      "despair": 1127,
      "despatch": 1128,
      "desperat": 1129,
      "despit": 1130,
      "despoil": 1131,
      "despond": 1132,
      "destin": 1133,
      "destination": 1134,
      "destroy": 1135,
      "destruct": 1136,
      "detach": 1137,
      "detail": 1138,
      "detain": 1139,
      "detect": 1140,
      "determin": 1141,
      "detract": 1142,
      "dev": 1143,
      "devalu": 1144,
      "devastat": 1145,
      "develop": 1146,
      "deviat": 1147,
      "devic": 1148,
      "devis": 1149,
      "devoid": 1150,
      "devolv": 1151,
      "devot": 1152,
      "dexter": 1153,
      "dia": 1154,
      "diagnos": 1155,
      "diagonal": 1156,
      "diagram": 1157,
      "dial": 1158,
      "dialect": 1159,
      "dialog": 1160,
      "dict": 1161,
      "dictat": 1162,
      "did": 1163,
      "die": 1164,
      "diff": 1165,
      "differ": 1166,
      "differentia": 1167,
      "difficult": 1168,
      "diffiden": 1169,
      "diffus": 1170,
      "dig": 1171,
      "digit": 1172,
      "dignit": 1173,
      "dilat": 1174,
      "dilemma": 1175,
      "diligen": 1176,
      "dilut": 1177,
      "dimens": 1178,
      "diminish": 1179,
      "dinner": 1180,
      "diod": 1181,
      "dire": 1182,
      "direct": 1183,
      "dirt": 1184,
      "dis": 1185,
      "disabl": 1186,
      "disappoint": 1187,
      "discard": 1188,
      "discern": 1189,
      "disciplin": 1190,
      "disclos": 1191,
      "discord": 1192,
      "discount": 1193,
      "discourag": 1194,
      "discover": 1195,
      "discreet": 1196,
      "discrep": 1197,
      "discret": 1198,
      "discriminant": 1199,
      "discriminat": 1200,
      "discuss": 1201,
      "disdain": 1202,
      "disgrac": 1203,
      "disguis": 1204,
      "disgust": 1205,
      "dish": 1206,
      "disjoin": 1207,
      "disk": 1208,
      "dismal": 1209,
      "dismiss": 1210,
      "dispar": 1211,
      "dispens": 1212,
      "dispers": 1213,
      "display": 1214,
      "dispos": 1215,
      "disposit": 1216,
      "disput": 1217,
      "disrupt": 1218,
      "dissent": 1219,
      "dissipat": 1220,
      "dissonan": 1221,
      "dissuad": 1222,
      "distan": 1223,
      "distill": 1224,
      "distinct": 1225,
      "distinguish": 1226,
      "distort": 1227,
      "distract": 1228,
      "distress": 1229,
      "distribut": 1230,
      "disturb": 1231,
      "div": 1232,
      "diverg": 1233,
      "divers": 1234,
      "diversif": 1235,
      "divert": 1236,
      "divid": 1237,
      "divis": 1238,
      "django": 1239,
      "dll": 1240,
      "dnn": 1241,
      "do": 1242,
      "doat": 1243,
      "doc": 1244,
      "dock": 1245,
      "docker": 1246,
      "doctrin": 1247,
      "document": 1248,
      "dole": 1249,
      "dom": 1250,
      "domain": 1251,
      "domestic": 1252,
      "dominan": 1253,
      "dominat": 1254,
      "donat": 1255,
      "doom": 1256,
      "door": 1257,
      "dos": 1258,
      "dot": 1259,
      "doth": 1260,
      "doubl": 1261,
      "doubt": 1262,
      "down": 1263,
      "draft": 1264,
      "drag": 1265,
      "drain": 1266,
      "dram": 1267,
      "drama": 1268,
      "drank": 1270,
      "drastic": 1270,
      "draw": 1271,
      "dread": 1272,
      "dream": 1273,
      "dress": 1274,
      "drew": 1275,
      "drill": 1276,
      "drink": 1277,
      "driv": 1278,
      "dron": 1279,
      "drop": 1280,
      "drown": 1281,
      "drunk": 1282,
      "drupal": 1283,
      "dry": 1284,
      "dual": 1285,
      "dub": 1286,
      "duc": 1287,
      "duck": 1288,
      "due": 1289,
      "dull": 1290,
      "dump": 1291,
      "duo": 1292,
      "dup": 1293,
      "dupl": 1294,
      "durab": 1295,
      "duration": 1296,
      "during": 1298,
      "dusk": 1298,
      "dust": 1299,
      "dut": 1300,
      "dwel": 1301,
      "dwindl": 1302,
      "dynam": 1303,
      "each": 1304,
      "eager": 1305,
      "ear": 1306,
      "earl": 1307,
      "earn": 1309,
      "earth": 1309,
      "eas": 1310,
      "east": 1311,
      "eat": 1312,
      "ebriet": 1313,
      "echo": 1314,
      "eclips": 1315,
      "ecma": 1316,
      "ecolog": 1317,
      "econom": 1318,
      "ed": 1319,
      "edge": 1320,
      "edit": 1321,
      "educat": 1322,
      "effect": 1323,
      "effic": 1324,
      "efficien": 1325,
      "effort": 1326,
      "eigen": 1327,
      "eight": 1328,
      "either": 1329,
      "eject": 1330,
      "elaborat": 1331,
      "elaps": 1332,
      "elastic": 1333,
      "elde": 1334,
      "elect": 1335,
      "electr": 1337,
      "electrif": 1337,
      "electron": 1338,
      "elegan": 1339,
      "element": 1340,
      "elevat": 1341,
      "eleven": 1342,
      "elicit": 1343,
      "eligib": 1344,
      "eliminat": 1345,
      "ellip": 1346,
      "elongat": 1347,
      "else": 1348,
      "elucidat": 1349,
      "elud": 1350,
      "elusiv": 1351,
      "embark": 1352,
      "embarrass": 1353,
      "embed": 1354,
      "embellish": 1355,
      "ember": 1356,
      "emblem": 1357,
      "embod": 1358,
      "embrac": 1359,
      "emerg": 1360,
      "eminen": 1361,
      "emiss": 1362,
      "emit": 1363,
      "emotion": 1364,
      "emphas": 1365,
      "emphat": 1366,
      "empir": 1367,
      "employ": 1368,
      "empt": 1369,
      "emulat": 1370,
      "enabl": 1371,
      "enact": 1372,
      "encapsulat": 1373,
      "enchant": 1374,
      "encumb": 1375,
      "end": 1376,
      "endanger": 1377,
      "endear": 1378,
      "endeav": 1379,
      "endors": 1380,
      "endur": 1381,
      "enem": 1382,
      "energ": 1383,
      "enforc": 1384,
      "engag": 1385,
      "engine": 1386,
      "engross": 1387,
      "enhanc": 1388,
      "enjoy": 1389,
      "enlarg": 1390,
      "enough": 1391,
      "enquir": 1392,
      "enroll": 1393,
      "ensembl": 1394,
      "ensu": 1395,
      "ensur": 1396,
      "entail": 1397,
      "entangl": 1398,
      "enter": 1399,
      "enterpris": 1400,
      "entertain": 1401,
      "enthusiast": 1402,
      "entic": 1403,
      "entire": 1404,
      "entit": 1405,
      "entitl": 1406,
      "entr": 1407,
      "entrain": 1408,
      "entrance": 1409,
      "entrant": 1410,
      "entrap": 1411,
      "entre": 1412,
      "entreat": 1413,
      "entrench": 1414,
      "entrop": 1416,
      "entropic": 1416,
      "entrust": 1417,
      "enum": 1418,
      "enumer": 1419,
      "envelop": 1420,
      "envi": 1421,
      "environ": 1422,
      "envision": 1423,
      "epic": 1424,
      "epilog": 1425,
      "episod": 1426,
      "epoch": 1427,
      "equal": 1428,
      "equaliz": 1429,
      "equat": 1430,
      "equi": 1431,
      "equip": 1432,
      "equit": 1433,
      "er": 1434,
      "eradicate": 1435,
      "eras": 1436,
      "ergonom": 1437,
      "erlang": 1438,
      "errand": 1439,
      "errant": 1440,
      "erroneous": 1441,
      "error": 1442,
      "es": 1443,
      "escalat": 1444,
      "escap": 1445,
      "escort": 1446,
      "especial": 1447,
      "essen": 1448,
      "essential": 1449,
      "establish": 1450,
      "estate": 1451,
      "esteem": 1452,
      "estima": 1453,
      "etc": 1454,
      "etern": 1455,
      "ether": 1456,
      "euclid": 1457,
      "euler": 1458,
      "euro": 1459,
      "evad": 1460,
      "evaluat": 1461,
      "evaporat": 1462,
      "evas": 1463,
      "even": 1464,
      "evening": 1465,
      "event": 1466,
      "ever": 1467,
      "every": 1468,
      "evict": 1469,
      "eviden": 1470,
      "evok": 1471,
      "evolut": 1472,
      "evolv": 1473,
      "exact": 1474,
      "exaggerat": 1475,
      "exam": 1476,
      "examin": 1477,
      "exampl": 1478,
      "exceed": 1479,
      "excel": 1480,
      "except": 1481,
      "excess": 1482,
      "excit": 1483,
      "exclud": 1484,
      "exclus": 1485,
      "exclusiv": 1486,
      "excus": 1487,
      "exec": 1488,
      "execut": 1489,
      "exempl": 1490,
      "exempt": 1491,
      "exercis": 1492,
      "exert": 1493,
      "exhaust": 1494,
      "exhibit": 1495,
      "exigen": 1496,
      "exist": 1497,
      "exit": 1498,
      "expand": 1499,
      "expans": 1500,
      "expect": 1501,
      "expedien": 1502,
      "expedit": 1503,
      "expedite": 1504,
      "expend": 1505,
      "expens": 1506,
      "experien": 1507,
      "experiment": 1508,
      "expert": 1509,
      "expir": 1510,
      "explain": 1511,
      "explanat": 1512,
      "explic": 1513,
      "explod": 1514,
      "exploit": 1515,
      "explor": 1516,
      "explos": 1517,
      "exponent": 1518,
      "export": 1519,
      "expos": 1520,
      "expound": 1521,
      "express": 1522,
      "exten": 1523,
      "extenuat": 1524,
      "exterior": 1525,
      "extern": 1526,
      "extinguish": 1527,
      "extra": 1528,
      "extract": 1529,
      "extrapolat": 1530,
      "extravagan": 1531,
      "extrem": 1532,
      "extricat": 1533,
      "extrinsic": 1534,
      "exult": 1535,
      "eye": 1536,
      "fabl": 1537,
      "fabric": 1538,
      "fac": 1539,
      "face": 1540,
      "facilit": 1541,
      "fact": 1542,
      "factor": 1543,
      "fad": 1544,
      "fail": 1545,
      "faint": 1546,
      "fair": 1548,
      "faith": 1548,
      "fake": 1549,
      "fall": 1550,
      "false": 1551,
      "fame": 1552,
      "famil": 1553,
      "familiar": 1554,
      "famous": 1555,
      "fan": 1556,
      "fanc": 1557,
      "fantas": 1558,
      "faq": 1559,
      "far": 1560,
      "fare": 1561,
      "farth": 1562,
      "fascinat": 1563,
      "fashion": 1564,
      "fast": 1565,
      "fasten": 1566,
      "fastidious": 1567,
      "fat": 1568,
      "fatal": 1569,
      "father": 1570,
      "fatig": 1571,
      "fault": 1572,
      "favo": 1573,
      "fear": 1574,
      "feasib": 1575,
      "featur": 1576,
      "february": 1577,
      "federal": 1578,
      "federat": 1579,
      "feebl": 1580,
      "feed": 1581,
      "feel": 1582,
      "fees": 1583,
      "feet": 1584,
      "feign": 1585,
      "felic": 1586,
      "fell": 1587,
      "fellow": 1588,
      "felt": 1589,
      "female": 1590,
      "femin": 1591,
      "fenc": 1592,
      "fend": 1593,
      "festiv": 1594,
      "fetch": 1595,
      "few": 1596,
      "ficat": 1597,
      "ficial": 1598,
      "fickl": 1599,
      "fide": 1600,
      "fidel": 1601,
      "fidget": 1602,
      "field": 1603,
      "fift": 1604,
      "fight": 1605,
      "figur": 1606,
      "file": 1607,
      "fill": 1608,
      "filt": 1609,
      "filtrat": 1610,
      "fin": 1611,
      "final": 1612,
      "financ": 1613,
      "find": 1614,
      "fine": 1615,
      "finger": 1616,
      "finish": 1617,
      "finit": 1618,
      "fir": 1619,
      "fire": 1620,
      "firm": 1621,
      "first": 1622,
      "fish": 1623,
      "fit": 1624,
      "five": 1625,
      "fix": 1626,
      "fixat": 1627,
      "flag": 1628,
      "flam": 1629,
      "flare": 1630,
      "flash": 1631,
      "flask": 1632,
      "flat": 1633,
      "flav": 1634,
      "flaw": 1635,
      "flect": 1636,
      "fled": 1637,
      "flee": 1638,
      "fleet": 1639,
      "flew": 1640,
      "flex": 1641,
      "fli": 1642,
      "flick": 1643,
      "flight": 1644,
      "fling": 1645,
      "flip": 1646,
      "flirt": 1647,
      "float": 1648,
      "flock": 1649,
      "flood": 1650,
      "floor": 1651,
      "flopp": 1652,
      "flourish": 1653,
      "flow": 1654,
      "fluctuat": 1655,
      "fluen": 1656,
      "fluff": 1657,
      "flung": 1658,
      "flurr": 1659,
      "flush": 1660,
      "flutter": 1661,
      "flux": 1662,
      "fly": 1663,
      "focal": 1664,
      "focus": 1665,
      "fold": 1666,
      "foll": 1667,
      "follow": 1668,
      "fond": 1669,
      "font": 1670,
      "food": 1671,
      "fool": 1672,
      "foot": 1673,
      "fopp": 1674,
      "for": 1675,
      "foray": 1676,
      "forb": 1677,
      "forbid": 1678,
      "forc": 1679,
      "fore": 1680,
      "forebod": 1681,
      "foresee": 1682,
      "forest": 1683,
      "foretell": 1684,
      "forever": 1685,
      "forfeit": 1686,
      "forgav": 1687,
      "forge": 1688,
      "forget": 1689,
      "forgiv": 1690,
      "forgo": 1691,
      "forgot": 1692,
      "fork": 1693,
      "form": 1694,
      "formaliz": 1695,
      "format": 1696,
      "formul": 1697,
      "formulat": 1698,
      "forswear": 1699,
      "forth": 1700,
      "fortif": 1701,
      "fortran": 1702,
      "fortun": 1703,
      "forum": 1704,
      "forward": 1705,
      "fought": 1706,
      "found": 1707,
      "four": 1708,
      "fox": 1709,
      "fps": 1710,
      "fract": 1711,
      "fraction": 1712,
      "fragil": 1713,
      "fragment": 1714,
      "fragran": 1715,
      "fram": 1716,
      "framework": 1717,
      "franca": 1718,
      "frantic": 1719,
      "fraud": 1720,
      "free": 1721,
      "freez": 1722,
      "frequen": 1723,
      "fresh": 1724,
      "fri": 1725,
      "friend": 1726,
      "fright": 1727,
      "from": 1728,
      "front": 1729,
      "froz": 1730,
      "frugal": 1731,
      "fruit": 1732,
      "frustrat": 1733,
      "frustum": 1734,
      "ftp": 1735,
      "fuck": 1736,
      "fuel": 1737,
      "ful": 1738,
      "fulfil": 1739,
      "full": 1740,
      "fumbl": 1741,
      "fun": 1742,
      "func": 1743,
      "fund": 1744,
      "fundament": 1745,
      "funder": 1746,
      "fungib": 1747,
      "funnel": 1748,
      "furbish": 1749,
      "furcat": 1750,
      "further": 1751,
      "fus": 1752,
      "futur": 1753,
      "fuzz": 1754,
      "gadget": 1755,
      "gain": 1756,
      "gallant": 1757,
      "galler": 1758,
      "gam": 1759,
      "gambl": 1760,
      "game": 1761,
      "gamif": 1762,
      "gan": 1763,
      "gap": 1764,
      "garbag": 1765,
      "garment": 1766,
      "gat": 1767,
      "gather": 1768,
      "gaug": 1769,
      "gauss": 1770,
      "gave": 1771,
      "gaz": 1772,
      "gb": 1773,
      "gcc": 1774,
      "geek": 1775,
      "gem": 1777,
      "gemini": 1777,
      "gen": 1778,
      "gener": 1779,
      "general": 1780,
      "generat": 1781,
      "generic": 1782,
      "genet": 1783,
      "geni": 1784,
      "gentl": 1785,
      "genuin": 1786,
      "geo": 1787,
      "gestur": 1788,
      "get": 1790,
      "gether": 1790,
      "ghost": 1791,
      "giant": 1792,
      "gift": 1793,
      "gig": 1794,
      "giga": 1795,
      "gigant": 1796,
      "girl": 1797,
      "gist": 1798,
      "git": 1799,
      "giv": 1800,
      "glad": 1801,
      "glanc": 1802,
      "glar": 1803,
      "glass": 1804,
      "glean": 1805,
      "glee": 1806,
      "glimps": 1807,
      "glitch": 1808,
      "glob": 1809,
      "gloom": 1810,
      "glor": 1811,
      "gloss": 1812,
      "glow": 1813,
      "glue": 1814,
      "glyph": 1815,
      "gnome": 1816,
      "gnu": 1817,
      "go": 1818,
      "goal": 1819,
      "gold": 1820,
      "gonal": 1821,
      "good": 1822,
      "googl": 1823,
      "gorgeous": 1824,
      "got": 1825,
      "goto": 1826,
      "govern": 1827,
      "gps": 1828,
      "gpt": 1829,
      "gpu": 1830,
      "grab": 1831,
      "grace": 1832,
      "gracious": 1833,
      "grad": 1834,
      "gradat": 1835,
      "gradient": 1836,
      "gradl": 1837,
      "gradual": 1838,
      "graduat": 1839,
      "gram": 1840,
      "gramm": 1841,
      "grand": 1842,
      "grant": 1843,
      "granular": 1844,
      "graph": 1845,
      "graphic": 1846,
      "grappl": 1847,
      "grasp": 1848,
      "grat": 1849,
      "grate": 1850,
      "gratif": 1852,
      "grav": 1852,
      "gravit": 1853,
      "gray": 1854,
      "great": 1855,
      "greed": 1856,
      "greet": 1857,
      "grep": 1858,
      "grew": 1859,
      "grid": 1860,
      "griev": 1861,
      "grind": 1862,
      "grip": 1863,
      "groom": 1864,
      "groov": 1865,
      "gross": 1866,
      "ground": 1867,
      "group": 1868,
      "grow": 1869,
      "grpc": 1870,
      "grudg": 1871,
      "gruel": 1872,
      "grunt": 1873,
      "gsm": 1874,
      "guarante": 1875,
      "guard": 1876,
      "guess": 1877,
      "guest": 1878,
      "gui": 1879,
      "guid": 1880,
      "guilt": 1881,
      "habit": 1882,
      "hack": 1883,
      "hackathon": 1884,
      "had": 1885,
      "hadoop": 1886,
      "hail": 1887,
      "half": 1888,
      "halt": 1889,
      "hamper": 1890,
      "hand": 1891,
      "handl": 1892,
      "hang": 1893,
      "happ": 1894,
      "happen": 1895,
      "hapt": 1896,
      "hard": 1897,
      "harm": 1898,
      "harmon": 1899,
      "harness": 1900,
      "harsh": 1901,
      "has": 1902,
      "hash": 1903,
      "haskell": 1904,
      "hassl": 1905,
      "hast": 1906,
      "hat": 1907,
      "haul": 1908,
      "haunt": 1909,
      "hav": 1910,
      "hazard": 1911,
      "hdd": 1912,
      "hdmi": 1913,
      "he": 1914,
      "head": 1916,
      "heal": 1916,
      "health": 1917,
      "heap": 1918,
      "hear": 1919,
      "heart": 1920,
      "heat": 1921,
      "heather": 1922,
      "heav": 1923,
      "heaven": 1924,
      "hedron": 1925,
      "height": 1926,
      "heir": 1927,
      "held": 1928,
      "hello": 1929,
      "help": 1930,
      "hence": 1931,
      "her": 1932,
      "here": 1933,
      "hereby": 1934,
      "hesitat": 1935,
      "heter": 1936,
      "heuristic": 1937,
      "hex": 1938,
      "hi": 1939,
      "hiber": 1940,
      "hid": 1941,
      "hierarch": 1942,
      "high": 1943,
      "hijack": 1944,
      "him": 1945,
      "hinder": 1946,
      "hindranc": 1947,
      "hint": 1948,
      "hir": 1949,
      "his": 1950,
      "hist": 1951,
      "histor": 1952,
      "hit": 1954,
      "hither": 1954,
      "hiv": 1955,
      "hold": 1956,
      "holi": 1957,
      "holistic": 1958,
      "holo": 1959,
      "home": 1960,
      "homo": 1961,
      "homogen": 1962,
      "honest": 1963,
      "honour": 1964,
      "hood": 1965,
      "hook": 1967,
      "hop": 1967,
      "horizon": 1968,
      "horribl": 1969,
      "horror": 1970,
      "hospit": 1971,
      "host": 1972,
      "hot": 1973,
      "hour": 1974,
      "house": 1975,
      "hover": 1976,
      "how": 1977,
      "html": 1978,
      "http": 1979,
      "hub": 1980,
      "huge": 1981,
      "human": 1982,
      "humbl": 1983,
      "humour": 1984,
      "hundred": 1985,
      "hung": 1986,
      "hunt": 1987,
      "hurr": 1988,
      "hurt": 1989,
      "husband": 1990,
      "hush": 1991,
      "hybrid": 1992,
      "hype": 1993,
      "hyper": 1994,
      "hypoth": 1995,
      "ic": 1996,
      "icon": 1997,
      "idea": 1998,
      "ideal": 1999,
      "ident": 2000,
      "identif": 2002,
      "idiom": 2002,
      "idol": 2003,
      "ight": 2004,
      "ignit": 2005,
      "ignor": 2006,
      "ill": 2007,
      "illuminat": 2008,
      "illus": 2009,
      "illustrat": 2010,
      "imag": 2011,
      "imagin": 2012,
      "imbue": 2013,
      "imburs": 2014,
      "imitat": 2015,
      "immediat": 2016,
      "immens": 2017,
      "immers": 2018,
      "imminent": 2019,
      "immut": 2020,
      "impact": 2021,
      "impair": 2022,
      "impart": 2023,
      "imped": 2024,
      "impel": 2025,
      "impend": 2026,
      "impersonat": 2027,
      "impertinen": 2028,
      "impet": 2029,
      "impl": 2030,
      "implant": 2031,
      "implement": 2032,
      "implicat": 2033,
      "implicit": 2034,
      "import": 2036,
      "impos": 2036,
      "impossibl": 2037,
      "impress": 2038,
      "improv": 2039,
      "impuden": 2040,
      "impuls": 2041,
      "impur": 2042,
      "imput": 2043,
      "inasmuch": 2044,
      "inaugurat": 2045,
      "incent": 2046,
      "incept": 2047,
      "inch": 2048,
      "incident": 2049,
      "incit": 2050,
      "inclin": 2051,
      "includ": 2052,
      "inclus": 2053,
      "incognito": 2054,
      "increas": 2055,
      "incredibl": 2056,
      "increment": 2057,
      "incubat": 2058,
      "incur": 2059,
      "indebt": 2060,
      "indeed": 2061,
      "indelibl": 2062,
      "indent": 2063,
      "index": 2064,
      "indic": 2065,
      "indicat": 2066,
      "indign": 2067,
      "individual": 2068,
      "indolen": 2069,
      "indub": 2070,
      "induc": 2072,
      "induct": 2072,
      "indulg": 2073,
      "industr": 2074,
      "inert": 2075,
      "infatuat": 2076,
      "infect": 2077,
      "infer": 2078,
      "inflat": 2079,
      "inflect": 2080,
      "inflict": 2081,
      "info": 2082,
      "inforc": 2083,
      "inform": 2084,
      "infra": 2085,
      "infring": 2086,
      "infus": 2087,
      "ing": 2088,
      "ingen": 2089,
      "ingest": 2090,
      "ingrain": 2091,
      "ingrat": 2092,
      "ingress": 2093,
      "inherent": 2094,
      "inherit": 2095,
      "inhibit": 2096,
      "inimitab": 2097,
      "init": 2098,
      "initiat": 2099,
      "inject": 2100,
      "injur": 2101,
      "ink": 2102,
      "inlin": 2103,
      "innate": 2104,
      "inner": 2105,
      "inno": 2106,
      "innoc": 2107,
      "innocent": 2108,
      "innovat": 2109,
      "input": 2110,
      "inquir": 2111,
      "inquisit": 2112,
      "inroad": 2113,
      "insan": 2114,
      "insert": 2115,
      "insight": 2116,
      "insinuat": 2117,
      "insist": 2118,
      "inso": 2119,
      "insolen": 2120,
      "inspect": 2121,
      "inspir": 2122,
      "inst": 2123,
      "instabil": 2124,
      "install": 2125,
      "instanc": 2126,
      "instant": 2127,
      "instat": 2128,
      "instead": 2129,
      "instigat": 2130,
      "instinct": 2131,
      "institut": 2132,
      "instruct": 2133,
      "instrument": 2134,
      "insuff": 2135,
      "insult": 2136,
      "insur": 2137,
      "intact": 2138,
      "integr": 2139,
      "intel": 2140,
      "intellect": 2141,
      "intelli": 2142,
      "intelligen": 2143,
      "inten": 2144,
      "intend": 2145,
      "intens": 2146,
      "intent": 2147,
      "inter": 2148,
      "interact": 2149,
      "intercept": 2150,
      "interest": 2151,
      "interfac": 2152,
      "interfer": 2153,
      "interim": 2154,
      "intermiss": 2155,
      "intern": 2156,
      "international": 2157,
      "internet": 2158,
      "interpolat": 2159,
      "interpret": 2160,
      "interrupt": 2161,
      "interval": 2162,
      "interven": 2163,
      "intim": 2164,
      "into": 2165,
      "intra": 2166,
      "intract": 2167,
      "intric": 2168,
      "intrigu": 2169,
      "intrinsic": 2170,
      "intro": 2171,
      "introduc": 2172,
      "intrusiv": 2173,
      "intuit": 2174,
      "inur": 2175,
      "invad": 2176,
      "invasi": 2177,
      "invent": 2178,
      "invers": 2179,
      "invert": 2180,
      "invest": 2181,
      "investigat": 2182,
      "invigorat": 2183,
      "invit": 2184,
      "invocat": 2185,
      "invoic": 2186,
      "invok": 2187,
      "involv": 2188,
      "ion": 2189,
      "iris": 2190,
      "irksome": 2191,
      "irrational": 2192,
      "irregular": 2193,
      "irrelevant": 2194,
      "irreplac": 2195,
      "irresist": 2196,
      "irrespect": 2197,
      "irrita": 2198,
      "is": 2199,
      "iso": 2200,
      "isolat": 2201,
      "issu": 2202,
      "istic": 2203,
      "it": 2204,
      "item": 2205,
      "itera": 2206,
      "ity": 2207,
      "jam": 2208,
      "january": 2209,
      "jasmin": 2210,
      "java": 2211,
      "jdk": 2212,
      "jdo": 2213,
      "jealous": 2214,
      "jenkins": 2215,
      "jest": 2216,
      "jet": 2217,
      "jinja": 2218,
      "jira": 2219,
      "jitter": 2220,
      "job": 2221,
      "joic": 2222,
      "join": 2223,
      "jok": 2224,
      "joomla": 2225,
      "jott": 2226,
      "journ": 2227,
      "journal": 2228,
      "joy": 2229,
      "jpeg": 2230,
      "jpg": 2231,
      "jre": 2232,
      "json": 2233,
      "judg": 2234,
      "judic": 2235,
      "juggl": 2236,
      "july": 2237,
      "jump": 2238,
      "junct": 2239,
      "june": 2240,
      "junior": 2241,
      "junk": 2242,
      "jupyter": 2243,
      "just": 2244,
      "justic": 2245,
      "justif": 2246,
      "jut": 2247,
      "juvenat": 2248,
      "jvm": 2249,
      "jwt": 2250,
      "kanban": 2251,
      "kde": 2252,
      "keen": 2253,
      "keep": 2254,
      "kept": 2256,
      "keras": 2256,
      "kernel": 2257,
      "key": 2258,
      "kick": 2259,
      "kill": 2260,
      "kilo": 2261,
      "kind": 2262,
      "king": 2263,
      "kit": 2264,
      "kivy": 2265,
      "knack": 2266,
      "knew": 2267,
      "knock": 2268,
      "know": 2269,
      "knowledg": 2270,
      "kotlin": 2271,
      "kubernet": 2272,
      "lab": 2273,
      "label": 2274,
      "labo": 2275,
      "laborator": 2276,
      "lace": 2277,
      "lack": 2278,
      "lag": 2279,
      "lagrang": 2280,
      "laid": 2281,
      "lambd": 2282,
      "lan": 2283,
      "lanc": 2284,
      "land": 2285,
      "lang": 2286,
      "languag": 2287,
      "lap": 2288,
      "laps": 2289,
      "laravel": 2290,
      "large": 2291,
      "lash": 2292,
      "last": 2293,
      "latch": 2294,
      "late": 2295,
      "laten": 2296,
      "lateral": 2297,
      "latin": 2298,
      "latitud": 2299,
      "latter": 2300,
      "laugh": 2301,
      "launch": 2302,
      "lavish": 2303,
      "law": 2304,
      "lay": 2305,
      "layer": 2306,
      "layout": 2307,
      "laz": 2308,
      "lda": 2309,
      "lead": 2310,
      "leaf": 2311,
      "leak": 2312,
      "lean": 2313,
      "leap": 2314,
      "learn": 2315,
      "leas": 2316,
      "leav": 2317,
      "lect": 2318,
      "led": 2319,
      "left": 2320,
      "legac": 2321,
      "legal": 2322,
      "legend": 2323,
      "legib": 2324,
      "legitim": 2325,
      "lemma": 2326,
      "lend": 2327,
      "length": 2328,
      "lens": 2329,
      "lent": 2330,
      "less": 2331,
      "lesson": 2332,
      "let": 2333,
      "letter": 2334,
      "level": 2335,
      "leverag": 2336,
      "leverat": 2337,
      "lexic": 2339,
      "liab": 2339,
      "lib": 2340,
      "liberal": 2341,
      "libert": 2342,
      "libr": 2343,
      "licens": 2344,
      "licentious": 2345,
      "lidar": 2346,
      "lie": 2347,
      "life": 2348,
      "lift": 2349,
      "light": 2350,
      "lik": 2351,
      "limit": 2352,
      "line": 2353,
      "lingu": 2354,
      "linguist": 2355,
      "link": 2356,
      "linux": 2357,
      "liquidat": 2358,
      "list": 2359,
      "listen": 2360,
      "liter": 2361,
      "litera": 2362,
      "littl": 2363,
      "liv": 2364,
      "llama": 2365,
      "llm": 2366,
      "llvm": 2367,
      "load": 2368,
      "local": 2369,
      "locat": 2370,
      "lock": 2371,
      "lodg": 2372,
      "log": 2373,
      "logarithm": 2374,
      "logic": 2376,
      "logistic": 2376,
      "logit": 2377,
      "lonel": 2378,
      "long": 2379,
      "look": 2380,
      "loom": 2381,
      "loop": 2382,
      "loose": 2383,
      "los": 2384,
      "loud": 2385,
      "lov": 2386,
      "low": 2387,
      "loyal": 2388,
      "lstm": 2389,
      "luck": 2390,
      "lumin": 2391,
      "lurk": 2392,
      "luxur": 2393,
      "ly": 2394,
      "mac": 2395,
      "machin": 2396,
      "macro": 2397,
      "mad": 2398,
      "made": 2399,
      "magic": 2400,
      "magnet": 2401,
      "magnif": 2402,
      "magnitud": 2403,
      "mail": 2404,
      "main": 2405,
      "mainfram": 2406,
      "maintain": 2408,
      "mainten": 2408,
      "majest": 2409,
      "major": 2410,
      "mak": 2411,
      "male": 2412,
      "malic": 2413,
      "mama": 2414,
      "man": 2415,
      "manag": 2416,
      "mandat": 2417,
      "maneuver": 2418,
      "manifest": 2419,
      "manipul": 2420,
      "manual": 2421,
      "manufactur": 2422,
      "many": 2423,
      "map": 2424,
      "march": 2425,
      "margin": 2426,
      "marginal": 2427,
      "mark": 2428,
      "market": 2429,
      "marr": 2430,
      "marriag": 2431,
      "marshall": 2432,
      "mash": 2433,
      "mask": 2434,
      "mass": 2435,
      "master": 2436,
      "mat": 2437,
      "match": 2438,
      "material": 2439,
      "math": 2440,
      "matric": 2441,
      "matrimon": 2442,
      "matrix": 2443,
      "matter": 2444,
      "matur": 2445,
      "max": 2446,
      "may": 2447,
      "meal": 2448,
      "mean": 2449,
      "measur": 2450,
      "mechan": 2451,
      "mechanic": 2452,
      "meddl": 2453,
      "media": 2454,
      "medic": 2455,
      "meditat": 2456,
      "meet": 2457,
      "mega": 2458,
      "melanchol": 2459,
      "meld": 2460,
      "melod": 2461,
      "mem": 2462,
      "member": 2463,
      "memor": 2464,
      "men": 2465,
      "ment": 2466,
      "mention": 2467,
      "mentor": 2468,
      "menu": 2469,
      "mercant": 2470,
      "merchan": 2471,
      "mere": 2472,
      "merg": 2473,
      "merit": 2474,
      "mesh": 2475,
      "mess": 2476,
      "messag": 2477,
      "met": 2478,
      "meta": 2479,
      "metal": 2480,
      "metaphor": 2481,
      "meter": 2482,
      "method": 2483,
      "metr": 2484,
      "micro": 2485,
      "mid": 2486,
      "middl": 2487,
      "might": 2488,
      "migrat": 2490,
      "mild": 2490,
      "mile": 2491,
      "milli": 2492,
      "million": 2493,
      "mimic": 2494,
      "min": 2495,
      "mind": 2496,
      "mine": 2497,
      "mini": 2498,
      "miniatur": 2499,
      "minif": 2500,
      "minor": 2501,
      "minus": 2502,
      "minute": 2503,
      "mirror": 2504,
      "mirth": 2505,
      "mis": 2506,
      "miscellaneous": 2507,
      "miser": 2508,
      "miss": 2509,
      "mission": 2510,
      "misspel": 2511,
      "misspen": 2512,
      "mistak": 2513,
      "mitigat": 2514,
      "mix": 2515,
      "mixture": 2516,
      "mobil": 2517,
      "mock": 2518,
      "mod": 2519,
      "modal": 2520,
      "model": 2521,
      "modem": 2522,
      "moderat": 2523,
      "modern": 2524,
      "modest": 2525,
      "modif": 2526,
      "modul": 2527,
      "moment": 2528,
      "mon": 2529,
      "money": 2530,
      "mongo": 2531,
      "monitor": 2532,
      "mono": 2533,
      "monolith": 2534,
      "monoton": 2535,
      "month": 2536,
      "moon": 2537,
      "moor": 2538,
      "moral": 2539,
      "more": 2540,
      "morning": 2541,
      "morph": 2542,
      "morrow": 2543,
      "mortif": 2544,
      "most": 2545,
      "mother": 2546,
      "motion": 2547,
      "motiv": 2548,
      "motivat": 2549,
      "motor": 2550,
      "mount": 2551,
      "mountain": 2552,
      "mouse": 2553,
      "mov": 2554,
      "much": 2555,
      "mull": 2556,
      "multi": 2557,
      "multipl": 2558,
      "multiplatform": 2559,
      "multiplay": 2560,
      "multiple": 2561,
      "multiplex": 2562,
      "multiplicat": 2563,
      "murmur": 2564,
      "mus": 2565,
      "music": 2566,
      "must": 2567,
      "mut": 2568,
      "mutab": 2569,
      "mutat": 2570,
      "mutex": 2571,
      "mutter": 2572,
      "mutual": 2573,
      "mvc": 2574,
      "mvp": 2575,
      "myster": 2576,
      "mystif": 2577,
      "nab": 2578,
      "nail": 2579,
      "naive": 2580,
      "nam": 2581,
      "nano": 2582,
      "narrat": 2583,
      "narrow": 2584,
      "nation": 2585,
      "nativ": 2586,
      "natur": 2587,
      "navi": 2588,
      "near": 2589,
      "neat": 2590,
      "necess": 2591,
      "neck": 2592,
      "need": 2593,
      "negat": 2594,
      "negativ": 2595,
      "neglect": 2596,
      "neglig": 2597,
      "negotiat": 2598,
      "neighbo": 2599,
      "neither": 2600,
      "nerv": 2601,
      "ness": 2602,
      "net": 2603,
      "network": 2604,
      "neur": 2605,
      "neutral": 2606,
      "never": 2607,
      "new": 2608,
      "newb": 2609,
      "next": 2610,
      "ng": 2611,
      "nice": 2612,
      "niche": 2613,
      "night": 2614,
      "nine": 2615,
      "nlp": 2616,
      "nltk": 2617,
      "no": 2618,
      "nod": 2619,
      "node": 2620,
      "nois": 2621,
      "nom": 2622,
      "nomi": 2623,
      "nominal": 2624,
      "nominat": 2625,
      "non": 2626,
      "noname": 2627,
      "nonsens": 2628,
      "noone": 2629,
      "nope": 2630,
      "norm": 2631,
      "normaliz": 2632,
      "north": 2633,
      "not": 2634,
      "notat": 2635,
      "note": 2636,
      "nothing": 2637,
      "notic": 2638,
      "notif": 2639,
      "notorious": 2640,
      "nought": 2641,
      "noun": 2642,
      "nourish": 2643,
      "novel": 2644,
      "november": 2645,
      "novic": 2646,
      "now": 2647,
      "nuance": 2648,
      "null": 2649,
      "numb": 2650,
      "numer": 2651,
      "nurs": 2652,
      "obedien": 2653,
      "obey": 2654,
      "obfuscat": 2655,
      "object": 2656,
      "oblig": 2657,
      "obliquity": 2658,
      "obliterat": 2659,
      "obscur": 2660,
      "observ": 2661,
      "obsess": 2662,
      "obsolet": 2663,
      "obstacl": 2664,
      "obstinate": 2665,
      "obstruct": 2666,
      "obtain": 2667,
      "obtrud": 2668,
      "obviat": 2669,
      "obvious": 2670,
      "occasion": 2671,
      "occlud": 2672,
      "occup": 2673,
      "occur": 2674,
      "octa": 2675,
      "october": 2676,
      "odd": 2677,
      "oem": 2678,
      "of": 2679,
      "off": 2680,
      "offenc": 2681,
      "offend": 2682,
      "offens": 2683,
      "offer": 2684,
      "offic": 2685,
      "official": 2686,
      "offset": 2687,
      "often": 2688,
      "old": 2689,
      "omit": 2690,
      "on": 2691,
      "once": 2692,
      "one": 2693,
      "onerous": 2694,
      "only": 2695,
      "opaci": 2696,
      "opaque": 2697,
      "open": 2698,
      "oper": 2699,
      "operat": 2700,
      "opinion": 2701,
      "opponent": 2702,
      "opportun": 2703,
      "oppos": 2704,
      "opposs": 2705,
      "oppress": 2706,
      "ops": 2707,
      "opt": 2708,
      "optic": 2709,
      "optim": 2710,
      "optimal": 2711,
      "optimis": 2712,
      "optimiz": 2713,
      "option": 2714,
      "or": 2715,
      "oracle": 2716,
      "order": 2717,
      "ordinar": 2719,
      "ordinat": 2719,
      "organic": 2720,
      "organiz": 2721,
      "orient": 2722,
      "origin": 2723,
      "ornament": 2724,
      "ortho": 2725,
      "oscill": 2726,
      "oscillat": 2727,
      "osten": 2728,
      "other": 2729,
      "ought": 2730,
      "oust": 2731,
      "out": 2732,
      "outage": 2733,
      "outer": 2734,
      "outlast": 2735,
      "output": 2736,
      "outrage": 2737,
      "over": 2738,
      "overlap": 2739,
      "overrid": 2740,
      "ow": 2741,
      "own": 2742,
      "pac": 2743,
      "pack": 2744,
      "packag": 2745,
      "pad": 2746,
      "pag": 2747,
      "paid": 2748,
      "pain": 2749,
      "paint": 2750,
      "pair": 2751,
      "pal": 2752,
      "pale": 2753,
      "palette": 2754,
      "palpab": 2755,
      "panel": 2756,
      "paper": 2757,
      "para": 2758,
      "parabol": 2759,
      "parad": 2760,
      "paradigm": 2761,
      "paradox": 2762,
      "paragraph": 2763,
      "parallax": 2764,
      "parallel": 2765,
      "param": 2766,
      "pardon": 2767,
      "parent": 2768,
      "park": 2769,
      "pars": 2770,
      "part": 2771,
      "particip": 2772,
      "particl": 2773,
      "particul": 2774,
      "pass": 2775,
      "passag": 2776,
      "passiv": 2777,
      "past": 2778,
      "patch": 2779,
      "patent": 2780,
      "path": 2781,
      "patien": 2782,
      "patron": 2783,
      "patronag": 2784,
      "pattern": 2785,
      "paus": 2786,
      "pav": 2787,
      "pay": 2788,
      "peac": 2789,
      "peak": 2790,
      "peculiar": 2791,
      "pedia": 2792,
      "peek": 2793,
      "peep": 2794,
      "peer": 2795,
      "pen": 2796,
      "penal": 2797,
      "pencil": 2798,
      "pend": 2799,
      "penetrat": 2800,
      "pens": 2801,
      "pent": 2802,
      "peopl": 2803,
      "perceiv": 2804,
      "percent": 2805,
      "percept": 2806,
      "perfect": 2807,
      "perform": 2808,
      "perhaps": 2809,
      "period": 2810,
      "peripher": 2811,
      "perl": 2812,
      "permanent": 2813,
      "permeat": 2814,
      "permiss": 2815,
      "permit": 2816,
      "permut": 2817,
      "perpendicular": 2818,
      "perplex": 2819,
      "persever": 2820,
      "persist": 2821,
      "person": 2822,
      "perspectiv": 2823,
      "persuad": 2824,
      "persuas": 2825,
      "pertain": 2826,
      "pertin": 2827,
      "perturb": 2828,
      "perus": 2829,
      "pervad": 2830,
      "pessimi": 2831,
      "peta": 2832,
      "phase": 2833,
      "phenomen": 2834,
      "philosoph": 2835,
      "phish": 2836,
      "phone": 2837,
      "phonet": 2838,
      "phono": 2839,
      "photo": 2840,
      "php": 2841,
      "phras": 2842,
      "physic": 2843,
      "pick": 2844,
      "pict": 2845,
      "pictur": 2846,
      "piece": 2847,
      "pile": 2848,
      "pilfer": 2849,
      "pilot": 2850,
      "pin": 2851,
      "ping": 2852,
      "pioneer": 2853,
      "pip": 2854,
      "pipe": 2855,
      "pipeline": 2856,
      "pit": 2857,
      "pitch": 2858,
      "pivot": 2859,
      "pix": 2860,
      "pixel": 2861,
      "plac": 2862,
      "plagued": 2863,
      "plain": 2864,
      "plan": 2865,
      "planar": 2866,
      "plane": 2867,
      "planet": 2868,
      "plast": 2869,
      "platform": 2870,
      "plausib": 2871,
      "play": 2872,
      "plead": 2873,
      "pleas": 2874,
      "pleasure": 2875,
      "pledg": 2876,
      "plent": 2878,
      "plex": 2878,
      "plot": 2879,
      "plug": 2880,
      "plung": 2881,
      "plural": 2882,
      "plus": 2883,
      "poach": 2884,
      "pocket": 2885,
      "pod": 2886,
      "podcast": 2887,
      "poem": 2888,
      "point": 2889,
      "polar": 2890,
      "polic": 2891,
      "polish": 2892,
      "polit": 2893,
      "poll": 2894,
      "poly": 2895,
      "ponder": 2896,
      "pool": 2897,
      "poor": 2898,
      "pop": 2899,
      "popular": 2900,
      "populat": 2901,
      "port": 2902,
      "portal": 2903,
      "portion": 2904,
      "pos": 2905,
      "posit": 2906,
      "positiv": 2907,
      "possess": 2908,
      "possib": 2909,
      "post": 2910,
      "postgres": 2911,
      "postpon": 2912,
      "potent": 2913,
      "pour": 2914,
      "pow": 2915,
      "power": 2916,
      "practi": 2917,
      "pragm": 2918,
      "prais": 2919,
      "pray": 2920,
      "pre": 2921,
      "preach": 2922,
      "preambl": 2923,
      "preced": 2924,
      "precedent": 2925,
      "precipit": 2926,
      "precis": 2927,
      "preclud": 2928,
      "predecess": 2929,
      "predica": 2930,
      "predict": 2931,
      "prefer": 2932,
      "prejudic": 2933,
      "preliminar": 2934,
      "premier": 2935,
      "premis": 2936,
      "preneur": 2937,
      "prepar": 2938,
      "prepend": 2939,
      "present": 2940,
      "preserv": 2941,
      "press": 2942,
      "pressur": 2943,
      "presum": 2944,
      "pretenc": 2945,
      "pretend": 2946,
      "pretens": 2947,
      "prett": 2948,
      "prevail": 2949,
      "prevent": 2950,
      "previous": 2951,
      "pric": 2952,
      "pride": 2953,
      "prim": 2954,
      "primar": 2955,
      "primitiv": 2956,
      "princip": 2957,
      "print": 2958,
      "prior": 2959,
      "privat": 2960,
      "privileg": 2961,
      "pro": 2962,
      "prob": 2963,
      "probab": 2964,
      "problem": 2965,
      "procedur": 2966,
      "proceed": 2967,
      "process": 2968,
      "processor": 2969,
      "procrastinat": 2970,
      "procur": 2971,
      "produc": 2972,
      "product": 2973,
      "profess": 2974,
      "profession": 2975,
      "profic": 2976,
      "profil": 2977,
      "profit": 2978,
      "program": 2979,
      "progress": 2980,
      "prohibit": 2981,
      "project": 2982,
      "proliferat": 2983,
      "prolog": 2984,
      "prolong": 2985,
      "prominen": 2986,
      "promis": 2987,
      "promot": 2988,
      "prompt": 2989,
      "pronoun": 2990,
      "pronunc": 2991,
      "proof": 2992,
      "propagat": 2993,
      "proper": 2994,
      "proportion": 2995,
      "propos": 2996,
      "propriet": 2997,
      "pros": 2998,
      "prospect": 2999,
      "prosper": 3000,
      "protect": 3001,
      "protest": 3002,
      "proto": 3003,
      "protocol": 3004,
      "prototyp": 3005,
      "protract": 3006,
      "protrud": 3007,
      "proud": 3008,
      "prov": 3009,
      "provid": 3010,
      "provis": 3011,
      "provocation": 3012,
      "provok": 3013,
      "prox": 3014,
      "proxim": 3015,
      "pruden": 3016,
      "prun": 3017,
      "pseudo": 3018,
      "publ": 3019,
      "public": 3020,
      "publish": 3021,
      "puff": 3022,
      "pull": 3023,
      "puls": 3024,
      "pump": 3025,
      "punct": 3026,
      "punish": 3027,
      "punk": 3028,
      "pupil": 3029,
      "pur": 3030,
      "purchas": 3031,
      "purpos": 3032,
      "pursu": 3033,
      "push": 3034,
      "put": 3035,
      "puzzl": 3036,
      "py": 3037,
      "pyramid": 3038,
      "python": 3039,
      "qa": 3040,
      "quad": 3041,
      "quaint": 3042,
      "qualif": 3043,
      "qualit": 3044,
      "quant": 3045,
      "quantif": 3046,
      "quarrel": 3047,
      "quart": 3048,
      "quarter": 3049,
      "quaternion": 3050,
      "queen": 3051,
      "queer": 3052,
      "quer": 3053,
      "quest": 3054,
      "question": 3055,
      "queu": 3056,
      "quick": 3057,
      "quiet": 3058,
      "quint": 3059,
      "quir": 3060,
      "quit": 3061,
      "quiver": 3062,
      "quiz": 3063,
      "quot": 3064,
      "rac": 3065,
      "rad": 3066,
      "radiat": 3067,
      "radic": 3068,
      "radio": 3069,
      "radius": 3070,
      "rag": 3071,
      "raid": 3072,
      "rail": 3073,
      "rain": 3074,
      "rais": 3075,
      "rall": 3076,
      "ram": 3077,
      "rambl": 3078,
      "ramp": 3079,
      "ran": 3080,
      "rand": 3081,
      "random": 3082,
      "rang": 3083,
      "rank": 3084,
      "ransom": 3085,
      "rapid": 3086,
      "raptur": 3087,
      "rar": 3088,
      "raspberry": 3089,
      "raster": 3090,
      "rat": 3091,
      "rather": 3092,
      "ratio": 3093,
      "rational": 3094,
      "ravel": 3095,
      "raw": 3096,
      "ray": 3097,
      "re": 3098,
      "reach": 3099,
      "react": 3100,
      "read": 3101,
      "readapt": 3102,
      "ready": 3103,
      "real": 3104,
      "realiz": 3105,
      "realm": 3106,
      "reanimat": 3107,
      "rear": 3108,
      "rearrang": 3109,
      "reason": 3110,
      "rebut": 3111,
      "recap": 3112,
      "recaptur": 3113,
      "receipt": 3114,
      "receiv": 3115,
      "recent": 3116,
      "recept": 3117,
      "recipe": 3118,
      "recipient": 3119,
      "reciproc": 3120,
      "reckon": 3121,
      "recogni": 3122,
      "recommend": 3123,
      "reconcil": 3124,
      "record": 3125,
      "recover": 3126,
      "recruit": 3127,
      "rectang": 3128,
      "rectif": 3129,
      "recur": 3130,
      "recurren": 3131,
      "recurs": 3132,
      "redact": 3133,
      "redis": 3134,
      "rediscover": 3135,
      "redistribut": 3136,
      "reduc": 3138,
      "redundan": 3138,
      "redux": 3139,
      "ref": 3140,
      "refactor": 3141,
      "refer": 3142,
      "refetch": 3143,
      "refil": 3144,
      "refill": 3145,
      "refin": 3146,
      "refit": 3147,
      "reflect": 3148,
      "reflex": 3149,
      "refocus": 3150,
      "reform": 3151,
      "reformat": 3152,
      "reformulat": 3153,
      "refract": 3154,
      "refrain": 3155,
      "refresh": 3156,
      "refund": 3157,
      "refurbish": 3158,
      "refus": 3159,
      "refut": 3160,
      "regain": 3161,
      "regard": 3163,
      "region": 3163,
      "regist": 3164,
      "regress": 3165,
      "regret": 3166,
      "regular": 3167,
      "regulat": 3168,
      "reif": 3169,
      "reign": 3170,
      "reject": 3171,
      "relat": 3172,
      "relax": 3173,
      "releas": 3174,
      "relegat": 3175,
      "relent": 3176,
      "relevan": 3177,
      "reliab": 3178,
      "relian": 3179,
      "reliev": 3180,
      "relinquish": 3181,
      "relish": 3182,
      "reluctan": 3183,
      "rely": 3184,
      "remain": 3185,
      "remed": 3186,
      "rememb": 3187,
      "remembr": 3188,
      "remind": 3189,
      "remiss": 3190,
      "remonstra": 3191,
      "remot": 3192,
      "remov": 3193,
      "render": 3194,
      "renovat": 3195,
      "rent": 3196,
      "repair": 3197,
      "repeat": 3198,
      "repetit": 3199,
      "repl": 3200,
      "repla": 3201,
      "replac": 3202,
      "replenish": 3203,
      "replet": 3204,
      "replic": 3205,
      "report": 3206,
      "repositor": 3207,
      "reprehen": 3208,
      "represent": 3209,
      "reproach": 3210,
      "reput": 3211,
      "reputa": 3212,
      "reque": 3213,
      "request": 3214,
      "requi": 3215,
      "requir": 3216,
      "requisit": 3217,
      "requit": 3218,
      "rescind": 3219,
      "rescu": 3220,
      "reserv": 3221,
      "reset": 3222,
      "resid": 3223,
      "resident": 3224,
      "resilien": 3225,
      "resist": 3226,
      "resolut": 3227,
      "resolv": 3228,
      "resonat": 3229,
      "respect": 3230,
      "respon": 3231,
      "rest": 3232,
      "restart": 3233,
      "restat": 3234,
      "restaurant": 3235,
      "restor": 3236,
      "restrain": 3237,
      "restrict": 3238,
      "restruct": 3239,
      "result": 3240,
      "resum": 3241,
      "resurrect": 3242,
      "retail": 3243,
      "retain": 3244,
      "retent": 3245,
      "retir": 3246,
      "retract": 3247,
      "retriev": 3248,
      "retro": 3249,
      "return": 3250,
      "revamp": 3251,
      "revanc": 3252,
      "reveal": 3253,
      "revel": 3254,
      "revenue": 3255,
      "revers": 3256,
      "revert": 3257,
      "revis": 3258,
      "revisit": 3259,
      "reviv": 3260,
      "revocat": 3261,
      "revok": 3262,
      "revolt": 3263,
      "revolut": 3264,
      "revolv": 3265,
      "reward": 3266,
      "rgb": 3267,
      "rich": 3268,
      "rid": 3269,
      "ridd": 3270,
      "ridicul": 3271,
      "right": 3272,
      "rigid": 3273,
      "rigorous": 3274,
      "rimm": 3275,
      "rip": 3276,
      "ris": 3277,
      "risk": 3278,
      "rival": 3279,
      "river": 3281,
      "rnn": 3281,
      "road": 3282,
      "roam": 3283,
      "roast": 3284,
      "robo": 3285,
      "robot": 3286,
      "robust": 3287,
      "rock": 3288,
      "rol": 3289,
      "roll": 3290,
      "roman": 3291,
      "room": 3292,
      "root": 3293,
      "rose": 3294,
      "rotat": 3295,
      "rough": 3296,
      "round": 3297,
      "rous": 3298,
      "rout": 3299,
      "routine": 3300,
      "row": 3301,
      "rpc": 3302,
      "rpg": 3303,
      "rsa": 3304,
      "rss": 3305,
      "rtti": 3306,
      "rubber": 3307,
      "rubric": 3308,
      "ruby": 3309,
      "rude": 3310,
      "rudimen": 3311,
      "rue": 3312,
      "rugged": 3313,
      "ruin": 3314,
      "rul": 3315,
      "ruminat": 3316,
      "rumor": 3317,
      "rumour": 3318,
      "run": 3319,
      "rush": 3320,
      "rust": 3321,
      "saas": 3322,
      "sad": 3323,
      "saf": 3324,
      "safar": 3325,
      "said": 3326,
      "sail": 3327,
      "sal": 3328,
      "salar": 3329,
      "same": 3330,
      "sampl": 3331,
      "samsung": 3332,
      "sang": 3333,
      "sanit": 3334,
      "sank": 3335,
      "satellit": 3336,
      "satisf": 3337,
      "satur": 3338,
      "saturat": 3339,
      "sauc": 3340,
      "saunter": 3341,
      "sav": 3342,
      "saw": 3343,
      "sawed": 3344,
      "sawn": 3345,
      "say": 3346,
      "scal": 3347,
      "scalar": 3348,
      "scan": 3349,
      "scant": 3350,
      "scap": 3351,
      "scar": 3352,
      "scatter": 3353,
      "scen": 3354,
      "scenar": 3355,
      "scept": 3356,
      "schedul": 3357,
      "schem": 3358,
      "scholar": 3359,
      "school": 3360,
      "sci": 3361,
      "scien": 3362,
      "scold": 3363,
      "scop": 3364,
      "scor": 3365,
      "scout": 3366,
      "scrab": 3367,
      "scrambl": 3368,
      "scrap": 3369,
      "scratch": 3370,
      "scream": 3371,
      "screen": 3372,
      "screw": 3373,
      "scrib": 3374,
      "script": 3375,
      "scroll": 3376,
      "scrum": 3377,
      "scrup": 3378,
      "scrut": 3379,
      "scrutiniz": 3380,
      "sdk": 3381,
      "sea": 3382,
      "seal": 3383,
      "seam": 3384,
      "search": 3385,
      "season": 3386,
      "seat": 3387,
      "second": 3388,
      "secret": 3389,
      "sect": 3390,
      "secur": 3391,
      "seduc": 3392,
      "see": 3393,
      "seed": 3394,
      "seek": 3395,
      "seem": 3396,
      "seen": 3397,
      "sees": 3398,
      "segment": 3399,
      "segregat": 3400,
      "segue": 3401,
      "seiz": 3402,
      "seldom": 3403,
      "select": 3404,
      "self": 3405,
      "sell": 3406,
      "selv": 3407,
      "semantic": 3408,
      "semaphor": 3409,
      "sembl": 3410,
      "semi": 3411,
      "seminar": 3412,
      "seminat": 3413,
      "send": 3414,
      "senior": 3415,
      "sens": 3416,
      "sensation": 3417,
      "sensitiv": 3418,
      "sensor": 3419,
      "sent": 3420,
      "sentenc": 3421,
      "sentiment": 3422,
      "seo": 3423,
      "separ": 3424,
      "september": 3425,
      "seque": 3426,
      "serial": 3427,
      "serializ": 3428,
      "series": 3429,
      "serious": 3430,
      "serv": 3431,
      "server": 3432,
      "servic": 3433,
      "session": 3434,
      "set": 3435,
      "settl": 3436,
      "setup": 3437,
      "seven": 3438,
      "sever": 3439,
      "several": 3440,
      "sex": 3441,
      "sgd": 3442,
      "shad": 3443,
      "shadow": 3444,
      "shak": 3445,
      "shall": 3446,
      "shallow": 3447,
      "sham": 3448,
      "shap": 3449,
      "shar": 3450,
      "shard": 3451,
      "sharp": 3452,
      "she": 3453,
      "shed": 3454,
      "sheet": 3456,
      "shell": 3456,
      "shelter": 3457,
      "shift": 3458,
      "shin": 3459,
      "ship": 3460,
      "shock": 3461,
      "shoe": 3462,
      "shone": 3463,
      "shook": 3464,
      "shoot": 3465,
      "shop": 3466,
      "short": 3467,
      "shot": 3468,
      "should": 3469,
      "shout": 3470,
      "show": 3472,
      "shrank": 3473,
      "shrink": 3473,
      "shrunk": 3474,
      "shuffl": 3475,
      "shut": 3476,
      "shy": 3477,
      "sick": 3478,
      "side": 3479,
      "sigh": 3480,
      "sight": 3481,
      "sign": 3482,
      "signal": 3483,
      "signatur": 3484,
      "signif": 3486,
      "silen": 3486,
      "silhouett": 3487,
      "silicon": 3488,
      "sill": 3489,
      "silver": 3490,
      "similar": 3491,
      "simpl": 3493,
      "simplic": 3493,
      "simplif": 3494,
      "simulat": 3495,
      "simultaneous": 3496,
      "since": 3497,
      "sincere": 3498,
      "sing": 3500,
      "singl": 3500,
      "singular": 3501,
      "sink": 3502,
      "sinop": 3503,
      "sinus": 3504,
      "sion": 3505,
      "sister": 3506,
      "sit": 3507,
      "site": 3508,
      "situat": 3509,
      "six": 3510,
      "siz": 3511,
      "size": 3512,
      "skeleton": 3513,
      "skept": 3514,
      "sketch": 3515,
      "skew": 3516,
      "skill": 3517,
      "skip": 3518,
      "sky": 3519,
      "skype": 3520,
      "slack": 3522,
      "slam": 3522,
      "slang": 3523,
      "slash": 3524,
      "slav": 3525,
      "slay": 3526,
      "sleek": 3527,
      "sleep": 3528,
      "sleet": 3529,
      "slept": 3530,
      "slew": 3531,
      "slic": 3532,
      "slid": 3533,
      "slight": 3534,
      "slim": 3535,
      "sling": 3536,
      "slip": 3537,
      "slop": 3538,
      "slot": 3539,
      "slow": 3540,
      "slugg": 3541,
      "slumber": 3542,
      "slung": 3543,
      "sly": 3544,
      "smack": 3545,
      "small": 3546,
      "smart": 3547,
      "smash": 3548,
      "smell": 3549,
      "smil": 3550,
      "smit": 3551,
      "smok": 3552,
      "smooth": 3553,
      "snap": 3554,
      "sneak": 3555,
      "sneer": 3556,
      "sniff": 3557,
      "snip": 3558,
      "snow": 3559,
      "so": 3560,
      "soap": 3561,
      "soar": 3562,
      "sober": 3563,
      "social": 3564,
      "sociat": 3565,
      "societ": 3566,
      "sock": 3567,
      "socket": 3568,
      "soft": 3569,
      "software": 3570,
      "solace": 3571,
      "sold": 3572,
      "solely": 3573,
      "solemn": 3574,
      "solicit": 3575,
      "solid": 3576,
      "solitar": 3577,
      "solution": 3578,
      "solv": 3579,
      "some": 3580,
      "son": 3581,
      "song": 3582,
      "soon": 3583,
      "sooth": 3584,
      "sophisticat": 3585,
      "sorrow": 3586,
      "sorry": 3587,
      "sort": 3588,
      "soul": 3589,
      "sound": 3590,
      "soup": 3591,
      "sourc": 3592,
      "south": 3593,
      "spac": 3594,
      "space": 3595,
      "spam": 3596,
      "span": 3597,
      "spar": 3598,
      "spark": 3599,
      "spars": 3600,
      "spatial": 3601,
      "spawn": 3602,
      "speak": 3603,
      "spec": 3604,
      "speci": 3605,
      "special": 3606,
      "specializ": 3607,
      "specif": 3609,
      "spect": 3609,
      "spectr": 3610,
      "speculat": 3611,
      "speech": 3612,
      "speed": 3613,
      "spel": 3614,
      "spen": 3615,
      "spend": 3616,
      "spher": 3617,
      "spill": 3618,
      "spin": 3619,
      "spirit": 3620,
      "spit": 3621,
      "splash": 3622,
      "splay": 3623,
      "splend": 3624,
      "splic": 3625,
      "splin": 3626,
      "split": 3627,
      "spoil": 3629,
      "spoke": 3629,
      "sponsor": 3630,
      "spontane": 3631,
      "spoof": 3632,
      "spool": 3633,
      "spoon": 3634,
      "sport": 3635,
      "spot": 3636,
      "sprang": 3637,
      "spread": 3638,
      "spring": 3639,
      "sprinkl": 3640,
      "sprint": 3641,
      "sql": 3642,
      "squar": 3643,
      "squeez": 3644,
      "stab": 3645,
      "stabil": 3646,
      "stabl": 3647,
      "stack": 3648,
      "staff": 3649,
      "stag": 3650,
      "stagnat": 3651,
      "stair": 3652,
      "stak": 3653,
      "stakeholder": 3654,
      "stale": 3655,
      "stall": 3656,
      "stamp": 3657,
      "stand": 3659,
      "standard": 3659,
      "standby": 3660,
      "star": 3661,
      "stare": 3662,
      "start": 3663,
      "stash": 3664,
      "stat": 3665,
      "static": 3666,
      "station": 3667,
      "stationar": 3668,
      "statistic": 3669,
      "status": 3670,
      "stay": 3671,
      "std": 3672,
      "stead": 3673,
      "steal": 3674,
      "steam": 3675,
      "steep": 3676,
      "steer": 3677,
      "stemm": 3678,
      "stencil": 3679,
      "step": 3680,
      "stereo": 3681,
      "stick": 3682,
      "still": 3683,
      "stimul": 3684,
      "stipulat": 3685,
      "stir": 3686,
      "stochast": 3687,
      "stock": 3688,
      "ston": 3690,
      "stood": 3690,
      "stoop": 3691,
      "stop": 3692,
      "stor": 3693,
      "storag": 3694,
      "storm": 3695,
      "story": 3696,
      "stout": 3697,
      "straggl": 3698,
      "straight": 3699,
      "strain": 3700,
      "strang": 3701,
      "strap": 3702,
      "strat": 3703,
      "strateg": 3704,
      "stratif": 3705,
      "stray": 3706,
      "stream": 3707,
      "street": 3708,
      "stren": 3709,
      "strength": 3710,
      "stress": 3712,
      "stretch": 3712,
      "strick": 3713,
      "strict": 3714,
      "strid": 3715,
      "strik": 3716,
      "string": 3717,
      "strip": 3718,
      "striv": 3719,
      "strok": 3720,
      "strong": 3721,
      "strov": 3722,
      "struck": 3723,
      "struct": 3724,
      "struggl": 3725,
      "stub": 3726,
      "stuck": 3727,
      "stud": 3728,
      "student": 3729,
      "studio": 3731,
      "stuff": 3731,
      "stumbl": 3732,
      "stump": 3733,
      "stun": 3734,
      "stupid": 3735,
      "styl": 3736,
      "sub": 3737,
      "subdu": 3738,
      "subject": 3739,
      "submiss": 3740,
      "submit": 3741,
      "subscrib": 3742,
      "subsid": 3743,
      "subsist": 3744,
      "substan": 3745,
      "substantiat": 3746,
      "substitut": 3747,
      "subtl": 3748,
      "subtract": 3749,
      "succe": 3750,
      "succinct": 3751,
      "such": 3752,
      "sudden": 3753,
      "sue": 3754,
      "suffer": 3755,
      "suffic": 3756,
      "suffix": 3757,
      "suggest": 3758,
      "suit": 3759,
      "sull": 3760,
      "summ": 3761,
      "summa": 3762,
      "summer": 3763,
      "summit": 3764,
      "summon": 3765,
      "sun": 3766,
      "sung": 3767,
      "sunk": 3768,
      "super": 3769,
      "supervis": 3770,
      "supper": 3771,
      "suppl": 3772,
      "supplant": 3773,
      "supplement": 3774,
      "support": 3775,
      "suppos": 3776,
      "suppress": 3777,
      "suprem": 3778,
      "sure": 3779,
      "surf": 3780,
      "surfac": 3781,
      "surg": 3782,
      "surmis": 3783,
      "surpass": 3784,
      "surpris": 3785,
      "surrender": 3786,
      "surrogate": 3787,
      "surround": 3788,
      "survey": 3789,
      "surviv": 3790,
      "susceptib": 3791,
      "suspect": 3792,
      "suspend": 3793,
      "suspens": 3794,
      "suspic": 3795,
      "sustain": 3796,
      "svd": 3797,
      "svg": 3798,
      "svm": 3799,
      "svn": 3800,
      "swap": 3801,
      "sway": 3802,
      "swear": 3803,
      "sweep": 3804,
      "sweet": 3805,
      "swell": 3806,
      "swift": 3807,
      "swin": 3808,
      "swip": 3809,
      "swish": 3810,
      "switch": 3811,
      "swoop": 3812,
      "swung": 3813,
      "syllabl": 3814,
      "symbol": 3815,
      "symmetr": 3816,
      "sympath": 3817,
      "sync": 3818,
      "synchron": 3819,
      "synonym": 3820,
      "synt": 3821,
      "syntax": 3822,
      "synth": 3823,
      "synthes": 3824,
      "synthet": 3825,
      "sys": 3826,
      "system": 3827,
      "tab": 3828,
      "tabl": 3829,
      "tabul": 3830,
      "tackl": 3831,
      "tact": 3832,
      "tactic": 3833,
      "tag": 3834,
      "tail": 3835,
      "tailor": 3836,
      "tak": 3837,
      "take": 3838,
      "talent": 3839,
      "talk": 3840,
      "tall": 3841,
      "tam": 3842,
      "tamper": 3843,
      "tangent": 3844,
      "tangl": 3845,
      "tap": 3847,
      "target": 3847,
      "task": 3848,
      "tast": 3849,
      "taught": 3850,
      "tax": 3851,
      "tea": 3852,
      "teach": 3853,
      "team": 3854,
      "tear": 3855,
      "teas": 3856,
      "tech": 3857,
      "techni": 3858,
      "technolog": 3859,
      "tedious": 3860,
      "tele": 3861,
      "tell": 3862,
      "temp": 3863,
      "temper": 3864,
      "temperatur": 3865,
      "templat": 3866,
      "tempor": 3867,
      "tempt": 3868,
      "tenabl": 3869,
      "tenacious": 3870,
      "tend": 3871,
      "tendenc": 3872,
      "tender": 3873,
      "tens": 3874,
      "tensor": 3875,
      "tentat": 3876,
      "tera": 3877,
      "term": 3878,
      "termin": 3879,
      "terminal": 3880,
      "terminat": 3881,
      "terrain": 3882,
      "terribl": 3883,
      "terrif": 3884,
      "tessellat": 3885,
      "test": 3886,
      "tether": 3887,
      "text": 3888,
      "than": 3889,
      "thank": 3890,
      "that": 3891,
      "thaw": 3892,
      "the": 3893,
      "theft": 3894,
      "their": 3895,
      "them": 3896,
      "then": 3897,
      "theor": 3898,
      "theorem": 3899,
      "ther": 3900,
      "there": 3901,
      "thereby": 3902,
      "therm": 3903,
      "thes": 3904,
      "thesa": 3905,
      "thesis": 3906,
      "thest": 3907,
      "theta": 3908,
      "they": 3909,
      "thick": 3910,
      "thin": 3911,
      "thing": 3912,
      "think": 3913,
      "thir": 3914,
      "third": 3915,
      "thirt": 3916,
      "this": 3917,
      "thither": 3918,
      "thorough": 3919,
      "those": 3920,
      "though": 3921,
      "thought": 3922,
      "thous": 3923,
      "thousand": 3924,
      "thread": 3925,
      "threat": 3926,
      "three": 3927,
      "thres": 3928,
      "threw": 3929,
      "thrift": 3930,
      "thrill": 3931,
      "thriv": 3932,
      "through": 3933,
      "throw": 3934,
      "thumb": 3935,
      "thunder": 3936,
      "thunk": 3937,
      "thus": 3938,
      "thwart": 3939,
      "tick": 3940,
      "ticket": 3941,
      "tier": 3942,
      "tight": 3943,
      "til": 3944,
      "till": 3945,
      "tilt": 3946,
      "tim": 3947,
      "time": 3948,
      "timid": 3949,
      "tinker": 3950,
      "tiny": 3951,
      "tion": 3952,
      "tip": 3953,
      "tir": 3954,
      "titl": 3955,
      "to": 3956,
      "together": 3957,
      "toggl": 3958,
      "token": 3959,
      "told": 3960,
      "tolera": 3961,
      "tolerat": 3962,
      "tong": 3963,
      "too": 3964,
      "took": 3965,
      "tool": 3966,
      "tooth": 3967,
      "top": 3968,
      "topic": 3969,
      "topolog": 3970,
      "torch": 3971,
      "torrent": 3972,
      "total": 3973,
      "touch": 3974,
      "tough": 3975,
      "tour": 3976,
      "tournament": 3977,
      "tout": 3978,
      "toward": 3979,
      "town": 3980,
      "trac": 3981,
      "track": 3982,
      "tract": 3983,
      "trad": 3984,
      "tradition": 3985,
      "traff": 3986,
      "trail": 3987,
      "train": 3988,
      "trait": 3989,
      "trajector": 3990,
      "tranquil": 3991,
      "trans": 3992,
      "transact": 3993,
      "transceiv": 3994,
      "transcend": 3995,
      "transclud": 3996,
      "transcrib": 3997,
      "transcript": 3998,
      "transduc": 3999,
      "transduct": 4000,
      "transfer": 4001,
      "transform": 4002,
      "transgress": 4003,
      "transient": 4004,
      "transist": 4005,
      "transit": 4006,
      "translat": 4007,
      "transliterat": 4008,
      "transmiss": 4009,
      "transmit": 4010,
      "transparen": 4011,
      "transpil": 4012,
      "transplant": 4013,
      "transport": 4014,
      "transpos": 4015,
      "trap": 4016,
      "trash": 4017,
      "travel": 4018,
      "travers": 4019,
      "tread": 4020,
      "treasur": 4021,
      "treat": 4022,
      "tree": 4023,
      "trembl": 4024,
      "tremend": 4025,
      "trend": 4026,
      "trial": 4027,
      "triang": 4028,
      "triangul": 4029,
      "trick": 4030,
      "trifl": 4031,
      "trigger": 4032,
      "trim": 4033,
      "tripl": 4034,
      "triumph": 4035,
      "trivial": 4036,
      "trop": 4037,
      "troubl": 4038,
      "tru": 4039,
      "true": 4040,
      "truncat": 4042,
      "trunk": 4042,
      "trust": 4043,
      "truth": 4044,
      "try": 4045,
      "tun": 4046,
      "tunel": 4047,
      "tunnel": 4048,
      "tupl": 4049,
      "turbo": 4050,
      "turn": 4051,
      "tutor": 4052,
      "tweak": 4053,
      "tweet": 4054,
      "twelve": 4055,
      "twent": 4056,
      "twice": 4057,
      "twiddl": 4058,
      "twin": 4059,
      "twink": 4060,
      "twist": 4061,
      "twitch": 4062,
      "twitter": 4063,
      "two": 4064,
      "txt": 4065,
      "typ": 4066,
      "type": 4067,
      "typic": 4068,
      "typo": 4069,
      "ubiquit": 4070,
      "ubuntu": 4071,
      "ugl": 4072,
      "ui": 4073,
      "uint": 4074,
      "ultimat": 4075,
      "ultra": 4076,
      "un": 4077,
      "unar": 4078,
      "under": 4079,
      "underneath": 4080,
      "understand": 4081,
      "understood": 4082,
      "underwent": 4083,
      "unfurl": 4084,
      "unicode": 4085,
      "unicorn": 4086,
      "unif": 4087,
      "unifi": 4088,
      "uniform": 4089,
      "union": 4090,
      "unique": 4091,
      "unit": 4092,
      "unity": 4093,
      "univers": 4094,
      "unix": 4095,
      "unleash": 4096,
      "untaint": 4097,
      "until": 4098,
      "unveil": 4099,
      "uous": 4100,
      "upbraid": 4101,
      "updat": 4102,
      "upend": 4103,
      "upgrad": 4104,
      "upon": 4105,
      "upp": 4106,
      "upped": 4107,
      "upper": 4108,
      "upset": 4109,
      "uptill": 4110,
      "urban": 4111,
      "urg": 4112,
      "urgen": 4113,
      "url": 4115,
      "us": 4115,
      "usab": 4116,
      "usag": 4117,
      "usb": 4118,
      "use": 4119,
      "user": 4120,
      "usual": 4121,
      "utf": 4122,
      "util": 4123,
      "utmost": 4124,
      "utter": 4125,
      "ux": 4127,
      "vacan": 4127,
      "vacat": 4128,
      "vagar": 4129,
      "vague": 4130,
      "vain": 4131,
      "val": 4132,
      "valen": 4133,
      "valenc": 4134,
      "valent": 4135,
      "valid": 4136,
      "valley": 4137,
      "valu": 4138,
      "vanish": 4139,
      "vanit": 4140,
      "var": 4141,
      "variab": 4142,
      "variabl": 4143,
      "variad": 4145,
      "varianc": 4145,
      "variant": 4146,
      "variat": 4147,
      "varie": 4148,
      "various": 4149,
      "vary": 4150,
      "vast": 4151,
      "vaunt": 4152,
      "vector": 4153,
      "vehicl": 4154,
      "vendor": 4155,
      "ventilat": 4156,
      "ventur": 4157,
      "venue": 4158,
      "verb": 4159,
      "verbal": 4160,
      "verbos": 4161,
      "verdur": 4162,
      "veri": 4163,
      "verif": 4164,
      "verity": 4165,
      "vers": 4166,
      "versa": 4167,
      "versatil": 4168,
      "version": 4169,
      "versus": 4170,
      "vertex": 4171,
      "vertic": 4172,
      "very": 4173,
      "veto": 4174,
      "vexat": 4175,
      "vga": 4176,
      "vgg": 4177,
      "via": 4178,
      "viab": 4179,
      "vib": 4180,
      "vibr": 4181,
      "vici": 4182,
      "vict": 4183,
      "victim": 4184,
      "video": 4185,
      "view": 4186,
      "vigorous": 4187,
      "vigour": 4188,
      "village": 4189,
      "vindic": 4190,
      "violat": 4191,
      "violen": 4192,
      "viral": 4193,
      "virtual": 4194,
      "virtue": 4195,
      "virus": 4196,
      "vis": 4197,
      "visib": 4198,
      "vision": 4199,
      "visit": 4200,
      "visual": 4201,
      "vital": 4202,
      "vivac": 4203,
      "vocabular": 4204,
      "vocal": 4205,
      "vocat": 4206,
      "voic": 4207,
      "void": 4208,
      "volatil": 4209,
      "volt": 4210,
      "volub": 4211,
      "volum": 4212,
      "volunt": 4213,
      "vot": 4214,
      "vouch": 4215,
      "vow": 4216,
      "vowel": 4217,
      "vpn": 4219,
      "vr": 4220,
      "vs": 4220,
      "vue": 4221,
      "vulgar": 4222,
      "vulner": 4223,
      "wait": 4224,
      "waiv": 4225,
      "wak": 4226,
      "walk": 4227,
      "wall": 4228,
      "wan": 4229,
      "wander": 4230,
      "want": 4231,
      "war": 4232,
      "ward": 4233,
      "ware": 4234,
      "warm": 4235,
      "warn": 4236,
      "warp": 4237,
      "warrant": 4238,
      "was": 4239,
      "wash": 4240,
      "wasm": 4241,
      "wast": 4242,
      "watch": 4243,
      "water": 4244,
      "wav": 4245,
      "way": 4246,
      "we": 4247,
      "weak": 4248,
      "wear": 4249,
      "weather": 4250,
      "web": 4251,
      "webinar": 4252,
      "wedg": 4253,
      "week": 4254,
      "weigh": 4255,
      "weight": 4256,
      "weird": 4257,
      "welcom": 4258,
      "weld": 4259,
      "well": 4260,
      "went": 4261,
      "were": 4262,
      "west": 4263,
      "what": 4264,
      "whelm": 4265,
      "when": 4266,
      "whence": 4267,
      "where": 4268,
      "whether": 4269,
      "which": 4270,
      "while": 4271,
      "whilst": 4272,
      "whim": 4273,
      "whip": 4274,
      "whirl": 4275,
      "whisp": 4276,
      "whistl": 4277,
      "white": 4278,
      "whither": 4279,
      "who": 4280,
      "whole": 4281,
      "whop": 4282,
      "why": 4283,
      "wick": 4284,
      "wide": 4285,
      "widget": 4286,
      "widow": 4287,
      "width": 4288,
      "wield": 4289,
      "wife": 4290,
      "wifi": 4291,
      "wiki": 4292,
      "wild": 4293,
      "will": 4294,
      "willing": 4295,
      "win": 4296,
      "wind": 4297,
      "window": 4298,
      "winter": 4299,
      "wip": 4300,
      "wire": 4301,
      "wise": 4302,
      "wish": 4303,
      "with": 4304,
      "within": 4305,
      "without": 4306,
      "witness": 4307,
      "wizard": 4308,
      "wlan": 4309,
      "woke": 4310,
      "woman": 4311,
      "women": 4312,
      "won": 4313,
      "wonder": 4314,
      "wont": 4315,
      "wood": 4316,
      "wor": 4317,
      "word": 4318,
      "work": 4319,
      "world": 4320,
      "worr": 4321,
      "wors": 4322,
      "worship": 4323,
      "worth": 4324,
      "would": 4325,
      "wound": 4326,
      "wrap": 4327,
      "wreak": 4328,
      "wretch": 4329,
      "wright": 4330,
      "writ": 4331,
      "wrong": 4332,
      "wrote": 4333,
      "www": 4334,
      "x64": 4335,
      "x86": 4336,
      "xml": 4337,
      "xor": 4338,
      "yaml": 4339,
      "yeah": 4340,
      "year": 4341,
      "yellow": 4342,
      "yes": 4343,
      "yet": 4344,
      "yield": 4345,
      "you": 4346,
      "young": 4347,
      "your": 4348,
      "youth": 4349,
      "youtub": 4350,
      "zero": 4351,
      "zip": 4352,
      "zon": 4353,
      "zoom": 4354,
      "##0": 4355,
      "##1": 4356,
      "##2": 4357,
      "##3": 4358,
      "##4": 4359,
      "##5": 4360,
      "##6": 4361,
      "##7": 4362,
      "##8": 4363,
      "##9": 4364,
      "##est": 4365,
      "##edly": 4366,
      "##ful": 4367,
      "##day": 4368,
      "##after": 4369,
      "##in": 4370,
      "##ing": 4371,
      "##ive": 4372,
      "##is": 4373,
      "##er": 4374,
      "##es": 4375,
      "##ed": 4376,
      "##ion": 4377,
      "##ment": 4378,
      "##less": 4379,
      "##ness": 4380,
      "##ly": 4381,
      "##al": 4382,
      "##ally": 4383,
      "##ous": 4384,
      "##ability": 4385,
      "##able": 4386,
      "##ably": 4387,
      "##ely": 4388,
      "##ently": 4389,
      "##ately": 4390,
      "##tion": 4391,
      "##ity": 4392,
      "##or": 4393,
      "##ior": 4394,
      "##up": 4395,
      "##out": 4396,
      "##about": 4397,
      "##over": 4398,
      "##fore": 4399,
      "##upon": 4400,
      "##self": 4401,
      "##time": 4402,
      "##ware": 4403,
      "##ever": 4404,
      "##some": 4405,
      "##back": 4406,
      "##ic": 4407,
      "##pad": 4408,
      "##mat": 4409,
      "##plot": 4410,
      "##lib": 4411,
      "##graph": 4412,
      "##shop": 4413,
      "##real": 4414,
      "##math": 4415,
      "##atic": 4416,
      "##noon": 4417,
      "##logic": 4418,
      "##load": 4419,
      "##ify": 4420,
      "##of": 4421,
      "##off": 4422,
      "##date": 4423,
      "##on": 4424,
      "##down": 4425,
      "##work": 4426,
      "##code": 4427,
      "##type": 4428,
      "##cod": 4429,
      "##ative": 4430,
      "##struct": 4431,
      "##fix": 4432,
      "##made": 4433,
      "##mak": 4434,
      "##ant": 4435,
      "##liv": 4436,
      "##norm": 4437,
      "##rich": 4438,
      "##queu": 4439,
      "##tech": 4440,
      "##search": 4441,
      "##advantag": 4442,
      "##agree": 4443,
      "##allow": 4444,
      "##ambigu": 4445,
      "##appear": 4446,
      "##abilities": 4447,
      "##tast": 4448,
      "##script": 4449,
      "##book": 4450,
      "##system": 4451,
      "##mail": 4452,
      "##case": 4453,
      "##list": 4454,
      "##coming": 4455,
      "##cut": 4456,
      "##fall": 4457,
      "##step": 4458,
      "##link": 4459,
      "##bar": 4460,
      "##line": 4461,
      "##flow": 4462,
      "##fus": 4463,
      "##diffus": 4464,
      "##locat": 4465,
      "##lock": 4466,
      "##activat": 4467,
      "##transform": 4468,
      "##solv": 4469,
      "##solution": 4470,
      "##sociat": 4471,
      "##equal": 4472,
      "##efficien": 4473,
      "##effect": 4474,
      "##elegan": 4475,
      "##ebriet": 4476,
      "##eligib": 4477,
      "##scrib": 4478,
      "##stream": 4479,
      "##quiet": 4480,
      "##paint": 4481,
      "##age": 4482,
      "##pag": 4483,
      "##ordinar": 4484,
      "##sampl": 4485,
      "##to": 4486,
      "##operat": 4487,
      "##ship": 4488,
      "##process": 4489,
      "##relat": 4490,
      "##tun": 4491,
      "##fortun": 4492,
      "##point": 4493,
      "##through": 4494,
      "##stag": 4495,
      "##manag": 4496,
      "##pack": 4497,
      "##packag": 4498,
      "##lang": 4499,
      "##languag": 4500,
      "##storag": 4501,
      "##fast": 4502,
      "##propagat": 4503,
      "##engag": 4504,
      "##damag": 4505,
      "##fastidious": 4506,
      "##top": 4507,
      "##web": 4508,
      "##cord": 4509,
      "##install": 4510,
      "##game": 4511,
      "##mongo": 4512,
      "##test": 4513,
      "##dev": 4514,
      "##torch": 4515,
      "##cuda": 4516,
      "##charm": 4517,
      "##pos": 4518,
      "##obj": 4519,
      "##compil": 4520,
      "##compos": 4521,
      "##compres": 4522,
      "##construct": 4523,
      "##convol": 4524,
      "##dispos": 4525,
      "##differ": 4526,
      "##direct": 4527,
      "##discreet": 4528,
      "##discret": 4529,
      "##disput": 4530,
      "##distinct": 4531,
      "##dispens": 4532,
      "##door": 4533,
      "##valid": 4534,
      "##valu": 4535,
      "##variabl": 4536,
      "##varianc": 4537,
      "##variant": 4538,
      "##tabl": 4539,
      "##phone": 4540,
      "##crypt": 4541,
      "##record": 4542,
      "##view": 4543,
      "##cycl": 4544,
      "##boost": 4545,
      "##delta": 4546,
      "##grad": 4547,
      "##updat": 4548,
      "##ward": 4549,
      "##grand": 4550,
      "##cast": 4551,
      "##mention": 4552,
      "##quarter": 4553,
      "##python": 4554,
      "##escap": 4555,
      "##exact": 4556,
      "##excus": 4557,
      "##expens": 4558,
      "##experien": 4559,
      "##express": 4560,
      "##famous": 4561,
      "##feasib": 4562,
      "##estima": 4563,
      "##class": 4564,
      "##cloud": 4565,
      "##channel": 4566,
      "##byte": 4567,
      "##comput": 4568,
      "##conceiv": 4569,
      "##condit": 4570,
      "##config": 4571,
      "##defin": 4572,
      "##determin": 4573,
      "##discover": 4574,
      "##task": 4575,
      "##map": 4576,
      "##check": 4577,
      "##connect": 4578,
      "##consider": 4579,
      "##creat": 4580,
      "##crawl": 4581,
      "##mark": 4582,
      "##declar": 4583,
      "##deliver": 4584,
      "##deploy": 4585,
      "##design": 4586,
      "##draw": 4587,
      "##enter": 4588,
      "##establish": 4589,
      "##examin": 4590,
      "##count": 4591,
      "##group": 4592,
      "##hash": 4593,
      "##mask": 4594,
      "##center": 4595,
      "##account": 4596,
      "##area": 4597,
      "##array": 4598,
      "##cluster": 4599,
      "##collect": 4600,
      "##command": 4601,
      "##complex": 4602,
      "##conscious": 4603,
      "##contain": 4604,
      "##divid": 4605,
      "##divis": 4606,
      "##document": 4607,
      "##domain": 4608,
      "##element": 4609,
      "##field": 4610,
      "##fold": 4611,
      "##gradient": 4612,
      "##sect": 4613,
      "##seque": 4614,
      "##set": 4615,
      "##space": 4616,
      "##strat": 4617,
      "##piece": 4618,
      "##title": 4619,
      "##tree": 4620,
      "##typ": 4621,
      "##variet": 4622,
      "##vocabular": 4623,
      "##version": 4624,
      "##word": 4625,
      "##wise": 4626,
      "##variat": 4627,
      "##data": 4628,
      "##board": 4629,
      "##lingu": 4630,
      "##classif": 4631,
      "##clutter": 4632,
      "##not": 4633,
      "##notat": 4634,
      "##quest": 4635,
      "##arm": 4636,
      "##attack": 4637,
      "##bion": 4638,
      "##crim": 4639,
      "##net": 4640,
      "##punk": 4641,
      "##secur": 4642,
      "##sport": 4643,
      "##vision": 4644,
      "##zon": 4645,
      "##scien": 4646,
      "##nois": 4647,
      "##nominat": 4648,
      "##normaliz": 4649,
      "##mystif": 4650,
      "##think": 4651,
      "##critic": 4652,
      "##gram": 4653,
      "##tool": 4654,
      "##prov": 4655,
      "##regard": 4656,
      "##respect": 4657,
      "##entangl": 4658,
      "##grunt": 4659,
      "##inclin": 4660,
      "##inform": 4661,
      "##ingen": 4662,
      "##interest": 4663,
      "##junct": 4664,
      "##cach": 4665,
      "##lik": 4666,
      "##order": 4667,
      "##patch": 4668,
      "##satisf": 4669,
      "##plac": 4670,
      "##pleas": 4671,
      "##seminat": 4672,
      "##servic": 4673,
      "##similar": 4674,
      "##proportion": 4675,
      "##approb": 4676,
      "##approv": 4677,
      "##assembl": 4678,
      "##associat": 4679,
      "##charg": 4680,
      "##claim": 4681,
      "##clos": 4682,
      "##concert": 4683,
      "##trust": 4684,
      "##util": 4685,
      "##file": 4686,
      "##click": 4687,
      "##rank": 4688,
      "##right": 4689,
      "##scal": 4690,
      "##side": 4691,
      "##size": 4692,
      "##siz": 4693,
      "##stair": 4694,
      "##turn": 4695,
      "##gen": 4696,
      "##talk": 4697,
      "##team": 4698,
      "##box": 4699,
      "##power": 4700,
      "##hub": 4701,
      "##lab": 4702,
      "##bit": 4703,
      "##away": 4704,
      "##ignor": 4705,
      "##hunt": 4706,
      "##felt": 4707,
      "##weight": 4708,
      "##world": 4709,
      "##desk": 4710,
      "##accur": 4711,
      "##action": 4712,
      "##activ": 4713,
      "##adequat": 4714,
      "##admiss": 4715,
      "##advert": 4716,
      "##advis": 4717,
      "##apprecia": 4718,
      "##appropriat": 4719,
      "##argu": 4720,
      "##attent": 4721,
      "##bound": 4722,
      "##buil": 4723,
      "##capab": 4724,
      "##cautio": 4725,
      "##coheren": 4726,
      "##come": 4727,
      "##commod": 4728,
      "##compar": 4729,
      "##compat": 4730,
      "##complet": 4731,
      "##comprehen": 4732,
      "##conclusi": 4733,
      "##congru": 4734,
      "##consist": 4735,
      "##conspic": 4736,
      "##const": 4737,
      "##convenien": 4738,
      "##corpora": 4739,
      "##correct": 4740,
      "##fatuat": 4741,
      "##fanc": 4742,
      "##control": 4743,
      "##panel": 4744,
      "##metr": 4745,
      "##trop": 4746,
      "##body": 4747,
      "##how": 4748,
      "##except": 4749,
      "##follow": 4750,
      "##look": 4751,
      "##driv": 4752,
      "##api": 4753,
      "##shap": 4754,
      "##shuffl": 4755,
      "##sign": 4756,
      "##signif": 4757,
      "##produc": 4758,
      "##js": 4759,
      "##fragment": 4760,
      "##rang": 4761,
      "##dram": 4762,
      "##brows": 4763,
      "##develop": 4764,
      "##cam": 4765,
      "##font": 4766,
      "##form": 4767,
      "##hook": 4768,
      "##host": 4769,
      "##interfac": 4770,
      "##master": 4771,
      "##kit": 4772,
      "##log": 4773,
      "##client": 4774,
      "##component": 4775,
      "##request": 4776,
      "##scop": 4777,
      "##server": 4778,
      "##site": 4779,
      "##socket": 4780,
      "##stor": 4781,
      "##summit": 4782,
      "##trend": 4783,
      "##xml": 4784,
      "##fare": 4785,
      "##from": 4786,
      "##paper": 4787,
      "##app": 4788,
      "##just": 4789,
      "##justif": 4790,
      "##kind": 4791,
      "##know": 4792,
      "##label": 4793,
      "##law": 4794,
      "##learn": 4795,
      "##licens": 4796,
      "##limit": 4797,
      "##valent": 4798,
      "##luck": 4799,
      "##maintain": 4800,
      "##man": 4801,
      "##marr": 4802,
      "##marshall": 4803,
      "##match": 4804,
      "##merit": 4805,
      "##mistak": 4806,
      "##mix": 4807,
      "##mirth": 4808,
      "##modif": 4809,
      "##modul": 4810,
      "##motivat": 4811,
      "##mount": 4812,
      "##multipl": 4813,
      "##mut": 4814,
      "##nam": 4815,
      "##natur": 4816,
      "##necess": 4817,
      "##need": 4818,
      "##object": 4819,
      "##observ": 4820,
      "##parallel": 4821,
      "##paus": 4822,
      "##perceiv": 4823,
      "##permit": 4824,
      "##paid": 4825,
      "##pardon": 4826,
      "##pair": 4827,
      "##organiz": 4828,
      "##occup": 4829,
      "##notic": 4830,
      "##ostentat": 4831,
      "##optimiz": 4832,
      "##open": 4833,
      "##official": 4834,
      "##persuad": 4835,
      "##plan": 4836,
      "##plug": 4837,
      "##polish": 4838,
      "##practic": 4839,
      "##pool": 4840,
      "##popular": 4841,
      "##precedent": 4842,
      "##predict": 4843,
      "##prepar": 4844,
      "##pretend": 4845,
      "##prett": 4846,
      "##print": 4847,
      "##privileg": 4848,
      "##profession": 4849,
      "##profit": 4850,
      "##protect": 4851,
      "##provid": 4852,
      "##publish": 4853,
      "##qualif": 4854,
      "##question": 4855,
      "##quot": 4856,
      "##ravel": 4857,
      "##reach": 4858,
      "##read": 4859,
      "##ready": 4860,
      "##reason": 4861,
      "##receiv": 4862,
      "##recogniz": 4863,
      "##recover": 4864,
      "##register": 4865,
      "##regulat": 4866,
      "##reliabl": 4867,
      "##requir": 4868,
      "##requit": 4869,
      "##reserv": 4870,
      "##resolv": 4871,
      "##respon": 4872,
      "##restrict": 4873,
      "##reveal": 4874,
      "##rival": 4875,
      "##roll": 4876,
      "##saf": 4877,
      "##said": 4878,
      "##sav": 4879,
      "##say": 4880,
      "##season": 4881,
      "##see": 4882,
      "##seen": 4883,
      "##segment": 4884,
      "##select": 4885,
      "##releas": 4886,
      "##sell": 4887,
      "##sentiment": 4888,
      "##serial": 4889,
      "##settl": 4890,
      "##shak": 4891,
      "##shar": 4892,
      "##shift": 4893,
      "##send": 4894,
      "##skill": 4895,
      "##smooth": 4896,
      "##solicit": 4897,
      "##sort": 4898,
      "##specif": 4899,
      "##spent": 4900,
      "##splash": 4901,
      "##sponsor": 4902,
      "##stabl": 4903,
      "##stat": 4904,
      "##stead": 4905,
      "##stick": 4906,
      "##stop": 4907,
      "##stud": 4908,
      "##subscrib": 4909,
      "##substantiat": 4910,
      "##success": 4911,
      "##suit": 4912,
      "##sull": 4913,
      "##supervis": 4914,
      "##support": 4915,
      "##sure": 4916,
      "##surpris": 4917,
      "##suspect": 4918,
      "##suspicio": 4919,
      "##sustain": 4920,
      "##synchron": 4921,
      "##target": 4922,
      "##templat": 4923,
      "##tenabl": 4924,
      "##terminat": 4925,
      "##tether": 4926,
      "##told": 4927,
      "##touch": 4928,
      "##toward": 4929,
      "##track": 4930,
      "##train": 4931,
      "##transcrib": 4932,
      "##translat": 4933,
      "##treat": 4934,
      "##truth": 4935,
      "##twin": 4936,
      "##typic": 4937,
      "##usab": 4938,
      "##use": 4939,
      "##usual": 4940,
      "##vary": 4941,
      "##worth": 4942,
      "##front": 4943,
      "##wrap": 4944,
      "##willing": 4945,
      "##verif": 4946,
      "##visit": 4947,
      "##want": 4948,
      "##watch": 4949,
      "##welcom": 4950,
      "##well": 4951,
      "##whole": 4952,
      "##wield": 4953,
      "##wind": 4954,
      "##wound": 4955,
      "##wont": 4956,
      "##writ": 4957,
      "##beat": 4958,
      "##zip": 4959,
      "##grow": 4960,
      "##heav": 4961,
      "##held": 4962,
      "##hold": 4963,
      "##lift": 4964,
      "##most": 4965,
      "##start": 4966,
      "##ris": 4967,
      "##swing": 4968,
      "##take": 4969,
      "##vot": 4970,
      "##pars": 4971,
      "##friend": 4972,
      "##engine": 4973,
      "##torrent": 4974,
      "##error": 4975,
      "##model": 4976,
      "##port": 4977,
      "##studio": 4978,
      "##around": 4979,
      "##pro": 4980,
      "##craft": 4981,
      "##optimal": 4982,
      "##part": 4983,
      "##ordinat": 4984,
      "##pixel": 4985,
      "##problem": 4986,
      "##quer": 4987,
      "##routine": 4988,
      "##vers": 4989,
      "##program": 4990,
      "##gpt": 4991,
      "##architect": 4992,
      "##bench": 4993,
      "##chip": 4994,
      "##electron": 4995,
      "##framework": 4996,
      "##grid": 4997,
      "##messag": 4998,
      "##mobil": 4999,
      "##sensor": 5000,
      "##soft": 5001,
      "##second": 5002,
      "##wav": 5003,
      "##journ": 5004,
      "##night": 5005,
      "##summer": 5006,
      "##ston": 5007,
      "##blow": 5008,
      "##collinear": 5009,
      "##color": 5010,
      "##core": 5011,
      "##devic": 5012,
      "##dimens": 5013,
      "##factor": 5014,
      "##func": 5015,
      "##index": 5016,
      "##layer": 5017,
      "##level": 5018,
      "##head": 5019,
      "##media": 5020,
      "##modal": 5021,
      "##nation": 5022,
      "##nomi": 5023,
      "##method": 5024,
      "##project": 5025,
      "##processor": 5026,
      "##resolut": 5027,
      "##protocol": 5028,
      "##region": 5029,
      "##thread": 5030,
      "##sql": 5031,
      "##param": 5032,
      "##face": 5033,
      "##particl": 5034,
      "##pass": 5035,
      "##hav": 5036,
      "##compass": 5037,
      "##croach": 5038,
      "##courag": 5039,
      "##pedia": 5040,
      "##giv": 5041,
      "##guid": 5042,
      "##align": 5043,
      "##appl": 5044,
      "##behav": 5045,
      "##chief": 5046,
      "##communic": 5047,
      "##concept": 5048,
      "##conduct": 5049,
      "##ratio": 5050,
      "##fit": 5051,
      "##interpret": 5052,
      "##lead": 5053,
      "##constru": 5054,
      "##mind": 5055,
      "##the": 5056,
      "##together": 5057,
      "##string": 5058,
      "##counter": 5059,
      "##act": 5060,
      "##clock": 5061,
      "##measur": 5062,
      "##ficial": 5063,
      "##fact": 5064,
      "##human": 5065,
      "##impos": 5066,
      "##intelli": 5067,
      "##intend": 5068,
      "##shin": 5069,
      "##add": 5070,
      "##intent": 5071,
      "##interpolat": 5072,
      "##interrupt": 5073,
      "##lateral": 5074,
      "##implement": 5075,
      "##import": 5076,
      "##impress": 5077,
      "##init": 5078,
      "##initiat": 5079,
      "##inspir": 5080,
      "##imped": 5081,
      "##imagin": 5082,
      "##inforc": 5083,
      "##insert": 5084,
      "##instat": 5085,
      "##integr": 5086,
      "##invent": 5087,
      "##issu": 5088,
      "##iterat": 5089,
      "##joic": 5090,
      "##join": 5091,
      "##introduc": 5092,
      "##launch": 5093,
      "##juvenat": 5094,
      "##lay": 5095,
      "##laps": 5096,
      "##laid": 5097,
      "##layout": 5098,
      "##letter": 5099,
      "##virus": 5100,
      "##alias": 5101,
      "##merg": 5102,
      "##motiv": 5103,
      "##pilot": 5104,
      "##play": 5105,
      "##regress": 5106,
      "##repl": 5107,
      "##rotat": 5108,
      "##scroll": 5109,
      "##wait": 5110,
      "##while": 5111,
      "##woke": 5112,
      "##bone": 5113,
      "##drop": 5114,
      "##end": 5115,
      "##ground": 5116,
      "##light": 5117,
      "##slash": 5118,
      "##trac": 5119,
      "##centr": 5120,
      "##soup": 5121,
      "##hand": 5122,
      "##scor": 5123,
      "##represent": 5124,
      "##rat": 5125,
      "##perform": 5126,
      "##break": 5127,
      "##keep": 5128,
      "##room": 5129,
      "##access": 5130,
      "##sens": 5131,
      "##content": 5132,
      "##continu": 5133,
      "##cours": 5134,
      "##commerc": 5135,
      "##text": 5136,
      "##vector": 5137,
      "##lumin": 5138,
      "##magnet": 5139,
      "##mechanic": 5140,
      "##techni": 5141,
      "##sincere": 5142,
      "##scrut": 5143,
      "##sensitiv": 5144,
      "##sent": 5145,
      "##separ": 5146,
      "##hood": 5147,
      "##span": 5148,
      "##hack": 5149,
      "##std": 5150,
      "##took": 5151,
      "##us": 5152,
      "##understand": 5153,
      "##understood": 5154,
      "##sourc": 5155,
      "##stack": 5156,
      "##street": 5157,
      "##offic": 5158,
      "##gonal": 5159,
      "##selv": 5160,
      "##lie": 5161,
      "##spoke": 5162,
      "##staff": 5163,
      "##stand": 5164,
      "##stay": 5165,
      "##strip": 5166,
      "##weigh": 5167,
      "##came": 5168,
      "##care": 5169,
      "##commit": 5170,
      "##complicat": 5171,
      "##crowd": 5172,
      "##debug": 5173,
      "##depend": 5174,
      "##hast": 5175,
      "##haul": 5176,
      "##hear": 5177,
      "##heat": 5178,
      "##kill": 5179,
      "##pric": 5180,
      "##relian": 5181,
      "##run": 5182,
      "##saturat": 5183,
      "##shadow": 5184,
      "##simplif": 5185,
      "##stock": 5186,
      "##throw": 5187,
      "##tak": 5188,
      "##shoot": 5189,
      "##sight": 5190,
      "##saw": 5191,
      "##sea": 5192,
      "##whelm": 5193,
      "##wrote": 5194,
      "##meter": 5195,
      "##morph": 5196,
      "##hedron": 5197,
      "##synth": 5198,
      "##forc": 5199,
      "##go": 5200,
      "##wide": 5201,
      "##abat": 5202,
      "##accept": 5203,
      "##achiev": 5204,
      "##adjust": 5205,
      "##adorn": 5206,
      "##affect": 5207,
      "##afraid": 5208,
      "##announc": 5209,
      "##answer": 5210,
      "##assign": 5211,
      "##attach": 5212,
      "##attain": 5213,
      "##attend": 5214,
      "##attract": 5215,
      "##author": 5216,
      "##avail": 5217,
      "##avoid": 5218,
      "##balanc": 5219,
      "##bleach": 5220,
      "##becom": 5221,
      "##believ": 5222,
      "##branch": 5223,
      "##brand": 5224,
      "##broke": 5225,
      "##buf": 5226,
      "##bundl": 5227,
      "##categor": 5228,
      "##caught": 5229,
      "##ceremon": 5230,
      "##certain": 5231,
      "##chain": 5232,
      "##chang": 5233,
      "##chart": 5234,
      "##civil": 5235,
      "##clear": 5236,
      "##comfort": 5237,
      "##comment": 5238,
      "##common": 5239,
      "##compet": 5240,
      "##compromis": 5241,
      "##concern": 5242,
      "##confirm": 5243,
      "##constrain": 5244,
      "##convent": 5245,
      "##convinc": 5246,
      "##coordinat": 5247,
      "##correlat": 5248,
      "##coupl": 5249,
      "##couth": 5250,
      "##cover": 5251,
      "##curat": 5252,
      "##daunt": 5253,
      "##decid": 5254,
      "##copy": 5255,
      "##contest": 5256,
      "##bred": 5257,
      "##graduat": 5258,
      "##deni": 5259,
      "##serializ": 5260,
      "##stabiliz": 5261,
      "##guard": 5262,
      "##spatial": 5263,
      "##posit": 5264,
      "##oper": 5265,
      "##visib": 5266,
      "##volunt": 5267,
      "##cell": 5268,
      "##batch": 5269,
      "##computer": 5270,
      "##chrom": 5271,
      "##shell": 5272,
      "##auth": 5273,
      "##ops": 5274,
      "##combin": 5275,
      "##calcul": 5276,
      "##calibrat": 5277,
      "##call": 5278,
      "##certif": 5279,
      "##base": 5280,
      "##bind": 5281,
      "##boot": 5282,
      "##born": 5283,
      "##assuranc": 5284,
      "##assess": 5285,
      "##bas": 5286,
      "##analys": 5287,
      "##affirm": 5288,
      "##essential": 5289,
      "##possess": 5290,
      "##requisit": 5291,
      "##rout": 5292,
      "##filt": 5293,
      "##phras": 5294,
      "##menu": 5295,
      "##entr": 5296,
      "##generat": 5297,
      "##imburs": 5298,
      "##sembl": 5299,
      "##spect": 5300,
      "##try": 5301,
      "##unit": 5302,
      "##union": 5303,
      "##tweet": 5304,
      "##shot": 5305,
      "##one": 5306,
      "##thing": 5307,
      "##way": 5308,
      "##what": 5309,
      "##where": 5310,
      "##more": 5311,
      "##alone": 5312,
      "##forward": 5313,
      "##due": 5314,
      "##doubt": 5315,
      "##detect": 5316,
      "##deserv": 5317,
      "##desir": 5318,
      "##discern": 5319,
      "##disclos": 5320,
      "##distinguish": 5321,
      "##evaluat": 5322,
      "##exampl": 5323,
      "##expect": 5324,
      "##expir": 5325,
      "##explain": 5326,
      "##exploit": 5327,
      "##explor": 5328,
      "##fair": 5329,
      "##equi": 5330,
      "##employ": 5331,
      "##eas": 5332,
      "##familiar": 5333,
      "##fill": 5334,
      "##feel": 5335,
      "##focus": 5336,
      "##feign": 5337,
      "##format": 5338,
      "##freez": 5339,
      "##frequen": 5340,
      "##fulfil": 5341,
      "##fund": 5342,
      "##foresee": 5343,
      "##forget": 5344,
      "##identif": 5345,
      "##help": 5346,
      "##handl": 5347,
      "##happ": 5348,
      "##gracious": 5349,
      "##grate": 5350,
      "##health": 5351,
      "##geni": 5352,
      "##hid": 5353,
      "##heed": 5354,
      "##guess": 5355,
      "##gallant": 5356,
      "##dog": 5357,
      "##land": 5358,
      "##char": 5359,
      "##press": 5360,
      "##round": 5361,
      "##dominan": 5362,
      "##dominat": 5363,
      "##fetch": 5364,
      "##dock": 5365,
      "##pay": 5366,
      "##doc": 5367,
      "##dos": 5368,
      "##matur": 5369,
      "##submiss": 5370,
      "##submit": 5371,
      "##surg": 5372,
      "##sync": 5373,
      "##colon": 5374,
      "##men": 5375
    }
  }
}