{
  "version": "1.0",
  "truncation": null,
  "padding": null,
  "added_tokens": [
    {
      "id": 0,
      "content": "[PAD]",
      "single_word": false,
      "lstrip": false,
      "rstrip": false,
      "normalized": false,
      "special": true
    },
    {
      "id": 1,
      "content": "[UNK]",
      "single_word": false,
      "lstrip": false,
      "rstrip": false,
      "normalized": false,
      "special": true
    },
    {
      "id": 2,
      "content": "[CLS]",
      "single_word": false,
      "lstrip": false,
      "rstrip": false,
      "normalized": false,
      "special": true
    },
    {
      "id": 3,
      "content": "[SEP]",
      "single_word": false,
      "lstrip": false,
      "rstrip": false,
      "normalized": false,
      "special": true
    },
    {
      "id": 4,
      "content": "[MASK]",
      "single_word": false,
      "lstrip": false,
      "rstrip": false,
      "normalized": false,
      "special": true
    },
    {
      "id": 5,
      "content": "##a",
      "single_word": false,
      "lstrip": false,
      "rstrip": false,
      "normalized": false,
      "special": true
    },
    {
      "id": 6,
      "content": "##b",
      "single_word": false,
      "lstrip": false,
      "rstrip": false,
      "normalized": false,
      "special": true
    },
    {
      "id": 7,
      "content": "##c",
      "single_word": false,
      "lstrip": false,
      "rstrip": false,
      "normalized": false,
      "special": true
    },
    {
      "id": 8,
      "content": "##d",
      "single_word": false,
      "lstrip": false,
      "rstrip": false,
      "normalized": false,
      "special": true
    },
    {
      "id": 9,
      "content": "##e",
      "single_word": false,
      "lstrip": false,
      "rstrip": false,
      "normalized": false,
      "special": true
    },
    {
      "id": 10,
      "content": "##f",
      "single_word": false,
      "lstrip": false,
      "rstrip": false,
      "normalized": false,
      "special": true
    },
    {
      "id": 11,
      "content": "##g",
      "single_word": false,
      "lstrip": false,
      "rstrip": false,
      "normalized": false,
      "special": true
    },
    {
      "id": 12,
      "content": "##h",
      "single_word": false,
      "lstrip": false,
      "rstrip": false,
      "normalized": false,
      "special": true
    },
    {
      "id": 13,
      "content": "##i",
      "single_word": false,
      "lstrip": false,
      "rstrip": false,
      "normalized": false,
      "special": true
    },
    {
      "id": 14,
      "content": "##j",
      "single_word": false,
      "lstrip": false,
      "rstrip": false,
      "normalized": false,
      "special": true
    },
    {
      "id": 15,
      "content": "##k",
      "single_word": false,
      "lstrip": false,
      "rstrip": false,
      "normalized": false,
      "special": true
    },
    {
      "id": 16,
      "content": "##l",
      "single_word": false,
      "lstrip": false,
      "rstrip": false,
      "normalized": false,
      "special": true
    },
    {
      "id": 17,
      "content": "##m",
      "single_word": false,
      "lstrip": false,
      "rstrip": false,
      "normalized": false,
      "special": true
    },
    {
      "id": 18,
      "content": "##n",
      "single_word": false,
      "lstrip": false,
      "rstrip": false,
      "normalized": false,
      "special": true
    },
    {
      "id": 19,
      "content": "##o",
      "single_word": false,
      "lstrip": false,
      "rstrip": false,
      "normalized": false,
      "special": true
    },
    {
      "id": 20,
      "content": "##p",
      "single_word": false,
      "lstrip": false,
      "rstrip": false,
      "normalized": false,
      "special": true
    },
    {
      "id": 21,
      "content": "##q",
      "single_word": false,
      "lstrip": false,
      "rstrip": false,
      "normalized": false,
      "special": true
    },
    {
      "id": 22,
      "content": "##r",
      "single_word": false,
      "lstrip": false,
      "rstrip": false,
      "normalized": false,
      "special": true
    },
    {
      "id": 23,
      "content": "##s",
      "single_word": false,
      "lstrip": false,
      "rstrip": false,
      "normalized": false,
      "special": true
    },
    {
      "id": 24,
      "content": "##t",
      "single_word": false,
      "lstrip": false,
      "rstrip": false,
      "normalized": false,
      "special": true
    },
    {
      "id": 25,
      "content": "##u",
      "single_word": false,
      "lstrip": false,
      "rstrip": false,
      "normalized": false,
      "special": true
    },
    {
      "id": 26,
      "content": "##v",
      "single_word": false,
      "lstrip": false,
      "rstrip": false,
      "normalized": false,
      "special": true
    },
    {
      "id": 27,
      "content": "##w",
      "single_word": false,
      "lstrip": false,
      "rstrip": false,
      "normalized": false,
      "special": true
    },
    {
      "id": 28,
      "content": "##x",
      "single_word": false,
      "lstrip": false,
      "rstrip": false,
      "normalized": false,
      "special": true
    },
    {
      "id": 29,
      "content": "##y",
      "single_word": false,
      "lstrip": false,
      "rstrip": false,
      "normalized": false,
      "special": true
    },
    {
      "id": 30,
      "content": "##z",
      "single_word": false,
      "lstrip": false,
      "rstrip": false,
      "normalized": false,
      "special": true
    }
  ],
  "normalizer": {
    "type": "BertNormalizer",
    "clean_text": true,
    "handle_chinese_chars": true,
    "strip_accents": true,
    "lowercase": true
  },
  "pre_tokenizer": {
    "type": "BertPreTokenizer"
  },
  "post_processor": null,
  "decoder": {
    "type": "WordPiece",
    "prefix": "##",
    "cleanup": true
  },
  "model": {
    "type": "WordPiece",
    "unk_token": "[UNK]",
    "continuing_subword_prefix": "##",
    "max_input_chars_per_word": 100,
    "vocab": {
      "[PAD]": 0,
      "[UNK]": 1,
      "[CLS]": 2,
      "[SEP]": 3,
      "[MASK]": 4,
      "##a": 5,
      "##b": 6,
      "##c": 7,
      "##d": 8,
      "##e": 9,
      "##f": 10,
      "##g": 11,
      "##h": 12,
      "##i": 13,
      "##j": 14,
      "##k": 15,
      "##l": 16,
      "##m": 17,
      "##n": 18,
      "##o": 19,
      "##p": 20,
      "##q": 21,
      "##r": 22,
      "##s": 23,
      "##t": 24,
      "##u": 25,
      "##v": 26,
      "##w": 27,
      "##x": 28,
      "##y": 29,
      "##z": 30,
      "+": 31,
      "-": 32,
      ".": 33,
      "/": 34,
      "0": 35,
      "1": 36,
      "2": 37,
      "3": 38,
      "4": 39,
      "5": 40,
      "6": 41,
      "7": 42,
      "8": 43,
      "9": 44,
      "_": 45,
      "a": 46,
      "b": 47,
      "c": 48,
      "d": 49,
      "e": 50,
      "f": 51,
      "g": 52,
      "h": 53,
      "i": 54,
      "j": 55,
      "k": 56,
      "l": 57,
      "m": 58,
      "n": 59,
      "o": 60,
      "p": 61,
      "q": 62,
      "r": 63,
      "s": 64,
      "t": 65,
      "u": 66,
      "v": 67,
      "w": 68,
      "x": 69,
      "y": 70,
      "z": 71,
      ".js": 72,
      "abandon": 73,
      "abat": 74,
      "abbreviat": 75,
      "aberrant": 76,
      "abhor": 77,
      "abid": 78,
      "ability": 79,
      "ablat": 80,
      "able": 81,
      "aboli": 82,
      "abomina": 83,
      "abort": 84,
      "abound": 85,
      "about": 86,
      "above": 87,
      "abreast": 88,
      "abrogat": 89,
      "abrupt": 90,
      "abscond": 91,
      "absen": 92,
      "absolut": 93,
      "absorb": 94,
      "abstain": 95,
      "abstract": 96,
      "abundan": 97,
      "abus": 98,
      "academ": 99,
      "acced": 100,
      "accelerat": 101,
      "accent": 102,
      "accept": 103,
      "access": 104,
      "accident": 105,
      "acclaim": 106,
      "accommodat": 107,
      "accomplish": 108,
      "accord": 109,
      "account": 110,
      "accrue": 111,
      "accumulat": 112,
      "accur": 113,
      "accus": 114,
      "ache": 115,
      "achiev": 116,
      "acoust": 117,
      "acquaint": 118,
      "acquies": 119,
      "acquir": 120,
      "acquisition": 121,
      "acquit": 122,
      "acronym": 123,
      "act": 124,
      "action": 125,
      "activ": 126,
      "activat": 127,
      "actual": 128,
      "actuat": 129,
      "acute": 130,
      "ada": 131,
      "adapt": 132,
      "add": 133,
      "addendum": 134,
      "addict": 135,
      "addit": 136,
      "address": 137,
      "adept": 138,
      "adequat": 139,
      "adher": 140,
      "adjacen": 141,
      "adjectiv": 142,
      "adjoin": 143,
      "adjust": 144,
      "admin": 145,
      "admir": 146,
      "admiss": 147,
      "admit": 148,
      "adopt": 149,
      "ador": 150,
      "adorn": 151,
      "advanc": 152,
      "advantag": 153,
      "adventur": 154,
      "advers": 155,
      "advert": 156,
      "advic": 157,
      "advis": 158,
      "adware": 159,
      "affab": 160,
      "affair": 161,
      "affect": 162,
      "affiliat": 163,
      "affin": 164,
      "affirm": 165,
      "affix": 166,
      "afflict": 167,
      "afford": 168,
      "affront": 169,
      "afraid": 170,
      "after": 171,
      "again": 172,
      "against": 173,
      "age": 174,
      "agenc": 175,
      "agenda": 176,
      "agent": 177,
      "agglomerat": 178,
      "aggravat": 179,
      "aggregat": 180,
      "aggress": 181,
      "aghast": 182,
      "agil": 183,
      "agitat": 184,
      "ago": 185,
      "agree": 186,
      "ahead": 187,
      "aim": 188,
      "air": 189,
      "ajax": 190,
      "aka": 191,
      "al": 192,
      "alack": 193,
      "alacrit": 194,
      "alarm": 195,
      "alert": 196,
      "alex": 197,
      "algebra": 198,
      "algorithm": 199,
      "alias": 200,
      "align": 201,
      "alike": 202,
      "alive": 203,
      "all": 204,
      "alleg": 205,
      "allegor": 206,
      "alleviat": 207,
      "alli": 208,
      "allianc": 209,
      "allocat": 210,
      "allot": 211,
      "allow": 212,
      "allud": 213,
      "allus": 214,
      "ally": 215,
      "alone": 216,
      "along": 217,
      "aloud": 218,
      "alpha": 219,
      "alphabet": 220,
      "already": 221,
      "also": 222,
      "alter": 223,
      "alternat": 224,
      "although": 225,
      "always": 226,
      "am": 227,
      "amass": 228,
      "amaz": 229,
      "amazon": 230,
      "ambi": 231,
      "ambient": 232,
      "ambigu": 233,
      "ambit": 234,
      "amend": 235,
      "amiabl": 236,
      "amid": 237,
      "amiss": 238,
      "amo": 239,
      "among": 240,
      "amount": 241,
      "amper": 242,
      "ampersand": 243,
      "ampl": 244,
      "amplic": 245,
      "amplif": 246,
      "amplitud": 247,
      "amus": 248,
      "an": 249,
      "analog": 250,
      "analys": 251,
      "analytic": 252,
      "analyz": 253,
      "anchor": 254,
      "ancient": 255,
      "and": 256,
      "android": 257,
      "anew": 258,
      "angel": 259,
      "angl": 260,
      "angular": 261,
      "anim": 262,
      "animat": 263,
      "anneal": 264,
      "anniversary": 265,
      "annotat": 266,
      "announc": 267,
      "annoy": 268,
      "annual": 269,
      "anomal": 270,
      "anonym": 271,
      "ansi": 272,
      "ansible": 273,
      "answer": 274,
      "antenn": 275,
      "anti": 276,
      "anticipat": 277,
      "anxious": 278,
      "any": 279,
      "apache": 280,
      "apart": 281,
      "apartment": 282,
      "apertur": 283,
      "api": 284,
      "apolog": 285,
      "apostrophe": 286,
      "app": 287,
      "apparent": 288,
      "appeal": 289,
      "appear": 290,
      "appeas": 291,
      "appellation": 292,
      "append": 293,
      "appl": 294,
      "applaud": 295,
      "apple": 296,
      "applet": 297,
      "applianc": 298,
      "applic": 299,
      "appoint": 300,
      "apposit": 301,
      "apprais": 302,
      "apprecia": 303,
      "apprehen": 304,
      "approach": 305,
      "approb": 306,
      "appropriat": 307,
      "approv": 308,
      "approximat": 309,
      "april": 310,
      "apt": 311,
      "aptly": 312,
      "arbit": 313,
      "arch": 314,
      "architect": 315,
      "archiv": 316,
      "ardent": 317,
      "arduino": 318,
      "arduous": 319,
      "are": 320,
      "area": 321,
      "argu": 322,
      "argument": 323,
      "aris": 324,
      "arithmet": 325,
      "arm": 326,
      "around": 327,
      "arrang": 328,
      "array": 329,
      "arrear": 330,
      "arriv": 331,
      "arrogan": 332,
      "arrow": 333,
      "art": 334,
      "arti": 335,
      "articl": 336,
      "articulat": 337,
      "artist": 338,
      "as": 339,
      "asap": 340,
      "ascend": 341,
      "ascent": 342,
      "ascertain": 343,
      "ascii": 344,
      "ascrib": 345,
      "asham": 346,
      "aside": 347,
      "ask": 348,
      "asm": 349,
      "asp": 350,
      "aspect": 351,
      "asper": 352,
      "aspir": 353,
      "assail": 354,
      "assault": 355,
      "assembl": 356,
      "assent": 357,
      "assert": 358,
      "assess": 359,
      "asset": 360,
      "assid": 361,
      "assign": 362,
      "assist": 363,
      "associat": 364,
      "assort": 365,
      "assuag": 366,
      "assum": 367,
      "assur": 368,
      "assuranc": 369,
      "astonish": 370,
      "astound": 371,
      "astray": 372,
      "asunder": 373,
      "asymmetr": 374,
      "asymptot": 375,
      "async": 376,
      "atic": 377,
      "ativ": 378,
      "atlas": 379,
      "atmo": 380,
      "atom": 381,
      "aton": 382,
      "attach": 383,
      "attack": 384,
      "attain": 385,
      "attempt": 386,
      "attend": 387,
      "attent": 388,
      "attenuat": 389,
      "attest": 390,
      "attorn": 391,
      "attract": 392,
      "attribut": 393,
      "attrit": 394,
      "audi": 395,
      "audio": 396,
      "audit": 397,
      "augment": 398,
      "august": 399,
      "auth": 400,
      "authent": 401,
      "author": 402,
      "auto": 403,
      "autonom": 404,
      "autumn": 405,
      "auxiliar": 406,
      "avail": 407,
      "avatar": 408,
      "averag": 409,
      "avert": 410,
      "avoid": 411,
      "awak": 412,
      "award": 413,
      "aware": 414,
      "away": 415,
      "awe": 416,
      "awful": 417,
      "awk": 418,
      "aws": 419,
      "axes": 420,
      "axiom": 421,
      "axis": 422,
      "azure": 423,
      "back": 424,
      "bad": 425,
      "badg": 426,
      "baffl": 427,
      "bag": 428,
      "balanc": 429,
      "ball": 430,
      "ban": 431,
      "band": 432,
      "banish": 433,
      "bar": 434,
      "bas": 435,
      "base": 436,
      "bash": 437,
      "basic": 438,
      "basis": 439,
      "bat": 440,
      "batch": 441,
      "batter": 442,
      "battle": 443,
      "bayes": 444,
      "be": 445,
      "beam": 446,
      "bear": 447,
      "beat": 448,
      "beaut": 449,
      "became": 450,
      "because": 451,
      "becom": 452,
      "been": 453,
      "befor": 454,
      "beg": 455,
      "began": 456,
      "begin": 457,
      "begun": 458,
      "behav": 459,
      "behavio": 460,
      "behaviou": 461,
      "behind": 462,
      "belief": 463,
      "believ": 464,
      "bell": 465,
      "belong": 466,
      "bench": 467,
      "bend": 469,
      "beneath": 469,
      "benefic": 470,
      "benefit": 471,
      "bent": 472,
      "bereav": 473,
      "bereft": 474,
      "bert": 475,
      "beside": 476,
      "best": 477,
      "bestow": 478,
      "beta": 479,
      "betray": 480,
      "between": 481,
      "beyond": 482,
      "bi": 483,
      "bias": 484,
      "bifurcat": 485,
      "big": 486,
      "bigram": 487,
      "bill": 488,
      "bin": 489,
      "binanc": 490,
      "bind": 491,
      "bing": 492,
      "bio": 493,
      "bion": 494,
      "bios": 495,
      "bird": 496,
      "bisect": 497,
      "bit": 498,
      "black": 499,
      "blam": 500,
      "blank": 501,
      "bleak": 502,
      "blend": 503,
      "bless": 504,
      "blew": 505,
      "blind": 506,
      "blink": 507,
      "blob": 508,
      "block": 509,
      "blog": 510,
      "bloom": 511,
      "blossom": 512,
      "blow": 513,
      "blue": 514,
      "blund": 515,
      "blunt": 516,
      "blur": 517,
      "board": 518,
      "boast": 519,
      "body": 520,
      "boil": 521,
      "bold": 522,
      "bond": 523,
      "bone": 524,
      "bonus": 525,
      "book": 526,
      "bool": 527,
      "boom": 528,
      "boost": 529,
      "boot": 530,
      "bor": 531,
      "border": 532,
      "born": 533,
      "borrow": 534,
      "boss": 535,
      "bot": 536,
      "both": 537,
      "bother": 538,
      "bottle": 539,
      "bottom": 540,
      "bought": 541,
      "bounc": 542,
      "bound": 543,
      "bow": 544,
      "bowl": 545,
      "box": 546,
      "boy": 547,
      "brac": 548,
      "brack": 549,
      "brag": 550,
      "brain": 551,
      "brak": 552,
      "branch": 553,
      "brand": 554,
      "brave": 555,
      "breach": 556,
      "break": 557,
      "breath": 558,
      "brevity": 559,
      "bridg": 560,
      "brief": 561,
      "bright": 562,
      "bring": 563,
      "brisk": 564,
      "broach": 565,
      "broad": 566,
      "broke": 567,
      "brother": 568,
      "brought": 569,
      "brows": 570,
      "brush": 571,
      "btw": 572,
      "buch": 573,
      "bucket": 574,
      "budget": 575,
      "buf": 576,
      "bug": 577,
      "buil": 578,
      "bulk": 579,
      "bump": 580,
      "bunch": 581,
      "bundl": 582,
      "bur": 583,
      "burn": 584,
      "burst": 585,
      "bus": 586,
      "business": 587,
      "but": 588,
      "button": 589,
      "buy": 590,
      "by": 591,
      "bye": 592,
      "byte": 593,
      "cable": 594,
      "cach": 595,
      "cad": 596,
      "calcul": 597,
      "calendar": 598,
      "calibrat": 599,
      "call": 600,
      "calm": 601,
      "cam": 602,
      "came": 603,
      "camera": 604,
      "camp": 605,
      "campaign": 606,
      "campus": 607,
      "can": 608,
      "cancel": 609,
      "candid": 610,
      "candidat": 611,
      "canonical": 612,
      "canvas": 613,
      "capab": 614,
      "capacit": 615,
      "capital": 616,
      "caps": 617,
      "capsul": 618,
      "capt": 619,
      "captcha": 620,
      "caption": 621,
      "captivat": 622,
      "captur": 623,
      "car": 624,
      "card": 625,
      "cardinal": 626,
      "care": 627,
      "carr": 628,
      "cart": 629,
      "carv": 630,
      "cas": 631,
      "cascad": 632,
      "case": 633,
      "cast": 634,
      "catalog": 635,
      "catch": 636,
      "categor": 637,
      "caught": 638,
      "caus": 639,
      "cautio": 640,
      "cbow": 641,
      "ceas": 642,
      "ceil": 643,
      "celebrat": 644,
      "cell": 645,
      "center": 646,
      "centr": 647,
      "ceremon": 648,
      "certain": 649,
      "certif": 650,
      "chain": 651,
      "chair": 652,
      "challeng": 653,
      "champ": 654,
      "chanc": 655,
      "chang": 656,
      "channel": 657,
      "chao": 658,
      "chapt": 659,
      "char": 660,
      "character": 661,
      "charg": 662,
      "charit": 663,
      "charm": 664,
      "chart": 665,
      "chat": 666,
      "cheap": 667,
      "cheat": 668,
      "check": 669,
      "cheer": 670,
      "chief": 671,
      "child": 672,
      "chin": 673,
      "chip": 674,
      "choic": 675,
      "choos": 676,
      "chop": 677,
      "chose": 678,
      "chrom": 679,
      "chronologic": 680,
      "chunk": 681,
      "cipher": 682,
      "circl": 683,
      "circuit": 684,
      "circular": 685,
      "circulat": 686,
      "circum": 687,
      "cisco": 688,
      "citation": 689,
      "civil": 690,
      "claim": 691,
      "clamp": 692,
      "clarif": 693,
      "clarity": 694,
      "clash": 695,
      "class": 696,
      "classif": 697,
      "clause": 698,
      "clean": 699,
      "clear": 700,
      "clever": 701,
      "cli": 702,
      "click": 703,
      "client": 704,
      "climb": 705,
      "cling": 706,
      "clip": 707,
      "clobber": 708,
      "clock": 709,
      "clog": 710,
      "clon": 711,
      "clos": 712,
      "cloth": 713,
      "cloud": 714,
      "club": 715,
      "clue": 716,
      "cluster": 717,
      "clutter": 718,
      "cmd": 719,
      "cmos": 720,
      "cms": 721,
      "cnn": 722,
      "coach": 723,
      "coaxial": 724,
      "cobol": 725,
      "cocoa": 726,
      "cod": 727,
      "code": 728,
      "codif": 729,
      "coefficient": 730,
      "coffee": 731,
      "cofound": 732,
      "cognit": 733,
      "coheren": 734,
      "cohesi": 735,
      "coin": 736,
      "coincid": 737,
      "cold": 738,
      "collaborat": 739,
      "collaps": 740,
      "collat": 741,
      "colleague": 742,
      "collect": 743,
      "college": 744,
      "collid": 745,
      "collinear": 746,
      "collis": 747,
      "collud": 748,
      "collung": 749,
      "colon": 750,
      "color": 751,
      "colour": 752,
      "column": 753,
      "combat": 754,
      "combin": 755,
      "combo": 756,
      "come": 757,
      "comfort": 758,
      "comfy": 759,
      "coming": 760,
      "comma": 761,
      "command": 762,
      "commenc": 763,
      "commend": 764,
      "comment": 765,
      "commerc": 766,
      "commiserat": 767,
      "commiss": 768,
      "commit": 769,
      "commodit": 770,
      "common": 771,
      "commun": 772,
      "communic": 773,
      "commut": 774,
      "compact": 775,
      "compan": 776,
      "compar": 777,
      "compass": 778,
      "compat": 779,
      "compel": 780,
      "compensat": 781,
      "compet": 782,
      "competen": 783,
      "compil": 784,
      "complacen": 785,
      "complai": 786,
      "complement": 787,
      "complet": 788,
      "complex": 789,
      "compli": 790,
      "complian": 791,
      "complicat": 792,
      "compliment": 793,
      "comply": 794,
      "component": 795,
      "compos": 796,
      "compound": 797,
      "comprehen": 798,
      "compres": 799,
      "compris": 800,
      "compromis": 801,
      "compuls": 802,
      "comput": 803,
      "computer": 804,
      "concatenat": 805,
      "concav": 806,
      "conceal": 807,
      "conced": 808,
      "conceit": 809,
      "conceiv": 810,
      "concentrat": 811,
      "concept": 812,
      "concern": 813,
      "concert": 814,
      "concess": 815,
      "conciliat": 816,
      "concis": 817,
      "conclud": 818,
      "conclusi": 819,
      "concord": 820,
      "concret": 821,
      "concurr": 822,
      "condemn": 823,
      "condens": 824,
      "condit": 825,
      "condolenc": 826,
      "conduc": 827,
      "conduct": 828,
      "cone": 829,
      "confer": 830,
      "conferenc": 831,
      "confes": 832,
      "confid": 833,
      "config": 834,
      "confin": 835,
      "confirm": 836,
      "conflat": 837,
      "conflict": 838,
      "confluen": 839,
      "conform": 840,
      "confound": 841,
      "confront": 842,
      "confus": 843,
      "congest": 844,
      "congrat": 845,
      "congratulat": 846,
      "congregat": 847,
      "congress": 848,
      "congru": 849,
      "congruent": 850,
      "conjectur": 851,
      "conjuga": 852,
      "conjunct": 853,
      "connect": 854,
      "conniv": 855,
      "conquer": 856,
      "conscious": 857,
      "consecutiv": 858,
      "consent": 859,
      "conserv": 860,
      "consider": 861,
      "consign": 862,
      "consist": 863,
      "consol": 864,
      "consolidat": 865,
      "consonan": 866,
      "consort": 867,
      "conspic": 868,
      "conspir": 869,
      "const": 870,
      "constit": 871,
      "constrain": 872,
      "construct": 873,
      "consult": 874,
      "consum": 875,
      "contact": 876,
      "contain": 877,
      "contemp": 878,
      "contemplat": 879,
      "contempt": 880,
      "contend": 881,
      "content": 882,
      "contest": 883,
      "context": 884,
      "contigu": 885,
      "contingen": 886,
      "continu": 887,
      "contour": 888,
      "contr": 889,
      "contract": 890,
      "contradict": 891,
      "contrast": 892,
      "contribut": 893,
      "contrit": 894,
      "contriv": 895,
      "control": 896,
      "controver": 897,
      "conundrum": 898,
      "conv": 899,
      "conven": 900,
      "convenien": 901,
      "convent": 902,
      "converg": 903,
      "convers": 904,
      "convert": 905,
      "convex": 906,
      "convey": 907,
      "convict": 908,
      "convinc": 909,
      "conviv": 910,
      "convol": 911,
      "cook": 912,
      "cool": 913,
      "cooperat": 914,
      "coordinat": 915,
      "copi": 916,
      "copy": 917,
      "cord": 918,
      "core": 919,
      "corner": 920,
      "corollar": 921,
      "coroutin": 922,
      "corpora": 923,
      "corpus": 924,
      "correct": 925,
      "correlat": 926,
      "correspond": 927,
      "corroborat": 928,
      "corrupt": 929,
      "cosin": 930,
      "cost": 931,
      "couch": 932,
      "could": 933,
      "counsel": 934,
      "count": 935,
      "coupl": 936,
      "courag": 937,
      "cours": 938,
      "couth": 939,
      "cover": 940,
      "covet": 941,
      "cpu": 942,
      "crack": 943,
      "craft": 944,
      "cramp": 945,
      "crank": 946,
      "crash": 947,
      "crav": 948,
      "crawl": 949,
      "creat": 950,
      "creden": 951,
      "credib": 952,
      "credit": 953,
      "cri": 954,
      "crim": 955,
      "cris": 956,
      "criteri": 957,
      "critic": 958,
      "critique": 959,
      "crm": 960,
      "croach": 961,
      "cron": 962,
      "crop": 963,
      "cross": 964,
      "crowd": 965,
      "crucial": 966,
      "crude": 967,
      "crumbl": 968,
      "crunch": 969,
      "crush": 970,
      "crux": 971,
      "cry": 972,
      "crypt": 973,
      "crypto": 974,
      "crystal": 975,
      "css": 976,
      "cub": 977,
      "cuda": 978,
      "cull": 979,
      "culminat": 980,
      "cultivat": 981,
      "cultur": 982,
      "cumulat": 983,
      "cur": 984,
      "curat": 985,
      "curio": 986,
      "curl": 987,
      "currenc": 988,
      "current": 989,
      "cursor": 990,
      "curtail": 991,
      "curv": 992,
      "custom": 993,
      "cut": 994,
      "cyber": 995,
      "cycl": 996,
      "dabbl": 997,
      "daemon": 998,
      "damag": 999,
      "damp": 1000,
      "danc": 1001,
      "dang": 1002,
      "danger": 1003,
      "dangl": 1004,
      "dar": 1005,
      "dark": 1006,
      "darl": 1007,
      "dart": 1008,
      "dash": 1009,
      "dat": 1010,
      "data": 1011,
      "date": 1012,
      "daughter": 1013,
      "daunt": 1014,
      "dawdl": 1015,
      "day": 1016,
      "dbc": 1017,
      "dbms": 1018,
      "ddr": 1019,
      "dead": 1020,
      "deal": 1021,
      "dear": 1022,
      "debat": 1023,
      "debug": 1024,
      "debut": 1025,
      "decad": 1026,
      "decay": 1027,
      "deceit": 1028,
      "deceiv": 1029,
      "decelerat": 1030,
      "december": 1031,
      "decen": 1032,
      "decentraliz": 1033,
      "decept": 1034,
      "decid": 1035,
      "decimal": 1036,
      "decisi": 1037,
      "declar": 1038,
      "declin": 1039,
      "decorat": 1040,
      "decreas": 1041,
      "decrement": 1042,
      "dedicat": 1043,
      "deduc": 1044,
      "deed": 1045,
      "deem": 1046,
      "deep": 1047,
      "default": 1048,
      "defeat": 1049,
      "defect": 1050,
      "defenc": 1051,
      "defend": 1052,
      "defens": 1053,
      "defer": 1054,
      "defi": 1055,
      "defian": 1056,
      "defic": 1057,
      "defin": 1058,
      "definit": 1059,
      "deflat": 1060,
      "deflect": 1061,
      "deform": 1062,
      "deft": 1063,
      "defus": 1064,
      "degrad": 1065,
      "degree": 1066,
      "delay": 1067,
      "delegat": 1068,
      "delet": 1069,
      "deliberat": 1070,
      "delic": 1071,
      "delight": 1072,
      "deliver": 1073,
      "delphi": 1074,
      "delta": 1075,
      "delv": 1076,
      "demand": 1077,
      "demo": 1078,
      "demodulat": 1079,
      "demolish": 1080,
      "demonstra": 1081,
      "demot": 1082,
      "deni": 1083,
      "dens": 1084,
      "densif": 1085,
      "depart": 1086,
      "department": 1087,
      "depend": 1088,
      "depict": 1089,
      "deplet": 1090,
      "deploy": 1091,
      "deposit": 1092,
      "deprecat": 1093,
      "depreciat": 1094,
      "depreciate": 1095,
      "depress": 1096,
      "depriv": 1097,
      "depth": 1098,
      "deput": 1099,
      "deque": 1100,
      "derang": 1101,
      "deriv": 1102,
      "descen": 1103,
      "descri": 1104,
      "describ": 1105,
      "descript": 1106,
      "desert": 1107,
      "deserv": 1108,
      "design": 1109,
      "desir": 1110,
      "desk": 1111,
      "despit": 1112,
      "destin": 1113,
      "destroy": 1114,
      "destruct": 1115,
      "detach": 1116,
      "detail": 1117,
      "detain": 1118,
      "detect": 1119,
      "determin": 1120,
      "detract": 1121,
      "dev": 1122,
      "devalu": 1123,
      "devastat": 1124,
      "develop": 1125,
      "deviat": 1126,
      "devic": 1127,
      "devis": 1128,
      "devoid": 1129,
      "devolv": 1130,
      "devot": 1131,
      "dexter": 1132,
      "dia": 1133,
      "diagnos": 1134,
      "diagonal": 1135,
      "dial": 1136,
      "dialect": 1137,
      "dialog": 1138,
      "dict": 1139,
      "dictat": 1140,
      "did": 1141,
      "die": 1142,
      "diff": 1143,
      "differ": 1144,
      "differentia": 1145,
      "difficult": 1146,
      "diffiden": 1147,
      "diffus": 1148,
      "dig": 1149,
      "digit": 1150,
      "dignit": 1151,
      "dilat": 1152,
      "dilemma": 1153,
      "diligen": 1154,
      "dilut": 1155,
      "dimens": 1156,
      "diminish": 1157,
      "dinner": 1158,
      "diod": 1159,
      "dire": 1160,
      "direct": 1161,
      "dirt": 1162,
      "dis": 1163,
      "disabl": 1164,
      "disappoint": 1165,
      "discard": 1166,
      "discern": 1167,
      "disciplin": 1168,
      "discord": 1169,
      "discount": 1170,
      "discourag": 1171,
      "discover": 1172,
      "discreet": 1173,
      "discrep": 1174,
      "discret": 1175,
      "discriminant": 1176,
      "discriminat": 1177,
      "discuss": 1178,
      "disdain": 1179,
      "disgrac": 1180,
      "disguis": 1181,
      "disgust": 1182,
      "dish": 1183,
      "disjoin": 1184,
      "disk": 1185,
      "dismal": 1186,
      "dismiss": 1187,
      "dispar": 1188,
      "dispens": 1189,
      "dispers": 1190,
      "display": 1191,
      "dispos": 1192,
      "disposit": 1193,
      "disput": 1194,
      "disrupt": 1195,
      "dissent": 1196,
      "dissipat": 1197,
      "dissonan": 1198,
      "dissuad": 1199,
      "distan": 1200,
      "distill": 1201,
      "distinct": 1202,
      "distinguish": 1203,
      "distort": 1204,
      "distract": 1205,
      "distress": 1206,
      "distribut": 1207,
      "disturb": 1208,
      "div": 1209,
      "diverg": 1210,
      "divers": 1211,
      "diversif": 1212,
      "divert": 1213,
      "divid": 1214,
      "divis": 1215,
      "django": 1216,
      "dll": 1217,
      "dnn": 1218,
      "do": 1219,
      "doat": 1220,
      "doc": 1221,
      "dock": 1222,
      "docker": 1223,
      "doctrin": 1224,
      "document": 1225,
      "dole": 1226,
      "dom": 1227,
      "domain": 1228,
      "domestic": 1229,
      "dominan": 1230,
      "dominat": 1231,
      "donat": 1232,
      "doom": 1233,
      "door": 1234,
      "dos": 1235,
      "dot": 1236,
      "doth": 1237,
      "doubl": 1238,
      "doubt": 1239,
      "down": 1240,
      "draft": 1241,
      "drag": 1242,
      "drain": 1243,
      "dram": 1244,
      "drama": 1245,
      "drank": 1247,
      "drastic": 1247,
      "draw": 1248,
      "dread": 1249,
      "dream": 1250,
      "dress": 1251,
      "drew": 1252,
      "drill": 1253,
      "drink": 1254,
      "driv": 1255,
      "dron": 1256,
      "drop": 1257,
      "drown": 1258,
      "drunk": 1259,
      "drupal": 1260,
      "dry": 1261,
      "dual": 1262,
      "dub": 1263,
      "duc": 1264,
      "duck": 1265,
      "due": 1266,
      "dull": 1267,
      "dump": 1268,
      "duo": 1269,
      "dup": 1270,
      "dupl": 1271,
      "durab": 1272,
      "duration": 1273,
      "during": 1275,
      "dusk": 1275,
      "dust": 1276,
      "dut": 1277,
      "dwel": 1278,
      "dwindl": 1279,
      "dynam": 1280,
      "each": 1281,
      "eager": 1282,
      "ear": 1283,
      "earl": 1284,
      "earn": 1286,
      "earth": 1286,
      "eas": 1287,
      "east": 1288,
      "eat": 1289,
      "ebriet": 1290,
      "echo": 1291,
      "eclips": 1292,
      "ecma": 1293,
      "ecolog": 1294,
      "econom": 1295,
      "ed": 1296,
      "edge": 1297,
      "edit": 1298,
      "educat": 1299,
      "effect": 1300,
      "effic": 1301,
      "efficien": 1302,
      "effort": 1303,
      "eigen": 1304,
      "eight": 1305,
      "either": 1306,
      "eject": 1307,
      "elaborat": 1308,
      "elaps": 1309,
      "elastic": 1310,
      "elde": 1311,
      "elect": 1312,
      "electr": 1314,
      "electrif": 1314,
      "electron": 1315,
      "elegan": 1316,
      "element": 1317,
      "elevat": 1318,
      "elicit": 1319,
      "eligib": 1320,
      "eliminat": 1321,
      "ellip": 1322,
      "elongat": 1323,
      "else": 1324,
      "elucidat": 1325,
      "elud": 1326,
      "elusiv": 1327,
      "embark": 1328,
      "embarrass": 1329,
      "embed": 1330,
      "embellish": 1331,
      "ember": 1332,
      "emblem": 1333,
      "embod": 1334,
      "embrac": 1335,
      "emerg": 1336,
      "eminen": 1337,
      "emiss": 1338,
      "emit": 1339,
      "emotion": 1340,
      "emphas": 1341,
      "emphat": 1342,
      "empir": 1343,
      "employ": 1344,
      "empt": 1345,
      "emulat": 1346,
      "enabl": 1347,
      "enact": 1348,
      "encapsulat": 1349,
      "enchant": 1350,
      "encumb": 1351,
      "end": 1352,
      "endeav": 1353,
      "endors": 1354,
      "endur": 1355,
      "enem": 1356,
      "energ": 1357,
      "enforc": 1358,
      "engag": 1359,
      "engine": 1360,
      "engross": 1361,
      "enhanc": 1362,
      "enjoy": 1363,
      "enlarg": 1364,
      "enough": 1365,
      "enquir": 1366,
      "enroll": 1367,
      "ensembl": 1368,
      "ensu": 1369,
      "ensur": 1370,
      "entail": 1371,
      "entangl": 1372,
      "enter": 1373,
      "enterpris": 1374,
      "entertain": 1375,
      "enthusiast": 1376,
      "entic": 1377,
      "entire": 1378,
      "entit": 1379,
      "entitl": 1380,
      "entr": 1381,
      "entrain": 1382,
      "entrance": 1383,
      "entrant": 1384,
      "entrap": 1385,
      "entre": 1386,
      "entreat": 1387,
      "entrench": 1388,
      "entrop": 1390,
      "entropic": 1390,
      "entrust": 1391,
      "enum": 1392,
      "enumer": 1393,
      "envelop": 1394,
      "envi": 1395,
      "environ": 1396,
      "envision": 1397,
      "epic": 1398,
      "epilog": 1399,
      "episod": 1400,
      "epoch": 1401,
      "equal": 1402,
      "equaliz": 1403,
      "equat": 1404,
      "equi": 1405,
      "equip": 1406,
      "equit": 1407,
      "er": 1408,
      "eradicate": 1409,
      "eras": 1410,
      "ergonom": 1411,
      "erlang": 1412,
      "errand": 1413,
      "errant": 1414,
      "erroneous": 1415,
      "error": 1416,
      "es": 1417,
      "escalat": 1418,
      "escap": 1419,
      "escort": 1420,
      "especial": 1421,
      "essen": 1422,
      "essential": 1423,
      "establish": 1424,
      "estate": 1425,
      "esteem": 1426,
      "estima": 1427,
      "etc": 1428,
      "etern": 1429,
      "ether": 1430,
      "euclid": 1431,
      "euler": 1432,
      "euro": 1433,
      "evad": 1434,
      "evaluat": 1435,
      "evaporat": 1436,
      "evas": 1437,
      "even": 1438,
      "evening": 1439,
      "event": 1440,
      "ever": 1441,
      "every": 1442,
      "evict": 1443,
      "eviden": 1444,
      "evok": 1445,
      "evolut": 1446,
      "evolv": 1447,
      "exact": 1448,
      "exaggerat": 1449,
      "exam": 1450,
      "examin": 1451,
      "exampl": 1452,
      "exceed": 1453,
      "excel": 1454,
      "except": 1455,
      "excess": 1456,
      "excit": 1457,
      "exclud": 1458,
      "exclus": 1459,
      "exclusiv": 1460,
      "excus": 1461,
      "exec": 1462,
      "execut": 1463,
      "exempl": 1464,
      "exempt": 1465,
      "exercis": 1466,
      "exert": 1467,
      "exhaust": 1468,
      "exhibit": 1469,
      "exigen": 1470,
      "exist": 1471,
      "exit": 1472,
      "expand": 1473,
      "expans": 1474,
      "expect": 1475,
      "expedien": 1476,
      "expedit": 1477,
      "expedite": 1478,
      "expend": 1479,
      "expens": 1480,
      "experien": 1481,
      "experiment": 1482,
      "expert": 1483,
      "expir": 1484,
      "explain": 1485,
      "explanat": 1486,
      "explic": 1487,
      "explod": 1488,
      "exploit": 1489,
      "explor": 1490,
      "explos": 1491,
      "exponent": 1492,
      "export": 1493,
      "expos": 1494,
      "expound": 1495,
      "express": 1496,
      "exten": 1497,
      "extenuat": 1498,
      "exterior": 1499,
      "extern": 1500,
      "extinguish": 1501,
      "extra": 1502,
      "extract": 1503,
      "extrapolat": 1504,
      "extravagan": 1505,
      "extrem": 1506,
      "extricat": 1507,
      "extrinsic": 1508,
      "exult": 1509,
      "eye": 1510,
      "fabl": 1511,
      "fabric": 1512,
      "fac": 1513,
      "face": 1514,
      "facilit": 1515,
      "fact": 1516,
      "factor": 1517,
      "fad": 1518,
      "fail": 1519,
      "faint": 1520,
      "fair": 1522,
      "faith": 1522,
      "fake": 1523,
      "fall": 1524,
      "false": 1525,
      "fame": 1526,
      "famil": 1527,
      "familiar": 1528,
      "famous": 1529,
      "fan": 1530,
      "fanc": 1531,
      "fantas": 1532,
      "faq": 1533,
      "far": 1534,
      "fare": 1535,
      "farth": 1536,
      "fascinat": 1537,
      "fashion": 1538,
      "fast": 1539,
      "fasten": 1540,
      "fastidious": 1541,
      "fat": 1542,
      "fatal": 1543,
      "father": 1544,
      "fatig": 1545,
      "fault": 1546,
      "favo": 1547,
      "fear": 1548,
      "feasib": 1549,
      "featur": 1550,
      "february": 1551,
      "federal": 1552,
      "federat": 1553,
      "feebl": 1554,
      "feed": 1555,
      "feel": 1556,
      "fees": 1557,
      "feet": 1558,
      "feign": 1559,
      "felic": 1560,
      "fell": 1561,
      "fellow": 1562,
      "felt": 1563,
      "female": 1564,
      "femin": 1565,
      "fenc": 1566,
      "fend": 1567,
      "festiv": 1568,
      "fetch": 1569,
      "few": 1570,
      "ficat": 1571,
      "ficial": 1572,
      "fickl": 1573,
      "fide": 1574,
      "fidel": 1575,
      "fidget": 1576,
      "field": 1577,
      "fift": 1578,
      "fight": 1579,
      "figur": 1580,
      "file": 1581,
      "fill": 1582,
      "filt": 1583,
      "filtrat": 1584,
      "fin": 1585,
      "final": 1586,
      "financ": 1587,
      "find": 1588,
      "fine": 1589,
      "finger": 1590,
      "finish": 1591,
      "finit": 1592,
      "fir": 1593,
      "fire": 1594,
      "firm": 1595,
      "first": 1596,
      "fish": 1597,
      "fit": 1598,
      "five": 1599,
      "fix": 1600,
      "fixat": 1601,
      "flag": 1602,
      "flam": 1603,
      "flare": 1604,
      "flash": 1605,
      "flask": 1606,
      "flat": 1607,
      "flav": 1608,
      "flaw": 1609,
      "flect": 1610,
      "fled": 1611,
      "flee": 1612,
      "fleet": 1613,
      "flew": 1614,
      "flex": 1615,
      "fli": 1616,
      "flick": 1617,
      "flight": 1618,
      "fling": 1619,
      "flip": 1620,
      "flirt": 1621,
      "float": 1622,
      "flock": 1623,
      "flood": 1624,
      "floor": 1625,
      "flopp": 1626,
      "flourish": 1627,
      "flow": 1628,
      "fluctuat": 1629,
      "fluen": 1630,
      "fluff": 1631,
      "flung": 1632,
      "flurr": 1633,
      "flush": 1634,
      "flutter": 1635,
      "flux": 1636,
      "fly": 1637,
      "focal": 1638,
      "focus": 1639,
      "fold": 1640,
      "foll": 1641,
      "follow": 1642,
      "fond": 1643,
      "font": 1644,
      "food": 1645,
      "fool": 1646,
      "foot": 1647,
      "fopp": 1648,
      "for": 1649,
      "foray": 1650,
      "forb": 1651,
      "forbid": 1652,
      "forc": 1653,
      "fore": 1654,
      "forebod": 1655,
      "foresee": 1656,
      "forest": 1657,
      "foretell": 1658,
      "forever": 1659,
      "forfeit": 1660,
      "forgav": 1661,
      "forge": 1662,
      "forget": 1663,
      "forgiv": 1664,
      "forgo": 1665,
      "forgot": 1666,
      "fork": 1667,
      "form": 1668,
      "formaliz": 1669,
      "format": 1670,
      "formul": 1671,
      "formulat": 1672,
      "forswear": 1673,
      "forth": 1674,
      "fortif": 1675,
      "fortran": 1676,
      "fortun": 1677,
      "forum": 1678,
      "forward": 1679,
      "fought": 1680,
      "found": 1681,
      "four": 1682,
      "fox": 1683,
      "fps": 1684,
      "fract": 1685,
      "fraction": 1686,
      "fragil": 1687,
      "fragment": 1688,
      "fragran": 1689,
      "fram": 1690,
      "framework": 1691,
      "franca": 1692,
      "frantic": 1693,
      "fraud": 1694,
      "free": 1695,
      "freez": 1696,
      "frequen": 1697,
      "fresh": 1698,
      "fri": 1699,
      "friend": 1700,
      "fright": 1701,
      "from": 1702,
      "front": 1703,
      "froz": 1704,
      "frugal": 1705,
      "fruit": 1706,
      "frustrat": 1707,
      "frustum": 1708,
      "ftp": 1709,
      "fuck": 1710,
      "fuel": 1711,
      "ful": 1712,
      "fulfil": 1713,
      "full": 1714,
      "fumbl": 1715,
      "fun": 1716,
      "func": 1717,
      "fund": 1718,
      "fundament": 1719,
      "funder": 1720,
      "fungib": 1721,
      "funnel": 1722,
      "furbish": 1723,
      "furcat": 1724,
      "further": 1725,
      "fus": 1726,
      "futur": 1727,
      "fuzz": 1728,
      "gadget": 1729,
      "gain": 1730,
      "gallant": 1731,
      "galler": 1732,
      "gam": 1733,
      "gambl": 1734,
      "game": 1735,
      "gamif": 1736,
      "gan": 1737,
      "gap": 1738,
      "garbag": 1739,
      "garment": 1740,
      "gat": 1741,
      "gather": 1742,
      "gaug": 1743,
      "gauss": 1744,
      "gave": 1745,
      "gaz": 1746,
      "gb": 1747,
      "gcc": 1748,
      "geek": 1749,
      "gem": 1751,
      "gemini": 1751,
      "gen": 1752,
      "gener": 1753,
      "general": 1754,
      "generat": 1755,
      "generic": 1756,
      "genet": 1757,
      "geni": 1758,
      "gentl": 1759,
      "genuin": 1760,
      "geo": 1761,
      "gestur": 1762,
      "get": 1764,
      "gether": 1764,
      "ghost": 1765,
      "giant": 1766,
      "gift": 1767,
      "gig": 1768,
      "giga": 1769,
      "gigant": 1770,
      "girl": 1771,
      "gist": 1772,
      "git": 1773,
      "giv": 1774,
      "glad": 1775,
      "glanc": 1776,
      "glar": 1777,
      "glass": 1778,
      "glean": 1779,
      "glee": 1780,
      "glimps": 1781,
      "glitch": 1782,
      "glob": 1783,
      "gloom": 1784,
      "glor": 1785,
      "gloss": 1786,
      "glow": 1787,
      "glue": 1788,
      "glyph": 1789,
      "gnome": 1790,
      "gnu": 1791,
      "go": 1792,
      "goal": 1793,
      "gold": 1794,
      "gonal": 1795,
      "good": 1796,
      "googl": 1797,
      "gorgeous": 1798,
      "got": 1799,
      "goto": 1800,
      "govern": 1801,
      "gps": 1802,
      "gpt": 1803,
      "gpu": 1804,
      "grab": 1805,
      "grace": 1806,
      "gracious": 1807,
      "grad": 1808,
      "gradat": 1809,
      "gradient": 1810,
      "gradl": 1811,
      "gradual": 1812,
      "graduat": 1813,
      "gram": 1814,
      "gramm": 1815,
      "grand": 1816,
      "grant": 1817,
      "granular": 1818,
      "graph": 1819,
      "graphic": 1820,
      "grappl": 1821,
      "grasp": 1822,
      "grat": 1823,
      "grate": 1824,
      "gratif": 1826,
      "grav": 1826,
      "gravit": 1827,
      "gray": 1828,
      "great": 1829,
      "greed": 1830,
      "greet": 1831,
      "grep": 1832,
      "grew": 1833,
      "grid": 1834,
      "griev": 1835,
      "grind": 1836,
      "grip": 1837,
      "groom": 1838,
      "groov": 1839,
      "gross": 1840,
      "ground": 1841,
      "group": 1842,
      "grow": 1843,
      "grpc": 1844,
      "grudg": 1845,
      "gruel": 1846,
      "grunt": 1847,
      "gsm": 1848,
      "guarante": 1849,
      "guard": 1850,
      "guess": 1851,
      "guest": 1852,
      "gui": 1853,
      "guid": 1854,
      "guilt": 1855,
      "habit": 1856,
      "hack": 1857,
      "hackathon": 1858,
      "had": 1859,
      "hadoop": 1860,
      "hail": 1861,
      "half": 1862,
      "halt": 1863,
      "hamper": 1864,
      "hand": 1865,
      "handl": 1866,
      "hang": 1867,
      "happ": 1868,
      "happen": 1869,
      "hapt": 1870,
      "hard": 1871,
      "harm": 1872,
      "harmon": 1873,
      "harness": 1874,
      "harsh": 1875,
      "has": 1876,
      "hash": 1877,
      "haskell": 1878,
      "hassl": 1879,
      "hast": 1880,
      "hat": 1881,
      "haul": 1882,
      "haunt": 1883,
      "hav": 1884,
      "hazard": 1885,
      "hdd": 1886,
      "hdmi": 1887,
      "he": 1888,
      "head": 1890,
      "heal": 1890,
      "health": 1891,
      "heap": 1892,
      "hear": 1893,
      "heart": 1894,
      "heat": 1895,
      "heather": 1896,
      "heav": 1897,
      "heaven": 1898,
      "hedron": 1899,
      "height": 1900,
      "heir": 1901,
      "held": 1902,
      "hello": 1903,
      "help": 1904,
      "hence": 1905,
      "her": 1906,
      "here": 1907,
      "hereby": 1908,
      "hesitat": 1909,
      "heter": 1910,
      "heuristic": 1911,
      "hex": 1912,
      "hi": 1913,
      "hiber": 1914,
      "hid": 1915,
      "hierarch": 1916,
      "high": 1917,
      "hijack": 1918,
      "him": 1919,
      "hinder": 1920,
      "hindranc": 1921,
      "hint": 1922,
      "hir": 1923,
      "his": 1924,
      "hist": 1925,
      "histor": 1926,
      "hit": 1928,
      "hither": 1928,
      "hiv": 1929,
      "hold": 1930,
      "holi": 1931,
      "holistic": 1932,
      "holo": 1933,
      "home": 1934,
      "homo": 1935,
      "homogen": 1936,
      "honest": 1937,
      "honour": 1938,
      "hood": 1939,
      "hook": 1941,
      "hop": 1941,
      "horizon": 1942,
      "horribl": 1943,
      "horror": 1944,
      "hospit": 1945,
      "host": 1946,
      "hot": 1947,
      "hour": 1948,
      "house": 1949,
      "hover": 1950,
      "how": 1951,
      "html": 1952,
      "http": 1953,
      "hub": 1954,
      "huge": 1955,
      "human": 1956,
      "humbl": 1957,
      "humour": 1958,
      "hundred": 1959,
      "hung": 1960,
      "hunt": 1961,
      "hurr": 1962,
      "hurt": 1963,
      "husband": 1964,
      "hush": 1965,
      "hybrid": 1966,
      "hype": 1967,
      "hyper": 1968,
      "hypoth": 1969,
      "ic": 1970,
      "icon": 1971,
      "idea": 1972,
      "ideal": 1973,
      "ident": 1974,
      "identif": 1976,
      "idiom": 1976,
      "idol": 1977,
      "ight": 1978,
      "ignit": 1979,
      "ignor": 1980,
      "ill": 1981,
      "illuminat": 1982,
      "illus": 1983,
      "illustrat": 1984,
      "imag": 1985,
      "imagin": 1986,
      "imbue": 1987,
      "imburs": 1988,
      "imitat": 1989,
      "immediat": 1990,
      "immens": 1991,
      "immers": 1992,
      "imminent": 1993,
      "immut": 1994,
      "impact": 1995,
      "impair": 1996,
      "impart": 1997,
      "imped": 1998,
      "impel": 1999,
      "impend": 2000,
      "impersonat": 2001,
      "impertinen": 2002,
      "impet": 2003,
      "impl": 2004,
      "implant": 2005,
      "implement": 2006,
      "implicat": 2007,
      "implicit": 2008,
      "import": 2010,
      "impos": 2010,
      "impossibl": 2011,
      "impress": 2012,
      "improv": 2013,
      "impuden": 2014,
      "impuls": 2015,
      "impur": 2016,
      "imput": 2017,
      "inasmuch": 2018,
      "inaugurat": 2019,
      "incent": 2020,
      "incept": 2021,
      "inch": 2022,
      "incident": 2023,
      "incit": 2024,
      "inclin": 2025,
      "includ": 2026,
      "inclus": 2027,
      "incognito": 2028,
      "increas": 2029,
      "incredibl": 2030,
      "increment": 2031,
      "incubat": 2032,
      "incur": 2033,
      "indebt": 2034,
      "indeed": 2035,
      "indelibl": 2036,
      "indent": 2037,
      "index": 2038,
      "indic": 2039,
      "indicat": 2040,
      "indign": 2041,
      "individual": 2042,
      "indolen": 2043,
      "indub": 2044,
      "induc": 2046,
      "induct": 2046,
      "indulg": 2047,
      "industr": 2048,
      "inert": 2049,
      "infatuat": 2050,
      "infect": 2051,
      "infer": 2052,
      "inflat": 2053,
      "inflect": 2054,
      "inflict": 2055,
      "info": 2056,
      "inforc": 2057,
      "inform": 2058,
      "infra": 2059,
      "infring": 2060,
      "infus": 2061,
      "ing": 2062,
      "ingen": 2063,
      "ingest": 2064,
      "ingrain": 2065,
      "ingrat": 2066,
      "ingress": 2067,
      "inherent": 2068,
      "inherit": 2069,
      "inhibit": 2070,
      "inimitab": 2071,
      "init": 2072,
      "initiat": 2073,
      "inject": 2074,
      "injur": 2075,
      "ink": 2076,
      "inlin": 2077,
      "innate": 2078,
      "inner": 2079,
      "inno": 2080,
      "innoc": 2081,
      "innocent": 2082,
      "innovat": 2083,
      "input": 2084,
      "inquir": 2085,
      "insan": 2086,
      "insert": 2087,
      "insight": 2088,
      "insinuat": 2089,
      "insist": 2090,
      "inso": 2091,
      "insolen": 2092,
      "inspect": 2093,
      "inspir": 2094,
      "inst": 2095,
      "instabil": 2096,
      "install": 2097,
      "instanc": 2098,
      "instant": 2099,
      "instat": 2100,
      "instead": 2101,
      "instigat": 2102,
      "instinct": 2103,
      "institut": 2104,
      "instruct": 2105,
      "instrument": 2106,
      "insuff": 2107,
      "insult": 2108,
      "insur": 2109,
      "intact": 2110,
      "integr": 2111,
      "intel": 2112,
      "intellect": 2113,
      "intelli": 2114,
      "inten": 2115,
      "intend": 2116,
      "intens": 2117,
      "intent": 2118,
      "inter": 2119,
      "interact": 2120,
      "intercept": 2121,
      "interest": 2122,
      "interfac": 2123,
      "interfer": 2124,
      "interim": 2125,
      "intermiss": 2126,
      "intern": 2127,
      "internet": 2128,
      "interpolat": 2129,
      "interpret": 2130,
      "interrupt": 2131,
      "interval": 2132,
      "interven": 2133,
      "intim": 2134,
      "into": 2135,
      "intra": 2136,
      "intract": 2137,
      "intric": 2138,
      "intrigu": 2139,
      "intrinsic": 2140,
      "intro": 2141,
      "intrusiv": 2142,
      "intuit": 2143,
      "inur": 2144,
      "invad": 2145,
      "invasi": 2146,
      "invent": 2147,
      "invers": 2148,
      "invert": 2149,
      "invest": 2150,
      "investigat": 2151,
      "invigorat": 2152,
      "invit": 2153,
      "invocat": 2154,
      "invok": 2155,
      "involv": 2156,
      "ion": 2157,
      "is": 2158,
      "isolat": 2159,
      "issu": 2160,
      "istic": 2161,
      "it": 2162,
      "item": 2163,
      "itera": 2164,
      "ity": 2165,
      "jam": 2166,
      "january": 2167,
      "jasmin": 2168,
      "java": 2169,
      "jdk": 2170,
      "jdo": 2171,
      "jealous": 2172,
      "jenkins": 2173,
      "jest": 2174,
      "jet": 2175,
      "jinja": 2176,
      "jira": 2177,
      "jitter": 2178,
      "job": 2179,
      "joic": 2180,
      "join": 2181,
      "jok": 2182,
      "joomla": 2183,
      "jott": 2184,
      "journ": 2185,
      "journal": 2186,
      "joy": 2187,
      "jpeg": 2188,
      "jpg": 2189,
      "jre": 2190,
      "json": 2191,
      "judg": 2192,
      "judic": 2193,
      "juggl": 2194,
      "july": 2195,
      "jump": 2196,
      "junct": 2197,
      "june": 2198,
      "junior": 2199,
      "junk": 2200,
      "jupyter": 2201,
      "just": 2202,
      "justic": 2203,
      "justif": 2204,
      "jut": 2205,
      "jvm": 2206,
      "jwt": 2207,
      "kanban": 2208,
      "kde": 2209,
      "keen": 2210,
      "keep": 2211,
      "kept": 2213,
      "keras": 2213,
      "kernel": 2214,
      "key": 2215,
      "kick": 2216,
      "kill": 2217,
      "kilo": 2218,
      "kind": 2219,
      "king": 2220,
      "kit": 2221,
      "kivy": 2222,
      "knack": 2223,
      "knew": 2224,
      "knock": 2225,
      "know": 2226,
      "knowledg": 2227,
      "kotlin": 2228,
      "kubernet": 2229,
      "lab": 2230,
      "label": 2231,
      "labo": 2232,
      "laborator": 2233,
      "lace": 2234,
      "lack": 2235,
      "lag": 2236,
      "lagrang": 2237,
      "laid": 2238,
      "lambd": 2239,
      "lan": 2240,
      "lanc": 2241,
      "land": 2242,
      "lang": 2243,
      "languag": 2244,
      "lap": 2245,
      "laps": 2246,
      "laravel": 2247,
      "large": 2248,
      "lash": 2249,
      "last": 2250,
      "latch": 2251,
      "late": 2252,
      "laten": 2253,
      "lateral": 2254,
      "latin": 2255,
      "latitud": 2256,
      "latter": 2257,
      "laugh": 2258,
      "launch": 2259,
      "lavish": 2260,
      "law": 2261,
      "lay": 2262,
      "layer": 2263,
      "layout": 2264,
      "laz": 2265,
      "lda": 2266,
      "lead": 2267,
      "leaf": 2268,
      "leak": 2269,
      "lean": 2270,
      "leap": 2271,
      "learn": 2272,
      "leas": 2273,
      "leav": 2274,
      "lect": 2275,
      "led": 2276,
      "left": 2277,
      "legac": 2278,
      "legal": 2279,
      "legend": 2280,
      "legib": 2281,
      "legitim": 2282,
      "lemma": 2283,
      "lend": 2284,
      "length": 2285,
      "lens": 2286,
      "lent": 2287,
      "less": 2288,
      "lesson": 2289,
      "let": 2290,
      "letter": 2291,
      "level": 2292,
      "leverag": 2293,
      "leverat": 2294,
      "lexic": 2296,
      "liab": 2296,
      "lib": 2297,
      "liberal": 2298,
      "libert": 2299,
      "libr": 2300,
      "licens": 2301,
      "licentious": 2302,
      "lidar": 2303,
      "lie": 2304,
      "life": 2305,
      "lift": 2306,
      "light": 2307,
      "lik": 2308,
      "limit": 2309,
      "line": 2310,
      "lingu": 2311,
      "linguist": 2312,
      "link": 2313,
      "linux": 2314,
      "liquidat": 2315,
      "list": 2316,
      "listen": 2317,
      "liter": 2318,
      "litera": 2319,
      "littl": 2320,
      "liv": 2321,
      "llama": 2322,
      "llm": 2323,
      "llvm": 2324,
      "load": 2325,
      "local": 2326,
      "locat": 2327,
      "lock": 2328,
      "lodg": 2329,
      "log": 2330,
      "logarithm": 2331,
      "logic": 2333,
      "logistic": 2333,
      "logit": 2334,
      "lonel": 2335,
      "long": 2336,
      "look": 2337,
      "loom": 2338,
      "loop": 2339,
      "loose": 2340,
      "los": 2341,
      "loud": 2342,
      "lov": 2343,
      "low": 2344,
      "loyal": 2345,
      "lstm": 2346,
      "luck": 2347,
      "lumin": 2348,
      "lurk": 2349,
      "luxur": 2350,
      "ly": 2351,
      "mac": 2352,
      "machin": 2353,
      "macro": 2354,
      "mad": 2355,
      "made": 2356,
      "magic": 2357,
      "magnet": 2358,
      "magnif": 2359,
      "magnitud": 2360,
      "mail": 2361,
      "main": 2362,
      "mainfram": 2363,
      "maintain": 2365,
      "mainten": 2365,
      "majest": 2366,
      "major": 2367,
      "mak": 2368,
      "male": 2369,
      "malic": 2370,
      "mama": 2371,
      "man": 2372,
      "manag": 2373,
      "mandat": 2374,
      "maneuver": 2375,
      "manifest": 2376,
      "manipul": 2377,
      "manual": 2378,
      "manufactur": 2379,
      "many": 2380,
      "map": 2381,
      "march": 2382,
      "margin": 2383,
      "marginal": 2384,
      "mark": 2385,
      "market": 2386,
      "marr": 2387,
      "marriag": 2388,
      "marshall": 2389,
      "mash": 2390,
      "mask": 2391,
      "mass": 2392,
      "master": 2393,
      "mat": 2394,
      "match": 2395,
      "material": 2396,
      "math": 2397,
      "matric": 2398,
      "matrimon": 2399,
      "matrix": 2400,
      "matter": 2401,
      "matur": 2402,
      "max": 2403,
      "may": 2404,
      "meal": 2405,
      "mean": 2406,
      "measur": 2407,
      "mechan": 2408,
      "mechanic": 2409,
      "meddl": 2410,
      "media": 2411,
      "medic": 2412,
      "meditat": 2413,
      "meet": 2414,
      "mega": 2415,
      "melanchol": 2416,
      "meld": 2417,
      "melod": 2418,
      "mem": 2419,
      "member": 2420,
      "memor": 2421,
      "men": 2422,
      "ment": 2423,
      "mention": 2424,
      "mentor": 2425,
      "menu": 2426,
      "mercant": 2427,
      "merchan": 2428,
      "mere": 2429,
      "merg": 2430,
      "merit": 2431,
      "mesh": 2432,
      "mess": 2433,
      "messag": 2434,
      "met": 2435,
      "meta": 2436,
      "metal": 2437,
      "metaphor": 2438,
      "meter": 2439,
      "method": 2440,
      "metr": 2441,
      "micro": 2442,
      "mid": 2443,
      "middl": 2444,
      "might": 2445,
      "migrat": 2447,
      "mild": 2447,
      "mile": 2448,
      "milli": 2449,
      "million": 2450,
      "mimic": 2451,
      "mind": 2452,
      "mini": 2453,
      "miniatur": 2454,
      "minif": 2455,
      "minor": 2456,
      "minus": 2457,
      "minute": 2458,
      "mirror": 2459,
      "mirth": 2460,
      "mis": 2461,
      "miscellaneous": 2462,
      "miser": 2463,
      "miss": 2464,
      "mission": 2465,
      "mistak": 2466,
      "mitigat": 2467,
      "mix": 2468,
      "mixture": 2469,
      "mobil": 2470,
      "mock": 2471,
      "mod": 2472,
      "modal": 2473,
      "model": 2474,
      "modem": 2475,
      "moderat": 2476,
      "modern": 2477,
      "modest": 2478,
      "modif": 2479,
      "modul": 2480,
      "moment": 2481,
      "mon": 2482,
      "money": 2483,
      "mongo": 2484,
      "monitor": 2485,
      "mono": 2486,
      "monolith": 2487,
      "monoton": 2488,
      "month": 2489,
      "moon": 2490,
      "moor": 2491,
      "moral": 2492,
      "more": 2493,
      "morning": 2494,
      "morph": 2495,
      "morrow": 2496,
      "mortif": 2497,
      "most": 2498,
      "mother": 2499,
      "motion": 2500,
      "motiv": 2501,
      "motivat": 2502,
      "motor": 2503,
      "mount": 2504,
      "mountain": 2505,
      "mouse": 2506,
      "mov": 2507,
      "much": 2508,
      "mull": 2509,
      "multi": 2510,
      "multipl": 2511,
      "multiplatform": 2512,
      "multiplay": 2513,
      "multiple": 2514,
      "multiplex": 2515,
      "murmur": 2516,
      "music": 2517,
      "must": 2518,
      "mut": 2519,
      "mutab": 2520,
      "mutat": 2521,
      "mutex": 2522,
      "mutter": 2523,
      "mutual": 2524,
      "mvc": 2525,
      "mvp": 2526,
      "myster": 2527,
      "mystif": 2528,
      "nail": 2529,
      "naive": 2530,
      "nam": 2531,
      "nano": 2532,
      "narrat": 2533,
      "narrow": 2534,
      "nation": 2535,
      "nativ": 2536,
      "natur": 2537,
      "navi": 2538,
      "near": 2539,
      "neat": 2540,
      "necess": 2541,
      "neck": 2542,
      "need": 2543,
      "negat": 2544,
      "negativ": 2545,
      "neglect": 2546,
      "neglig": 2547,
      "negotiat": 2548,
      "neighbo": 2549,
      "neither": 2550,
      "nerv": 2551,
      "ness": 2552,
      "net": 2553,
      "network": 2554,
      "neur": 2555,
      "neutral": 2556,
      "never": 2557,
      "new": 2558,
      "next": 2559,
      "ng": 2560,
      "nice": 2561,
      "night": 2562,
      "nine": 2563,
      "nlp": 2564,
      "nltk": 2565,
      "no": 2566,
      "nod": 2567,
      "node": 2568,
      "nois": 2569,
      "nom": 2570,
      "nomi": 2571,
      "nominal": 2572,
      "nominat": 2573,
      "non": 2574,
      "noname": 2575,
      "nonsens": 2576,
      "noone": 2578,
      "nope": 2578,
      "norm": 2579,
      "normaliz": 2580,
      "north": 2581,
      "not": 2582,
      "notat": 2583,
      "notic": 2584,
      "notif": 2585,
      "notorious": 2586,
      "nought": 2587,
      "noun": 2588,
      "nourish": 2589,
      "novel": 2590,
      "november": 2591,
      "novic": 2592,
      "now": 2593,
      "null": 2594,
      "numb": 2595,
      "numer": 2596,
      "nurs": 2597,
      "obedien": 2598,
      "obey": 2599,
      "obfuscat": 2600,
      "object": 2601,
      "oblig": 2602,
      "obliquity": 2603,
      "obliterat": 2604,
      "obscur": 2605,
      "observ": 2606,
      "obsess": 2607,
      "obsolet": 2608,
      "obstacl": 2609,
      "obstinate": 2610,
      "obstruct": 2611,
      "obtain": 2612,
      "obtrud": 2613,
      "obviat": 2614,
      "obvious": 2615,
      "occasion": 2616,
      "occlud": 2617,
      "occup": 2618,
      "occur": 2619,
      "octa": 2620,
      "october": 2621,
      "odd": 2622,
      "oem": 2623,
      "of": 2624,
      "off": 2625,
      "offenc": 2626,
      "offend": 2627,
      "offens": 2628,
      "offer": 2629,
      "offic": 2630,
      "official": 2631,
      "offset": 2632,
      "often": 2633,
      "old": 2634,
      "omit": 2635,
      "on": 2636,
      "once": 2637,
      "one": 2638,
      "onerous": 2639,
      "only": 2640,
      "opaci": 2641,
      "opaque": 2642,
      "open": 2643,
      "oper": 2644,
      "operat": 2645,
      "opinion": 2646,
      "opponent": 2647,
      "opportun": 2648,
      "oppos": 2649,
      "opposs": 2650,
      "oppress": 2651,
      "ops": 2652,
      "opt": 2653,
      "optic": 2654,
      "optim": 2655,
      "optimal": 2656,
      "optimis": 2657,
      "optimiz": 2658,
      "option": 2659,
      "or": 2660,
      "oracle": 2661,
      "order": 2662,
      "ordinar": 2664,
      "ordinat": 2664,
      "organic": 2665,
      "organiz": 2666,
      "orient": 2667,
      "origin": 2668,
      "ornament": 2669,
      "ortho": 2670,
      "oscill": 2671,
      "oscillat": 2672,
      "osten": 2673,
      "other": 2674,
      "ought": 2675,
      "oust": 2676,
      "out": 2677,
      "outage": 2678,
      "outer": 2679,
      "outlast": 2680,
      "outrage": 2681,
      "over": 2682,
      "overlap": 2683,
      "overrid": 2684,
      "own": 2685,
      "pack": 2686,
      "packag": 2687,
      "pad": 2688,
      "pag": 2689,
      "paid": 2690,
      "pain": 2691,
      "paint": 2692,
      "pair": 2693,
      "palette": 2694,
      "panel": 2695,
      "paper": 2696,
      "para": 2697,
      "parabol": 2698,
      "parad": 2699,
      "paradigm": 2700,
      "paradox": 2701,
      "paragraph": 2702,
      "parallax": 2703,
      "parallel": 2704,
      "param": 2705,
      "pardon": 2706,
      "parent": 2707,
      "park": 2708,
      "pars": 2709,
      "part": 2710,
      "particip": 2711,
      "particl": 2712,
      "particul": 2713,
      "pass": 2714,
      "passag": 2715,
      "passiv": 2716,
      "past": 2717,
      "patch": 2718,
      "patent": 2719,
      "path": 2720,
      "patien": 2721,
      "patron": 2722,
      "patronag": 2723,
      "pattern": 2724,
      "paus": 2725,
      "peac": 2726,
      "peak": 2727,
      "peculiar": 2728,
      "pedia": 2729,
      "peek": 2730,
      "peep": 2731,
      "peer": 2732,
      "pen": 2733,
      "penal": 2734,
      "pencil": 2735,
      "pend": 2736,
      "penetrat": 2737,
      "pens": 2738,
      "pent": 2739,
      "peopl": 2740,
      "perceiv": 2741,
      "percent": 2742,
      "percept": 2743,
      "perfect": 2744,
      "perform": 2745,
      "period": 2746,
      "peripher": 2747,
      "perl": 2748,
      "permanent": 2749,
      "permeat": 2750,
      "permiss": 2751,
      "permit": 2752,
      "permut": 2753,
      "perpendicular": 2754,
      "perplex": 2755,
      "persever": 2756,
      "persist": 2757,
      "person": 2758,
      "perspectiv": 2759,
      "persuad": 2760,
      "persuas": 2761,
      "pertain": 2762,
      "pertin": 2763,
      "perturb": 2764,
      "perus": 2765,
      "pervad": 2766,
      "pessimi": 2767,
      "peta": 2768,
      "phase": 2769,
      "phenomen": 2770,
      "philosoph": 2771,
      "phish": 2772,
      "phone": 2773,
      "phonet": 2774,
      "photo": 2775,
      "php": 2776,
      "phras": 2777,
      "physic": 2778,
      "pick": 2779,
      "pict": 2780,
      "pictur": 2781,
      "piece": 2782,
      "pilot": 2783,
      "pin": 2784,
      "ping": 2785,
      "pioneer": 2786,
      "pip": 2787,
      "pipe": 2788,
      "pipeline": 2789,
      "pit": 2790,
      "pitch": 2791,
      "pivot": 2792,
      "pix": 2793,
      "pixel": 2794,
      "plac": 2795,
      "plagued": 2796,
      "plain": 2797,
      "plan": 2798,
      "planar": 2799,
      "plane": 2800,
      "planet": 2801,
      "plast": 2802,
      "platform": 2803,
      "plausib": 2804,
      "play": 2805,
      "plead": 2806,
      "pleas": 2807,
      "pleasure": 2808,
      "pledg": 2809,
      "plent": 2811,
      "plex": 2811,
      "plot": 2812,
      "plug": 2813,
      "plung": 2814,
      "plural": 2815,
      "plus": 2816,
      "poach": 2817,
      "pocket": 2818,
      "pod": 2819,
      "podcast": 2820,
      "poem": 2821,
      "point": 2822,
      "polar": 2823,
      "polic": 2824,
      "polish": 2825,
      "polit": 2826,
      "poll": 2827,
      "poly": 2828,
      "pool": 2829,
      "poor": 2830,
      "pop": 2831,
      "popular": 2832,
      "populat": 2833,
      "port": 2834,
      "portal": 2835,
      "portion": 2836,
      "pos": 2837,
      "posit": 2838,
      "positiv": 2839,
      "possess": 2840,
      "possib": 2841,
      "post": 2842,
      "postgres": 2843,
      "postpon": 2844,
      "potent": 2845,
      "pour": 2846,
      "pow": 2847,
      "power": 2848,
      "practi": 2849,
      "pragm": 2850,
      "prais": 2851,
      "pray": 2852,
      "pre": 2853,
      "preach": 2854,
      "preambl": 2855,
      "preced": 2856,
      "precedent": 2857,
      "precipit": 2858,
      "precis": 2859,
      "preclud": 2860,
      "predecess": 2861,
      "predica": 2862,
      "predict": 2863,
      "prefer": 2864,
      "prejudic": 2865,
      "preliminar": 2866,
      "premier": 2867,
      "premis": 2868,
      "preneur": 2869,
      "prepar": 2870,
      "prepend": 2871,
      "present": 2872,
      "preserv": 2873,
      "press": 2874,
      "pressur": 2875,
      "presum": 2876,
      "pretenc": 2877,
      "pretend": 2878,
      "pretens": 2879,
      "prett": 2880,
      "prevail": 2881,
      "prevent": 2882,
      "previous": 2883,
      "pric": 2884,
      "pride": 2885,
      "prim": 2886,
      "primar": 2887,
      "primitiv": 2888,
      "princip": 2889,
      "print": 2890,
      "prior": 2891,
      "privat": 2892,
      "privileg": 2893,
      "pro": 2894,
      "prob": 2895,
      "probab": 2896,
      "problem": 2897,
      "procedur": 2898,
      "proceed": 2899,
      "process": 2900,
      "processor": 2901,
      "procrastinat": 2902,
      "procur": 2903,
      "produc": 2904,
      "profess": 2905,
      "profession": 2906,
      "profic": 2907,
      "profil": 2908,
      "profit": 2909,
      "program": 2910,
      "progress": 2911,
      "prohibit": 2912,
      "project": 2913,
      "prolog": 2914,
      "prolong": 2915,
      "prominen": 2916,
      "promis": 2917,
      "promot": 2918,
      "prompt": 2919,
      "pronoun": 2920,
      "pronunc": 2921,
      "proof": 2922,
      "propagat": 2923,
      "proper": 2924,
      "proportion": 2925,
      "propos": 2926,
      "propriet": 2927,
      "pros": 2928,
      "prospect": 2929,
      "prosper": 2930,
      "protect": 2931,
      "protest": 2932,
      "proto": 2933,
      "protocol": 2934,
      "prototyp": 2935,
      "protrud": 2936,
      "proud": 2937,
      "prov": 2938,
      "provid": 2939,
      "provis": 2940,
      "provocation": 2941,
      "provok": 2942,
      "prox": 2943,
      "proxim": 2944,
      "pruden": 2945,
      "prun": 2946,
      "pseudo": 2947,
      "publ": 2948,
      "public": 2949,
      "publish": 2950,
      "puff": 2951,
      "pull": 2952,
      "puls": 2953,
      "pump": 2954,
      "punct": 2955,
      "punish": 2956,
      "punk": 2957,
      "pupil": 2958,
      "pur": 2959,
      "purchas": 2960,
      "purpos": 2961,
      "pursu": 2962,
      "push": 2963,
      "put": 2964,
      "puzzl": 2965,
      "py": 2966,
      "pyramid": 2967,
      "python": 2968,
      "qa": 2969,
      "quad": 2970,
      "quaint": 2971,
      "qualif": 2972,
      "qualit": 2973,
      "quant": 2974,
      "quantif": 2975,
      "quarrel": 2976,
      "quart": 2977,
      "quarter": 2978,
      "quaternion": 2979,
      "queen": 2980,
      "queer": 2981,
      "quer": 2982,
      "quest": 2983,
      "question": 2984,
      "queu": 2985,
      "quick": 2986,
      "quiet": 2987,
      "quint": 2988,
      "quir": 2989,
      "quit": 2990,
      "quiz": 2991,
      "quot": 2992,
      "rac": 2993,
      "rad": 2994,
      "radiat": 2995,
      "radic": 2996,
      "radio": 2997,
      "radius": 2998,
      "rag": 2999,
      "raid": 3000,
      "rail": 3001,
      "rain": 3002,
      "rais": 3003,
      "rall": 3004,
      "ram": 3005,
      "rambl": 3006,
      "ramp": 3007,
      "ran": 3008,
      "rand": 3009,
      "random": 3010,
      "rang": 3011,
      "rank": 3012,
      "ransom": 3013,
      "rapid": 3014,
      "raptur": 3015,
      "rar": 3016,
      "raspberry": 3017,
      "raster": 3018,
      "rat": 3019,
      "rather": 3020,
      "ratio": 3021,
      "rational": 3022,
      "ravel": 3023,
      "raw": 3024,
      "ray": 3025,
      "re": 3026,
      "reach": 3027,
      "react": 3028,
      "read": 3029,
      "ready": 3030,
      "real": 3031,
      "realiz": 3032,
      "realm": 3033,
      "reanimat": 3034,
      "rear": 3035,
      "rearrang": 3036,
      "reason": 3037,
      "rebut": 3038,
      "recap": 3039,
      "recaptur": 3040,
      "receipt": 3041,
      "receiv": 3042,
      "recent": 3043,
      "recept": 3044,
      "recipe": 3045,
      "recipient": 3046,
      "reciproc": 3047,
      "reckon": 3048,
      "recogni": 3049,
      "recommend": 3050,
      "reconcil": 3051,
      "record": 3052,
      "recover": 3053,
      "recruit": 3054,
      "rectang": 3055,
      "rectif": 3056,
      "recur": 3057,
      "recurren": 3058,
      "recurs": 3059,
      "redact": 3060,
      "redis": 3061,
      "rediscover": 3062,
      "redistribut": 3063,
      "reduc": 3065,
      "redundan": 3065,
      "redux": 3066,
      "ref": 3067,
      "refactor": 3068,
      "refer": 3069,
      "refetch": 3070,
      "refil": 3071,
      "refill": 3072,
      "refin": 3073,
      "refit": 3074,
      "reflect": 3075,
      "reflex": 3076,
      "refocus": 3077,
      "reform": 3078,
      "reformat": 3079,
      "reformulat": 3080,
      "refract": 3081,
      "refrain": 3082,
      "refresh": 3083,
      "refund": 3084,
      "refurbish": 3085,
      "refus": 3086,
      "refut": 3087,
      "regain": 3088,
      "regard": 3090,
      "region": 3090,
      "regist": 3091,
      "regress": 3092,
      "regret": 3093,
      "regular": 3094,
      "regulat": 3095,
      "reif": 3096,
      "reign": 3097,
      "reject": 3098,
      "relat": 3099,
      "relax": 3100,
      "releas": 3101,
      "relegat": 3102,
      "relent": 3103,
      "relevan": 3104,
      "reliab": 3105,
      "relian": 3106,
      "reliev": 3107,
      "relinquish": 3108,
      "relish": 3109,
      "reluctan": 3110,
      "rely": 3111,
      "remain": 3112,
      "remed": 3113,
      "rememb": 3114,
      "remembr": 3115,
      "remind": 3116,
      "remiss": 3117,
      "remonstra": 3118,
      "remot": 3119,
      "remov": 3120,
      "render": 3121,
      "renovat": 3122,
      "rent": 3123,
      "repair": 3124,
      "repeat": 3125,
      "repetit": 3126,
      "repl": 3127,
      "repla": 3128,
      "replac": 3129,
      "replenish": 3130,
      "replet": 3131,
      "replic": 3132,
      "report": 3133,
      "repositor": 3134,
      "reprehen": 3135,
      "represent": 3136,
      "reproach": 3137,
      "reput": 3138,
      "reputa": 3139,
      "reque": 3140,
      "request": 3141,
      "requi": 3142,
      "requir": 3143,
      "requisit": 3144,
      "requit": 3145,
      "rescind": 3146,
      "rescu": 3147,
      "reserv": 3148,
      "reset": 3149,
      "resid": 3150,
      "resident": 3151,
      "resilien": 3152,
      "resist": 3153,
      "resolut": 3154,
      "resolv": 3155,
      "resonat": 3156,
      "respect": 3157,
      "respon": 3158,
      "rest": 3159,
      "restart": 3160,
      "restat": 3161,
      "restaurant": 3162,
      "restor": 3163,
      "restrain": 3164,
      "restrict": 3165,
      "restruct": 3166,
      "result": 3167,
      "resum": 3168,
      "resurrect": 3169,
      "retail": 3170,
      "retain": 3171,
      "retent": 3172,
      "retir": 3173,
      "retriev": 3174,
      "retro": 3175,
      "return": 3176,
      "revamp": 3177,
      "reveal": 3178,
      "revel": 3179,
      "revenue": 3180,
      "revers": 3181,
      "revert": 3182,
      "revis": 3183,
      "revisit": 3184,
      "reviv": 3185,
      "revok": 3186,
      "revolt": 3187,
      "revolut": 3188,
      "revolv": 3189,
      "reward": 3190,
      "rgb": 3191,
      "rich": 3192,
      "rid": 3193,
      "ridd": 3194,
      "ridicul": 3195,
      "right": 3196,
      "rigid": 3197,
      "rigorous": 3198,
      "rimm": 3199,
      "rip": 3200,
      "ris": 3201,
      "risk": 3202,
      "rival": 3203,
      "river": 3205,
      "rnn": 3205,
      "road": 3206,
      "roam": 3207,
      "roast": 3208,
      "robo": 3209,
      "robust": 3210,
      "rock": 3211,
      "rol": 3212,
      "roll": 3213,
      "roman": 3214,
      "room": 3215,
      "root": 3216,
      "rose": 3217,
      "rotat": 3218,
      "rough": 3219,
      "round": 3220,
      "rous": 3221,
      "rout": 3222,
      "routine": 3223,
      "row": 3224,
      "rpc": 3225,
      "rpg": 3226,
      "rsa": 3227,
      "rss": 3228,
      "rtti": 3229,
      "rubber": 3230,
      "rubric": 3231,
      "ruby": 3232,
      "rude": 3233,
      "rudimen": 3234,
      "rue": 3235,
      "rugged": 3236,
      "ruin": 3237,
      "rul": 3238,
      "rumor": 3239,
      "rumour": 3240,
      "run": 3241,
      "rush": 3242,
      "rust": 3243,
      "saas": 3244,
      "sad": 3245,
      "saf": 3246,
      "safar": 3247,
      "said": 3248,
      "sail": 3249,
      "sal": 3250,
      "salar": 3251,
      "same": 3252,
      "sampl": 3253,
      "samsung": 3254,
      "sang": 3255,
      "sanit": 3256,
      "sank": 3257,
      "satellit": 3258,
      "satisf": 3259,
      "satur": 3260,
      "saturat": 3261,
      "sauc": 3262,
      "saunter": 3263,
      "sav": 3264,
      "saw": 3265,
      "sawed": 3266,
      "sawn": 3267,
      "say": 3268,
      "scal": 3269,
      "scalar": 3270,
      "scan": 3271,
      "scap": 3272,
      "scar": 3273,
      "scatter": 3274,
      "scen": 3275,
      "scenar": 3276,
      "scept": 3277,
      "schedul": 3278,
      "schem": 3279,
      "scholar": 3280,
      "school": 3281,
      "sci": 3282,
      "scien": 3283,
      "scold": 3284,
      "scop": 3285,
      "scor": 3286,
      "scout": 3287,
      "scrab": 3288,
      "scrambl": 3289,
      "scrap": 3290,
      "scratch": 3291,
      "scream": 3292,
      "screen": 3293,
      "screw": 3294,
      "scrib": 3295,
      "script": 3296,
      "scroll": 3297,
      "scrum": 3298,
      "scrup": 3299,
      "scrut": 3300,
      "scrutiniz": 3301,
      "sdk": 3302,
      "sea": 3303,
      "seal": 3304,
      "seam": 3305,
      "search": 3306,
      "season": 3307,
      "seat": 3308,
      "second": 3309,
      "secret": 3310,
      "sect": 3311,
      "secur": 3312,
      "seduc": 3313,
      "see": 3314,
      "seed": 3315,
      "seek": 3316,
      "seem": 3317,
      "seen": 3318,
      "sees": 3319,
      "segment": 3320,
      "segregat": 3321,
      "segue": 3322,
      "seiz": 3323,
      "seldom": 3324,
      "select": 3325,
      "self": 3326,
      "sell": 3327,
      "selv": 3328,
      "semantic": 3329,
      "semaphor": 3330,
      "sembl": 3331,
      "semi": 3332,
      "seminar": 3333,
      "seminat": 3334,
      "send": 3335,
      "senior": 3336,
      "sens": 3337,
      "sensation": 3338,
      "sensitiv": 3339,
      "sensor": 3340,
      "sent": 3341,
      "sentenc": 3342,
      "sentiment": 3343,
      "seo": 3344,
      "separ": 3345,
      "september": 3346,
      "seque": 3347,
      "serial": 3348,
      "series": 3349,
      "serious": 3350,
      "serv": 3351,
      "server": 3352,
      "servic": 3353,
      "session": 3354,
      "set": 3355,
      "settl": 3356,
      "setup": 3357,
      "seven": 3358,
      "sever": 3359,
      "several": 3360,
      "sex": 3361,
      "sgd": 3362,
      "shad": 3363,
      "shadow": 3364,
      "shak": 3365,
      "shall": 3366,
      "shallow": 3367,
      "sham": 3368,
      "shap": 3369,
      "shar": 3370,
      "shard": 3371,
      "sharp": 3372,
      "she": 3373,
      "shed": 3374,
      "sheet": 3376,
      "shell": 3376,
      "shelter": 3377,
      "shift": 3378,
      "shin": 3379,
      "ship": 3380,
      "shock": 3381,
      "shoe": 3382,
      "shook": 3383,
      "shoot": 3384,
      "shop": 3385,
      "short": 3386,
      "shot": 3387,
      "should": 3388,
      "shout": 3389,
      "show": 3391,
      "shrank": 3392,
      "shrink": 3392,
      "shrunk": 3393,
      "shuffl": 3394,
      "shut": 3395,
      "shy": 3396,
      "sick": 3397,
      "side": 3398,
      "sigh": 3399,
      "sight": 3400,
      "sign": 3401,
      "signal": 3402,
      "signatur": 3403,
      "signif": 3405,
      "silen": 3405,
      "silhouett": 3406,
      "silicon": 3407,
      "sill": 3408,
      "silver": 3409,
      "similar": 3410,
      "simpl": 3412,
      "simplic": 3412,
      "simplif": 3413,
      "simulat": 3414,
      "simultaneous": 3415,
      "since": 3416,
      "sincere": 3417,
      "sing": 3419,
      "singl": 3419,
      "singular": 3420,
      "sink": 3421,
      "sinus": 3422,
      "sion": 3423,
      "sister": 3424,
      "sit": 3425,
      "site": 3426,
      "situat": 3427,
      "six": 3428,
      "siz": 3429,
      "size": 3430,
      "skeleton": 3431,
      "skept": 3432,
      "sketch": 3433,
      "skew": 3434,
      "skill": 3435,
      "skip": 3436,
      "sky": 3437,
      "skype": 3438,
      "slack": 3440,
      "slam": 3440,
      "slang": 3441,
      "slash": 3442,
      "slav": 3443,
      "slay": 3444,
      "sleek": 3445,
      "sleep": 3446,
      "sleet": 3447,
      "slept": 3448,
      "slew": 3449,
      "slic": 3450,
      "slid": 3451,
      "slight": 3452,
      "slim": 3453,
      "sling": 3454,
      "slip": 3455,
      "slop": 3456,
      "slot": 3457,
      "slow": 3458,
      "slugg": 3459,
      "slumber": 3460,
      "slung": 3461,
      "sly": 3462,
      "smack": 3463,
      "small": 3464,
      "smart": 3465,
      "smash": 3466,
      "smell": 3467,
      "smil": 3468,
      "smit": 3469,
      "smok": 3470,
      "smooth": 3471,
      "snap": 3472,
      "sneak": 3473,
      "sneer": 3474,
      "sniff": 3475,
      "snip": 3476,
      "snow": 3477,
      "so": 3478,
      "soap": 3479,
      "soar": 3480,
      "sober": 3481,
      "social": 3482,
      "sociat": 3483,
      "societ": 3484,
      "sock": 3485,
      "socket": 3486,
      "soft": 3487,
      "software": 3488,
      "solace": 3489,
      "sold": 3490,
      "solely": 3491,
      "solemn": 3492,
      "solicit": 3493,
      "solid": 3494,
      "solitar": 3495,
      "solution": 3496,
      "solv": 3497,
      "some": 3498,
      "son": 3499,
      "song": 3500,
      "soon": 3501,
      "sooth": 3502,
      "sophisticat": 3503,
      "sorrow": 3504,
      "sorry": 3505,
      "sort": 3506,
      "soul": 3507,
      "sound": 3508,
      "soup": 3509,
      "sourc": 3510,
      "south": 3511,
      "spac": 3512,
      "space": 3513,
      "spam": 3514,
      "span": 3515,
      "spar": 3516,
      "spark": 3517,
      "spars": 3518,
      "spatial": 3519,
      "spawn": 3520,
      "speak": 3521,
      "spec": 3522,
      "speci": 3523,
      "special": 3524,
      "specializ": 3525,
      "specif": 3527,
      "spect": 3527,
      "spectr": 3528,
      "speculat": 3529,
      "speech": 3530,
      "speed": 3531,
      "spel": 3532,
      "spen": 3533,
      "spend": 3534,
      "spher": 3535,
      "spill": 3536,
      "spin": 3537,
      "spirit": 3538,
      "spit": 3539,
      "splash": 3540,
      "splay": 3541,
      "splend": 3542,
      "splic": 3543,
      "splin": 3544,
      "split": 3545,
      "spoil": 3547,
      "spoke": 3547,
      "sponsor": 3548,
      "spontane": 3549,
      "spoof": 3550,
      "spool": 3551,
      "spoon": 3552,
      "sport": 3553,
      "spot": 3554,
      "sprang": 3555,
      "spread": 3556,
      "spring": 3557,
      "sprinkl": 3558,
      "sprint": 3559,
      "sql": 3560,
      "squar": 3561,
      "squeez": 3562,
      "stab": 3563,
      "stabil": 3564,
      "stabl": 3565,
      "stack": 3566,
      "staff": 3567,
      "stag": 3568,
      "stagnat": 3569,
      "stair": 3570,
      "stak": 3571,
      "stakeholder": 3572,
      "stale": 3573,
      "stall": 3574,
      "stamp": 3575,
      "stand": 3577,
      "standard": 3577,
      "standby": 3578,
      "star": 3579,
      "stare": 3580,
      "start": 3581,
      "stash": 3582,
      "stat": 3583,
      "static": 3584,
      "station": 3585,
      "stationar": 3586,
      "statistic": 3587,
      "status": 3588,
      "stay": 3589,
      "std": 3590,
      "stead": 3591,
      "steal": 3592,
      "steam": 3593,
      "steep": 3594,
      "steer": 3595,
      "stemm": 3596,
      "stencil": 3597,
      "step": 3598,
      "stereo": 3599,
      "stick": 3600,
      "still": 3601,
      "stimul": 3602,
      "stipulat": 3603,
      "stir": 3604,
      "stochast": 3605,
      "stock": 3606,
      "ston": 3608,
      "stood": 3608,
      "stoop": 3609,
      "stop": 3610,
      "stor": 3611,
      "storag": 3612,
      "storm": 3613,
      "story": 3614,
      "stout": 3615,
      "straggl": 3616,
      "straight": 3617,
      "strain": 3618,
      "strang": 3619,
      "strap": 3620,
      "strat": 3621,
      "strateg": 3622,
      "stratif": 3623,
      "stray": 3624,
      "stream": 3625,
      "street": 3626,
      "stren": 3627,
      "strength": 3628,
      "stress": 3630,
      "stretch": 3630,
      "strick": 3631,
      "strict": 3632,
      "strid": 3633,
      "strik": 3634,
      "string": 3635,
      "strip": 3636,
      "striv": 3637,
      "strok": 3638,
      "strong": 3639,
      "strov": 3640,
      "struct": 3641,
      "struggl": 3642,
      "stub": 3643,
      "stuck": 3644,
      "stud": 3645,
      "student": 3646,
      "studio": 3647,
      "stuff": 3648,
      "stumbl": 3649,
      "stump": 3650,
      "stun": 3651,
      "stupid": 3652,
      "styl": 3653,
      "sub": 3654,
      "subdu": 3655,
      "subject": 3656,
      "submiss": 3657,
      "submit": 3658,
      "subscrib": 3659,
      "subsid": 3660,
      "subsist": 3661,
      "substan": 3662,
      "substantiat": 3663,
      "substitut": 3664,
      "subtl": 3665,
      "subtract": 3666,
      "succe": 3667,
      "succinct": 3668,
      "such": 3669,
      "sudden": 3670,
      "sue": 3671,
      "suffer": 3672,
      "suffic": 3673,
      "suffix": 3674,
      "suggest": 3675,
      "suit": 3676,
      "sull": 3677,
      "summ": 3678,
      "summa": 3679,
      "summer": 3680,
      "summit": 3681,
      "summon": 3682,
      "sun": 3683,
      "sung": 3684,
      "sunk": 3685,
      "super": 3686,
      "supervis": 3687,
      "supper": 3688,
      "suppl": 3689,
      "support": 3690,
      "suppos": 3691,
      "suppress": 3692,
      "suprem": 3693,
      "sure": 3694,
      "surf": 3695,
      "surfac": 3696,
      "surg": 3697,
      "surmis": 3698,
      "surpass": 3699,
      "surpris": 3700,
      "surrender": 3701,
      "surrogate": 3702,
      "surround": 3703,
      "survey": 3704,
      "surviv": 3705,
      "susceptib": 3706,
      "suspect": 3707,
      "suspend": 3708,
      "suspens": 3709,
      "suspic": 3710,
      "sustain": 3711,
      "svd": 3712,
      "svg": 3713,
      "svm": 3714,
      "svn": 3715,
      "swap": 3716,
      "sway": 3717,
      "swear": 3718,
      "sweep": 3719,
      "sweet": 3720,
      "swell": 3721,
      "swift": 3722,
      "swin": 3723,
      "swip": 3724,
      "swish": 3725,
      "switch": 3726,
      "swoop": 3727,
      "swung": 3728,
      "syllabl": 3729,
      "symbol": 3730,
      "symmetr": 3731,
      "sympath": 3732,
      "sync": 3733,
      "synchron": 3734,
      "synonym": 3735,
      "synt": 3736,
      "syntax": 3737,
      "synth": 3738,
      "synthes": 3739,
      "synthet": 3740,
      "sys": 3741,
      "system": 3742,
      "tab": 3743,
      "tabl": 3744,
      "tabul": 3745,
      "tackl": 3746,
      "tact": 3747,
      "tactic": 3748,
      "tag": 3749,
      "tail": 3750,
      "tailor": 3751,
      "tak": 3752,
      "take": 3753,
      "talent": 3754,
      "talk": 3755,
      "tall": 3756,
      "tam": 3757,
      "tamper": 3758,
      "tangent": 3759,
      "tangl": 3760,
      "tap": 3762,
      "target": 3762,
      "task": 3763,
      "tast": 3764,
      "taught": 3765,
      "tax": 3766,
      "tea": 3767,
      "teach": 3768,
      "team": 3769,
      "tear": 3770,
      "teas": 3771,
      "tech": 3772,
      "techni": 3773,
      "technolog": 3774,
      "tedious": 3775,
      "tele": 3776,
      "tell": 3777,
      "temp": 3778,
      "temper": 3779,
      "temperatur": 3780,
      "templat": 3781,
      "tempor": 3782,
      "tempt": 3783,
      "tenabl": 3784,
      "tenacious": 3785,
      "tend": 3786,
      "tendenc": 3787,
      "tender": 3788,
      "tens": 3789,
      "tensor": 3790,
      "tentat": 3791,
      "tera": 3792,
      "term": 3793,
      "termin": 3794,
      "terminal": 3795,
      "terminat": 3796,
      "terrain": 3797,
      "terribl": 3798,
      "terrif": 3799,
      "tessellat": 3800,
      "test": 3801,
      "tether": 3802,
      "text": 3803,
      "than": 3804,
      "thank": 3805,
      "that": 3806,
      "thaw": 3807,
      "the": 3808,
      "theft": 3809,
      "their": 3810,
      "them": 3811,
      "then": 3812,
      "theor": 3813,
      "theorem": 3814,
      "ther": 3815,
      "there": 3816,
      "thereby": 3817,
      "therm": 3818,
      "thes": 3819,
      "thesa": 3820,
      "thesis": 3821,
      "thest": 3822,
      "theta": 3823,
      "they": 3824,
      "thick": 3825,
      "thin": 3826,
      "thing": 3827,
      "think": 3828,
      "thir": 3829,
      "third": 3830,
      "thirt": 3831,
      "this": 3832,
      "thither": 3833,
      "thorough": 3834,
      "those": 3835,
      "though": 3836,
      "thought": 3837,
      "thous": 3838,
      "thousand": 3839,
      "thread": 3840,
      "threat": 3841,
      "three": 3842,
      "thres": 3843,
      "threw": 3844,
      "thrift": 3845,
      "thrill": 3846,
      "thriv": 3847,
      "through": 3848,
      "throw": 3849,
      "thumb": 3850,
      "thunder": 3851,
      "thunk": 3852,
      "thus": 3853,
      "thwart": 3854,
      "tick": 3855,
      "ticket": 3856,
      "tier": 3857,
      "tight": 3858,
      "til": 3859,
      "till": 3860,
      "tilt": 3861,
      "tim": 3862,
      "time": 3863,
      "timid": 3864,
      "tinker": 3865,
      "tiny": 3866,
      "tion": 3867,
      "tip": 3868,
      "tir": 3869,
      "titl": 3870,
      "to": 3871,
      "toggl": 3872,
      "token": 3873,
      "told": 3874,
      "tolera": 3875,
      "tolerat": 3876,
      "tong": 3877,
      "too": 3878,
      "took": 3879,
      "tool": 3880,
      "tooth": 3881,
      "top": 3882,
      "topic": 3883,
      "topolog": 3884,
      "torch": 3885,
      "torrent": 3886,
      "total": 3887,
      "touch": 3888,
      "tough": 3889,
      "tour": 3890,
      "tournament": 3891,
      "tout": 3892,
      "toward": 3893,
      "town": 3894,
      "trac": 3895,
      "track": 3896,
      "tract": 3897,
      "trad": 3898,
      "tradition": 3899,
      "traff": 3900,
      "trail": 3901,
      "train": 3902,
      "trait": 3903,
      "trajector": 3904,
      "tranquil": 3905,
      "trans": 3906,
      "transact": 3907,
      "transceiv": 3908,
      "transcend": 3909,
      "transclud": 3910,
      "transcrib": 3911,
      "transcript": 3912,
      "transduc": 3913,
      "transduct": 3914,
      "transfer": 3915,
      "transform": 3916,
      "transgress": 3917,
      "transient": 3918,
      "transist": 3919,
      "transit": 3920,
      "translat": 3921,
      "transliterat": 3922,
      "transmiss": 3923,
      "transmit": 3924,
      "transparen": 3925,
      "transpil": 3926,
      "transplant": 3927,
      "transport": 3928,
      "transpos": 3929,
      "trap": 3930,
      "trash": 3931,
      "travel": 3932,
      "travers": 3933,
      "tread": 3934,
      "treasur": 3935,
      "treat": 3936,
      "tree": 3937,
      "trembl": 3938,
      "tremend": 3939,
      "trend": 3940,
      "trial": 3941,
      "triang": 3942,
      "triangul": 3943,
      "trick": 3944,
      "trifl": 3945,
      "trigger": 3946,
      "trim": 3947,
      "tripl": 3948,
      "triumph": 3949,
      "trivial": 3950,
      "trop": 3951,
      "troubl": 3952,
      "tru": 3953,
      "true": 3954,
      "truncat": 3956,
      "trunk": 3956,
      "trust": 3957,
      "truth": 3958,
      "try": 3959,
      "tun": 3960,
      "tunel": 3961,
      "tunnel": 3962,
      "tupl": 3963,
      "turbo": 3964,
      "turn": 3965,
      "tutor": 3966,
      "tweak": 3967,
      "tweet": 3968,
      "twelve": 3969,
      "twent": 3970,
      "twice": 3971,
      "twiddl": 3972,
      "twin": 3973,
      "twink": 3974,
      "twist": 3975,
      "twitch": 3976,
      "twitter": 3977,
      "two": 3978,
      "txt": 3979,
      "typ": 3980,
      "type": 3981,
      "typic": 3982,
      "typo": 3983,
      "ubiquit": 3984,
      "ubuntu": 3985,
      "ugl": 3986,
      "ui": 3987,
      "uint": 3988,
      "ultimat": 3989,
      "ultra": 3990,
      "un": 3991,
      "unar": 3992,
      "under": 3993,
      "understand": 3994,
      "understood": 3995,
      "underwent": 3996,
      "unfurl": 3997,
      "unicode": 3998,
      "unicorn": 3999,
      "unif": 4000,
      "unifi": 4001,
      "uniform": 4002,
      "union": 4003,
      "unique": 4004,
      "unit": 4005,
      "unity": 4006,
      "univers": 4007,
      "unix": 4008,
      "unleash": 4009,
      "untaint": 4010,
      "until": 4011,
      "unveil": 4012,
      "uous": 4013,
      "upbraid": 4014,
      "updat": 4015,
      "upgrad": 4016,
      "upon": 4017,
      "upped": 4018,
      "upper": 4019,
      "upset": 4020,
      "urban": 4021,
      "urg": 4022,
      "url": 4024,
      "us": 4024,
      "usab": 4025,
      "usag": 4026,
      "usb": 4027,
      "use": 4028,
      "user": 4029,
      "usual": 4030,
      "utf": 4031,
      "util": 4032,
      "utmost": 4033,
      "utter": 4034,
      "ux": 4036,
      "vacan": 4036,
      "vacat": 4037,
      "vagar": 4038,
      "vague": 4039,
      "vain": 4040,
      "val": 4041,
      "valen": 4042,
      "valenc": 4043,
      "valent": 4044,
      "valid": 4045,
      "valley": 4046,
      "valu": 4047,
      "vanish": 4048,
      "vanit": 4049,
      "variab": 4050,
      "variabl": 4051,
      "variad": 4053,
      "varianc": 4053,
      "variant": 4054,
      "variat": 4055,
      "varie": 4056,
      "various": 4057,
      "vary": 4058,
      "vast": 4059,
      "vaunt": 4060,
      "vector": 4061,
      "vehicl": 4062,
      "vendor": 4063,
      "ventilat": 4064,
      "ventur": 4065,
      "venue": 4066,
      "verb": 4067,
      "verbos": 4068,
      "veri": 4069,
      "verif": 4070,
      "verity": 4071,
      "vers": 4072,
      "versa": 4073,
      "version": 4074,
      "versus": 4075,
      "vertex": 4076,
      "vertic": 4077,
      "very": 4078,
      "vexat": 4079,
      "vga": 4080,
      "vgg": 4081,
      "via": 4082,
      "viab": 4083,
      "vib": 4084,
      "vibr": 4085,
      "vici": 4086,
      "vict": 4087,
      "video": 4088,
      "view": 4089,
      "vigorous": 4090,
      "vigour": 4091,
      "village": 4092,
      "vindic": 4093,
      "violat": 4094,
      "violen": 4095,
      "viral": 4096,
      "virtual": 4097,
      "virtue": 4098,
      "virus": 4099,
      "vis": 4100,
      "visib": 4101,
      "vision": 4102,
      "visit": 4103,
      "visual": 4104,
      "vocabular": 4105,
      "vocal": 4106,
      "vocat": 4107,
      "voic": 4108,
      "void": 4109,
      "volatil": 4110,
      "volt": 4111,
      "volub": 4112,
      "volum": 4113,
      "volunt": 4114,
      "vot": 4115,
      "vouch": 4116,
      "vpn": 4117,
      "vr": 4118,
      "vs": 4119,
      "vue": 4120,
      "vulgar": 4121,
      "vulner": 4122,
      "wait": 4123,
      "waiv": 4124,
      "wak": 4125,
      "walk": 4126,
      "wall": 4127,
      "wander": 4128,
      "want": 4129,
      "war": 4130,
      "ward": 4131,
      "ware": 4132,
      "warm": 4133,
      "warn": 4134,
      "warp": 4135,
      "warrant": 4136,
      "was": 4137,
      "wash": 4138,
      "wasm": 4139,
      "wast": 4140,
      "watch": 4141,
      "water": 4142,
      "wav": 4143,
      "way": 4144,
      "we": 4145,
      "weak": 4146,
      "wear": 4147,
      "web": 4148,
      "webinar": 4149,
      "wedg": 4150,
      "week": 4151,
      "weigh": 4152,
      "weight": 4153,
      "weird": 4154,
      "welcom": 4155,
      "weld": 4156,
      "well": 4157,
      "went": 4158,
      "were": 4159,
      "west": 4160,
      "what": 4161,
      "whelm": 4162,
      "when": 4163,
      "whence": 4164,
      "where": 4165,
      "whether": 4166,
      "which": 4167,
      "while": 4168,
      "whilst": 4169,
      "whim": 4170,
      "whip": 4171,
      "whirl": 4172,
      "whisp": 4173,
      "whistl": 4174,
      "white": 4175,
      "whither": 4176,
      "who": 4177,
      "whole": 4178,
      "whop": 4179,
      "why": 4180,
      "wick": 4181,
      "wide": 4182,
      "widget": 4183,
      "widow": 4184,
      "width": 4185,
      "wield": 4186,
      "wife": 4187,
      "wifi": 4188,
      "wiki": 4189,
      "wild": 4190,
      "will": 4191,
      "willing": 4192,
      "win": 4193,
      "wind": 4194,
      "window": 4195,
      "winter": 4196,
      "wip": 4197,
      "wire": 4198,
      "wise": 4199,
      "wish": 4200,
      "with": 4201,
      "within": 4202,
      "without": 4203,
      "witness": 4204,
      "wizard": 4205,
      "woke": 4206,
      "woman": 4207,
      "women": 4208,
      "won": 4209,
      "wonder": 4210,
      "wont": 4211,
      "wood": 4212,
      "wor": 4213,
      "word": 4214,
      "work": 4215,
      "world": 4216,
      "worr": 4217,
      "wors": 4218,
      "worship": 4219,
      "worth": 4220,
      "would": 4221,
      "wound": 4222,
      "wrap": 4223,
      "wreak": 4224,
      "wretch": 4225,
      "wright": 4226,
      "writ": 4227,
      "wrong": 4228,
      "wrote": 4229,
      "www": 4230,
      "x64": 4231,
      "x86": 4232,
      "xml": 4233,
      "xor": 4234,
      "yaml": 4235,
      "yeah": 4236,
      "year": 4237,
      "yellow": 4238,
      "yes": 4239,
      "yet": 4240,
      "yield": 4241,
      "you": 4242,
      "young": 4243,
      "your": 4244,
      "youth": 4245,
      "youtub": 4246,
      "zero": 4247,
      "zip": 4248,
      "zon": 4249,
      "zoom": 4250,
      "##0": 4251,
      "##1": 4252,
      "##2": 4253,
      "##3": 4254,
      "##4": 4255,
      "##5": 4256,
      "##6": 4257,
      "##7": 4258,
      "##8": 4259,
      "##9": 4260,
      "##est": 4261,
      "##edly": 4262,
      "##ful": 4263,
      "##day": 4264,
      "##after": 4265,
      "##in": 4266,
      "##ing": 4267,
      "##ive": 4268,
      "##is": 4269,
      "##er": 4270,
      "##es": 4271,
      "##ed": 4272,
      "##ion": 4273,
      "##ment": 4274,
      "##less": 4275,
      "##ness": 4276,
      "##ly": 4277,
      "##al": 4278,
      "##ally": 4279,
      "##ous": 4280,
      "##ability": 4281,
      "##able": 4282,
      "##ably": 4283,
      "##ely": 4284,
      "##ently": 4285,
      "##ately": 4286,
      "##tion": 4287,
      "##ity": 4288,
      "##or": 4289,
      "##ior": 4290,
      "##up": 4291,
      "##out": 4292,
      "##about": 4293,
      "##over": 4294,
      "##fore": 4295,
      "##upon": 4296,
      "##self": 4297,
      "##time": 4298,
      "##ware": 4299,
      "##ever": 4300,
      "##some": 4301,
      "##back": 4302,
      "##ic": 4303,
      "##pad": 4304,
      "##mat": 4305,
      "##plot": 4306,
      "##lib": 4307,
      "##graph": 4308,
      "##shop": 4309,
      "##real": 4310,
      "##math": 4311,
      "##atic": 4312,
      "##noon": 4446,
      "##logic": 4314,
      "##load": 4315,
      "##ify": 4316,
      "##of": 4317,
      "##off": 4318,
      "##date": 4319,
      "##on": 4320,
      "##down": 4321,
      "##work": 4322,
      "##code": 4323,
      "##type": 4324,
      "##cod": 4325,
      "##ative": 4326,
      "##struct": 4327,
      "##fix": 4328,
      "##made": 4329,
      "##mak": 4330,
      "##ant": 4331,
      "##liv": 4332,
      "##norm": 4333,
      "##rich": 4334,
      "##queu": 4335,
      "##tech": 4336,
      "##search": 4337,
      "##advantag": 4338,
      "##agree": 4339,
      "##allow": 4340,
      "##ambigu": 4341,
      "##appear": 4342,
      "##abilities": 4343,
      "##tast": 4344,
      "##script": 4345,
      "##book": 4346,
      "##system": 4347,
      "##mail": 4348,
      "##case": 4349,
      "##list": 4350,
      "##coming": 4351,
      "##cut": 4352,
      "##fall": 4353,
      "##step": 4354,
      "##link": 4355,
      "##bar": 4356,
      "##line": 4357,
      "##flow": 4358,
      "##fus": 4359,
      "##diffus": 4360,
      "##locat": 4361,
      "##lock": 4362,
      "##activat": 4363,
      "##transform": 4364,
      "##solv": 4365,
      "##solution": 4366,
      "##sociat": 4367,
      "##equal": 4368,
      "##efficien": 4369,
      "##effect": 4370,
      "##elegan": 4371,
      "##ebriet": 4372,
      "##eligib": 4373,
      "##scrib": 4374,
      "##stream": 4375,
      "##quiet": 4376,
      "##paint": 4377,
      "##age": 4378,
      "##pag": 4379,
      "##ordinar": 4380,
      "##sampl": 4381,
      "##to": 4382,
      "##operat": 4383,
      "##ship": 4384,
      "##process": 4385,
      "##relat": 4386,
      "##tun": 4387,
      "##fortun": 4388,
      "##point": 4389,
      "##through": 4390,
      "##stag": 4391,
      "##manag": 4392,
      "##pack": 4393,
      "##packag": 4394,
      "##lang": 4395,
      "##languag": 4396,
      "##storag": 4397,
      "##fast": 4398,
      "##propagat": 4399,
      "##engag": 4400,
      "##damag": 4401,
      "##fastidious": 4402,
      "##top": 4403,
      "##web": 4404,
      "##cord": 4405,
      "##install": 4406,
      "##game": 4407,
      "##mongo": 4408,
      "##test": 4409,
      "##dev": 4410,
      "##torch": 4411,
      "##cuda": 4412,
      "##charm": 4413,
      "##pos": 4414,
      "##obj": 4415,
      "##compil": 4416,
      "##compos": 4417,
      "##compres": 4418,
      "##construct": 4419,
      "##convol": 4420,
      "##dispos": 4421,
      "##differ": 4422,
      "##direct": 4423,
      "##discreet": 4424,
      "##discret": 4425,
      "##disput": 4426,
      "##distinct": 4427,
      "##dispens": 4428,
      "##door": 4429,
      "##valid": 4430,
      "##valu": 4431,
      "##variabl": 4432,
      "##varianc": 4433,
      "##variant": 4434,
      "##tabl": 4435,
      "##phone": 4436,
      "##crypt": 4437,
      "##record": 4438,
      "##view": 4439,
      "##cycl": 4440,
      "##boost": 4441,
      "##delta": 4442,
      "##grad": 4443,
      "##updat": 4444,
      "##ward": 4445,
      "##grand": 4446,
      "##cast": 4447,
      "##mention": 4448,
      "##quarter": 4449,
      "##python": 4450,
      "##escap": 4451,
      "##exact": 4452,
      "##excus": 4453,
      "##expens": 4454,
      "##experien": 4455,
      "##express": 4456,
      "##famous": 4457,
      "##feasib": 4458,
      "##estima": 4459,
      "##class": 4460,
      "##cloud": 4461,
      "##channel": 4462,
      "##byte": 4463,
      "##comput": 4464,
      "##conceiv": 4465,
      "##condit": 4466,
      "##config": 4467,
      "##defin": 4468,
      "##determin": 4469,
      "##discover": 4470,
      "##task": 4471,
      "##map": 4472,
      "##check": 4473,
      "##connect": 4474,
      "##consider": 4475,
      "##creat": 4476,
      "##crawl": 4477,
      "##mark": 4478,
      "##declar": 4479,
      "##deliver": 4480,
      "##deploy": 4481,
      "##design": 4482,
      "##draw": 4483,
      "##enter": 4484,
      "##establish": 4485,
      "##examin": 4486,
      "##count": 4487,
      "##group": 4488,
      "##hash": 4489,
      "##mask": 4490,
      "##center": 4491,
      "##account": 4492,
      "##area": 4493,
      "##array": 4494,
      "##cluster": 4495,
      "##collect": 4496,
      "##command": 4497,
      "##complex": 4498,
      "##conscious": 4499,
      "##contain": 4500,
      "##divid": 4501,
      "##divis": 4502,
      "##document": 4503,
      "##domain": 4504,
      "##element": 4505,
      "##field": 4506,
      "##fold": 4507,
      "##gradient": 4508,
      "##sect": 4509,
      "##seque": 4510,
      "##set": 4511,
      "##space": 4512,
      "##strat": 4513,
      "##piece": 4514,
      "##title": 4515,
      "##tree": 4516,
      "##typ": 4517,
      "##variet": 4518,
      "##vocabular": 4519,
      "##version": 4520,
      "##word": 4521,
      "##wise": 4522,
      "##variat": 4523,
      "##data": 4524,
      "##board": 4525,
      "##lingu": 4526,
      "##classif": 4527,
      "##clutter": 4528,
      "##not": 4529,
      "##notat": 4530,
      "##quest": 4531,
      "##arm": 4532,
      "##attack": 4533,
      "##bion": 4534,
      "##crim": 4535,
      "##net": 4536,
      "##punk": 4537,
      "##secur": 4538,
      "##sport": 4539,
      "##vision": 4540,
      "##zon": 4541,
      "##scien": 4542,
      "##nois": 4543,
      "##nominat": 4544,
      "##normaliz": 4545,
      "##mystif": 4546,
      "##think": 4547,
      "##critic": 4548,
      "##gram": 4549,
      "##tool": 4550,
      "##prov": 4551,
      "##regard": 4552,
      "##respect": 4553,
      "##entangl": 4554,
      "##grunt": 4555,
      "##inclin": 4556,
      "##inform": 4557,
      "##ingen": 4558,
      "##interest": 4559,
      "##junct": 4560,
      "##cach": 4561,
      "##lik": 4562,
      "##order": 4563,
      "##patch": 4564,
      "##satisf": 4565,
      "##plac": 4566,
      "##pleas": 4567,
      "##seminat": 4568,
      "##servic": 4569,
      "##similar": 4570,
      "##proportion": 4571,
      "##approb": 4572,
      "##approv": 4573,
      "##assembl": 4574,
      "##associat": 4575,
      "##charg": 4576,
      "##claim": 4577,
      "##clos": 4578,
      "##concert": 4579,
      "##trust": 4580,
      "##util": 4581,
      "##file": 4582,
      "##click": 4583,
      "##rank": 4584,
      "##right": 4585,
      "##scal": 4586,
      "##side": 4587,
      "##size": 4588,
      "##siz": 4589,
      "##stair": 4590,
      "##turn": 4591,
      "##gen": 4592,
      "##talk": 4593,
      "##team": 4594,
      "##box": 4595,
      "##power": 4596,
      "##hub": 4597,
      "##lab": 4598,
      "##bit": 4599,
      "##away": 4600,
      "##ignor": 4601,
      "##hunt": 4602,
      "##felt": 4603,
      "##weight": 4604,
      "##world": 4605,
      "##desk": 4606,
      "##accur": 4607,
      "##action": 4608,
      "##activ": 4609,
      "##adequat": 4610,
      "##admiss": 4611,
      "##advert": 4612,
      "##advis": 4613,
      "##apprecia": 4614,
      "##appropriat": 4615,
      "##argu": 4616,
      "##attent": 4617,
      "##bound": 4618,
      "##buil": 4619,
      "##capab": 4620,
      "##cautio": 4621,
      "##coheren": 4622,
      "##come": 4623,
      "##commod": 4624,
      "##compar": 4625,
      "##compat": 4626,
      "##complet": 4627,
      "##comprehen": 4628,
      "##conclusi": 4629,
      "##congru": 4630,
      "##consist": 4631,
      "##conspic": 4632,
      "##const": 4633,
      "##convenien": 4634,
      "##corpora": 4635,
      "##correct": 4636,
      "##fatuat": 4637,
      "##fanc": 4638,
      "##control": 4639,
      "##panel": 4640,
      "##metr": 4641,
      "##trop": 4642,
      "##body": 4643,
      "##how": 4644,
      "##except": 4645,
      "##follow": 4646,
      "##look": 4647,
      "##driv": 4648,
      "##api": 4649,
      "##shap": 4650,
      "##shuffl": 4651,
      "##sign": 4652,
      "##signif": 4653,
      "##produc": 4654,
      "##js": 4655,
      "##fragment": 4656,
      "##rang": 4657,
      "##dram": 4658,
      "##brows": 4659,
      "##develop": 4660,
      "##client": 4671,
      "##cam": 4662,
      "##font": 4663,
      "##form": 4664,
      "##hook": 4665,
      "##host": 4666,
      "##interfac": 4667,
      "##master": 4668,
      "##kit": 4669,
      "##log": 4670,
      "##component": 4671,
      "##request": 4672,
      "##scop": 4673,
      "##server": 4674,
      "##site": 4675,
      "##socket": 4676,
      "##stor": 4677,
      "##summit": 4678,
      "##trend": 4679,
      "##xml": 4680,
      "##fare": 4681,
      "##from": 4682,
      "##paper": 4683,
      "##app": 4684,
      "##just": 4685,
      "##justif": 4686,
      "##kind": 4687,
      "##know": 4688,
      "##label": 4689,
      "##law": 4690,
      "##learn": 4691,
      "##licens": 4692,
      "##limit": 4693,
      "##valent": 4694,
      "##luck": 4695,
      "##maintain": 4696,
      "##man": 4697,
      "##marr": 4698,
      "##marshall": 4699,
      "##match": 4700,
      "##merit": 4701,
      "##mistak": 4702,
      "##mix": 4703,
      "##mirth": 4704,
      "##modif": 4705,
      "##modul": 4706,
      "##motivat": 4707,
      "##mount": 4708,
      "##multipl": 4709,
      "##mut": 4710,
      "##nam": 4711,
      "##natur": 4712,
      "##necess": 4713,
      "##need": 4714,
      "##object": 4715,
      "##observ": 4716,
      "##parallel": 4717,
      "##paus": 4718,
      "##perceiv": 4719,
      "##permit": 4720,
      "##paid": 4721,
      "##pardon": 4722,
      "##pair": 4723,
      "##organiz": 4724,
      "##occup": 4725,
      "##notic": 4726,
      "##ostentat": 4727,
      "##optimiz": 4728,
      "##open": 4729,
      "##official": 4730,
      "##persuad": 4731,
      "##plan": 4732,
      "##plug": 4733,
      "##polish": 4734,
      "##practic": 4735,
      "##pool": 4736,
      "##popular": 4737,
      "##precedent": 4738,
      "##predict": 4739,
      "##prepar": 4740,
      "##pretend": 4741,
      "##prett": 4742,
      "##print": 4743,
      "##privileg": 4744,
      "##profession": 4745,
      "##profit": 4746,
      "##protect": 4747,
      "##provid": 4748,
      "##publish": 4749,
      "##qualif": 4750,
      "##question": 4751,
      "##quot": 4752,
      "##ravel": 4753,
      "##reach": 4754,
      "##read": 4755,
      "##ready": 4756,
      "##reason": 4758,
      "##receiv": 4758,
      "##recogniz": 4759,
      "##recover": 4760,
      "##register": 4761,
      "##regulat": 4762,
      "##reliabl": 4763,
      "##requir": 4764,
      "##requit": 4765,
      "##reserv": 4766,
      "##resolv": 4767,
      "##respon": 4768,
      "##restrict": 4769,
      "##reveal": 4770,
      "##rival": 4771,
      "##roll": 4772,
      "##saf": 4773,
      "##said": 4774,
      "##sav": 4775,
      "##say": 4776,
      "##season": 4777,
      "##see": 4778,
      "##seen": 4779,
      "##segment": 4780,
      "##select": 4781,
      "##releas": 4782,
      "##sell": 4783,
      "##sentiment": 4784,
      "##serial": 4785,
      "##settl": 4786,
      "##shak": 4787,
      "##shar": 4788,
      "##shift": 4789,
      "##send": 4790,
      "##skill": 4791,
      "##smooth": 4792,
      "##solicit": 4793,
      "##sort": 4794,
      "##specif": 4795,
      "##spent": 4796,
      "##splash": 4797,
      "##sponsor": 4798,
      "##stabl": 4799,
      "##stat": 4800,
      "##stead": 4801,
      "##stick": 4802,
      "##stop": 4803,
      "##stud": 4804,
      "##subscrib": 4805,
      "##substantiat": 4806,
      "##success": 4807,
      "##suit": 4808,
      "##sull": 4809,
      "##supervis": 4810,
      "##support": 4811,
      "##sure": 4812,
      "##surpris": 4813,
      "##suspect": 4814,
      "##suspicio": 4815,
      "##sustain": 4816,
      "##synchron": 4817,
      "##target": 4818,
      "##templat": 4819,
      "##tenabl": 4820,
      "##terminat": 4821,
      "##tether": 4822,
      "##told": 4823,
      "##touch": 4824,
      "##toward": 4825,
      "##track": 4826,
      "##train": 4827,
      "##transcrib": 4828,
      "##translat": 4829,
      "##treat": 4830,
      "##truth": 4831,
      "##twin": 4832,
      "##typic": 4833,
      "##usab": 4834,
      "##use": 4835,
      "##usual": 4836,
      "##vary": 4837,
      "##worth": 4838,
      "##front": 4839,
      "##wrap": 4840,
      "##willing": 4841,
      "##verif": 4842,
      "##visit": 4843,
      "##want": 4844
    }
  }
}