{
  "version": "1.0",
  "truncation": null,
  "padding": null,
  "added_tokens": [
    {
      "id": 0,
      "content": "[PAD]",
      "single_word": false,
      "lstrip": false,
      "rstrip": false,
      "normalized": false,
      "special": true
    },
    {
      "id": 1,
      "content": "[UNK]",
      "single_word": false,
      "lstrip": false,
      "rstrip": false,
      "normalized": false,
      "special": true
    },
    {
      "id": 2,
      "content": "[CLS]",
      "single_word": false,
      "lstrip": false,
      "rstrip": false,
      "normalized": false,
      "special": true
    },
    {
      "id": 3,
      "content": "[SEP]",
      "single_word": false,
      "lstrip": false,
      "rstrip": false,
      "normalized": false,
      "special": true
    },
    {
      "id": 4,
      "content": "[MASK]",
      "single_word": false,
      "lstrip": false,
      "rstrip": false,
      "normalized": false,
      "special": true
    }
  ],
  "normalizer": {
    "type": "Sequence",
    "normalizers": [
      {
        "type": "Lowercase"
      }
    ]
  },
  "pre_tokenizer": {
    "type": "Whitespace"
  },
  "post_processor": null,
  "decoder": null,
  "model": {
    "type": "WordPiece",
    "unk_token": "[UNK]",
    "continuing_subword_prefix": "##",
    "max_input_chars_per_word": 100,
    "vocab": {
      "[PAD]": 0,
      "[UNK]": 1,
      "[CLS]": 2,
      "[SEP]": 3,
      "[MASK]": 4,
      "#": 5,
      "&": 6,
      "'": 7,
      "+": 8,
      "-": 9,
      ".": 10,
      "0": 11,
      "1": 12,
      "2": 13,
      "3": 14,
      "4": 15,
      "5": 16,
      "6": 17,
      "7": 18,
      "8": 19,
      "9": 20,
      "_": 21,
      "a": 22,
      "b": 23,
      "c": 24,
      "d": 25,
      "e": 26,
      "f": 27,
      "g": 28,
      "h": 29,
      "i": 30,
      "j": 31,
      "k": 32,
      "l": 33,
      "m": 34,
      "n": 35,
      "o": 36,
      "p": 37,
      "q": 38,
      "r": 39,
      "s": 40,
      "t": 41,
      "u": 42,
      "v": 43,
      "w": 44,
      "x": 45,
      "y": 46,
      "z": 47,
      "##o": 48,
      "##l": 49,
      "##a": 50,
      "##b": 51,
      "##e": 52,
      "##s": 53,
      "##u": 54,
      "##m": 55,
      "##i": 56,
      "##t": 57,
      "##j": 58,
      "##n": 59,
      "##d": 60,
      "##r": 61,
      "##c": 62,
      "##p": 63,
      "##h": 64,
      "##g": 65,
      "##y": 66,
      "##f": 67,
      "##z": 68,
      "##x": 69,
      "##v": 70,
      "##9": 71,
      "##2": 72,
      "##0": 73,
      "##1": 74,
      "##k": 75,
      "##w": 76,
      "##q": 77,
      "##6": 78,
      "##8": 79,
      "##_": 80,
      "##3": 81,
      "##5": 82,
      "##4": 83,
      "##7": 84,
      "##+": 85,
      "##in": 86,
      "##ed": 87,
      "##er": 88,
      "##es": 89,
      "##on": 90,
      "##at": 91,
      "##ing": 92,
      "##en": 93,
      "##ti": 94,
      "##al": 95,
      "##or": 96,
      "##ar": 97,
      "##an": 98,
      "re": 99,
      "##le": 100,
      "##is": 101,
      "##ly": 102,
      "##it": 103,
      "in": 104,
      "##ion": 105,
      "##re": 106,
      "##ic": 107,
      "##ro": 108,
      "##ent": 109,
      "##as": 110,
      "##ab": 111,
      "##ation": 112,
      "##ec": 113,
      "##ac": 114,
      "un": 115,
      "##om": 116,
      "##ul": 117,
      "##ou": 118,
      "##el": 119,
      "##tr": 120,
      "con": 121,
      "##ess": 122,
      "##il": 123,
      "##ter": 124,
      "##ig": 125,
      "##tion": 126,
      "##ol": 127,
      "##iv": 128,
      "##iz": 129,
      "##ers": 130,
      "##ut": 131,
      "##ur": 132,
      "##am": 133,
      "##ad": 134,
      "##able": 135,
      "##et": 136,
      "##id": 137,
      "##us": 138,
      "##ce": 139,
      "##em": 140,
      "##ate": 141,
      "##ch": 142,
      "##pl": 143,
      "##ity": 144,
      "su": 145,
      "##ag": 146,
      "##ted": 147,
      "dis": 148,
      "ex": 149,
      "de": 150,
      "##ver": 151,
      "pro": 152,
      "##os": 153,
      "##ap": 154,
      "##ow": 155,
      "##ts": 156,
      "com": 157,
      "en": 158,
      "##ated": 159,
      "##if": 160,
      "##im": 161,
      "st": 162,
      "##ting": 163,
      "##od": 164,
      "##un": 165,
      "tr": 166,
      "##oc": 167,
      "##ain": 168,
      "##ally": 169,
      "##end": 170,
      "##ment": 171,
      "##op": 172,
      "##uc": 173,
      "##ot": 174,
      "##est": 175,
      "sp": 176,
      "##qu": 177,
      "##ir": 178,
      "##ib": 179,
      "##ve": 180,
      "##ates": 181,
      "##st": 182,
      "##ive": 183,
      "##ip": 184,
      "##igh": 185,
      "##ay": 186,
      "res": 187,
      "##ff": 188,
      "##ous": 189,
      "##ating": 190,
      "##tic": 191,
      "pre": 192,
      "##og": 193,
      "##orm": 194,
      "comp": 195,
      "im": 196,
      "##ens": 197,
      "rec": 198,
      "th": 199,
      "sub": 200,
      "ch": 201,
      "ac": 202,
      "##um": 203,
      "##ations": 204,
      "##and": 205,
      "pr": 206,
      "an": 207,
      "##ack": 208,
      "##pp": 209,
      "ad": 210,
      "##oun": 211,
      "mul": 212,
      "##per": 213,
      "we": 214,
      "##aliz": 215,
      "##ies": 216,
      "sh": 217,
      "##ard": 218,
      "inter": 219,
      "as": 220,
      "non": 221,
      "over": 222,
      "multi": 223,
      "##iti": 224,
      "##av": 225,
      "##ased": 226,
      "##led": 227,
      "##ak": 228,
      "##ine": 229,
      "##ans": 230,
      "cl": 231,
      "al": 232,
      "##ex": 233,
      "##th": 234,
      "##ew": 235,
      "##ud": 236,
      "##gr": 237,
      "##up": 238,
      "##ell": 239,
      "##ang": 240,
      "##ass": 241,
      "##our": 242,
      "sc": 243,
      "up": 244,
      "dec": 245,
      "##ful": 246,
      "se": 247,
      "##ors": 248,
      "##tions": 249,
      "based": 250,
      "##der": 251,
      "##ant": 252,
      "qu": 253,
      "##ility": 254,
      "co": 255,
      "##ign": 256,
      "rep": 257,
      "##ness": 258,
      "##ok": 259,
      "##ance": 260,
      "##ect": 261,
      "trans": 262,
      "##enc": 263,
      "imp": 264,
      "aut": 265,
      "##yp": 266,
      "##cl": 267,
      "##form": 268,
      "##tive": 269,
      "ar": 270,
      "par": 271,
      "##ence": 272,
      "cons": 273,
      "web": 274,
      "le": 275,
      "ind": 276,
      "em": 277,
      "##ish": 278,
      "des": 279,
      "fl": 280,
      "out": 281,
      "##ind": 282,
      "##lec": 283,
      "##ied": 284,
      "ins": 285,
      "for": 286,
      "ob": 287,
      "or": 288,
      "##all": 289,
      "##ure": 290,
      "per": 291,
      "##con": 292,
      "##age": 293,
      "pl": 294,
      "##com": 295,
      "##ork": 296,
      "##anc": 297,
      "##ach": 298,
      "str": 299,
      "app": 300,
      "##cr": 301,
      "##fer": 302,
      "gr": 303,
      "##tim": 304,
      "ab": 305,
      "mis": 306,
      "##ative": 307,
      "rel": 308,
      "##rec": 309,
      "cont": 310,
      "##ock": 311,
      "##ight": 312,
      "##ized": 313,
      "##her": 314,
      "##ep": 315,
      "inv": 316,
      "##ability": 317,
      "##act": 318,
      "ass": 319,
      "##oin": 320,
      "##cess": 321,
      "##ill": 322,
      "##enti": 323,
      "dr": 324,
      "on": 325,
      "##ist": 326,
      "it": 327,
      "##ub": 328,
      "##ial": 329,
      "##duc": 330,
      "##row": 331,
      "##ear": 332,
      "##ug": 333,
      "##erv": 334,
      "int": 335,
      "exp": 336,
      "at": 337,
      "mod": 338,
      "##ail": 339,
      "cr": 340,
      "##own": 341,
      "col": 342,
      "##bo": 343,
      "##ient": 344,
      "##ound": 345,
      "inf": 346,
      "comm": 347,
      "fr": 348,
      "sy": 349,
      "##app": 350,
      "bl": 351,
      "##ort": 352,
      "op": 353,
      "##se": 354,
      "##ings": 355,
      "##ically": 356,
      "def": 357,
      "##vers": 358,
      "##tiv": 359,
      "dev": 360,
      "##ator": 361,
      "spec": 362,
      "##iew": 363,
      "##ord": 364,
      "##ast": 365,
      "##ably": 366,
      "##ame": 367,
      "ne": 368,
      "##ll": 369,
      "##tif": 370,
      "##ary": 371,
      "##ite": 372,
      "##truc": 373,
      "##ize": 374,
      "##ific": 375,
      "##less": 376,
      "##ious": 377,
      "##ons": 378,
      "##atch": 379,
      "conf": 380,
      "ai": 381,
      "dat": 382,
      "##oad": 383,
      "ref": 384,
      "##ash": 385,
      "am": 386,
      "##are": 387,
      "be": 388,
      "red": 389,
      "##ress": 390,
      "##ink": 391,
      "##ular": 392,
      "cor": 393,
      "##les": 394,
      "##ech": 395,
      "##ust": 396,
      "##aw": 397,
      "##ise": 398,
      "##ement": 399,
      "##plic": 400,
      "he": 401,
      "sl": 402,
      "##ition": 403,
      "wh": 404,
      "##min": 405,
      "##pos": 406,
      "##ying": 407,
      "##ark": 408,
      "reg": 409,
      "##ice": 410,
      "##ical": 411,
      "##ling": 412,
      "##ie": 413,
      "##ros": 414,
      "und": 415,
      "##ide": 416,
      "##art": 417,
      "dep": 418,
      "##und": 419,
      "acc": 420,
      "##ext": 421,
      "man": 422,
      "tim": 423,
      "##ue": 424,
      "##als": 425,
      "rem": 426,
      "##out": 427,
      "##cep": 428,
      "bo": 429,
      "ev": 430,
      "high": 431,
      "##ix": 432,
      "##elf": 433,
      "##unc": 434,
      "off": 435,
      "us": 436,
      "##ile": 437,
      "##ong": 438,
      "##ree": 439,
      "##ick": 440,
      "##ace": 441,
      "ag": 442,
      "##ob": 443,
      "##ari": 444,
      "uns": 445,
      "to": 446,
      "##jec": 447,
      "##ities": 448,
      "ap": 449,
      "##ments": 450,
      "##ible": 451,
      "di": 452,
      "mic": 453,
      "##of": 454,
      "##sc": 455,
      "##eness": 456,
      "##ull": 457,
      "##olog": 458,
      "att": 459,
      "br": 460,
      "##res": 461,
      "##ore": 462,
      "##ions": 463,
      "##ode": 464,
      "all": 465,
      "work": 466,
      "##ov": 467,
      "##ward": 468,
      "##ener": 469,
      "rev": 470,
      "##ters": 471,
      "##ization": 472,
      "back": 473,
      "te": 474,
      "##ited": 475,
      "##ase": 476,
      "sm": 477,
      "sw": 478,
      "##one": 479,
      "##ality": 480,
      "##its": 481,
      "##read": 482,
      "under": 483,
      "##emb": 484,
      "disc": 485,
      "del": 486,
      "me": 487,
      "min": 488,
      "self": 489,
      "##tu": 490,
      "##pro": 491,
      "##ered": 492,
      "##arg": 493,
      "##ently": 494,
      "##ets": 495,
      "##aph": 496,
      "ke": 497,
      "ph": 498,
      "##tur": 499,
      "##ning": 500,
      "el": 501,
      "##te": 502,
      "##tain": 503,
      "##ph": 504,
      "##trac": 505,
      "form": 506,
      "pos": 507,
      "##oy": 508,
      "##over": 509,
      "##ple": 510,
      "##ering": 511,
      "##ade": 512,
      "##mis": 513,
      "##par": 514,
      "hand": 515,
      "##ath": 516,
      "##ome": 517,
      "##old": 518,
      "##ified": 519,
      "##oint": 520,
      "equ": 521,
      "##ution": 522,
      "##ty": 523,
      "##pr": 524,
      "##ory": 525,
      "inc": 526,
      "##ational": 527,
      "##izes": 528,
      "##urr": 529,
      "##amm": 530,
      "subs": 531,
      "dem": 532,
      "tech": 533,
      "##af": 534,
      "##ble": 535,
      "##eck": 536,
      "##ify": 537,
      "##ake": 538,
      "aff": 539,
      "down": 540,
      "fin": 541,
      "##low": 542,
      "##mm": 543,
      "##ern": 544,
      "end": 545,
      "##alized": 546,
      "dif": 547,
      "fe": 548,
      "id": 549,
      "##pec": 550,
      "##ged": 551,
      "##ys": 552,
      "##inc": 553,
      "##ere": 554,
      "##ond": 555,
      "##ingly": 556,
      "##ream": 557,
      "unf": 558,
      "##izing": 559,
      "##fully": 560,
      "aw": 561,
      "gener": 562,
      "text": 563,
      "##sh": 564,
      "##ron": 565,
      "##ined": 566,
      "##ines": 567,
      "##ators": 568,
      "inst": 569,
      "contr": 570,
      "expl": 571,
      "div": 572,
      "er": 573,
      "net": 574,
      "pers": 575,
      "sur": 576,
      "##ik": 577,
      "##ped": 578,
      "##ge": 579,
      "##ank": 580,
      "##istic": 581,
      "##tric": 582,
      "conc": 583,
      "eng": 584,
      "##ously": 585,
      "##alize": 586,
      "##ency": 587,
      "##ross": 588,
      "sk": 589,
      "tw": 590,
      "ter": 591,
      "typ": 592,
      "vis": 593,
      "##ire": 594,
      "##ten": 595,
      "##nec": 596,
      "##rit": 597,
      "##ents": 598,
      "##elop": 599,
      "produc": 600,
      "syn": 601,
      "micro": 602,
      "sim": 603,
      "top": 604,
      "val": 605,
      "##ook": 606,
      "##line": 607,
      "##air": 608,
      "##ual": 609,
      "##uil": 610,
      "##view": 611,
      "##arm": 612,
      "conv": 613,
      "##olv": 614,
      "##ched": 615,
      "go": 616,
      "gl": 617,
      "log": 618,
      "no": 619,
      "##load": 620,
      "##ef": 621,
      "rein": 622,
      "##ute": 623,
      "supp": 624,
      "super": 625,
      "progr": 626,
      "pres": 627,
      "driv": 628,
      "cap": 629,
      "loc": 630,
      "oc": 631,
      "sec": 632,
      "##ax": 633,
      "##now": 634,
      "##ges": 635,
      "##ith": 636,
      "##reg": 637,
      "##ics": 638,
      "unm": 639,
      "##ures": 640,
      "enc": 641,
      "##ained": 642,
      "##ending": 643,
      "##ays": 644,
      "##crib": 645,
      "specific": 646,
      "ge": 647,
      "well": 648,
      "##ram": 649,
      "##ened": 650,
      "##ult": 651,
      "##tional": 652,
      "diss": 653,
      "##ends": 654,
      "pred": 655,
      "ann": 656,
      "emb": 657,
      "design": 658,
      "orient": 659,
      "##ances": 660,
      "##crip": 661,
      "ver": 662,
      "##ool": 663,
      "##ues": 664,
      "##work": 665,
      "##iness": 666,
      "##atter": 667,
      "##arr": 668,
      "read": 669,
      "##ised": 670,
      "##iter": 671,
      "##ret": 672,
      "##ives": 673,
      "##ured": 674,
      "##used": 675,
      "prov": 676,
      "##aps": 677,
      "##ension": 678,
      "check": 679,
      "coll": 680,
      "develop": 681,
      "cy": 682,
      "coun": 683,
      "cross": 684,
      "full": 685,
      "hy": 686,
      "pur": 687,
      "serv": 688,
      "##ued": 689,
      "##ier": 690,
      "##tor": 691,
      "##ject": 692,
      "##ced": 693,
      "##por": 694,
      "##gan": 695,
      "##yn": 696,
      "##ored": 697,
      "##arn": 698,
      "##roll": 699,
      "##ask": 700,
      "##ost": 701,
      "anal": 702,
      "##comp": 703,
      "##miss": 704,
      "by": 705,
      "cal": 706,
      "dig": 707,
      "det": 708,
      "gu": 709,
      "low": 710,
      "ser": 711,
      "##mit": 712,
      "##rup": 713,
      "##vel": 714,
      "##ware": 715,
      "##int": 716,
      "##tit": 717,
      "##ases": 718,
      "##oug": 719,
      "##eld": 720,
      "##trib": 721,
      "##ately": 722,
      "summ": 723,
      "##ages": 724,
      "##ose": 725,
      "##ended": 726,
      "##oth": 727,
      "auth": 728,
      "obs": 729,
      "time": 730,
      "direc": 731,
      "bre": 732,
      "sol": 733,
      "win": 734,
      "##ior": 735,
      "##ging": 736,
      "##ql": 737,
      "##ater": 738,
      "##ale": 739,
      "reb": 740,
      "##lement": 741,
      "unb": 742,
      "prof": 743,
      "resp": 744,
      "##ffic": 745,
      "char": 746,
      "##alization": 747,
      "##ude": 748,
      "##ange": 749,
      "##ences": 750,
      "appro": 751,
      "##book": 752,
      "open": 753,
      "data": 754,
      "##iev": 755,
      "user": 756,
      "hyper": 757,
      "##ough": 758,
      "cle": 759,
      "cod": 760,
      "fir": 761,
      "jav": 762,
      "py": 763,
      "sign": 764,
      "tem": 765,
      "wor": 766,
      "##ave": 767,
      "##ee": 768,
      "##for": 769,
      "##inu": 770,
      "##edi": 771,
      "ret": 772,
      "##iting": 773,
      "unp": 774,
      "##ulated": 775,
      "##ided": 776,
      "##uses": 777,
      "##ploy": 778,
      "spe": 779,
      "##stem": 780,
      "##ively": 781,
      "recom": 782,
      "acqu": 783,
      "##itive": 784,
      "repro": 785,
      "autom": 786,
      "level": 787,
      "##ished": 788,
      "##lect": 789,
      "abs": 790,
      "##ugh": 791,
      "neg": 792,
      "code": 793,
      "mon": 794,
      "mem": 795,
      "overs": 796,
      "pow": 797,
      "pop": 798,
      "pass": 799,
      "view": 800,
      "##pt": 801,
      "##oring": 802,
      "##ision": 803,
      "##rop": 804,
      "##olution": 805,
      "##ustr": 806,
      "process": 807,
      "##umer": 808,
      "add": 809,
      "##tively": 810,
      "head": 811,
      "driven": 812,
      "do": 813,
      "js": 814,
      "line": 815,
      "mo": 816,
      "of": 817,
      "oper": 818,
      "sing": 819,
      "sof": 820,
      "##ument": 821,
      "##me": 822,
      "##ms": 823,
      "##ned": 824,
      "##ping": 825,
      "##put": 826,
      "##ening": 827,
      "##ared": 828,
      "##ict": 829,
      "unw": 830,
      "##omin": 831,
      "##tered": 832,
      "##ifies": 833,
      "the": 834,
      "adv": 835,
      "class": 836,
      "scr": 837,
      "one": 838,
      "##unction": 839,
      "team": 840,
      "key": 841,
      "differ": 842,
      "bro": 843,
      "dim": 844,
      "es": 845,
      "ir": 846,
      "not": 847,
      "po": 848,
      "ren": 849,
      "##ots": 850,
      "##aling": 851,
      "requ": 852,
      "##reh": 853,
      "##entr": 854,
      "##ables": 855,
      "unc": 856,
      "##ulate": 857,
      "##els": 858,
      "##eless": 859,
      "##ides": 860,
      "ste": 861,
      "stand": 862,
      "##alizes": 863,
      "##alizing": 864,
      "##aking": 865,
      "organ": 866,
      "play": 867,
      "##time": 868,
      "##here": 869,
      "cre": 870,
      "cur": 871,
      "fact": 872,
      "hard": 873,
      "is": 874,
      "ill": 875,
      "mark": 876,
      "new": 877,
      "rest": 878,
      "vari": 879,
      "wr": 880,
      "##uff": 881,
      "##ner": 882,
      "##net": 883,
      "##ery": 884,
      "##ene": 885,
      "##eng": 886,
      "##alk": 887,
      "##anti": 888,
      "rele": 889,
      "##lex": 890,
      "##rel": 891,
      "##ices": 892,
      "##ented": 893,
      "##ouch": 894,
      "##ived": 895,
      "##uted": 896,
      "##ampl": 897,
      "exper": 898,
      "prot": 899,
      "##ains": 900,
      "##ired": 901,
      "##ibly": 902,
      "##tically": 903,
      "##elling": 904,
      "ups": 905,
      "seg": 906,
      "##cont": 907,
      "##ubl": 908,
      "##rows": 909,
      "##iously": 910,
      "techn": 911,
      "occ": 912,
      "av": 913,
      "buil": 914,
      "dou": 915,
      "fre": 916,
      "free": 917,
      "long": 918,
      "##ood": 919,
      "##ely": 920,
      "##itions": 921,
      "##raph": 922,
      "##ining": 923,
      "##atic": 924,
      "##ars": 925,
      "##arch": 926,
      "inn": 927,
      "incon": 928,
      "##rol": 929,
      "##asing": 930,
      "##uring": 931,
      "##idd": 932,
      "##use": 933,
      "##ush": 934,
      "dist": 935,
      "disp": 936,
      "compl": 937,
      "##ifying": 938,
      "##aining": 939,
      "##ender": 940,
      "##ibility": 941,
      "thread": 942,
      "prac": 943,
      "decom": 944,
      "arch": 945,
      "##atively": 946,
      "related": 947,
      "##board": 948,
      "infl": 949,
      "##ification": 950,
      "##process": 951,
      "err": 952,
      "programm": 953,
      "oriented": 954,
      "aud": 955,
      "fac": 956,
      "gro": 957,
      "met": 958,
      "mind": 959,
      "sem": 960,
      "sens": 961,
      "##ber": 962,
      "##down": 963,
      "##ring": 964,
      "##hip": 965,
      "##flow": 966,
      "##ony": 967,
      "##ones": 968,
      "##ention": 969,
      "##ising": 970,
      "initi": 971,
      "##aster": 972,
      "unl": 973,
      "##ulation": 974,
      "##oud": 975,
      "##tern": 976,
      "##termin": 977,
      "##iving": 978,
      "##erst": 979,
      "##amp": 980,
      "##ider": 981,
      "##agn": 982,
      "ext": 983,
      "exc": 984,
      "ent": 985,
      "entr": 986,
      "and": 987,
      "##acks": 988,
      "short": 989,
      "decl": 990,
      "##ector": 991,
      "auto": 992,
      "optim": 993,
      "##truct": 994,
      "##ustom": 995,
      "manag": 996,
      "++": 997,
      "cir": 998,
      "ded": 999,
      "elec": 1000,
      "lab": 1001,
      "lay": 1002,
      "mor": 1003,
      "ro": 1004,
      "sat": 1005,
      "set": 1006,
      "##aim": 1007,
      "##aun": 1008,
      "##sp": 1009,
      "##ially": 1010,
      "##ience": 1011,
      "##ns": 1012,
      "##he": 1013,
      "##ont": 1014,
      "##ature": 1015,
      "##ties": 1016,
      "##arity": 1017,
      "##ists": 1018,
      "inform": 1019,
      "##abl": 1020,
      "##aces": 1021,
      "##ulates": 1022,
      "##ulating": 1023,
      "##iles": 1024,
      "##tering": 1025,
      "deep": 1026,
      "env": 1027,
      "##imin": 1028,
      "interp": 1029,
      "##clus": 1030,
      "##ential": 1031,
      "##rowd": 1032,
      "inte": 1033,
      "##ails": 1034,
      "##box": 1035,
      "system": 1036,
      "beh": 1037,
      "engine": 1038,
      "bit": 1039,
      "cop": 1040,
      "custom": 1041,
      "ed": 1042,
      "eff": 1043,
      "lif": 1044,
      "opp": 1045,
      "pe": 1046,
      "sch": 1047,
      "##oop": 1048,
      "##ld": 1049,
      "##az": 1050,
      "##br": 1051,
      "##ually": 1052,
      "##io": 1053,
      "##iable": 1054,
      "##tly": 1055,
      "##ger": 1056,
      "##gor": 1057,
      "##val": 1058,
      "##tig": 1059,
      "retr": 1060,
      "repl": 1061,
      "##itch": 1062,
      "intr": 1063,
      "##acy": 1064,
      "cond": 1065,
      "##ession": 1066,
      "##ili": 1067,
      "##iding": 1068,
      "extr": 1069,
      "##uck": 1070,
      "##ips": 1071,
      "imm": 1072,
      "recon": 1073,
      "##ours": 1074,
      "##antly": 1075,
      "arr": 1076,
      "order": 1077,
      "##anced": 1078,
      "commun": 1079,
      "##tific": 1080,
      "##ements": 1081,
      "##plication": 1082,
      "##nowled": 1083,
      "first": 1084,
      "single": 1085,
      "circ": 1086,
      "bus": 1087,
      "ca": 1088,
      "crowd": 1089,
      "doc": 1090,
      "hash": 1091,
      "ll": 1092,
      "lib": 1093,
      "load": 1094,
      "lik": 1095,
      "mut": 1096,
      "main": 1097,
      "ow": 1098,
      "publ": 1099,
      "run": 1100,
      "so": 1101,
      "sus": 1102,
      "sql": 1103,
      "tre": 1104,
      "test": 1105,
      "ur": 1106,
      "vo": 1107,
      "##aid": 1108,
      "##ek": 1109,
      "##uter": 1110,
      "##ml": 1111,
      "##mark": 1112,
      "##ily": 1113,
      "##table": 1114,
      "##dd": 1115,
      "##dr": 1116,
      "##20": 1117,
      "##ins": 1118,
      "##ats": 1119,
      "##enu": 1120,
      "##aled": 1121,
      "##orted": 1122,
      "##arning": 1123,
      "##leg": 1124,
      "##istr": 1125,
      "##ites": 1126,
      "##roid": 1127,
      "##abil": 1128,
      "##essed": 1129,
      "##igur": 1130,
      "##urs": 1131,
      "##urn": 1132,
      "##eting": 1133,
      "##chron": 1134,
      "##osed": 1135,
      "sty": 1136,
      "start": 1137,
      "stream": 1138,
      "##ote": 1139,
      "##tical": 1140,
      "##ograph": 1141,
      "##ense": 1142,
      "##umb": 1143,
      "ang": 1144,
      "sequ": 1145,
      "partic": 1146,
      "struc": 1147,
      "grad": 1148,
      "##tivity": 1149,
      "##ception": 1150,
      "##ology": 1151,
      "##cript": 1152,
      "soft": 1153,
      "poly": 1154,
      "integr": 1155,
      "call": 1156,
      "der": 1157,
      "den": 1158,
      "ever": 1159,
      "fast": 1160,
      "harm": 1161,
      "mer": 1162,
      "mat": 1163,
      "tes": 1164,
      "vol": 1165,
      "##equ": 1166,
      "##iqu": 1167,
      "##irec": 1168,
      "##de": 1169,
      "##we": 1170,
      "##atically": 1171,
      "##order": 1172,
      "##ants": 1173,
      "##let": 1174,
      "##ection": 1175,
      "##ected": 1176,
      "##aced": 1177,
      "unt": 1178,
      "connec": 1179,
      "##essing": 1180,
      "##iled": 1181,
      "##illed": 1182,
      "##izer": 1183,
      "##using": 1184,
      "suc": 1185,
      "sup": 1186,
      "##aged": 1187,
      "disapp": 1188,
      "distrib": 1189,
      "prom": 1190,
      "##ows": 1191,
      "##iment": 1192,
      "##oci": 1193,
      "##ipped": 1194,
      "##tics": 1195,
      "che": 1196,
      "adj": 1197,
      "adap": 1198,
      "shar": 1199,
      "overl": 1200,
      "##thon": 1201,
      "##udes": 1202,
      "##ups": 1203,
      "##angu": 1204,
      "##ource": 1205,
      "separ": 1206,
      "##igned": 1207,
      "##enced": 1208,
      "##ypt": 1209,
      "leg": 1210,
      "##ishing": 1211,
      "obl": 1212,
      "objec": 1213,
      "##comm": 1214,
      "fram": 1215,
      "block": 1216,
      "micros": 1217,
      "minim": 1218,
      "##ensional": 1219,
      "analy": 1220,
      "java": 1221,
      "ben": 1222,
      "bel": 1223,
      "ful": 1224,
      "foc": 1225,
      "found": 1226,
      "link": 1227,
      "langu": 1228,
      "max": 1229,
      "ple": 1230,
      "sn": 1231,
      "spl": 1232,
      "tun": 1233,
      "use": 1234,
      "vers": 1235,
      "vector": 1236,
      "wind": 1237,
      "##utr": 1238,
      "##ield": 1239,
      "##js": 1240,
      "##red": 1241,
      "##cing": 1242,
      "##pir": 1243,
      "##writ": 1244,
      "##til": 1245,
      "##alled": 1246,
      "reac": 1247,
      "##lev": 1248,
      "##isf": 1249,
      "##itable": 1250,
      "##itting": 1251,
      "unin": 1252,
      "##eled": 1253,
      "##eling": 1254,
      "conce": 1255,
      "conver": 1256,
      "##iling": 1257,
      "##iver": 1258,
      "##utes": 1259,
      "##uting": 1260,
      "##ceed": 1261,
      "##aging": 1262,
      "deb": 1263,
      "##oss": 1264,
      "enter": 1265,
      "tri": 1266,
      "##ainer": 1267,
      "##aying": 1268,
      "access": 1269,
      "##acking": 1270,
      "##ework": 1271,
      "que": 1272,
      "transl": 1273,
      "##encies": 1274,
      "art": 1275,
      "parame": 1276,
      "forward": 1277,
      "##aching": 1278,
      "##illing": 1279,
      "express": 1280,
      "##apped": 1281,
      "##tify": 1282,
      "beg": 1283,
      "##pose": 1284,
      "underst": 1285,
      "depend": 1286,
      "smart": 1287,
      "diff": 1288,
      "goog": 1289,
      "service": 1290,
      "digit": 1291,
      "observ": 1292,
      "break": 1293,
      "charac": 1294,
      "##ought": 1295,
      "##ength": 1296,
      "android": 1297,
      "af": 1298,
      "cer": 1299,
      "car": 1300,
      "fa": 1301,
      "fol": 1302,
      "fav": 1303,
      "fix": 1304,
      "gre": 1305,
      "gam": 1306,
      "ip": 1307,
      "kn": 1308,
      "look": 1309,
      "pol": 1310,
      "rub": 1311,
      "ul": 1312,
      "vir": 1313,
      "##oted": 1314,
      "##oting": 1315,
      "##off": 1316,
      "##back": 1317,
      "##tle": 1318,
      "##ners": 1319,
      "##pag": 1320,
      "##hib": 1321,
      "##64": 1322,
      "##ination": 1323,
      "##ane": 1324,
      "real": 1325,
      "reass": 1326,
      "reform": 1327,
      "##isted": 1328,
      "##ich": 1329,
      "##asting": 1330,
      "##abor": 1331,
      "##ecting": 1332,
      "##eler": 1333,
      "convers": 1334,
      "##aded": 1335,
      "##ety": 1336,
      "##ident": 1337,
      "##empl": 1338,
      "exec": 1339,
      "##owed": 1340,
      "enl": 1341,
      "stud": 1342,
      "##ops": 1343,
      "##oper": 1344,
      "##ights": 1345,
      "##ighting": 1346,
      "##ayed": 1347,
      "prec": 1348,
      "prev": 1349,
      "##ogn": 1350,
      "##ump": 1351,
      "##ands": 1352,
      "admin": 1353,
      "##itiz": 1354,
      "cloud": 1355,
      "##oken": 1356,
      "transform": 1357,
      "impro": 1358,
      "index": 1359,
      "##ishes": 1360,
      "outl": 1361,
      "forg": 1362,
      "perm": 1363,
      "perform": 1364,
      "##ached": 1365,
      "##ocked": 1366,
      "##oints": 1367,
      "##ills": 1368,
      "draw": 1369,
      "crypt": 1370,
      "##apping": 1371,
      "##atching": 1372,
      "##arily": 1373,
      "post": 1374,
      "incre": 1375,
      "termin": 1376,
      "product": 1377,
      "valid": 1378,
      "speed": 1379,
      "power": 1380,
      "character": 1381,
      "bi": 1382,
      "brows": 1383,
      "ce": 1384,
      "dest": 1385,
      "dial": 1386,
      "drop": 1387,
      "fail": 1388,
      "file": 1389,
      "function": 1390,
      "get": 1391,
      "ht": 1392,
      "hel": 1393,
      "hum": 1394,
      "hyp": 1395,
      "happ": 1396,
      "iter": 1397,
      "list": 1398,
      "mid": 1399,
      "mob": 1400,
      "norm": 1401,
      "rol": 1402,
      "rank": 1403,
      "sil": 1404,
      "squ": 1405,
      "task": 1406,
      "touch": 1407,
      "upl": 1408,
      "ve": 1409,
      "vi": 1410,
      "word": 1411,
      "writ": 1412,
      "where": 1413,
      "##oom": 1414,
      "##oid": 1415,
      "##aff": 1416,
      "##be": 1417,
      "##eti": 1418,
      "##eet": 1419,
      "##uit": 1420,
      "##uce": 1421,
      "##med": 1422,
      "##ian": 1423,
      "##iend": 1424,
      "##iest": 1425,
      "##pow": 1426,
      "##point": 1427,
      "##greg": 1428,
      "##ves": 1429,
      "##ven": 1430,
      "##edd": 1431,
      "##ert": 1432,
      "##erc": 1433,
      "##estim": 1434,
      "##tiz": 1435,
      "##alle": 1436,
      "##arly": 1437,
      "refer": 1438,
      "##ises": 1439,
      "##rough": 1440,
      "##asc": 1441,
      "##asted": 1442,
      "##ects": 1443,
      "##acing": 1444,
      "##action": 1445,
      "##elled": 1446,
      "congr": 1447,
      "##igu": 1448,
      "##ivers": 1449,
      "##ural": 1450,
      "##etch": 1451,
      "##charg": 1452,
      "##osing": 1453,
      "comb": 1454,
      "ens": 1455,
      "##unk": 1456,
      "trav": 1457,
      "##aint": 1458,
      "spr": 1459,
      "pret": 1460,
      "recr": 1461,
      "there": 1462,
      "any": 1463,
      "##acked": 1464,
      "intern": 1465,
      "asc": 1466,
      "##akes": 1467,
      "##uded": 1468,
      "scre": 1469,
      "decre": 1470,
      "quick": 1471,
      "repres": 1472,
      "lead": 1473,
      "outs": 1474,
      "plug": 1475,
      "##ancing": 1476,
      "##reci": 1477,
      "inves": 1478,
      "assemb": 1479,
      "##entif": 1480,
      "collec": 1481,
      "##tified": 1482,
      "##onstr": 1483,
      "##atched": 1484,
      "correc": 1485,
      "regular": 1486,
      "##cept": 1487,
      "##ological": 1488,
      "##resh": 1489,
      "discre": 1490,
      "##tracted": 1491,
      "network": 1492,
      "person": 1493,
      "type": 1494,
      "predic": 1495,
      "cyber": 1496,
      "counter": 1497,
      "calc": 1498,
      "author": 1499,
      "innov": 1500,
      "decomp": 1501,
      "behav": 1502,
      "susp": 1503,
      "ast": 1504,
      "bot": 1505,
      "best": 1506,
      "bound": 1507,
      "cul": 1508,
      "db": 1509,
      "du": 1510,
      "eas": 1511,
      "fil": 1512,
      "fund": 1513,
      "mv": 1514,
      "medi": 1515,
      "pay": 1516,
      "point": 1517,
      "tens": 1518,
      "take": 1519,
      "talk": 1520,
      "ut": 1521,
      "zer": 1522,
      "##utions": 1523,
      "##iers": 1524,
      "##tes": 1525,
      "##do": 1526,
      "##ces": 1527,
      "##gn": 1528,
      "##xim": 1529,
      "##word": 1530,
      "##atform": 1531,
      "##tice": 1532,
      "##ores": 1533,
      "##orts": 1534,
      "##aries": 1535,
      "##ann": 1536,
      "##isk": 1537,
      "##isting": 1538,
      "##itor": 1539,
      "##itation": 1540,
      "##round": 1541,
      "##enting": 1542,
      "##ason": 1543,
      "unre": 1544,
      "unex": 1545,
      "uncon": 1546,
      "##uld": 1547,
      "##ulations": 1548,
      "##ulator": 1549,
      "##outs": 1550,
      "conj": 1551,
      "##ival": 1552,
      "##uth": 1553,
      "##urity": 1554,
      "##ades": 1555,
      "##adic": 1556,
      "##usion": 1557,
      "##ems": 1558,
      "##emm": 1559,
      "suff": 1560,
      "enumer": 1561,
      "stat": 1562,
      "train": 1563,
      "##ird": 1564,
      "##ires": 1565,
      "##ibr": 1566,
      "resc": 1567,
      "pref": 1568,
      "compar": 1569,
      "computer": 1570,
      "imag": 1571,
      "image": 1572,
      "recons": 1573,
      "##anding": 1574,
      "adver": 1575,
      "##ount": 1576,
      "##ards": 1577,
      "clus": 1578,
      "qual": 1579,
      "arg": 1580,
      "paralle": 1581,
      "webs": 1582,
      "learn": 1583,
      "indic": 1584,
      "industr": 1585,
      "employ": 1586,
      "orig": 1587,
      "##ache": 1588,
      "graph": 1589,
      "continu": 1590,
      "##entially": 1591,
      "common": 1592,
      "sym": 1593,
      "confl": 1594,
      "core": 1595,
      "##posed": 1596,
      "##ief": 1597,
      "acceler": 1598,
      "tool": 1599,
      "diag": 1600,
      "ide": 1601,
      "install": 1602,
      "synth": 1603,
      "value": 1604,
      "development": 1605,
      "##mission": 1606,
      "respons": 1607,
      "##fficient": 1608,
      "motiv": 1609,
      "broad": 1610,
      "dimensional": 1611,
      "estim": 1612,
      "factor": 1613,
      "segment": 1614,
      "doub": 1615,
      "influ": 1616,
      "##onym": 1617,
      "electr": 1618,
      "business": 1619,
      "ach": 1620,
      "cent": 1621,
      "cate": 1622,
      "centr": 1623,
      "dil": 1624,
      "est": 1625,
      "educ": 1626,
      "esc": 1627,
      "fam": 1628,
      "func": 1629,
      "grow": 1630,
      "game": 1631,
      "hun": 1632,
      "hear": 1633,
      "lat": 1634,
      "live": 1635,
      "ms": 1636,
      "math": 1637,
      "master": 1638,
      "near": 1639,
      "null": 1640,
      "pen": 1641,
      "port": 1642,
      "rand": 1643,
      "side": 1644,
      "some": 1645,
      "tro": 1646,
      "tree": 1647,
      "vs": 1648,
      "wid": 1649,
      "##augh": 1650,
      "##by": 1651,
      "##sl": 1652,
      "##sed": 1653,
      "##set": 1654,
      "##iance": 1655,
      "##pu": 1656,
      "##hood": 1657,
      "##go": 1658,
      "##esh": 1659,
      "##onic": 1660,
      "##aten": 1661,
      "##atable": 1662,
      "##tible": 1663,
      "##alu": 1664,
      "##ales": 1665,
      "##lying": 1666,
      "ine": 1667,
      "incl": 1668,
      "infer": 1669,
      "##asts": 1670,
      "##try": 1671,
      "conn": 1672,
      "const": 1673,
      "##ild": 1674,
      "##oler": 1675,
      "##ivity": 1676,
      "##amb": 1677,
      "##ample": 1678,
      "##usted": 1679,
      "##emp": 1680,
      "determin": 1681,
      "propag": 1682,
      "##oses": 1683,
      "##osition": 1684,
      "enh": 1685,
      "##tingu": 1686,
      "##odes": 1687,
      "##oding": 1688,
      "##ocation": 1689,
      "##otyp": 1690,
      "##query": 1691,
      "##iring": 1692,
      "##ighb": 1693,
      "prefer": 1694,
      "comple": 1695,
      "##ensive": 1696,
      "recip": 1697,
      "thought": 1698,
      "subt": 1699,
      "activ": 1700,
      "anti": 1701,
      "adm": 1702,
      "show": 1703,
      "asp": 1704,
      "overr": 1705,
      "search": 1706,
      "quad": 1707,
      "##oke": 1708,
      "implement": 1709,
      "##class": 1710,
      "##claim": 1711,
      "construc": 1712,
      "destruc": 1713,
      "flow": 1714,
      "##connec": 1715,
      "platform": 1716,
      "##ancy": 1717,
      "##aches": 1718,
      "control": 1719,
      "##epend": 1720,
      "expon": 1721,
      "moder": 1722,
      "##ounded": 1723,
      "defin": 1724,
      "special": 1725,
      "##ordin": 1726,
      "neighb": 1727,
      "##lessly": 1728,
      "##atches": 1729,
      "configur": 1730,
      "##ashes": 1731,
      "amb": 1732,
      "redis": 1733,
      "##inking": 1734,
      "manip": 1735,
      "book": 1736,
      "##resp": 1737,
      "##wards": 1738,
      "mean": 1739,
      "##tured": 1740,
      "##pri": 1741,
      "##mme": 1742,
      "terr": 1743,
      "world": 1744,
      "memor": 1745,
      "build": 1746,
      "archit": 1747,
      "communic": 1748,
      "document": 1749,
      "angular": 1750,
      "oblig": 1751,
      "framework": 1752,
      "language": 1753,
      "maxim": 1754,
      "google": 1755,
      "follow": 1756,
      "ultr": 1757,
      "zero": 1758,
      "parallel": 1759,
      "aver": 1760,
      "bin": 1761,
      "big": 1762,
      "bet": 1763,
      "cut": 1764,
      "day": 1765,
      "dens": 1766,
      "dyn": 1767,
      "ep": 1768,
      "gen": 1769,
      "hon": 1770,
      "hor": 1771,
      "hom": 1772,
      "hop": 1773,
      "ie": 1774,
      "if": 1775,
      "ign": 1776,
      "jud": 1777,
      "knowled": 1778,
      "liv": 1779,
      "lim": 1780,
      "light": 1781,
      "law": 1782,
      "mach": 1783,
      "mail": 1784,
      "must": 1785,
      "magn": 1786,
      "nav": 1787,
      "numer": 1788,
      "pc": 1789,
      "pat": 1790,
      "pain": 1791,
      "pick": 1792,
      "patter": 1793,
      "sti": 1794,
      "saf": 1795,
      "tag": 1796,
      "token": 1797,
      "util": 1798,
      "wa": 1799,
      "wide": 1800,
      "with": 1801,
      "year": 1802,
      "##lass": 1803,
      "##list": 1804,
      "##bol": 1805,
      "##ever": 1806,
      "##uing": 1807,
      "##ule": 1808,
      "##uous": 1809,
      "##tin": 1810,
      "##ture": 1811,
      "##nam": 1812,
      "##db": 1813,
      "##day": 1814,
      "##pace": 1815,
      "##ycl": 1816,
      "##wise": 1817,
      "##32": 1818,
      "##inter": 1819,
      "##esc": 1820,
      "##ested": 1821,
      "##ests": 1822,
      "##onder": 1823,
      "##atives": 1824,
      "##alid": 1825,
      "##orn": 1826,
      "##orting": 1827,
      "rece": 1828,
      "reim": 1829,
      "react": 1830,
      "revers": 1831,
      "##iss": 1832,
      "##itted": 1833,
      "inver": 1834,
      "inqu": 1835,
      "##roduc": 1836,
      "##aby": 1837,
      "unst": 1838,
      "conve": 1839,
      "conduc": 1840,
      "##igr": 1841,
      "##izable": 1842,
      "##izations": 1843,
      "##utable": 1844,
      "##ading": 1845,
      "##eted": 1846,
      "##agement": 1847,
      "displ": 1848,
      "disag": 1849,
      "disrup": 1850,
      "discont": 1851,
      "pros": 1852,
      "##mented": 1853,
      "##que": 1854,
      "##stream": 1855,
      "##ighted": 1856,
      "prem": 1857,
      "compan": 1858,
      "compil": 1859,
      "compress": 1860,
      "compreh": 1861,
      "##enses": 1862,
      "record": 1863,
      "thr": 1864,
      "through": 1865,
      "subd": 1866,
      "chat": 1867,
      "##ums": 1868,
      "priv": 1869,
      "prim": 1870,
      "prior": 1871,
      "anim": 1872,
      "sho": 1873,
      "interac": 1874,
      "overcom": 1875,
      "##ther": 1876,
      "##ells": 1877,
      "##anging": 1878,
      "scale": 1879,
      "cover": 1880,
      "##encing": 1881,
      "autoc": 1882,
      "consult": 1883,
      "flo": 1884,
      "##inds": 1885,
      "##inding": 1886,
      "instruc": 1887,
      "##crimin": 1888,
      "assist": 1889,
      "##earch": 1890,
      "cri": 1891,
      "front": 1892,
      "friend": 1893,
      "need": 1894,
      "##inks": 1895,
      "##position": 1896,
      "accum": 1897,
      "evalu": 1898,
      "alloc": 1899,
      "revolution": 1900,
      "switch": 1901,
      "meas": 1902,
      "meet": 1903,
      "php": 1904,
      "##tures": 1905,
      "##plex": 1906,
      "demonstr": 1907,
      "downs": 1908,
      "identif": 1909,
      "persu": 1910,
      "##istically": 1911,
      "visu": 1912,
      "synchron": 1913,
      "##olved": 1914,
      "##chedul": 1915,
      "##ithm": 1916,
      "analog": 1917,
      "server": 1918,
      "##mitted": 1919,
      "clean": 1920,
      "##force": 1921,
      "recomm": 1922,
      "memory": 1923,
      "differenti": 1924,
      "double": 1925,
      "deduc": 1926,
      "satisf": 1927,
      "life": 1928,
      "schem": 1929,
      "software": 1930,
      "every": 1931,
      "matr": 1932,
      "success": 1933,
      "triang": 1934,
      "ruby": 1935,
      "administr": 1936,
      "viol": 1937,
      "represent": 1938,
      "investig": 1939,
      "mvc": 1940,
      "origin": 1941,
      "random": 1942,
      "dynam": 1943,
      "ax": 1944,
      "burn": 1945,
      "can": 1946,
      "dw": 1947,
      "dom": 1948,
      "dang": 1949,
      "dream": 1950,
      "domin": 1951,
      "eig": 1952,
      "fold": 1953,
      "fire": 1954,
      "gent": 1955,
      "hi": 1956,
      "how": 1957,
      "hous": 1958,
      "hold": 1959,
      "jus": 1960,
      "let": 1961,
      "lock": 1962,
      "liter": 1963,
      "loop": 1964,
      "length": 1965,
      "lemm": 1966,
      "ment": 1967,
      "mac": 1968,
      "mot": 1969,
      "mov": 1970,
      "made": 1971,
      "mater": 1972,
      "osc": 1973,
      "poin": 1974,
      "path": 1975,
      "rout": 1976,
      "risk": 1977,
      "sle": 1978,
      "sit": 1979,
      "sour": 1980,
      "site": 1981,
      "size": 1982,
      "toler": 1983,
      "upp": 1984,
      "walk": 1985,
      "##ooth": 1986,
      "##ls": 1987,
      "##aul": 1988,
      "##bs": 1989,
      "##bed": 1990,
      "##bing": 1991,
      "##ey": 1992,
      "##ss": 1993,
      "##uf": 1994,
      "##ux": 1995,
      "##man": 1996,
      "##mod": 1997,
      "##to": 1998,
      "##tp": 1999,
      "##nn": 2000,
      "##dk": 2001,
      "##port": 2002,
      "##gl": 2003,
      "##fort": 2004,
      "##ved": 2005,
      "##knowled": 2006,
      "##wh": 2007,
      "##_t": 2008,
      "##erg": 2009,
      "##erted": 2010,
      "##ertain": 2011,
      "##estion": 2012,
      "##entic": 2013,
      "##ares": 2014,
      "##aring": 2015,
      "rej": 2016,
      "##itude": 2017,
      "inex": 2018,
      "incom": 2019,
      "inher": 2020,
      "##iced": 2021,
      "##rog": 2022,
      "##abled": 2023,
      "##ecess": 2024,
      "##acity": 2025,
      "unit": 2026,
      "untr": 2027,
      "uncom": 2028,
      "##esses": 2029,
      "##ilities": 2030,
      "##olid": 2031,
      "##iveness": 2032,
      "##ether": 2033,
      "##plied": 2034,
      "discrimin": 2035,
      "exam": 2036,
      "##aper": 2037,
      "##ifier": 2038,
      "stop": 2039,
      "step": 2040,
      "##ody": 2041,
      "##oded": 2042,
      "##une": 2043,
      "try": 2044,
      "##otes": 2045,
      "spread": 2046,
      "##irm": 2047,
      "##ipping": 2048,
      "compon": 2049,
      "comput": 2050,
      "compet": 2051,
      "competi": 2052,
      "##ensively": 2053,
      "recogn": 2054,
      "thank": 2055,
      "chro": 2056,
      "acknowled": 2057,
      "##anded": 2058,
      "ans": 2059,
      "multic": 2060,
      "weight": 2061,
      "shr": 2062,
      "interf": 2063,
      "interch": 2064,
      "##aved": 2065,
      "##aves": 2066,
      "##aving": 2067,
      "##aken": 2068,
      "altern": 2069,
      "##anged": 2070,
      "scal": 2071,
      "upd": 2072,
      "decor": 2073,
      "selec": 2074,
      "quar": 2075,
      "quan": 2076,
      "repe": 2077,
      "transfer": 2078,
      "part": 2079,
      "parti": 2080,
      "learning": 2081,
      "induc": 2082,
      "emph": 2083,
      "desc": 2084,
      "desp": 2085,
      "object": 2086,
      "##alls": 2087,
      "##alling": 2088,
      "plan": 2089,
      "missp": 2090,
      "context": 2091,
      "container": 2092,
      "invalid": 2093,
      "associ": 2094,
      "only": 2095,
      "item": 2096,
      "##earing": 2097,
      "##erved": 2098,
      "intell": 2099,
      "model": 2100,
      "##ailed": 2101,
      "craw": 2102,
      "##ounds": 2103,
      "black": 2104,
      "##atory": 2105,
      "##tifies": 2106,
      "##tifying": 2107,
      "reflec": 2108,
      "refresh": 2109,
      "##ashed": 2110,
      "ampl": 2111,
      "amaz": 2112,
      "bef": 2113,
      "##ressed": 2114,
      "corresp": 2115,
      "##plicated": 2116,
      "who": 2117,
      "depth": 2118,
      "boot": 2119,
      "event": 2120,
      "aggr": 2121,
      "aggreg": 2122,
      "##jection": 2123,
      "review": 2124,
      "##tual": 2125,
      "poss": 2126,
      "feed": 2127,
      "feature": 2128,
      "awa": 2129,
      "contrib": 2130,
      "simpl": 2131,
      "##olves": 2132,
      "##olving": 2133,
      "glob": 2134,
      "##cribe": 2135,
      "##cribed": 2136,
      "collabor": 2137,
      "byte": 2138,
      "seri": 2139,
      "authentic": 2140,
      "direct": 2141,
      "approxim": 2142,
      "##books": 2143,
      "python": 2144,
      "templ": 2145,
      "popular": 2146,
      "linear": 2147,
      "standard": 2148,
      "illustr": 2149,
      "write": 2150,
      "##ampled": 2151,
      "##ampling": 2152,
      "occurr": 2153,
      "incons": 2154,
      "distinc": 2155,
      "programming": 2156,
      "group": 2157,
      "ground": 2158,
      "semi": 2159,
      "##tructure": 2160,
      "##aunch": 2161,
      "maintain": 2162,
      "public": 2163,
      "voice": 2164,
      "particip": 2165,
      "analyz": 2166,
      "benef": 2167,
      "fulf": 2168,
      "focused": 2169,
      "begin": 2170,
      "after": 2171,
      "help": 2172,
      "hypoth": 2173,
      "roll": 2174,
      "easy": 2175,
      "tensor": 2176,
      "categor": 2177,
      "vs20": 2178,
      "navig": 2179,
      "oscill": 2180,
      "correspond": 2181,
      "aug": 2182,
      "bas": 2183,
      "canc": 2184,
      "care": 2185,
      "date": 2186,
      "dock": 2187,
      "ec": 2188,
      "ell": 2189,
      "earn": 2190,
      "fo": 2191,
      "fat": 2192,
      "flex": 2193,
      "hes": 2194,
      "here": 2195,
      "know": 2196,
      "lo": 2197,
      "less": 2198,
      "lex": 2199,
      "mal": 2200,
      "mess": 2201,
      "mix": 2202,
      "memb": 2203,
      "next": 2204,
      "nov": 2205,
      "nomin": 2206,
      "odd": 2207,
      "outr": 2208,
      "pag": 2209,
      "pack": 2210,
      "page": 2211,
      "punc": 2212,
      "ra": 2213,
      "rer": 2214,
      "rot": 2215,
      "rob": 2216,
      "range": 2217,
      "sed": 2218,
      "sid": 2219,
      "stim": 2220,
      "schedul": 2221,
      "tot": 2222,
      "ui": 2223,
      "van": 2224,
      "warm": 2225,
      "you": 2226,
      "##oti": 2227,
      "##overs": 2228,
      "##ler": 2229,
      "##au": 2230,
      "##aus": 2231,
      "##bre": 2232,
      "##ees": 2233,
      "##sing": 2234,
      "##map": 2235,
      "##ror": 2236,
      "##ras": 2237,
      "##rame": 2238,
      "##cast": 2239,
      "##hod": 2240,
      "##get": 2241,
      "##ystem": 2242,
      "##vm": 2243,
      "##vi": 2244,
      "##vari": 2245,
      "##erting": 2246,
      "##oned": 2247,
      "##onom": 2248,
      "##ata": 2249,
      "##att": 2250,
      "##orrow": 2251,
      "##arted": 2252,
      "##arts": 2253,
      "##anted": 2254,
      "rewrit": 2255,
      "##isions": 2256,
      "inj": 2257,
      "inac": 2258,
      "ingr": 2259,
      "input": 2260,
      "##reat": 2261,
      "##icit": 2262,
      "##roup": 2263,
      "##ascript": 2264,
      "##ationally": 2265,
      "##acts": 2266,
      "unle": 2267,
      "univers": 2268,
      "##elt": 2269,
      "confer": 2270,
      "concep": 2271,
      "##igor": 2272,
      "##erse": 2273,
      "##amed": 2274,
      "##ames": 2275,
      "##aming": 2276,
      "##check": 2277,
      "##ples": 2278,
      "##place": 2279,
      "sug": 2280,
      "disj": 2281,
      "disg": 2282,
      "distr": 2283,
      "discl": 2284,
      "distingu": 2285,
      "extrac": 2286,
      "exempl": 2287,
      "prol": 2288,
      "prob": 2289,
      "proof": 2290,
      "propor": 2291,
      "##api": 2292,
      "##owing": 2293,
      "enj": 2294,
      "enti": 2295,
      "##ift": 2296,
      "stage": 2297,
      "##ung": 2298,
      "tra": 2299,
      "trig": 2300,
      "trad": 2301,
      "spo": 2302,
      "respec": 2303,
      "restric": 2304,
      "##tick": 2305,
      "prepar": 2306,
      "preprocess": 2307,
      "them": 2308,
      "cho": 2309,
      "action": 2310,
      "pron": 2311,
      "anonym": 2312,
      "weak": 2313,
      "inters": 2314,
      "interrup": 2315,
      "##itim": 2316,
      "##aked": 2317,
      "client": 2318,
      "align": 2319,
      "alph": 2320,
      "algor": 2321,
      "##thy": 2322,
      "##uding": 2323,
      "##anges": 2324,
      "##assemb": 2325,
      "sci": 2326,
      "scop": 2327,
      "dece": 2328,
      "##fulness": 2329,
      "quanti": 2330,
      "question": 2331,
      "impr": 2332,
      "##ype": 2333,
      "##forms": 2334,
      "empow": 2335,
      "deser": 2336,
      "flatter": 2337,
      "##inded": 2338,
      "fore": 2339,
      "fores": 2340,
      "##cond": 2341,
      "##compl": 2342,
      "strat": 2343,
      "appe": 2344,
      "appreci": 2345,
      "##istent": 2346,
      "##ubs": 2347,
      "##ugg": 2348,
      "intens": 2349,
      "modern": 2350,
      "##ailing": 2351,
      "##iently": 2352,
      "frag": 2353,
      "defined": 2354,
      "##tives": 2355,
      "##ameter": 2356,
      "neutr": 2357,
      "##itely": 2358,
      "##ifications": 2359,
      "##lessness": 2360,
      "confid": 2361,
      "datas": 2362,
      "##ashing": 2363,
      "correl": 2364,
      "##echan": 2365,
      "what": 2366,
      "undes": 2367,
      "manuf": 2368,
      "remov": 2369,
      "boots": 2370,
      "higher": 2371,
      "##jects": 2372,
      "##jective": 2373,
      "api": 2374,
      "applic": 2375,
      "apolog": 2376,
      "application": 2377,
      "small": 2378,
      "discus": 2379,
      "discover": 2380,
      "phot": 2381,
      "##phones": 2382,
      "hands": 2383,
      "incor": 2384,
      "afford": 2385,
      "explor": 2386,
      "##ike": 2387,
      "concaten": 2388,
      "skill": 2389,
      "two": 2390,
      "term": 2391,
      "##linear": 2392,
      "##airs": 2393,
      "##uild": 2394,
      "conven": 2395,
      "##loads": 2396,
      "superv": 2397,
      "local": 2398,
      "security": 2399,
      "encour": 2400,
      "geome": 2401,
      "annot": 2402,
      "developer": 2403,
      "purpose": 2404,
      "##ync": 2405,
      "##ynchron": 2406,
      "summar": 2407,
      "##itively": 2408,
      "powered": 2409,
      "processing": 2410,
      "scrap": 2411,
      "relev": 2412,
      "prototyp": 2413,
      "built": 2414,
      "frequ": 2415,
      "practic": 2416,
      "error": 2417,
      "##ableness": 2418,
      "envir": 2419,
      "interpol": 2420,
      "copy": 2421,
      "##tification": 2422,
      "startup": 2423,
      "deriv": 2424,
      "harmon": 2425,
      "cheer": 2426,
      "pleas": 2427,
      "understand": 2428,
      "congrat": 2429,
      "adverti": 2430,
      "industry": 2431,
      "synthes": 2432,
      "achiev": 2433,
      "mathem": 2434,
      "troub": 2435,
      "redistrib": 2436,
      "knowledge": 2437,
      "machine": 2438,
      "emphas": 2439,
      "manufact": 2440,
      "bal": 2441,
      "bur": 2442,
      "cat": 2443,
      "cam": 2444,
      "carr": 2445,
      "da": 2446,
      "dj": 2447,
      "don": 2448,
      "dam": 2449,
      "ear": 2450,
      "elev": 2451,
      "far": 2452,
      "fut": 2453,
      "fear": 2454,
      "face": 2455,
      "fade": 2456,
      "fool": 2457,
      "hos": 2458,
      "hot": 2459,
      "hook": 2460,
      "joy": 2461,
      "jquery": 2462,
      "kind": 2463,
      "kick": 2464,
      "kern": 2465,
      "lag": 2466,
      "larg": 2467,
      "later": 2468,
      "loss": 2469,
      "launch": 2470,
      "ma": 2471,
      "mu": 2472,
      "med": 2473,
      "mom": 2474,
      "mock": 2475,
      "make": 2476,
      "marr": 2477,
      "migr": 2478,
      "mechan": 2479,
      "nar": 2480,
      "native": 2481,
      "necess": 2482,
      "pip": 2483,
      "pull": 2484,
      "right": 2485,
      "round": 2486,
      "render": 2487,
      "raster": 2488,
      "som": 2489,
      "sust": 2490,
      "source": 2491,
      "tab": 2492,
      "targ": 2493,
      "turn": 2494,
      "uint": 2495,
      "vg": 2496,
      "war": 2497,
      "wit": 2498,
      "wire": 2499,
      "wret": 2500,
      "wonder": 2501,
      "##otion": 2502,
      "##lock": 2503,
      "##light": 2504,
      "##lines": 2505,
      "##ah": 2506,
      "##auth": 2507,
      "##bar": 2508,
      "##bit": 2509,
      "##een": 2510,
      "##eav": 2511,
      "##etermin": 2512,
      "##str": 2513,
      "##iom": 2514,
      "##ios": 2515,
      "##ium": 2516,
      "##ialize": 2517,
      "##tors": 2518,
      "##date": 2519,
      "##ra": 2520,
      "##ry": 2521,
      "##ryp": 2522,
      "##cle": 2523,
      "##code": 2524,
      "##pe": 2525,
      "##pi": 2526,
      "##py": 2527,
      "##ply": 2528,
      "##press": 2529,
      "##path": 2530,
      "##points": 2531,
      "##ft": 2532,
      "##fram": 2533,
      "##function": 2534,
      "##vity": 2535,
      "##ways": 2536,
      "##inate": 2537,
      "##ede": 2538,
      "##esting": 2539,
      "##onment": 2540,
      "##ather": 2541,
      "##ativity": 2542,
      "##inging": 2543,
      "##enet": 2544,
      "##titu": 2545,
      "##alc": 2546,
      "##arsh": 2547,
      "regr": 2548,
      "rearr": 2549,
      "##ism": 2550,
      "##isc": 2551,
      "##itate": 2552,
      "##itated": 2553,
      "##itating": 2554,
      "##ither": 2555,
      "##ici": 2556,
      "##icious": 2557,
      "##rob": 2558,
      "##rom": 2559,
      "##roc": 2560,
      "##asm": 2561,
      "##astic": 2562,
      "##ecl": 2563,
      "##ections": 2564,
      "##ective": 2565,
      "##acted": 2566,
      "unr": 2567,
      "unh": 2568,
      "unif": 2569,
      "unim": 2570,
      "unpro": 2571,
      "unpr": 2572,
      "##uls": 2573,
      "##ulting": 2574,
      "##ulators": 2575,
      "##eline": 2576,
      "##igured": 2577,
      "##olve": 2578,
      "##olute": 2579,
      "##ads": 2580,
      "##idu": 2581,
      "##chmark": 2582,
      "##plus": 2583,
      "##play": 2584,
      "##agg": 2585,
      "##agger": 2586,
      "##tedly": 2587,
      "dismiss": 2588,
      "dele": 2589,
      "deploy": 2590,
      "prox": 2591,
      "proper": 2592,
      "project": 2593,
      "##apol": 2594,
      "encr": 2595,
      "station": 2596,
      "state": 2597,
      "stack": 2598,
      "##unt": 2599,
      "track": 2600,
      "trade": 2601,
      "##mentation": 2602,
      "##otted": 2603,
      "##iber": 2604,
      "resh": 2605,
      "research": 2606,
      "preced": 2607,
      "##ogs": 2608,
      "compos": 2609,
      "compens": 2610,
      "complex": 2611,
      "imper": 2612,
      "##ensible": 2613,
      "recol": 2614,
      "recover": 2615,
      "recurr": 2616,
      "throw": 2617,
      "subst": 2618,
      "chip": 2619,
      "charg": 2620,
      "accompl": 2621,
      "##ume": 2622,
      "princ": 2623,
      "##pping": 2624,
      "adop": 2625,
      "##ounting": 2626,
      "she": 2627,
      "shut": 2628,
      "shad": 2629,
      "shap": 2630,
      "##arded": 2631,
      "interview": 2632,
      "internet": 2633,
      "interoper": 2634,
      "asy": 2635,
      "overh": 2636,
      "overestim": 2637,
      "##aker": 2638,
      "clar": 2639,
      "clock": 2640,
      "alle": 2641,
      "allev": 2642,
      "##thread": 2643,
      "##graph": 2644,
      "##ango": 2645,
      "##ourn": 2646,
      "##oured": 2647,
      "scan": 2648,
      "scroll": 2649,
      "upsc": 2650,
      "seed": 2651,
      "sever": 2652,
      "##orship": 2653,
      "cool": 2654,
      "coinc": 2655,
      "cooper": 2656,
      "##igns": 2657,
      "repreh": 2658,
      "##okes": 2659,
      "impress": 2660,
      "party": 2661,
      "constr": 2662,
      "consider": 2663,
      "consequ": 2664,
      "webp": 2665,
      "lever": 2666,
      "indul": 2667,
      "independ": 2668,
      "flat": 2669,
      "outst": 2670,
      "##lected": 2671,
      "inspir": 2672,
      "obtain": 2673,
      "##alloc": 2674,
      "##coming": 2675,
      "##achable": 2676,
      "stra": 2677,
      "string": 2678,
      "appreh": 2679,
      "grat": 2680,
      "miscon": 2681,
      "reloc": 2682,
      "content": 2683,
      "##eps": 2684,
      "invest": 2685,
      "invari": 2686,
      "##istence": 2687,
      "##ials": 2688,
      "##ervice": 2689,
      "intel": 2690,
      "introduc": 2691,
      "exped": 2692,
      "cred": 2693,
      "cold": 2694,
      "infring": 2695,
      "infras": 2696,
      "command": 2697,
      "commerc": 2698,
      "symme": 2699,
      "##tiveness": 2700,
      "devi": 2701,
      "##aste": 2702,
      "beau": 2703,
      "reduc": 2704,
      "redirec": 2705,
      "##ularity": 2706,
      "slow": 2707,
      "##itional": 2708,
      "##poses": 2709,
      "registr": 2710,
      "accord": 2711,
      "times": 2712,
      "rememb": 2713,
      "box": 2714,
      "##ixel": 2715,
      "##jected": 2716,
      "appl": 2717,
      "diagn": 2718,
      "##ologies": 2719,
      "attend": 2720,
      "worksh": 2721,
      "tele": 2722,
      "smooth": 2723,
      "delim": 2724,
      "mini": 2725,
      "phys": 2726,
      "elimin": 2727,
      "##phone": 2728,
      "##tracts": 2729,
      "##prise": 2730,
      "demo": 2731,
      "##blem": 2732,
      "endeav": 2733,
      "instanti": 2734,
      "explo": 2735,
      "concentr": 2736,
      "twe": 2737,
      "visual": 2738,
      "simil": 2739,
      "##olvable": 2740,
      "##loaded": 2741,
      "##loading": 2742,
      "reinst": 2743,
      "second": 2744,
      "encod": 2745,
      "##cribes": 2746,
      "geo": 2747,
      "##rams": 2748,
      "anne": 2749,
      "announ": 2750,
      "embedd": 2751,
      "verb": 2752,
      "cyb": 2753,
      "purs": 2754,
      "digitiz": 2755,
      "guid": 2756,
      "##mitting": 2757,
      "solid": 2758,
      "profession": 2759,
      "respect": 2760,
      "respond": 2761,
      "javascript": 2762,
      "worth": 2763,
      "recomp": 2764,
      "reproduc": 2765,
      "negoti": 2766,
      "monit": 2767,
      "monot": 2768,
      "scrip": 2769,
      "ess": 2770,
      "irrit": 2771,
      "renew": 2772,
      "request": 2773,
      "experiment": 2774,
      "##controll": 2775,
      "technology": 2776,
      "occup": 2777,
      "##idden": 2778,
      "##iddle": 2779,
      "practi": 2780,
      "facil": 2781,
      "method": 2782,
      "dedic": 2783,
      "robo": 2784,
      "interpret": 2785,
      "##iliar": 2786,
      "extrapol": 2787,
      "reconf": 2788,
      "reconnec": 2789,
      "community": 2790,
      "circum": 2791,
      "like": 2792,
      "trem": 2793,
      "##abilities": 2794,
      "style": 2795,
      "##ographic": 2796,
      "testing": 2797,
      "##dev": 2798,
      "supers": 2799,
      "fully": 2800,
      "version": 2801,
      "entertain": 2802,
      "parameter": 2803,
      "digital": 2804,
      "favour": 2805,
      "browser": 2806,
      "html": 2807,
      "upload": 2808,
      "written": 2809,
      "travers": 2810,
      "recru": 2811,
      "aston": 2812,
      "utf": 2813,
      "reconstruc": 2814,
      "cluster": 2815,
      "symbol": 2816,
      "diagon": 2817,
      "establ": 2818,
      "functional": 2819,
      "quadr": 2820,
      "exponenti": 2821,
      "architect": 2822,
      "ultra": 2823,
      "betwe": 2824,
      "pattern": 2825,
      "prioritiz": 2826,
      "critic": 2827,
      "friendly": 2828,
      "matrix": 2829,
      "eigen": 2830,
      "gentle": 2831,
      "lemmat": 2832,
      "vs201": 2833,
      "sugges": 2834,
      "enjoy": 2835,
      "pronoun": 2836,
      "algorithm": 2837,
      "bootstr": 2838,
      "django": 2839,
      "maj": 2840,
      "allevi": 2841,
      "16": 2842,
      "3d": 2843,
      "64": 2844,
      "aim": 2845,
      "bu": 2846,
      "ban": 2847,
      "bec": 2848,
      "bill": 2849,
      "bug": 2850,
      "batch": 2851,
      "cell": 2852,
      "case": 2853,
      "curr": 2854,
      "camp": 2855,
      "cpu": 2856,
      "css": 2857,
      "dur": 2858,
      "effic": 2859,
      "elect": 2860,
      "fab": 2861,
      "fid": 2862,
      "fine": 2863,
      "fanc": 2864,
      "fond": 2865,
      "fuck": 2866,
      "gig": 2867,
      "gall": 2868,
      "gover": 2869,
      "hack": 2870,
      "hier": 2871,
      "host": 2872,
      "join": 2873,
      "lic": 2874,
      "land": 2875,
      "lect": 2876,
      "linu": 2877,
      "laugh": 2878,
      "mus": 2879,
      "mag": 2880,
      "map": 2881,
      "mir": 2882,
      "miti": 2883,
      "mill": 2884,
      "match": 2885,
      "mong": 2886,
      "mys": 2887,
      "matching": 2888,
      "nan": 2889,
      "node": 2890,
      "pi": 2891,
      "pot": 2892,
      "pool": 2893,
      "pene": 2894,
      "push": 2895,
      "pitch": 2896,
      "qa": 2897,
      "rou": 2898,
      "rad": 2899,
      "rap": 2900,
      "rend": 2901,
      "sa": 2902,
      "sv": 2903,
      "sin": 2904,
      "sig": 2905,
      "sized": 2906,
      "stick": 2907,
      "tit": 2908,
      "table": 2909,
      "tog": 2910,
      "tender": 2911,
      "ub": 2912,
      "ux": 2913,
      "var": 2914,
      "vent": 2915,
      "vac": 2916,
      "vul": 2917,
      "vex": 2918,
      "vide": 2919,
      "vouch": 2920,
      "vibr": 2921,
      "wo": 2922,
      "wed": 2923,
      "watch": 2924,
      "water": 2925,
      "wave": 2926,
      "zoom": 2927,
      "##ole": 2928,
      "##och": 2929,
      "##bound": 2930,
      "##backs": 2931,
      "##eas": 2932,
      "##etic": 2933,
      "##eep": 2934,
      "##sql": 2935,
      "##uz": 2936,
      "##uation": 2937,
      "##most": 2938,
      "##medi": 2939,
      "##ialized": 2940,
      "##top": 2941,
      "##tech": 2942,
      "##na": 2943,
      "##da": 2944,
      "##rich": 2945,
      "##cur": 2946,
      "##pass": 2947,
      "##hes": 2948,
      "##gb": 2949,
      "##gen": 2950,
      "##fs": 2951,
      "##fus": 2952,
      "##field": 2953,
      "##zes": 2954,
      "##ving": 2955,
      "##16": 2956,
      "##ks": 2957,
      "##kit": 2958,
      "##way": 2959,
      "##ints": 2960,
      "##inated": 2961,
      "##inations": 2962,
      "##erable": 2963,
      "##erver": 2964,
      "##erve": 2965,
      "##eries": 2966,
      "##error": 2967,
      "##oning": 2968,
      "##atics": 2969,
      "##atures": 2970,
      "##atisf": 2971,
      "##attle": 2972,
      "##tious": 2973,
      "##till": 2974,
      "##alities": 2975,
      "##orter": 2976,
      "##organ": 2977,
      "##arting": 2978,
      "reti": 2979,
      "rean": 2980,
      "rever": 2981,
      "replic": 2982,
      "retur": 2983,
      "reason": 2984,
      "##lebr": 2985,
      "##ister": 2986,
      "##itter": 2987,
      "##itations": 2988,
      "intim": 2989,
      "##rets": 2990,
      "##icon": 2991,
      "##icing": 2992,
      "##icul": 2993,
      "##iction": 2994,
      "##icted": 2995,
      "##asion": 2996,
      "##asive": 2997,
      "##abase": 2998,
      "##econd": 2999,
      "##acious": 3000,
      "##acement": 3001,
      "unn": 3002,
      "unk": 3003,
      "unqu": 3004,
      "unse": 3005,
      "unres": 3006,
      "unreg": 3007,
      "uncomp": 3008,
      "unequ": 3009,
      "##oupl": 3010,
      "##tract": 3011,
      "##trically": 3012,
      "conqu": 3013,
      "conform": 3014,
      "##igible": 3015,
      "##iven": 3016,
      "##ivial": 3017,
      "##erson": 3018,
      "##ersion": 3019,
      "##ams": 3020,
      "##ament": 3021,
      "##etched": 3022,
      "##iders": 3023,
      "##usting": 3024,
      "##ateg": 3025,
      "sun": 3026,
      "##ager": 3027,
      "distur": 3028,
      "distor": 3029,
      "disconnec": 3030,
      "exch": 3031,
      "excl": 3032,
      "excep": 3033,
      "exclus": 3034,
      "exceed": 3035,
      "exhib": 3036,
      "exagger": 3037,
      "deg": 3038,
      "dead": 3039,
      "degr": 3040,
      "deform": 3041,
      "defer": 3042,
      "deleg": 3043,
      "proced": 3044,
      "proceed": 3045,
      "prohib": 3046,
      "##osc": 3047,
      "##osure": 3048,
      "encl": 3049,
      "enroll": 3050,
      "entit": 3051,
      "enabled": 3052,
      "enrich": 3053,
      "##ifiers": 3054,
      "story": 3055,
      "stret": 3056,
      "stabil": 3057,
      "staff": 3058,
      "##under": 3059,
      "trunc": 3060,
      "training": 3061,
      "##menting": 3062,
      "##oph": 3063,
      "##ople": 3064,
      "##uctu": 3065,
      "spons": 3066,
      "spring": 3067,
      "##ibilities": 3068,
      "##ipher": 3069,
      "resur": 3070,
      "resist": 3071,
      "resemb": 3072,
      "##ticip": 3073,
      "prep": 3074,
      "preview": 3075,
      "imb": 3076,
      "impl": 3077,
      "recre": 3078,
      "reclass": 3079,
      "recycl": 3080,
      "recalc": 3081,
      "three": 3082,
      "chain": 3083,
      "chall": 3084,
      "chann": 3085,
      "actu": 3086,
      "##umes": 3087,
      "##uming": 3088,
      "##umped": 3089,
      "anticip": 3090,
      "##pped": 3091,
      "ador": 3092,
      "advers": 3093,
      "##ounted": 3094,
      "##ounts": 3095,
      "wear": 3096,
      "##alizer": 3097,
      "##alizations": 3098,
      "interv": 3099,
      "interfer": 3100,
      "overt": 3101,
      "overc": 3102,
      "overwh": 3103,
      "multiplic": 3104,
      "##aks": 3105,
      "click": 3106,
      "upst": 3107,
      "upgr": 3108,
      "decons": 3109,
      "seek": 3110,
      "##antage": 3111,
      "coordin": 3112,
      "##igning": 3113,
      "repos": 3114,
      "##nesses": 3115,
      "##oked": 3116,
      "##oking": 3117,
      "##ectors": 3118,
      "transc": 3119,
      "import": 3120,
      "impair": 3121,
      "imperson": 3122,
      "autog": 3123,
      "arm": 3124,
      "parent": 3125,
      "parad": 3126,
      "consolid": 3127,
      "indiv": 3128,
      "##ishment": 3129,
      "desk": 3130,
      "flag": 3131,
      "flip": 3132,
      "flaw": 3133,
      "fluctu": 3134,
      "output": 3135,
      "##index": 3136,
      "inser": 3137,
      "instr": 3138,
      "inspec": 3139,
      "forb": 3140,
      "obfus": 3141,
      "ord": 3142,
      "perf": 3143,
      "permission": 3144,
      "plain": 3145,
      "strong": 3146,
      "strength": 3147,
      "strateg": 3148,
      "appear": 3149,
      "gramm": 3150,
      "griev": 3151,
      "aband": 3152,
      "miss": 3153,
      "mist": 3154,
      "misclass": 3155,
      "controll": 3156,
      "contempl": 3157,
      "invent": 3158,
      "##actor": 3159,
      "asser": 3160,
      "##entil": 3161,
      "drag": 3162,
      "draf": 3163,
      "##ugged": 3164,
      "##erves": 3165,
      "expect": 3166,
      "atom": 3167,
      "attrib": 3168,
      "color": 3169,
      "##ounding": 3170,
      "inflec": 3171,
      "commit": 3172,
      "fright": 3173,
      "frustr": 3174,
      "fresh": 3175,
      "##ortun": 3176,
      "##tivated": 3177,
      "device": 3178,
      "redef": 3179,
      "redecl": 3180,
      "##ressing": 3181,
      "corpor": 3182,
      "corrup": 3183,
      "##away": 3184,
      "heav": 3185,
      "##itioned": 3186,
      "##itionally": 3187,
      "##posing": 3188,
      "##arked": 3189,
      "region": 3190,
      "##ieve": 3191,
      "unders": 3192,
      "depr": 3193,
      "deprec": 3194,
      "depart": 3195,
      "depreci": 3196,
      "accent": 3197,
      "timest": 3198,
      "even": 3199,
      "evid": 3200,
      "##ixed": 3201,
      "##ongs": 3202,
      "agile": 3203,
      "agree": 3204,
      "##ologically": 3205,
      "attenu": 3206,
      "brief": 3207,
      "backl": 3208,
      "underl": 3209,
      "undert": 3210,
      "underestim": 3211,
      "deliber": 3212,
      "meg": 3213,
      "keyp": 3214,
      "keys": 3215,
      "elabor": 3216,
      "##traction": 3217,
      "##tracting": 3218,
      "##mised": 3219,
      "##mises": 3220,
      "substit": 3221,
      "##afe": 3222,
      "##ship": 3223,
      "##ront": 3224,
      "contradic": 3225,
      "divis": 3226,
      "surf": 3227,
      "##istics": 3228,
      "concurr": 3229,
      "sketch": 3230,
      "production": 3231,
      "synt": 3232,
      "topic": 3233,
      "##uilt": 3234,
      "good": 3235,
      "progress": 3236,
      "capit": 3237,
      "capac": 3238,
      "location": 3239,
      "oct": 3240,
      "encaps": 3241,
      "##cribing": 3242,
      "dissip": 3243,
      "predict": 3244,
      "annoy": 3245,
      "embod": 3246,
      "##cription": 3247,
      "ready": 3248,
      "collaps": 3249,
      "developers": 3250,
      "cycl": 3251,
      "calm": 3252,
      "calibr": 3253,
      "breath": 3254,
      "clear": 3255,
      "clever": 3256,
      "temp": 3257,
      "temper": 3258,
      "speech": 3259,
      "acquies": 3260,
      "overst": 3261,
      "they": 3262,
      "theore": 3263,
      "irres": 3264,
      "note": 3265,
      "renov": 3266,
      "require": 3267,
      "stead": 3268,
      "player": 3269,
      "iss": 3270,
      "isol": 3271,
      "experi": 3272,
      "##control": 3273,
      "freel": 3274,
      "practice": 3275,
      "##boards": 3276,
      "programmer": 3277,
      "audio": 3278,
      "minded": 3279,
      "##entioned": 3280,
      "entre": 3281,
      "entrop": 3282,
      "declar": 3283,
      "manager": 3284,
      "management": 3285,
      "layer": 3286,
      "satur": 3287,
      "##head": 3288,
      "engineers": 3289,
      "engineering": 3290,
      "customer": 3291,
      "effect": 3292,
      "people": 3293,
      "retriev": 3294,
      "##tifications": 3295,
      "liber": 3296,
      "sole": 3297,
      "##200": 3298,
      "styl": 3299,
      "particular": 3300,
      "volat": 3301,
      "##ordered": 3302,
      "connected": 3303,
      "suppl": 3304,
      "distribution": 3305,
      "adjust": 3306,
      "sharp": 3307,
      "legitim": 3308,
      "benchmark": 3309,
      "linked": 3310,
      "windows": 3311,
      "enterprise": 3312,
      "fault": 3313,
      "favor": 3314,
      "fixed": 3315,
      "known": 3316,
      "enlarg": 3317,
      "studio": 3318,
      "permut": 3319,
      "celebr": 3320,
      "mobile": 3321,
      "ranked": 3322,
      "squared": 3323,
      "##charged": 3324,
      "recruit": 3325,
      "ascertain": 3326,
      "outsour": 3327,
      "discretiz": 3328,
      "bott": 3329,
      "conjug": 3330,
      "conjunc": 3331,
      "argument": 3332,
      "escal": 3333,
      "familiar": 3334,
      "##going": 3335,
      "reciproc": 3336,
      "##claimed": 3337,
      "ambigu": 3338,
      "##abyte": 3339,
      "disagree": 3340,
      "discontinu": 3341,
      "recommend": 3342,
      "domain": 3343,
      "mother": 3344,
      "chrome": 3345,
      "answ": 3346,
      "interface": 3347,
      "interchange": 3348,
      "hypothes": 3349,
      "docker": 3350,
      "punctu": 3351,
      "proportion": 3352,
      "alphab": 3353,
      "incorpor": 3354,
      "environment": 3355,
      "catal": 3356,
      "camer": 3357,
      "kernel": 3358,
      "much": 3359,
      "moment": 3360,
      "narrow": 3361,
      "vgg": 3362,
      "uniform": 3363,
      "encryp": 3364,
      "straight": 3365,
      "between": 3366,
      "hierarch": 3367,
      "linux": 3368,
      "mitig": 3369,
      "penetr": 3370,
      "##uzz": 3371,
      "obfusc": 3372,
      "32": 3373,
      "are": 3374,
      "air": 3375,
      "award": 3376,
      "boun": 3377,
      "byp": 3378,
      "bind": 3379,
      "bund": 3380,
      "base": 3381,
      "buff": 3382,
      "civ": 3383,
      "cand": 3384,
      "cub": 3385,
      "cost": 3386,
      "casc": 3387,
      "cache": 3388,
      "dub": 3389,
      "dark": 3390,
      "dual": 3391,
      "econ": 3392,
      "element": 3393,
      "etern": 3394,
      "eleg": 3395,
      "early": 3396,
      "fi": 3397,
      "fal": 3398,
      "fle": 3399,
      "four": 3400,
      "fair": 3401,
      "fasc": 3402,
      "gp": 3403,
      "gle": 3404,
      "git": 3405,
      "got": 3406,
      "gest": 3407,
      "hal": 3408,
      "hab": 3409,
      "had": 3410,
      "hist": 3411,
      "hub": 3412,
      "haun": 3413,
      "il": 3414,
      "ios": 3415,
      "just": 3416,
      "job": 3417,
      "journ": 3418,
      "lp": 3419,
      "ling": 3420,
      "lit": 3421,
      "last": 3422,
      "lov": 3423,
      "lived": 3424,
      "luck": 3425,
      "lamb": 3426,
      "lux": 3427,
      "mass": 3428,
      "mash": 3429,
      "mask": 3430,
      "mesh": 3431,
      "mild": 3432,
      "middle": 3433,
      "nat": 3434,
      "nul": 3435,
      "now": 3436,
      "nod": 3437,
      "old": 3438,
      "other": 3439,
      "pa": 3440,
      "pin": 3441,
      "pal": 3442,
      "por": 3443,
      "pion": 3444,
      "pec": 3445,
      "piv": 3446,
      "put": 3447,
      "pod": 3448,
      "piti": 3449,
      "pair": 3450,
      "pixel": 3451,
      "puzz": 3452,
      "rat": 3453,
      "ration": 3454,
      "riv": 3455,
      "rid": 3456,
      "ray": 3457,
      "rum": 3458,
      "rav": 3459,
      "rails": 3460,
      "rich": 3461,
      "sent": 3462,
      "sel": 3463,
      "ster": 3464,
      "soc": 3465,
      "sigh": 3466,
      "sell": 3467,
      "sinc": 3468,
      "snow": 3469,
      "sales": 3470,
      "tac": 3471,
      "tess": 3472,
      "tur": 3473,
      "tang": 3474,
      "vb": 3475,
      "vag": 3476,
      "vue": 3477,
      "ventil": 3478,
      "wom": 3479,
      "wel": 3480,
      "way": 3481,
      "wand": 3482,
      "wav": 3483,
      "wher": 3484,
      "wise": 3485,
      "warn": 3486,
      "x8": 3487,
      "xml": 3488,
      "yield": 3489,
      "##ove": 3490,
      "##oying": 3491,
      "##lab": 3492,
      "##leness": 3493,
      "##laim": 3494,
      "##aug": 3495,
      "##ault": 3496,
      "##base": 3497,
      "##body": 3498,
      "##eq": 3499,
      "##ead": 3500,
      "##eem": 3501,
      "##eploy": 3502,
      "##etically": 3503,
      "##sd": 3504,
      "##uent": 3505,
      "##uated": 3506,
      "##utive": 3507,
      "##uters": 3508,
      "##men": 3509,
      "##mind": 3510,
      "##more": 3511,
      "##ia": 3512,
      "##iet": 3513,
      "##iod": 3514,
      "##iors": 3515,
      "##iant": 3516,
      "##iability": 3517,
      "##test": 3518,
      "##text": 3519,
      "##tree": 3520,
      "##type": 3521,
      "##jud": 3522,
      "##nns": 3523,
      "##depend": 3524,
      "##ric": 3525,
      "##right": 3526,
      "##rase": 3527,
      "##cent": 3528,
      "##pin": 3529,
      "##page": 3530,
      "##part": 3531,
      "##pret": 3532,
      "##ho": 3533,
      "##hor": 3534,
      "##how": 3535,
      "##host": 3536,
      "##held": 3537,
      "##gest": 3538,
      "##gence": 3539,
      "##grow": 3540,
      "##group": 3541,
      "##yed": 3542,
      "##file": 3543,
      "##frame": 3544,
      "##ze": 3545,
      "##zed": 3546,
      "##vis": 3547,
      "##vent": 3548,
      "##king": 3549,
      "##kill": 3550,
      "##_cast": 3551,
      "##_eq": 3552,
      "##iny": 3553,
      "##inates": 3554,
      "##eded": 3555,
      "##edes": 3556,
      "##edron": 3557,
      "##erge": 3558,
      "##only": 3559,
      "##entions": 3560,
      "##alth": 3561,
      "##ories": 3562,
      "##orthy": 3563,
      "##arter": 3564,
      "##arant": 3565,
      "##arse": 3566,
      "##anch": 3567,
      "##anting": 3568,
      "reh": 3569,
      "reun": 3570,
      "reop": 3571,
      "reve": 3572,
      "reth": 3573,
      "rebo": 3574,
      "reapp": 3575,
      "retain": 3576,
      "reiter": 3577,
      "reorgan": 3578,
      "reindex": 3579,
      "##lements": 3580,
      "##iser": 3581,
      "##itates": 3582,
      "inad": 3583,
      "intric": 3584,
      "incomp": 3585,
      "##rees": 3586,
      "##requ": 3587,
      "##icity": 3588,
      "##icting": 3589,
      "##icial": 3590,
      "##rocess": 3591,
      "##asp": 3592,
      "##asure": 3593,
      "##ece": 3594,
      "##acting": 3595,
      "##actions": 3596,
      "##aciously": 3597,
      "unve": 3598,
      "unav": 3599,
      "ungr": 3600,
      "uniqu": 3601,
      "##uli": 3602,
      "##ulus": 3603,
      "##ulted": 3604,
      "##ults": 3605,
      "##ulous": 3606,
      "##outed": 3607,
      "##outing": 3608,
      "##elines": 3609,
      "##eliness": 3610,
      "concl": 3611,
      "conges": 3612,
      "conject": 3613,
      "conclus": 3614,
      "congreg": 3615,
      "##igent": 3616,
      "##igence": 3617,
      "##oles": 3618,
      "##older": 3619,
      "##ivable": 3620,
      "##izers": 3621,
      "##utor": 3622,
      "##urance": 3623,
      "##amped": 3624,
      "##eth": 3625,
      "##idity": 3626,
      "##usable": 3627,
      "##usts": 3628,
      "##emy": 3629,
      "##emon": 3630,
      "##chain": 3631,
      "##places": 3632,
      "suit": 3633,
      "disk": 3634,
      "disall": 3635,
      "discon": 3636,
      "dispro": 3637,
      "disreg": 3638,
      "disassemb": 3639,
      "exh": 3640,
      "excess": 3641,
      "extern": 3642,
      "exception": 3643,
      "deac": 3644,
      "deque": 3645,
      "proud": 3646,
      "procr": 3647,
      "##ape": 3648,
      "##apes": 3649,
      "##apse": 3650,
      "complic": 3651,
      "comfort": 3652,
      "encomp": 3653,
      "##ifted": 3654,
      "##impl": 3655,
      "std": 3656,
      "stup": 3657,
      "store": 3658,
      "static": 3659,
      "##odb": 3660,
      "##uned": 3661,
      "##unes": 3662,
      "##unch": 3663,
      "trick": 3664,
      "tracking": 3665,
      "##occ": 3666,
      "##ocab": 3667,
      "##ocations": 3668,
      "##ainable": 3669,
      "##aints": 3670,
      "##ainst": 3671,
      "##ope": 3672,
      "##otech": 3673,
      "##esty": 3674,
      "spy": 3675,
      "spat": 3676,
      "spher": 3677,
      "##qual": 3678,
      "##irmed": 3679,
      "##ighter": 3680,
      "reson": 3681,
      "restr": 3682,
      "result": 3683,
      "resolution": 3684,
      "resource": 3685,
      "##ousness": 3686,
      "pretr": 3687,
      "##ogue": 3688,
      "##ogene": 3689,
      "compr": 3690,
      "compact": 3691,
      "complement": 3692,
      "implic": 3693,
      "##ensed": 3694,
      "##ensions": 3695,
      "reck": 3696,
      "recurs": 3697,
      "reclaim": 3698,
      "thw": 3699,
      "that": 3700,
      "third": 3701,
      "threat": 3702,
      "subse": 3703,
      "charm": 3704,
      "change": 3705,
      "chunk": 3706,
      "accep": 3707,
      "accomp": 3708,
      "accomm": 3709,
      "##umed": 3710,
      "pra": 3711,
      "prin": 3712,
      "press": 3713,
      "print": 3714,
      "anch": 3715,
      "adher": 3716,
      "##perform": 3717,
      "weigh": 3718,
      "week": 3719,
      "weird": 3720,
      "shop": 3721,
      "shuff": 3722,
      "##arding": 3723,
      "interle": 3724,
      "interconnec": 3725,
      "aspir": 3726,
      "async": 3727,
      "nons": 3728,
      "noncon": 3729,
      "overf": 3730,
      "overview": 3731,
      "overflow": 3732,
      "multit": 3733,
      "multid": 3734,
      "multipl": 3735,
      "multiprocess": 3736,
      "multiplex": 3737,
      "##itivity": 3738,
      "clut": 3739,
      "clos": 3740,
      "clim": 3741,
      "close": 3742,
      "cloth": 3743,
      "claim": 3744,
      "closed": 3745,
      "ali": 3746,
      "alarm": 3747,
      "##grid": 3748,
      "##gramm": 3749,
      "##assed": 3750,
      "##asses": 3751,
      "##assing": 3752,
      "##ouring": 3753,
      "##ourse": 3754,
      "science": 3755,
      "decep": 3756,
      "decentr": 3757,
      "decryp": 3758,
      "seem": 3759,
      "select": 3760,
      "covari": 3761,
      "repur": 3762,
      "repair": 3763,
      "transduc": 3764,
      "transvers": 3765,
      "autonom": 3766,
      "##formation": 3767,
      "ard": 3768,
      "arith": 3769,
      "consc": 3770,
      "constit": 3771,
      "webdr": 3772,
      "left": 3773,
      "indis": 3774,
      "indign": 3775,
      "flour": 3776,
      "fluff": 3777,
      "flush": 3778,
      "outd": 3779,
      "outdo": 3780,
      "##lecom": 3781,
      "insinu": 3782,
      "instig": 3783,
      "forec": 3784,
      "force": 3785,
      "obsc": 3786,
      "orth": 3787,
      "perp": 3788,
      "perv": 3789,
      "perce": 3790,
      "percep": 3791,
      "perme": 3792,
      "perplex": 3793,
      "period": 3794,
      "place": 3795,
      "##come": 3796,
      "##ancies": 3797,
      "strang": 3798,
      "strugg": 3799,
      "append": 3800,
      "grab": 3801,
      "grid": 3802,
      "grade": 3803,
      "##times": 3804,
      "abol": 3805,
      "abomin": 3806,
      "abhor": 3807,
      "mism": 3808,
      "misund": 3809,
      "misbe": 3810,
      "misinter": 3811,
      "relations": 3812,
      "reload": 3813,
      "relax": 3814,
      "contin": 3815,
      "##ocking": 3816,
      "##epoint": 3817,
      "##actable": 3818,
      "assu": 3819,
      "assign": 3820,
      "drink": 3821,
      "##istently": 3822,
      "##ears": 3823,
      "##eared": 3824,
      "##ervices": 3825,
      "intu": 3826,
      "module": 3827,
      "crush": 3828,
      "colle": 3829,
      "infin": 3830,
      "blog": 3831,
      "opens": 3832,
      "defl": 3833,
      "defe": 3834,
      "##tivate": 3835,
      "##tivating": 3836,
      "devops": 3837,
      "speci": 3838,
      "never": 3839,
      "config": 3840,
      "confirm": 3841,
      "datag": 3842,
      "database": 3843,
      "refr": 3844,
      "refoc": 3845,
      "refact": 3846,
      "betr": 3847,
      "redes": 3848,
      "redown": 3849,
      "##ression": 3850,
      "##inked": 3851,
      "corrob": 3852,
      "##awn": 3853,
      "heap": 3854,
      "##itioning": 3855,
      "whis": 3856,
      "##positions": 3857,
      "regener": 3858,
      "##ieties": 3859,
      "undo": 3860,
      "accur": 3861,
      "account": 3862,
      "many": 3863,
      "manif": 3864,
      "remark": 3865,
      "boos": 3866,
      "highl": 3867,
      "offs": 3868,
      "office": 3869,
      "used": 3870,
      "users": 3871,
      "agent": 3872,
      "unsh": 3873,
      "unsubs": 3874,
      "##jecting": 3875,
      "apache": 3876,
      "##scre": 3877,
      "bright": 3878,
      "brush": 3879,
      "allow": 3880,
      "working": 3881,
      "##wardly": 3882,
      "backtr": 3883,
      "telecom": 3884,
      "sweet": 3885,
      "sweep": 3886,
      "underpin": 3887,
      "discern": 3888,
      "deliv": 3889,
      "deliver": 3890,
      "keep": 3891,
      "phone": 3892,
      "##turing": 3893,
      "##tural": 3894,
      "##tractive": 3895,
      "format": 3896,
      "##plete": 3897,
      "##parameter": 3898,
      "equip": 3899,
      "equipped": 3900,
      "equival": 3901,
      "##prene": 3902,
      "incub": 3903,
      "demys": 3904,
      "finet": 3905,
      "finally": 3906,
      "##ernet": 3907,
      "feel": 3908,
      "##pective": 3909,
      "##inct": 3910,
      "unfe": 3911,
      "unfur": 3912,
      "unfold": 3913,
      "awk": 3914,
      "instant": 3915,
      "explan": 3916,
      "divers": 3917,
      "eradic": 3918,
      "surv": 3919,
      "surve": 3920,
      "surpass": 3921,
      "##ikit": 3922,
      "engross": 3923,
      "skills": 3924,
      "typed": 3925,
      "types": 3926,
      "visit": 3927,
      "vision": 3928,
      "synonym": 3929,
      "##linearity": 3930,
      "convolution": 3931,
      "logar": 3932,
      "reins": 3933,
      "reiniti": 3934,
      "supplement": 3935,
      "supported": 3936,
      "unmask": 3937,
      "encoun": 3938,
      "embr": 3939,
      "designed": 3940,
      "##works": 3941,
      "provision": 3942,
      "checked": 3943,
      "checking": 3944,
      "purch": 3945,
      "services": 3946,
      "analys": 3947,
      "##missions": 3948,
      "guarant": 3949,
      "lower": 3950,
      "##titude": 3951,
      "director": 3952,
      "solicit": 3953,
      "win9": 3954,
      "rebr": 3955,
      "rebal": 3956,
      "rebuild": 3957,
      "unbund": 3958,
      "appropri": 3959,
      "hyperl": 3960,
      "codes": 3961,
      "codec": 3962,
      "tempor": 3963,
      "worr": 3964,
      "recomb": 3965,
      "recomput": 3966,
      "acquaint": 3967,
      "automated": 3968,
      "absor": 3969,
      "abscond": 3970,
      "negl": 3971,
      "month": 3972,
      "password": 3973,
      "processor": 3974,
      "operation": 3975,
      "unwr": 3976,
      "brok": 3977,
      "dimin": 3978,
      "dimension": 3979,
      "renorm": 3980,
      "steep": 3981,
      "organized": 3982,
      "organization": 3983,
      "created": 3984,
      "hardware": 3985,
      "illum": 3986,
      "market": 3987,
      "marketing": 3988,
      "news": 3989,
      "wrap": 3990,
      "wrong": 3991,
      "releg": 3992,
      "##amples": 3993,
      "segreg": 3994,
      "occasion": 3995,
      "avail": 3996,
      "inconven": 3997,
      "threaded": 3998,
      "facing": 3999
    }
  }
}