{
  "version": "1.0",
  "truncation": null,
  "padding": null,
  "added_tokens": [
    {
      "id": 0,
      "content": "[PAD]",
      "single_word": false,
      "lstrip": false,
      "rstrip": false,
      "normalized": false,
      "special": true
    },
    {
      "id": 1,
      "content": "[UNK]",
      "single_word": false,
      "lstrip": false,
      "rstrip": false,
      "normalized": false,
      "special": true
    },
    {
      "id": 2,
      "content": "[CLS]",
      "single_word": false,
      "lstrip": false,
      "rstrip": false,
      "normalized": false,
      "special": true
    },
    {
      "id": 3,
      "content": "[SEP]",
      "single_word": false,
      "lstrip": false,
      "rstrip": false,
      "normalized": false,
      "special": true
    },
    {
      "id": 4,
      "content": "[MASK]",
      "single_word": false,
      "lstrip": false,
      "rstrip": false,
      "normalized": false,
      "special": true
    },
    {
      "id": 5,
      "content": "##a",
      "single_word": false,
      "lstrip": false,
      "rstrip": false,
      "normalized": false,
      "special": true
    },
    {
      "id": 6,
      "content": "##b",
      "single_word": false,
      "lstrip": false,
      "rstrip": false,
      "normalized": false,
      "special": true
    },
    {
      "id": 7,
      "content": "##c",
      "single_word": false,
      "lstrip": false,
      "rstrip": false,
      "normalized": false,
      "special": true
    },
    {
      "id": 8,
      "content": "##d",
      "single_word": false,
      "lstrip": false,
      "rstrip": false,
      "normalized": false,
      "special": true
    },
    {
      "id": 9,
      "content": "##e",
      "single_word": false,
      "lstrip": false,
      "rstrip": false,
      "normalized": false,
      "special": true
    },
    {
      "id": 10,
      "content": "##f",
      "single_word": false,
      "lstrip": false,
      "rstrip": false,
      "normalized": false,
      "special": true
    },
    {
      "id": 11,
      "content": "##g",
      "single_word": false,
      "lstrip": false,
      "rstrip": false,
      "normalized": false,
      "special": true
    },
    {
      "id": 12,
      "content": "##h",
      "single_word": false,
      "lstrip": false,
      "rstrip": false,
      "normalized": false,
      "special": true
    },
    {
      "id": 13,
      "content": "##i",
      "single_word": false,
      "lstrip": false,
      "rstrip": false,
      "normalized": false,
      "special": true
    },
    {
      "id": 14,
      "content": "##j",
      "single_word": false,
      "lstrip": false,
      "rstrip": false,
      "normalized": false,
      "special": true
    },
    {
      "id": 15,
      "content": "##k",
      "single_word": false,
      "lstrip": false,
      "rstrip": false,
      "normalized": false,
      "special": true
    },
    {
      "id": 16,
      "content": "##l",
      "single_word": false,
      "lstrip": false,
      "rstrip": false,
      "normalized": false,
      "special": true
    },
    {
      "id": 17,
      "content": "##m",
      "single_word": false,
      "lstrip": false,
      "rstrip": false,
      "normalized": false,
      "special": true
    },
    {
      "id": 18,
      "content": "##n",
      "single_word": false,
      "lstrip": false,
      "rstrip": false,
      "normalized": false,
      "special": true
    },
    {
      "id": 19,
      "content": "##o",
      "single_word": false,
      "lstrip": false,
      "rstrip": false,
      "normalized": false,
      "special": true
    },
    {
      "id": 20,
      "content": "##p",
      "single_word": false,
      "lstrip": false,
      "rstrip": false,
      "normalized": false,
      "special": true
    },
    {
      "id": 21,
      "content": "##q",
      "single_word": false,
      "lstrip": false,
      "rstrip": false,
      "normalized": false,
      "special": true
    },
    {
      "id": 22,
      "content": "##r",
      "single_word": false,
      "lstrip": false,
      "rstrip": false,
      "normalized": false,
      "special": true
    },
    {
      "id": 23,
      "content": "##s",
      "single_word": false,
      "lstrip": false,
      "rstrip": false,
      "normalized": false,
      "special": true
    },
    {
      "id": 24,
      "content": "##t",
      "single_word": false,
      "lstrip": false,
      "rstrip": false,
      "normalized": false,
      "special": true
    },
    {
      "id": 25,
      "content": "##u",
      "single_word": false,
      "lstrip": false,
      "rstrip": false,
      "normalized": false,
      "special": true
    },
    {
      "id": 26,
      "content": "##v",
      "single_word": false,
      "lstrip": false,
      "rstrip": false,
      "normalized": false,
      "special": true
    },
    {
      "id": 27,
      "content": "##w",
      "single_word": false,
      "lstrip": false,
      "rstrip": false,
      "normalized": false,
      "special": true
    },
    {
      "id": 28,
      "content": "##x",
      "single_word": false,
      "lstrip": false,
      "rstrip": false,
      "normalized": false,
      "special": true
    },
    {
      "id": 29,
      "content": "##y",
      "single_word": false,
      "lstrip": false,
      "rstrip": false,
      "normalized": false,
      "special": true
    },
    {
      "id": 30,
      "content": "##z",
      "single_word": false,
      "lstrip": false,
      "rstrip": false,
      "normalized": false,
      "special": true
    }
  ],
  "normalizer": {
    "type": "BertNormalizer",
    "clean_text": true,
    "handle_chinese_chars": true,
    "strip_accents": true,
    "lowercase": true
  },
  "pre_tokenizer": {
    "type": "BertPreTokenizer"
  },
  "post_processor": null,
  "decoder": {
    "type": "WordPiece",
    "prefix": "##",
    "cleanup": true
  },
  "model": {
    "type": "WordPiece",
    "unk_token": "[UNK]",
    "continuing_subword_prefix": "##",
    "max_input_chars_per_word": 100,
    "vocab": {
      "[PAD]": 0,
      "[UNK]": 1,
      "[CLS]": 2,
      "[SEP]": 3,
      "[MASK]": 4,
      "##a": 5,
      "##b": 6,
      "##c": 7,
      "##d": 8,
      "##e": 9,
      "##f": 10,
      "##g": 11,
      "##h": 12,
      "##i": 13,
      "##j": 14,
      "##k": 15,
      "##l": 16,
      "##m": 17,
      "##n": 18,
      "##o": 19,
      "##p": 20,
      "##q": 21,
      "##r": 22,
      "##s": 23,
      "##t": 24,
      "##u": 25,
      "##v": 26,
      "##w": 27,
      "##x": 28,
      "##y": 29,
      "##z": 30,
      "+": 31,
      "-": 32,
      "0": 33,
      "1": 34,
      "2": 35,
      "3": 36,
      "4": 37,
      "5": 38,
      "6": 39,
      "7": 40,
      "8": 41,
      "9": 42,
      "_": 43,
      "a": 44,
      "b": 45,
      "c": 46,
      "d": 47,
      "e": 48,
      "f": 49,
      "g": 50,
      "h": 51,
      "i": 52,
      "j": 53,
      "k": 54,
      "l": 55,
      "m": 56,
      "n": 57,
      "o": 58,
      "p": 59,
      "q": 60,
      "r": 61,
      "s": 62,
      "t": 63,
      "u": 64,
      "v": 65,
      "w": 66,
      "x": 67,
      "y": 68,
      "z": 69,
      ".js": 70,
      "abandon": 71,
      "abat": 72,
      "abbreviat": 73,
      "aberrant": 74,
      "abhor": 75,
      "abid": 76,
      "ability": 77,
      "ablat": 78,
      "able": 79,
      "aboli": 80,
      "abomina": 81,
      "abort": 82,
      "abound": 83,
      "about": 84,
      "above": 85,
      "abreast": 86,
      "abrogat": 87,
      "abrupt": 88,
      "abscond": 89,
      "absen": 90,
      "absolut": 91,
      "absorb": 92,
      "abstain": 93,
      "abstract": 94,
      "abundan": 95,
      "abus": 96,
      "academ": 97,
      "acced": 98,
      "accelerat": 99,
      "accent": 100,
      "accept": 101,
      "access": 102,
      "accident": 103,
      "acclaim": 104,
      "accommodat": 105,
      "accomplish": 106,
      "accord": 107,
      "account": 108,
      "accrue": 109,
      "accumulat": 110,
      "accur": 111,
      "accus": 112,
      "ache": 113,
      "achiev": 114,
      "acoust": 115,
      "acquaint": 116,
      "acquies": 117,
      "acquir": 118,
      "acquisition": 119,
      "acquit": 120,
      "acronym": 121,
      "act": 122,
      "action": 123,
      "activ": 124,
      "activat": 125,
      "actual": 126,
      "actuat": 127,
      "acute": 128,
      "ada": 129,
      "adapt": 130,
      "add": 131,
      "addendum": 132,
      "addict": 133,
      "addit": 134,
      "address": 135,
      "adept": 136,
      "adequat": 137,
      "adher": 138,
      "adjacen": 139,
      "adjectiv": 140,
      "adjoin": 141,
      "adjust": 142,
      "admin": 143,
      "admir": 144,
      "admiss": 145,
      "admit": 146,
      "adopt": 147,
      "ador": 148,
      "adorn": 149,
      "advanc": 150,
      "advantag": 151,
      "adventur": 152,
      "advers": 153,
      "advert": 154,
      "advic": 155,
      "advis": 156,
      "adware": 157,
      "affab": 158,
      "affair": 159,
      "affect": 160,
      "affiliat": 161,
      "affin": 162,
      "affirm": 163,
      "affix": 164,
      "afflict": 165,
      "afford": 166,
      "affront": 167,
      "afraid": 168,
      "after": 169,
      "again": 170,
      "against": 171,
      "age": 172,
      "agenc": 173,
      "agenda": 174,
      "agent": 175,
      "agglomerat": 176,
      "aggravat": 177,
      "aggregat": 178,
      "aggress": 179,
      "aghast": 180,
      "agil": 181,
      "agitat": 182,
      "ago": 183,
      "agree": 184,
      "ahead": 185,
      "aim": 186,
      "air": 187,
      "ajax": 188,
      "aka": 189,
      "al": 190,
      "alack": 191,
      "alacrit": 192,
      "alarm": 193,
      "alert": 194,
      "alex": 195,
      "algebra": 196,
      "algorithm": 197,
      "alias": 198,
      "align": 199,
      "alike": 200,
      "alive": 201,
      "all": 202,
      "alleg": 203,
      "allegor": 204,
      "alleviat": 205,
      "alli": 206,
      "allianc": 207,
      "allocat": 208,
      "allot": 209,
      "allow": 210,
      "allud": 211,
      "allus": 212,
      "ally": 213,
      "alone": 214,
      "along": 215,
      "aloud": 216,
      "alpha": 217,
      "alphabet": 218,
      "already": 219,
      "also": 220,
      "alter": 221,
      "alternat": 222,
      "although": 223,
      "always": 224,
      "am": 225,
      "amass": 226,
      "amaz": 227,
      "amazon": 228,
      "ambi": 229,
      "ambient": 230,
      "ambigu": 231,
      "ambit": 232,
      "amend": 233,
      "amiabl": 234,
      "amid": 235,
      "amiss": 236,
      "amo": 237,
      "among": 238,
      "amount": 239,
      "amper": 240,
      "ampersand": 241,
      "ampl": 242,
      "amplic": 243,
      "amplif": 244,
      "amplitud": 245,
      "amus": 246,
      "an": 247,
      "analog": 248,
      "analys": 249,
      "analytic": 250,
      "analyz": 251,
      "anchor": 252,
      "ancient": 253,
      "and": 254,
      "android": 255,
      "anew": 256,
      "angel": 257,
      "angl": 258,
      "angular": 259,
      "anim": 260,
      "animat": 261,
      "anneal": 262,
      "anniversary": 263,
      "annotat": 264,
      "announc": 265,
      "annoy": 266,
      "annual": 267,
      "anomal": 268,
      "anonym": 269,
      "ansi": 270,
      "ansible": 271,
      "answer": 272,
      "antenn": 273,
      "anti": 274,
      "anticipat": 275,
      "anxious": 276,
      "any": 277,
      "apache": 278,
      "apart": 279,
      "apartment": 280,
      "apertur": 281,
      "api": 282,
      "apolog": 283,
      "apostrophe": 284,
      "app": 285,
      "apparent": 286,
      "appeal": 287,
      "appear": 288,
      "appeas": 289,
      "appellation": 290,
      "append": 291,
      "appl": 292,
      "applaud": 293,
      "apple": 294,
      "applet": 295,
      "applianc": 296,
      "applic": 297,
      "appoint": 298,
      "apposit": 299,
      "apprais": 300,
      "apprecia": 301,
      "apprehen": 302,
      "approach": 303,
      "approb": 304,
      "appropriat": 305,
      "approv": 306,
      "approximat": 307,
      "april": 308,
      "apt": 309,
      "aptly": 310,
      "arbit": 311,
      "arch": 312,
      "architect": 313,
      "archiv": 314,
      "ardent": 315,
      "arduino": 316,
      "arduous": 317,
      "are": 318,
      "area": 319,
      "argu": 320,
      "argument": 321,
      "aris": 322,
      "arithmet": 323,
      "arm": 324,
      "around": 325,
      "arrang": 326,
      "array": 327,
      "arrear": 328,
      "arriv": 329,
      "arrogan": 330,
      "arrow": 331,
      "art": 332,
      "arti": 333,
      "articl": 334,
      "articulat": 335,
      "artist": 336,
      "as": 337,
      "asap": 338,
      "ascend": 339,
      "ascent": 340,
      "ascertain": 341,
      "ascii": 342,
      "ascrib": 343,
      "asham": 344,
      "aside": 345,
      "ask": 346,
      "asm": 347,
      "asp": 348,
      "aspect": 349,
      "asper": 350,
      "aspir": 351,
      "assail": 352,
      "assault": 353,
      "assembl": 354,
      "assent": 355,
      "assert": 356,
      "assess": 357,
      "asset": 358,
      "assid": 359,
      "assign": 360,
      "assist": 361,
      "associat": 362,
      "assort": 363,
      "assuag": 364,
      "assum": 365,
      "assur": 366,
      "assuranc": 367,
      "astonish": 368,
      "astound": 369,
      "astray": 370,
      "asunder": 371,
      "asymmetr": 372,
      "asymptot": 373,
      "async": 374,
      "atic": 375,
      "ativ": 376,
      "atlas": 377,
      "atmo": 378,
      "atom": 379,
      "aton": 380,
      "attach": 381,
      "attack": 382,
      "attain": 383,
      "attempt": 384,
      "attend": 385,
      "attent": 386,
      "attenuat": 387,
      "attest": 388,
      "attorn": 389,
      "attract": 390,
      "attribut": 391,
      "attrit": 392,
      "audi": 393,
      "audio": 394,
      "audit": 395,
      "augment": 396,
      "august": 397,
      "auth": 398,
      "authent": 399,
      "author": 400,
      "auto": 401,
      "autonom": 402,
      "autumn": 403,
      "auxiliar": 404,
      "avail": 405,
      "avatar": 406,
      "averag": 407,
      "avert": 408,
      "avoid": 409,
      "awak": 410,
      "award": 411,
      "aware": 412,
      "away": 413,
      "awe": 414,
      "awful": 415,
      "awk": 416,
      "aws": 417,
      "axes": 418,
      "axiom": 419,
      "axis": 420,
      "azure": 421,
      "back": 422,
      "bad": 423,
      "badg": 424,
      "baffl": 425,
      "bag": 426,
      "balanc": 427,
      "ball": 428,
      "ban": 429,
      "band": 430,
      "banish": 431,
      "bar": 432,
      "bas": 433,
      "base": 434,
      "bash": 435,
      "basic": 436,
      "basis": 437,
      "bat": 438,
      "batch": 439,
      "batter": 440,
      "battle": 441,
      "bayes": 442,
      "be": 443,
      "beam": 444,
      "bear": 445,
      "beat": 446,
      "beaut": 447,
      "became": 448,
      "because": 449,
      "becom": 450,
      "been": 451,
      "befor": 452,
      "beg": 453,
      "began": 454,
      "begin": 455,
      "begun": 456,
      "behav": 457,
      "behavio": 458,
      "behaviou": 459,
      "behind": 460,
      "belief": 461,
      "believ": 462,
      "bell": 463,
      "belong": 464,
      "bench": 465,
      "bend": 467,
      "beneath": 467,
      "benefic": 468,
      "benefit": 469,
      "bent": 470,
      "bereav": 471,
      "bereft": 472,
      "bert": 473,
      "beside": 474,
      "best": 475,
      "bestow": 476,
      "beta": 477,
      "betray": 478,
      "between": 479,
      "beyond": 480,
      "bi": 481,
      "bias": 482,
      "bifurcat": 483,
      "big": 484,
      "bigram": 485,
      "bill": 486,
      "bin": 487,
      "binanc": 488,
      "bind": 489,
      "bing": 490,
      "bio": 491,
      "bion": 492,
      "bios": 493,
      "bird": 494,
      "bisect": 495,
      "bit": 496,
      "black": 497,
      "blam": 498,
      "blank": 499,
      "bleak": 500,
      "blend": 501,
      "bless": 502,
      "blew": 503,
      "blind": 504,
      "blink": 505,
      "blob": 506,
      "block": 507,
      "blog": 508,
      "bloom": 509,
      "blossom": 510,
      "blow": 511,
      "blue": 512,
      "blund": 513,
      "blunt": 514,
      "blur": 515,
      "board": 516,
      "boast": 517,
      "body": 518,
      "boil": 519,
      "bold": 520,
      "bond": 521,
      "bone": 522,
      "bonus": 523,
      "book": 524,
      "bool": 525,
      "boom": 526,
      "boost": 527,
      "boot": 528,
      "bor": 529,
      "border": 530,
      "born": 531,
      "borrow": 532,
      "boss": 533,
      "bot": 534,
      "both": 535,
      "bother": 536,
      "bottle": 537,
      "bottom": 538,
      "bought": 539,
      "bounc": 540,
      "bound": 541,
      "bow": 542,
      "bowl": 543,
      "box": 544,
      "boy": 545,
      "brac": 546,
      "brack": 547,
      "brag": 548,
      "brain": 549,
      "brak": 550,
      "branch": 551,
      "brand": 552,
      "brave": 553,
      "breach": 554,
      "break": 555,
      "breath": 556,
      "brevity": 557,
      "bridg": 558,
      "brief": 559,
      "bright": 560,
      "bring": 561,
      "brisk": 562,
      "broach": 563,
      "broad": 564,
      "broke": 565,
      "brother": 566,
      "brought": 567,
      "brows": 568,
      "brush": 569,
      "btw": 570,
      "buch": 571,
      "bucket": 572,
      "budget": 573,
      "buf": 574,
      "bug": 575,
      "buil": 576,
      "bulk": 577,
      "bump": 578,
      "bunch": 579,
      "bundl": 580,
      "bur": 581,
      "burn": 582,
      "burst": 583,
      "bus": 584,
      "business": 585,
      "but": 586,
      "button": 587,
      "buy": 588,
      "by": 589,
      "bye": 590,
      "byte": 591,
      "cable": 592,
      "cach": 593,
      "cad": 594,
      "calcul": 595,
      "calendar": 596,
      "calibrat": 597,
      "call": 598,
      "calm": 599,
      "cam": 600,
      "came": 601,
      "camera": 602,
      "camp": 603,
      "campaign": 604,
      "campus": 605,
      "can": 606,
      "cancel": 607,
      "candid": 608,
      "candidat": 609,
      "canonical": 610,
      "canvas": 611,
      "capab": 612,
      "capacit": 613,
      "capital": 614,
      "caps": 615,
      "capsul": 616,
      "capt": 617,
      "captcha": 618,
      "caption": 619,
      "captivat": 620,
      "captur": 621,
      "car": 622,
      "card": 623,
      "cardinal": 624,
      "care": 625,
      "carr": 626,
      "cart": 627,
      "carv": 628,
      "cas": 629,
      "cascad": 630,
      "case": 631,
      "cast": 632,
      "catalog": 633,
      "catch": 634,
      "categor": 635,
      "caught": 636,
      "caus": 637,
      "cautio": 638,
      "cbow": 639,
      "ceas": 640,
      "ceil": 641,
      "celebrat": 642,
      "cell": 643,
      "center": 644,
      "centr": 645,
      "ceremon": 646,
      "certain": 647,
      "certif": 648,
      "chain": 649,
      "chair": 650,
      "challeng": 651,
      "champ": 652,
      "chanc": 653,
      "chang": 654,
      "channel": 655,
      "chao": 656,
      "chapt": 657,
      "char": 658,
      "character": 659,
      "charg": 660,
      "charit": 661,
      "charm": 662,
      "chart": 663,
      "chat": 664,
      "cheap": 665,
      "cheat": 666,
      "check": 667,
      "cheer": 668,
      "chief": 669,
      "child": 670,
      "chin": 671,
      "chip": 672,
      "choic": 673,
      "choos": 674,
      "chop": 675,
      "chose": 676,
      "chrom": 677,
      "chronologic": 678,
      "chunk": 679,
      "cipher": 680,
      "circl": 681,
      "circuit": 682,
      "circular": 683,
      "circulat": 684,
      "circum": 685,
      "cisco": 686,
      "citation": 687,
      "civil": 688,
      "claim": 689,
      "clamp": 690,
      "clarif": 691,
      "clarity": 692,
      "clash": 693,
      "class": 694,
      "classif": 695,
      "clause": 696,
      "clean": 697,
      "clear": 698,
      "clever": 699,
      "cli": 700,
      "click": 701,
      "client": 702,
      "climb": 703,
      "cling": 704,
      "clip": 705,
      "clobber": 706,
      "clock": 707,
      "clog": 708,
      "clon": 709,
      "clos": 710,
      "cloth": 711,
      "cloud": 712,
      "club": 713,
      "clue": 714,
      "cluster": 715,
      "clutter": 716,
      "cmd": 717,
      "cmos": 718,
      "cms": 719,
      "cnn": 720,
      "coach": 721,
      "coaxial": 722,
      "cobol": 723,
      "cocoa": 724,
      "cod": 725,
      "code": 726,
      "codif": 727,
      "coefficient": 728,
      "coffee": 729,
      "cofound": 730,
      "cognit": 731,
      "coheren": 732,
      "cohesi": 733,
      "coin": 734,
      "coincid": 735,
      "cold": 736,
      "collaborat": 737,
      "collaps": 738,
      "collat": 739,
      "colleague": 740,
      "collect": 741,
      "college": 742,
      "collid": 743,
      "collinear": 744,
      "collis": 745,
      "collud": 746,
      "collung": 747,
      "colon": 748,
      "color": 749,
      "colour": 750,
      "column": 751,
      "combat": 752,
      "combin": 753,
      "come": 754,
      "comfort": 755,
      "comfy": 756,
      "coming": 757,
      "comma": 758,
      "command": 759,
      "commenc": 760,
      "commend": 761,
      "comment": 762,
      "commerc": 763,
      "commiserat": 764,
      "commiss": 765,
      "commit": 766,
      "commodit": 767,
      "common": 768,
      "commun": 769,
      "communic": 770,
      "commut": 771,
      "compact": 772,
      "compan": 773,
      "compar": 774,
      "compass": 775,
      "compat": 776,
      "compel": 777,
      "compensat": 778,
      "compet": 779,
      "competen": 780,
      "compil": 781,
      "complacen": 782,
      "complai": 783,
      "complement": 784,
      "complet": 785,
      "complex": 786,
      "compli": 787,
      "complian": 788,
      "complicat": 789,
      "compliment": 790,
      "comply": 791,
      "component": 792,
      "compos": 793,
      "compound": 794,
      "comprehen": 795,
      "compres": 796,
      "compris": 797,
      "compromis": 798,
      "compuls": 799,
      "comput": 800,
      "computer": 801,
      "concatenat": 802,
      "concav": 803,
      "conceal": 804,
      "conced": 805,
      "conceit": 806,
      "conceiv": 807,
      "concentrat": 808,
      "concept": 809,
      "concern": 810,
      "concert": 811,
      "concess": 812,
      "conciliat": 813,
      "concis": 814,
      "conclud": 815,
      "conclusi": 816,
      "concord": 817,
      "concret": 818,
      "concurr": 819,
      "condemn": 820,
      "condens": 821,
      "condit": 822,
      "condolenc": 823,
      "conduc": 824,
      "conduct": 825,
      "cone": 826,
      "confer": 827,
      "conferenc": 828,
      "confes": 829,
      "confid": 830,
      "config": 831,
      "confin": 832,
      "confirm": 833,
      "conflat": 834,
      "conflict": 835,
      "confluen": 836,
      "conform": 837,
      "confound": 838,
      "confront": 839,
      "confus": 840,
      "congest": 841,
      "congrat": 842,
      "congratulat": 843,
      "congregat": 844,
      "congress": 845,
      "congru": 846,
      "congruent": 847,
      "conjectur": 848,
      "conjuga": 849,
      "conjunct": 850,
      "connect": 851,
      "conniv": 852,
      "conquer": 853,
      "conscious": 854,
      "consecutiv": 855,
      "consent": 856,
      "conserv": 857,
      "consider": 858,
      "consist": 859,
      "consol": 860,
      "consonan": 861,
      "conspic": 862,
      "conspir": 863,
      "const": 864,
      "constit": 865,
      "constrain": 866,
      "construct": 867,
      "consult": 868,
      "consum": 869,
      "contact": 870,
      "contain": 871,
      "contemp": 872,
      "contemplat": 873,
      "contempt": 874,
      "contend": 875,
      "content": 876,
      "contest": 877,
      "context": 878,
      "contigu": 879,
      "contingen": 880,
      "continu": 881,
      "contour": 882,
      "contr": 883,
      "contract": 884,
      "contradict": 885,
      "contrast": 886,
      "contribut": 887,
      "contrit": 888,
      "contriv": 889,
      "control": 890,
      "controver": 891,
      "conundrum": 892,
      "conv": 893,
      "conven": 894,
      "convenien": 895,
      "convent": 896,
      "converg": 897,
      "convers": 898,
      "convert": 899,
      "convex": 900,
      "convey": 901,
      "convict": 902,
      "convinc": 903,
      "conviv": 904,
      "convol": 905,
      "cook": 906,
      "cool": 907,
      "cooperat": 908,
      "coordinat": 909,
      "copi": 910,
      "copy": 911,
      "cord": 912,
      "core": 913,
      "corner": 914,
      "corollar": 915,
      "coroutin": 916,
      "corpora": 917,
      "corpus": 918,
      "correct": 919,
      "correlat": 920,
      "correspond": 921,
      "corroborat": 922,
      "corrupt": 923,
      "cosin": 924,
      "cost": 925,
      "couch": 926,
      "could": 927,
      "counsel": 928,
      "count": 929,
      "coupl": 930,
      "courag": 931,
      "cours": 932,
      "couth": 933,
      "cover": 934,
      "covet": 935,
      "cpu": 936,
      "crack": 937,
      "craft": 938,
      "cramp": 939,
      "crank": 940,
      "crash": 941,
      "crav": 942,
      "crawl": 943,
      "creat": 944,
      "creden": 945,
      "credib": 946,
      "credit": 947,
      "cri": 948,
      "crim": 949,
      "cris": 950,
      "criteri": 951,
      "critic": 952,
      "critique": 953,
      "crm": 954,
      "croach": 955,
      "cron": 956,
      "crop": 957,
      "cross": 958,
      "crowd": 959,
      "crucial": 960,
      "crude": 961,
      "crumbl": 962,
      "crunch": 963,
      "crush": 964,
      "crux": 965,
      "cry": 966,
      "crypt": 967,
      "crypto": 968,
      "crystal": 969,
      "css": 970,
      "cub": 971,
      "cuda": 972,
      "cull": 973,
      "culminat": 974,
      "cultivat": 975,
      "cultur": 976,
      "cumulat": 977,
      "cur": 978,
      "curat": 979,
      "curio": 980,
      "curl": 981,
      "currenc": 982,
      "current": 983,
      "cursor": 984,
      "curtail": 985,
      "curv": 986,
      "custom": 987,
      "cut": 988,
      "cyber": 989,
      "cycl": 990,
      "dabbl": 991,
      "daemon": 992,
      "damag": 993,
      "damp": 994,
      "danc": 995,
      "dang": 996,
      "danger": 997,
      "dangl": 998,
      "dar": 999,
      "dark": 1000,
      "darl": 1001,
      "dart": 1002,
      "dash": 1003,
      "dat": 1004,
      "data": 1005,
      "date": 1006,
      "daughter": 1007,
      "daunt": 1008,
      "dawdl": 1009,
      "day": 1010,
      "dbc": 1011,
      "dbms": 1012,
      "ddr": 1013,
      "dead": 1014,
      "deal": 1015,
      "dear": 1016,
      "debat": 1017,
      "debug": 1018,
      "debut": 1019,
      "decad": 1020,
      "decay": 1021,
      "deceit": 1022,
      "deceiv": 1023,
      "decelerat": 1024,
      "december": 1025,
      "decen": 1026,
      "decentraliz": 1027,
      "decept": 1028,
      "decid": 1029,
      "decimal": 1030,
      "decisi": 1031,
      "declar": 1032,
      "declin": 1033,
      "decorat": 1034,
      "decreas": 1035,
      "decrement": 1036,
      "dedicat": 1037,
      "deduc": 1038,
      "deed": 1039,
      "deem": 1040,
      "deep": 1041,
      "default": 1042,
      "defeat": 1043,
      "defect": 1044,
      "defenc": 1045,
      "defend": 1046,
      "defens": 1047,
      "defer": 1048,
      "defi": 1049,
      "defian": 1050,
      "defic": 1051,
      "defin": 1052,
      "definit": 1053,
      "deflat": 1054,
      "deflect": 1055,
      "deform": 1056,
      "deft": 1057,
      "defus": 1058,
      "degrad": 1059,
      "degree": 1060,
      "delay": 1061,
      "delegat": 1062,
      "delet": 1063,
      "deliberat": 1064,
      "delic": 1065,
      "delight": 1066,
      "deliver": 1067,
      "delphi": 1068,
      "delta": 1069,
      "delv": 1070,
      "demand": 1071,
      "demo": 1072,
      "demodulat": 1073,
      "demolish": 1074,
      "demonstra": 1075,
      "demot": 1076,
      "deni": 1077,
      "dens": 1078,
      "densif": 1079,
      "depart": 1080,
      "department": 1081,
      "depend": 1082,
      "depict": 1083,
      "deplet": 1084,
      "deploy": 1085,
      "deposit": 1086,
      "deprecat": 1087,
      "depreciat": 1088,
      "depreciate": 1089,
      "depress": 1090,
      "depriv": 1091,
      "depth": 1092,
      "deput": 1093,
      "deque": 1094,
      "deriv": 1095,
      "descen": 1096,
      "descri": 1097,
      "describ": 1098,
      "descript": 1099,
      "desert": 1100,
      "deserv": 1101,
      "design": 1102,
      "desir": 1103,
      "desk": 1104,
      "despit": 1105,
      "destin": 1106,
      "destroy": 1107,
      "destruct": 1108,
      "detach": 1109,
      "detail": 1110,
      "detain": 1111,
      "detect": 1112,
      "determin": 1113,
      "detract": 1114,
      "dev": 1115,
      "devalu": 1116,
      "devastat": 1117,
      "develop": 1118,
      "deviat": 1119,
      "devic": 1120,
      "devis": 1121,
      "devoid": 1122,
      "devolv": 1123,
      "devot": 1124,
      "dexter": 1125,
      "dia": 1126,
      "diagnos": 1127,
      "diagonal": 1128,
      "dial": 1129,
      "dialect": 1130,
      "dialog": 1131,
      "dict": 1132,
      "dictat": 1133,
      "did": 1134,
      "die": 1135,
      "diff": 1136,
      "differ": 1137,
      "differentia": 1138,
      "difficult": 1139,
      "diffiden": 1140,
      "diffus": 1141,
      "dig": 1142,
      "digit": 1143,
      "dignit": 1144,
      "dilat": 1145,
      "dilemma": 1146,
      "diligen": 1147,
      "dilut": 1148,
      "dimens": 1149,
      "diminish": 1150,
      "dinner": 1151,
      "diod": 1152,
      "dire": 1153,
      "direct": 1154,
      "dirt": 1155,
      "dis": 1156,
      "disabl": 1157,
      "disappoint": 1158,
      "discard": 1159,
      "discern": 1160,
      "disciplin": 1161,
      "discord": 1162,
      "discount": 1163,
      "discourag": 1164,
      "discover": 1165,
      "discreet": 1166,
      "discrep": 1167,
      "discret": 1168,
      "discriminant": 1169,
      "discriminat": 1170,
      "discuss": 1171,
      "disdain": 1172,
      "disgrac": 1173,
      "disguis": 1174,
      "disgust": 1175,
      "dish": 1176,
      "disjoin": 1177,
      "disk": 1178,
      "dismal": 1179,
      "dismiss": 1180,
      "dispar": 1181,
      "dispens": 1182,
      "dispers": 1183,
      "display": 1184,
      "dispos": 1185,
      "disposit": 1186,
      "disput": 1187,
      "disrupt": 1188,
      "dissent": 1189,
      "dissipat": 1190,
      "dissonan": 1191,
      "dissuad": 1192,
      "distan": 1193,
      "distill": 1194,
      "distinct": 1195,
      "distinguish": 1196,
      "distort": 1197,
      "distract": 1198,
      "distress": 1199,
      "distribut": 1200,
      "disturb": 1201,
      "div": 1202,
      "diverg": 1203,
      "divers": 1204,
      "diversif": 1205,
      "divert": 1206,
      "divid": 1207,
      "divis": 1208,
      "django": 1209,
      "dll": 1210,
      "dnn": 1211,
      "do": 1212,
      "doat": 1213,
      "doc": 1214,
      "dock": 1215,
      "docker": 1216,
      "doctrin": 1217,
      "document": 1218,
      "dole": 1219,
      "dom": 1220,
      "domain": 1221,
      "domestic": 1222,
      "dominan": 1223,
      "dominat": 1224,
      "donat": 1225,
      "doom": 1226,
      "door": 1227,
      "dos": 1228,
      "dot": 1229,
      "doth": 1230,
      "doubl": 1231,
      "doubt": 1232,
      "down": 1233,
      "draft": 1234,
      "drag": 1235,
      "drain": 1236,
      "dram": 1237,
      "drama": 1238,
      "drank": 1240,
      "drastic": 1240,
      "draw": 1241,
      "dread": 1242,
      "dream": 1243,
      "dress": 1244,
      "drew": 1245,
      "drill": 1246,
      "drink": 1247,
      "driv": 1248,
      "dron": 1249,
      "drop": 1250,
      "drown": 1251,
      "drunk": 1252,
      "drupal": 1253,
      "dry": 1254,
      "dual": 1255,
      "dub": 1256,
      "duc": 1257,
      "duck": 1258,
      "due": 1259,
      "dull": 1260,
      "dump": 1261,
      "duo": 1262,
      "dup": 1263,
      "dupl": 1264,
      "durab": 1265,
      "duration": 1266,
      "during": 1268,
      "dusk": 1268,
      "dust": 1269,
      "dut": 1270,
      "dwel": 1271,
      "dwindl": 1272,
      "dynam": 1273,
      "each": 1274,
      "eager": 1275,
      "ear": 1276,
      "earl": 1277,
      "earn": 1279,
      "earth": 1279,
      "eas": 1280,
      "east": 1281,
      "eat": 1282,
      "ebriet": 1283,
      "echo": 1284,
      "eclips": 1285,
      "ecma": 1286,
      "ecolog": 1287,
      "econom": 1288,
      "ed": 1289,
      "edge": 1290,
      "edit": 1291,
      "educat": 1292,
      "effect": 1293,
      "effic": 1294,
      "efficien": 1295,
      "effort": 1296,
      "eigen": 1297,
      "eight": 1298,
      "either": 1299,
      "eject": 1300,
      "elaborat": 1301,
      "elaps": 1302,
      "elastic": 1303,
      "elde": 1304,
      "elect": 1305,
      "electr": 1307,
      "electrif": 1307,
      "electron": 1308,
      "elegan": 1309,
      "element": 1310,
      "elevat": 1311,
      "elicit": 1312,
      "eligib": 1313,
      "eliminat": 1314,
      "ellip": 1315,
      "elongat": 1316,
      "else": 1317,
      "elucidat": 1318,
      "elud": 1319,
      "elusiv": 1320,
      "embark": 1321,
      "embarrass": 1322,
      "embed": 1323,
      "embellish": 1324,
      "ember": 1325,
      "emblem": 1326,
      "embod": 1327,
      "embrac": 1328,
      "emerg": 1329,
      "eminen": 1330,
      "emiss": 1331,
      "emit": 1332,
      "emotion": 1333,
      "emphas": 1334,
      "emphat": 1335,
      "empir": 1336,
      "employ": 1337,
      "empt": 1338,
      "emulat": 1339,
      "enabl": 1340,
      "encapsulat": 1341,
      "enchant": 1342,
      "encumb": 1343,
      "end": 1344,
      "endeav": 1345,
      "endors": 1346,
      "endur": 1347,
      "enem": 1348,
      "energ": 1349,
      "enforc": 1350,
      "engag": 1351,
      "engine": 1352,
      "engross": 1353,
      "enhanc": 1354,
      "enjoy": 1355,
      "enlarg": 1356,
      "enough": 1357,
      "enquir": 1358,
      "enroll": 1359,
      "ensembl": 1360,
      "ensu": 1361,
      "ensur": 1362,
      "entail": 1363,
      "entangl": 1364,
      "enter": 1365,
      "enterpris": 1366,
      "entertain": 1367,
      "enthusiast": 1368,
      "entic": 1369,
      "entire": 1370,
      "entit": 1371,
      "entitl": 1372,
      "entr": 1373,
      "entrain": 1374,
      "entrance": 1375,
      "entrant": 1376,
      "entrap": 1377,
      "entre": 1378,
      "entreat": 1379,
      "entrench": 1380,
      "entrop": 1382,
      "entropic": 1382,
      "entrust": 1383,
      "enum": 1384,
      "enumer": 1385,
      "envelop": 1386,
      "envi": 1387,
      "environ": 1388,
      "envision": 1389,
      "epic": 1390,
      "epilog": 1391,
      "episod": 1392,
      "epoch": 1393,
      "equal": 1394,
      "equaliz": 1395,
      "equat": 1396,
      "equi": 1397,
      "equip": 1398,
      "equit": 1399,
      "er": 1400,
      "eradicate": 1401,
      "eras": 1402,
      "ergonom": 1403,
      "erlang": 1404,
      "errand": 1405,
      "errant": 1406,
      "erroneous": 1407,
      "error": 1408,
      "es": 1409,
      "escalat": 1410,
      "escap": 1411,
      "escort": 1412,
      "especial": 1413,
      "essen": 1414,
      "essential": 1415,
      "establish": 1416,
      "estate": 1417,
      "esteem": 1418,
      "estima": 1419,
      "etc": 1420,
      "etern": 1421,
      "ether": 1422,
      "euclid": 1423,
      "euler": 1424,
      "euro": 1425,
      "evad": 1426,
      "evaluat": 1427,
      "evaporat": 1428,
      "evas": 1429,
      "even": 1430,
      "evening": 1431,
      "event": 1432,
      "ever": 1433,
      "every": 1434,
      "evict": 1435,
      "eviden": 1436,
      "evok": 1437,
      "evolut": 1438,
      "evolv": 1439,
      "exact": 1440,
      "exaggerat": 1441,
      "exam": 1442,
      "examin": 1443,
      "exampl": 1444,
      "exceed": 1445,
      "excel": 1446,
      "except": 1447,
      "excess": 1448,
      "excit": 1449,
      "exclud": 1450,
      "exclus": 1451,
      "exclusiv": 1452,
      "excus": 1453,
      "exec": 1454,
      "execut": 1455,
      "exempl": 1456,
      "exempt": 1457,
      "exercis": 1458,
      "exert": 1459,
      "exhaust": 1460,
      "exhibit": 1461,
      "exigen": 1462,
      "exist": 1463,
      "exit": 1464,
      "expand": 1465,
      "expans": 1466,
      "expect": 1467,
      "expedien": 1468,
      "expedit": 1469,
      "expedite": 1470,
      "expend": 1471,
      "expens": 1472,
      "experien": 1473,
      "experiment": 1474,
      "expert": 1475,
      "expir": 1476,
      "explain": 1477,
      "explanat": 1478,
      "explic": 1479,
      "explod": 1480,
      "exploit": 1481,
      "explor": 1482,
      "explos": 1483,
      "exponent": 1484,
      "export": 1485,
      "expos": 1486,
      "expound": 1487,
      "express": 1488,
      "exten": 1489,
      "extenuat": 1490,
      "exterior": 1491,
      "extern": 1492,
      "extinguish": 1493,
      "extra": 1494,
      "extract": 1495,
      "extrapolat": 1496,
      "extravagan": 1497,
      "extrem": 1498,
      "extricat": 1499,
      "extrinsic": 1500,
      "exult": 1501,
      "eye": 1502,
      "fabl": 1503,
      "fabric": 1504,
      "fac": 1505,
      "face": 1506,
      "facilit": 1507,
      "fact": 1508,
      "factor": 1509,
      "fad": 1510,
      "fail": 1511,
      "faint": 1512,
      "fair": 1514,
      "faith": 1514,
      "fake": 1515,
      "fall": 1516,
      "false": 1517,
      "fame": 1518,
      "famil": 1519,
      "familiar": 1520,
      "famous": 1521,
      "fan": 1522,
      "fanc": 1523,
      "fantas": 1524,
      "faq": 1525,
      "far": 1526,
      "fare": 1527,
      "farth": 1528,
      "fascinat": 1529,
      "fashion": 1530,
      "fast": 1531,
      "fasten": 1532,
      "fastidious": 1533,
      "fat": 1534,
      "fatal": 1535,
      "father": 1536,
      "fatig": 1537,
      "fault": 1538,
      "favo": 1539,
      "fear": 1540,
      "feasib": 1541,
      "featur": 1542,
      "february": 1543,
      "federal": 1544,
      "federat": 1545,
      "feebl": 1546,
      "feed": 1547,
      "feel": 1548,
      "fees": 1549,
      "feet": 1550,
      "feign": 1551,
      "felic": 1552,
      "fell": 1553,
      "fellow": 1554,
      "felt": 1555,
      "female": 1556,
      "femin": 1557,
      "fenc": 1558,
      "fend": 1559,
      "festiv": 1560,
      "fetch": 1561,
      "few": 1562,
      "ficat": 1563,
      "ficial": 1564,
      "fickl": 1565,
      "fide": 1566,
      "fidel": 1567,
      "fidget": 1568,
      "field": 1569,
      "fift": 1570,
      "fight": 1571,
      "figur": 1572,
      "file": 1573,
      "fill": 1574,
      "filt": 1575,
      "filtrat": 1576,
      "fin": 1577,
      "final": 1578,
      "financ": 1579,
      "find": 1580,
      "fine": 1581,
      "finger": 1582,
      "finish": 1583,
      "finit": 1584,
      "fir": 1585,
      "fire": 1586,
      "firm": 1587,
      "first": 1588,
      "fish": 1589,
      "fit": 1590,
      "five": 1591,
      "fix": 1592,
      "fixat": 1593,
      "flag": 1594,
      "flam": 1595,
      "flare": 1596,
      "flash": 1597,
      "flask": 1598,
      "flat": 1599,
      "flav": 1600,
      "flaw": 1601,
      "flect": 1602,
      "fled": 1603,
      "flee": 1604,
      "fleet": 1605,
      "flew": 1606,
      "flex": 1607,
      "fli": 1608,
      "flick": 1609,
      "flight": 1610,
      "fling": 1611,
      "flip": 1612,
      "flirt": 1613,
      "float": 1614,
      "flock": 1615,
      "flood": 1616,
      "floor": 1617,
      "flopp": 1618,
      "flourish": 1619,
      "flow": 1620,
      "fluctuat": 1621,
      "fluen": 1622,
      "fluff": 1623,
      "flung": 1624,
      "flurr": 1625,
      "flush": 1626,
      "flutter": 1627,
      "flux": 1628,
      "fly": 1629,
      "focal": 1630,
      "focus": 1631,
      "fold": 1632,
      "foll": 1633,
      "follow": 1634,
      "fond": 1635,
      "font": 1636,
      "food": 1637,
      "fool": 1638,
      "foot": 1639,
      "fopp": 1640,
      "for": 1641,
      "foray": 1642,
      "forb": 1643,
      "forbid": 1644,
      "forc": 1645,
      "fore": 1646,
      "forebod": 1647,
      "foresee": 1648,
      "forest": 1649,
      "foretell": 1650,
      "forever": 1651,
      "forfeit": 1652,
      "forgav": 1653,
      "forge": 1654,
      "forget": 1655,
      "forgiv": 1656,
      "forgo": 1657,
      "forgot": 1658,
      "fork": 1659,
      "form": 1660,
      "formaliz": 1661,
      "format": 1662,
      "formul": 1663,
      "formulat": 1664,
      "forswear": 1665,
      "forth": 1666,
      "fortif": 1667,
      "fortran": 1668,
      "fortun": 1669,
      "forum": 1670,
      "forward": 1671,
      "fought": 1672,
      "found": 1673,
      "four": 1674,
      "fox": 1675,
      "fps": 1676,
      "fract": 1677,
      "fraction": 1678,
      "fragil": 1679,
      "fragment": 1680,
      "fragran": 1681,
      "fram": 1682,
      "framework": 1683,
      "franca": 1684,
      "frantic": 1685,
      "fraud": 1686,
      "free": 1687,
      "freez": 1688,
      "frequen": 1689,
      "fresh": 1690,
      "fri": 1691,
      "friend": 1692,
      "fright": 1693,
      "from": 1694,
      "front": 1695,
      "froz": 1696,
      "frugal": 1697,
      "fruit": 1698,
      "frustrat": 1699,
      "frustum": 1700,
      "ftp": 1701,
      "fuck": 1702,
      "fuel": 1703,
      "ful": 1704,
      "fulfil": 1705,
      "full": 1706,
      "fumbl": 1707,
      "fun": 1708,
      "func": 1709,
      "fund": 1710,
      "fundament": 1711,
      "funder": 1712,
      "fungib": 1713,
      "funnel": 1714,
      "furbish": 1715,
      "furcat": 1716,
      "further": 1717,
      "fus": 1718,
      "futur": 1719,
      "fuzz": 1720,
      "gadget": 1721,
      "gain": 1722,
      "gallant": 1723,
      "galler": 1724,
      "gam": 1725,
      "gambl": 1726,
      "game": 1727,
      "gamif": 1728,
      "gan": 1729,
      "gap": 1730,
      "garbag": 1731,
      "garment": 1732,
      "gat": 1733,
      "gather": 1734,
      "gaug": 1735,
      "gauss": 1736,
      "gave": 1737,
      "gaz": 1738,
      "gb": 1739,
      "gcc": 1740,
      "geek": 1741,
      "gem": 1743,
      "gemini": 1743,
      "gen": 1744,
      "gener": 1745,
      "general": 1746,
      "generat": 1747,
      "generic": 1748,
      "genet": 1749,
      "geni": 1750,
      "gentl": 1751,
      "genuin": 1752,
      "geo": 1753,
      "gestur": 1754,
      "get": 1756,
      "gether": 1756,
      "ghost": 1757,
      "giant": 1758,
      "gift": 1759,
      "gig": 1760,
      "giga": 1761,
      "gigant": 1762,
      "girl": 1763,
      "gist": 1764,
      "git": 1765,
      "giv": 1766,
      "glad": 1767,
      "glanc": 1768,
      "glar": 1769,
      "glass": 1770,
      "glean": 1771,
      "glee": 1772,
      "glimps": 1773,
      "glitch": 1774,
      "glob": 1775,
      "gloom": 1776,
      "glor": 1777,
      "gloss": 1778,
      "glow": 1779,
      "glue": 1780,
      "glyph": 1781,
      "gnome": 1782,
      "gnu": 1783,
      "go": 1784,
      "goal": 1785,
      "gold": 1786,
      "gonal": 1787,
      "good": 1788,
      "googl": 1789,
      "gorgeous": 1790,
      "got": 1791,
      "goto": 1792,
      "govern": 1793,
      "gps": 1794,
      "gpt": 1795,
      "gpu": 1796,
      "grab": 1797,
      "grace": 1798,
      "gracious": 1799,
      "grad": 1800,
      "gradat": 1801,
      "gradient": 1802,
      "gradl": 1803,
      "gradual": 1804,
      "graduat": 1805,
      "gram": 1806,
      "gramm": 1807,
      "grand": 1808,
      "grant": 1809,
      "granular": 1810,
      "graph": 1811,
      "graphic": 1812,
      "grappl": 1813,
      "grasp": 1814,
      "grat": 1815,
      "grate": 1816,
      "gratif": 1818,
      "grav": 1818,
      "gravit": 1819,
      "gray": 1820,
      "great": 1821,
      "greed": 1822,
      "greet": 1823,
      "grep": 1824,
      "grew": 1825,
      "grid": 1826,
      "griev": 1827,
      "grind": 1828,
      "grip": 1829,
      "groom": 1830,
      "groov": 1831,
      "gross": 1832,
      "ground": 1833,
      "group": 1834,
      "grow": 1835,
      "grpc": 1836,
      "grudg": 1837,
      "gruel": 1838,
      "grunt": 1839,
      "gsm": 1840,
      "guarante": 1841,
      "guard": 1842,
      "guess": 1843,
      "guest": 1844,
      "gui": 1845,
      "guid": 1846,
      "guilt": 1847,
      "habit": 1848,
      "hack": 1849,
      "hackathon": 1850,
      "had": 1851,
      "hadoop": 1852,
      "hail": 1853,
      "half": 1854,
      "halt": 1855,
      "hamper": 1856,
      "hand": 1857,
      "handl": 1858,
      "hang": 1859,
      "happ": 1860,
      "happen": 1861,
      "hapt": 1862,
      "hard": 1863,
      "harm": 1864,
      "harmon": 1865,
      "harness": 1866,
      "harsh": 1867,
      "has": 1868,
      "hash": 1869,
      "haskell": 1870,
      "hassl": 1871,
      "hast": 1872,
      "hat": 1873,
      "haul": 1874,
      "haunt": 1875,
      "hav": 1876,
      "hazard": 1877,
      "hdd": 1878,
      "hdmi": 1879,
      "he": 1880,
      "head": 1882,
      "heal": 1882,
      "health": 1883,
      "heap": 1884,
      "hear": 1885,
      "heart": 1886,
      "heat": 1887,
      "heather": 1888,
      "heav": 1889,
      "heaven": 1890,
      "hedron": 1891,
      "height": 1892,
      "heir": 1893,
      "held": 1894,
      "hello": 1895,
      "help": 1896,
      "hence": 1897,
      "her": 1898,
      "here": 1899,
      "hereby": 1900,
      "hesitat": 1901,
      "heter": 1902,
      "heuristic": 1903,
      "hex": 1904,
      "hi": 1905,
      "hiber": 1906,
      "hid": 1907,
      "hierarch": 1908,
      "high": 1909,
      "hijack": 1910,
      "him": 1911,
      "hinder": 1912,
      "hindranc": 1913,
      "hint": 1914,
      "hir": 1915,
      "his": 1916,
      "hist": 1917,
      "histor": 1918,
      "hit": 1920,
      "hither": 1920,
      "hiv": 1921,
      "hold": 1922,
      "holi": 1923,
      "holistic": 1924,
      "holo": 1925,
      "home": 1926,
      "homo": 1927,
      "homogen": 1928,
      "honest": 1929,
      "honour": 1930,
      "hood": 1931,
      "hook": 1933,
      "hop": 1933,
      "horizon": 1934,
      "horribl": 1935,
      "horror": 1936,
      "hospit": 1937,
      "host": 1938,
      "hot": 1939,
      "hour": 1940,
      "house": 1941,
      "hover": 1942,
      "how": 1943,
      "html": 1944,
      "http": 1945,
      "hub": 1946,
      "huge": 1947,
      "human": 1948,
      "humbl": 1949,
      "humour": 1950,
      "hundred": 1951,
      "hung": 1952,
      "hunt": 1953,
      "hurr": 1954,
      "hurt": 1955,
      "husband": 1956,
      "hush": 1957,
      "hybrid": 1958,
      "hype": 1959,
      "hyper": 1960,
      "hypoth": 1961,
      "ic": 1962,
      "icon": 1963,
      "idea": 1964,
      "ideal": 1965,
      "ident": 1966,
      "identif": 1968,
      "idiom": 1968,
      "idol": 1969,
      "ight": 1970,
      "ignit": 1971,
      "ignor": 1972,
      "ill": 1973,
      "illuminat": 1974,
      "illus": 1975,
      "illustrat": 1976,
      "imag": 1977,
      "imagin": 1978,
      "imbue": 1979,
      "imburs": 1980,
      "imitat": 1981,
      "immediat": 1982,
      "immens": 1983,
      "immers": 1984,
      "imminent": 1985,
      "immut": 1986,
      "impact": 1987,
      "impair": 1988,
      "impart": 1989,
      "imped": 1990,
      "impel": 1991,
      "impend": 1992,
      "impersonat": 1993,
      "impertinen": 1994,
      "impet": 1995,
      "impl": 1996,
      "implant": 1997,
      "implement": 1998,
      "implicat": 1999,
      "implicit": 2000,
      "import": 2002,
      "impos": 2002,
      "impossibl": 2003,
      "impress": 2004,
      "improv": 2005,
      "impuden": 2006,
      "impuls": 2007,
      "impur": 2008,
      "imput": 2009,
      "inasmuch": 2010,
      "inaugurat": 2011,
      "incent": 2012,
      "incept": 2013,
      "inch": 2014,
      "incident": 2015,
      "incit": 2016,
      "inclin": 2017,
      "includ": 2018,
      "inclus": 2019,
      "incognito": 2020,
      "increas": 2021,
      "incredibl": 2022,
      "increment": 2023,
      "incubat": 2024,
      "incur": 2025,
      "indebt": 2026,
      "indeed": 2027,
      "indelibl": 2028,
      "indent": 2029,
      "index": 2030,
      "indic": 2031,
      "indicat": 2032,
      "indign": 2033,
      "individual": 2034,
      "indolen": 2035,
      "indub": 2036,
      "induc": 2038,
      "induct": 2038,
      "indulg": 2039,
      "industr": 2040,
      "inert": 2041,
      "infatuat": 2042,
      "infect": 2043,
      "infer": 2044,
      "inflat": 2045,
      "inflect": 2046,
      "inflict": 2047,
      "info": 2048,
      "inforc": 2049,
      "inform": 2050,
      "infra": 2051,
      "infring": 2052,
      "infus": 2053,
      "ing": 2054,
      "ingen": 2055,
      "ingest": 2056,
      "ingrain": 2057,
      "ingrat": 2058,
      "ingress": 2059,
      "inherent": 2060,
      "inherit": 2061,
      "inhibit": 2062,
      "inimitab": 2063,
      "init": 2064,
      "initiat": 2065,
      "inject": 2066,
      "injur": 2067,
      "ink": 2068,
      "inlin": 2069,
      "innate": 2070,
      "inner": 2071,
      "inno": 2072,
      "innocent": 2073,
      "innovat": 2074,
      "input": 2075,
      "inquir": 2076,
      "insan": 2077,
      "insert": 2078,
      "insight": 2079,
      "insinuat": 2080,
      "insist": 2081,
      "inso": 2082,
      "insolen": 2083,
      "inspect": 2084,
      "inspir": 2085,
      "inst": 2086,
      "instabil": 2087,
      "install": 2088,
      "instanc": 2089,
      "instant": 2090,
      "instat": 2091,
      "instead": 2092,
      "instigat": 2093,
      "instinct": 2094,
      "institut": 2095,
      "instruct": 2096,
      "instrument": 2097,
      "insuff": 2098,
      "insult": 2099,
      "insur": 2100,
      "intact": 2101,
      "integr": 2102,
      "intel": 2103,
      "intellect": 2104,
      "intelli": 2105,
      "inten": 2106,
      "intend": 2107,
      "intens": 2108,
      "intent": 2109,
      "inter": 2110,
      "interact": 2111,
      "intercept": 2112,
      "interest": 2113,
      "interfac": 2114,
      "interfer": 2115,
      "interim": 2116,
      "intermiss": 2117,
      "intern": 2118,
      "internet": 2119,
      "interpolat": 2120,
      "interpret": 2121,
      "interrupt": 2122,
      "interval": 2123,
      "interven": 2124,
      "intim": 2125,
      "into": 2126,
      "intra": 2127,
      "intract": 2128,
      "intric": 2129,
      "intrigu": 2130,
      "intrinsic": 2131,
      "intro": 2132,
      "intrusiv": 2133,
      "intuit": 2134,
      "inur": 2135,
      "invad": 2136,
      "invasi": 2137,
      "invent": 2138,
      "invers": 2139,
      "invert": 2140,
      "invest": 2141,
      "investigat": 2142,
      "invigorat": 2143,
      "invit": 2144,
      "invocat": 2145,
      "invok": 2146,
      "involv": 2147,
      "ion": 2148,
      "is": 2149,
      "isolat": 2150,
      "issu": 2151,
      "istic": 2152,
      "it": 2153,
      "item": 2154,
      "itera": 2155,
      "ity": 2156,
      "jam": 2157,
      "january": 2158,
      "jasmin": 2159,
      "java": 2160,
      "jdk": 2161,
      "jdo": 2162,
      "jealous": 2163,
      "jenkins": 2164,
      "jest": 2165,
      "jet": 2166,
      "jinja": 2167,
      "jira": 2168,
      "jitter": 2169,
      "job": 2170,
      "joic": 2171,
      "join": 2172,
      "jok": 2173,
      "joomla": 2174,
      "jott": 2175,
      "journ": 2176,
      "journal": 2177,
      "joy": 2178,
      "jpeg": 2179,
      "jpg": 2180,
      "jre": 2181,
      "json": 2182,
      "judg": 2183,
      "judic": 2184,
      "juggl": 2185,
      "july": 2186,
      "jump": 2187,
      "junct": 2188,
      "june": 2189,
      "junior": 2190,
      "junk": 2191,
      "jupyter": 2192,
      "just": 2193,
      "justic": 2194,
      "justif": 2195,
      "jut": 2196,
      "jvm": 2197,
      "jwt": 2198,
      "kanban": 2199,
      "kde": 2200,
      "keen": 2201,
      "keep": 2202,
      "kept": 2204,
      "keras": 2204,
      "kernel": 2205,
      "key": 2206,
      "kick": 2207,
      "kill": 2208,
      "kilo": 2209,
      "kind": 2210,
      "king": 2211,
      "kit": 2212,
      "kivy": 2213,
      "knack": 2214,
      "knew": 2215,
      "knock": 2216,
      "know": 2217,
      "knowledg": 2218,
      "kotlin": 2219,
      "kubernet": 2220,
      "lab": 2221,
      "label": 2222,
      "labo": 2223,
      "laborator": 2224,
      "lace": 2225,
      "lack": 2226,
      "lag": 2227,
      "lagrang": 2228,
      "laid": 2229,
      "lambd": 2230,
      "lan": 2231,
      "lanc": 2232,
      "land": 2233,
      "lang": 2234,
      "languag": 2235,
      "lap": 2236,
      "laps": 2237,
      "laravel": 2238,
      "large": 2239,
      "lash": 2240,
      "last": 2241,
      "latch": 2242,
      "late": 2243,
      "laten": 2244,
      "lateral": 2245,
      "latin": 2246,
      "latitud": 2247,
      "latter": 2248,
      "laugh": 2249,
      "launch": 2250,
      "lavish": 2251,
      "law": 2252,
      "lay": 2253,
      "layer": 2254,
      "layout": 2255,
      "laz": 2256,
      "lda": 2257,
      "lead": 2258,
      "leaf": 2259,
      "leak": 2260,
      "lean": 2261,
      "leap": 2262,
      "learn": 2263,
      "leas": 2264,
      "leav": 2265,
      "lect": 2266,
      "led": 2267,
      "left": 2268,
      "legac": 2269,
      "legal": 2270,
      "legend": 2271,
      "legib": 2272,
      "legitim": 2273,
      "lemma": 2274,
      "lend": 2275,
      "length": 2276,
      "lens": 2277,
      "lent": 2278,
      "less": 2279,
      "lesson": 2280,
      "let": 2281,
      "letter": 2282,
      "level": 2283,
      "leverag": 2284,
      "leverat": 2285,
      "lexic": 2287,
      "liab": 2287,
      "lib": 2288,
      "liberal": 2289,
      "libert": 2290,
      "libr": 2291,
      "licens": 2292,
      "licentious": 2293,
      "lidar": 2294,
      "lie": 2295,
      "life": 2296,
      "lift": 2297,
      "light": 2298,
      "lik": 2299,
      "limit": 2300,
      "line": 2301,
      "lingu": 2302,
      "linguist": 2303,
      "link": 2304,
      "linux": 2305,
      "liquidat": 2306,
      "list": 2307,
      "listen": 2308,
      "liter": 2309,
      "litera": 2310,
      "littl": 2311,
      "liv": 2312,
      "llama": 2313,
      "llm": 2314,
      "llvm": 2315,
      "load": 2316,
      "local": 2317,
      "locat": 2318,
      "lock": 2319,
      "lodg": 2320,
      "log": 2321,
      "logarithm": 2322,
      "logic": 2324,
      "logistic": 2324,
      "logit": 2325,
      "lonel": 2326,
      "long": 2327,
      "look": 2328,
      "loom": 2329,
      "loop": 2330,
      "loose": 2331,
      "los": 2332,
      "loud": 2333,
      "lov": 2334,
      "low": 2335,
      "loyal": 2336,
      "lstm": 2337,
      "luck": 2338,
      "lumin": 2339,
      "lurk": 2340,
      "luxur": 2341,
      "ly": 2342,
      "mac": 2343,
      "machin": 2344,
      "macro": 2345,
      "mad": 2346,
      "made": 2347,
      "magic": 2348,
      "magnet": 2349,
      "magnif": 2350,
      "magnitud": 2351,
      "mail": 2352,
      "main": 2353,
      "mainfram": 2354,
      "maintain": 2356,
      "mainten": 2356,
      "majest": 2357,
      "major": 2358,
      "mak": 2359,
      "male": 2360,
      "malic": 2361,
      "mama": 2362,
      "man": 2363,
      "manag": 2364,
      "mandat": 2365,
      "maneuver": 2366,
      "manifest": 2367,
      "manipul": 2368,
      "manual": 2369,
      "manufactur": 2370,
      "many": 2371,
      "map": 2372,
      "march": 2373,
      "margin": 2374,
      "marginal": 2375,
      "mark": 2376,
      "market": 2377,
      "marr": 2378,
      "marriag": 2379,
      "marshall": 2380,
      "mash": 2381,
      "mask": 2382,
      "mass": 2383,
      "master": 2384,
      "mat": 2385,
      "match": 2386,
      "material": 2387,
      "math": 2388,
      "matric": 2389,
      "matrimon": 2390,
      "matrix": 2391,
      "matter": 2392,
      "matur": 2393,
      "max": 2394,
      "may": 2395,
      "meal": 2396,
      "mean": 2397,
      "measur": 2398,
      "mechan": 2399,
      "mechanic": 2400,
      "meddl": 2401,
      "media": 2402,
      "medic": 2403,
      "meditat": 2404,
      "meet": 2405,
      "mega": 2406,
      "melanchol": 2407,
      "meld": 2408,
      "melod": 2409,
      "mem": 2410,
      "member": 2411,
      "memor": 2412,
      "men": 2413,
      "ment": 2414,
      "mention": 2415,
      "mentor": 2416,
      "menu": 2417,
      "mercant": 2418,
      "merchan": 2419,
      "mere": 2420,
      "merg": 2421,
      "merit": 2422,
      "mesh": 2423,
      "mess": 2424,
      "messag": 2425,
      "met": 2426,
      "meta": 2427,
      "metal": 2428,
      "metaphor": 2429,
      "meter": 2430,
      "method": 2431,
      "metr": 2432,
      "micro": 2433,
      "mid": 2434,
      "middl": 2435,
      "might": 2436,
      "migrat": 2438,
      "mild": 2438,
      "mile": 2439,
      "milli": 2440,
      "million": 2441,
      "mimic": 2442,
      "mind": 2443,
      "mini": 2444,
      "miniatur": 2445,
      "minif": 2446,
      "minor": 2447,
      "minus": 2448,
      "minute": 2449,
      "mirror": 2450,
      "mis": 2451,
      "miscellaneous": 2452,
      "miser": 2453,
      "miss": 2454,
      "mission": 2455,
      "mistak": 2456,
      "mitigat": 2457,
      "mix": 2458,
      "mixture": 2459,
      "mobil": 2460,
      "mock": 2461,
      "mod": 2462,
      "modal": 2463,
      "model": 2464,
      "modem": 2465,
      "moderat": 2466,
      "modern": 2467,
      "modest": 2468,
      "modif": 2469,
      "modul": 2470,
      "moment": 2471,
      "mon": 2472,
      "money": 2473,
      "mongo": 2474,
      "monitor": 2475,
      "mono": 2476,
      "monolith": 2477,
      "monoton": 2478,
      "month": 2479,
      "moon": 2480,
      "moor": 2481,
      "moral": 2482,
      "more": 2483,
      "morning": 2484,
      "morph": 2485,
      "morrow": 2486,
      "mortif": 2487,
      "most": 2488,
      "mother": 2489,
      "motion": 2490,
      "motiv": 2491,
      "motivat": 2492,
      "motor": 2493,
      "mount": 2494,
      "mountain": 2495,
      "mouse": 2496,
      "mov": 2497,
      "much": 2498,
      "mull": 2499,
      "multi": 2500,
      "multipl": 2501,
      "multiplatform": 2502,
      "multiplay": 2503,
      "multiple": 2504,
      "multiplex": 2505,
      "murmur": 2506,
      "music": 2507,
      "must": 2508,
      "mut": 2509,
      "mutab": 2510,
      "mutat": 2511,
      "mutex": 2512,
      "mutter": 2513,
      "mutual": 2514,
      "mvc": 2515,
      "mvp": 2516,
      "myster": 2517,
      "mystif": 2518,
      "nail": 2519,
      "naive": 2520,
      "nam": 2521,
      "nano": 2522,
      "narrat": 2523,
      "narrow": 2524,
      "nation": 2525,
      "nativ": 2526,
      "natur": 2527,
      "navi": 2528,
      "near": 2529,
      "neat": 2530,
      "necess": 2531,
      "neck": 2532,
      "need": 2533,
      "negat": 2534,
      "negativ": 2535,
      "neglect": 2536,
      "neglig": 2537,
      "negotiat": 2538,
      "neighbo": 2539,
      "neither": 2540,
      "nerv": 2541,
      "ness": 2542,
      "net": 2543,
      "network": 2544,
      "neur": 2545,
      "neutral": 2546,
      "never": 2547,
      "new": 2548,
      "next": 2549,
      "ng": 2550,
      "nice": 2551,
      "night": 2552,
      "nine": 2553,
      "nlp": 2554,
      "nltk": 2555,
      "no": 2556,
      "nod": 2557,
      "node": 2558,
      "nois": 2559,
      "nom": 2560,
      "nomi": 2561,
      "nominal": 2562,
      "nominat": 2563,
      "non": 2564,
      "noname": 2565,
      "nonsens": 2566,
      "noone": 2568,
      "nope": 2568,
      "norm": 2569,
      "normaliz": 2570,
      "north": 2571,
      "not": 2572,
      "notat": 2573,
      "notic": 2574,
      "notif": 2575,
      "notorious": 2576,
      "nought": 2577,
      "noun": 2578,
      "nourish": 2579,
      "novel": 2580,
      "november": 2581,
      "novic": 2582,
      "now": 2583,
      "null": 2584,
      "numb": 2585,
      "numer": 2586,
      "nurs": 2587,
      "obedien": 2588,
      "obey": 2589,
      "obfuscat": 2590,
      "object": 2591,
      "oblig": 2592,
      "obliquity": 2593,
      "obliterat": 2594,
      "obscur": 2595,
      "observ": 2596,
      "obsess": 2597,
      "obsolet": 2598,
      "obstacl": 2599,
      "obstinate": 2600,
      "obstruct": 2601,
      "obtain": 2602,
      "obtrud": 2603,
      "obviat": 2604,
      "obvious": 2605,
      "occasion": 2606,
      "occlud": 2607,
      "occup": 2608,
      "occur": 2609,
      "octa": 2610,
      "october": 2611,
      "odd": 2612,
      "oem": 2613,
      "of": 2614,
      "off": 2615,
      "offenc": 2616,
      "offend": 2617,
      "offens": 2618,
      "offer": 2619,
      "offic": 2620,
      "offset": 2621,
      "often": 2622,
      "old": 2623,
      "omit": 2624,
      "on": 2625,
      "once": 2626,
      "one": 2627,
      "onerous": 2628,
      "only": 2629,
      "opaci": 2630,
      "opaque": 2631,
      "open": 2632,
      "oper": 2633,
      "operat": 2634,
      "opinion": 2635,
      "opponent": 2636,
      "opportun": 2637,
      "oppos": 2638,
      "opposs": 2639,
      "oppress": 2640,
      "ops": 2641,
      "opt": 2642,
      "optic": 2643,
      "optim": 2644,
      "optimal": 2645,
      "optimis": 2646,
      "optimiz": 2647,
      "option": 2648,
      "or": 2649,
      "oracle": 2650,
      "order": 2651,
      "ordinar": 2653,
      "ordinat": 2653,
      "organic": 2654,
      "organiz": 2655,
      "orient": 2656,
      "origin": 2657,
      "ornament": 2658,
      "ortho": 2659,
      "oscill": 2660,
      "oscillat": 2661,
      "osten": 2662,
      "other": 2663,
      "ought": 2664,
      "oust": 2665,
      "out": 2666,
      "outage": 2667,
      "outer": 2668,
      "outlast": 2669,
      "outrage": 2670,
      "over": 2671,
      "overlap": 2672,
      "overrid": 2673,
      "own": 2674,
      "pack": 2675,
      "packag": 2676,
      "pad": 2677,
      "pag": 2678,
      "paid": 2679,
      "pain": 2680,
      "paint": 2681,
      "pair": 2682,
      "palette": 2683,
      "panel": 2684,
      "paper": 2685,
      "para": 2686,
      "parabol": 2687,
      "parad": 2688,
      "paradigm": 2689,
      "paradox": 2690,
      "paragraph": 2691,
      "parallax": 2692,
      "parallel": 2693,
      "param": 2694,
      "pardon": 2695,
      "parent": 2696,
      "park": 2697,
      "pars": 2698,
      "part": 2699,
      "particip": 2700,
      "particl": 2701,
      "particul": 2702,
      "pass": 2703,
      "passag": 2704,
      "passiv": 2705,
      "past": 2706,
      "patch": 2707,
      "patent": 2708,
      "path": 2709,
      "patien": 2710,
      "patron": 2711,
      "patronag": 2712,
      "pattern": 2713,
      "paus": 2714,
      "peac": 2715,
      "peak": 2716,
      "peculiar": 2717,
      "pedia": 2718,
      "peek": 2719,
      "peep": 2720,
      "peer": 2721,
      "pen": 2722,
      "penal": 2723,
      "pencil": 2724,
      "pend": 2725,
      "penetrat": 2726,
      "pens": 2727,
      "pent": 2728,
      "peopl": 2729,
      "perceiv": 2730,
      "percent": 2731,
      "percept": 2732,
      "perfect": 2733,
      "perform": 2734,
      "period": 2735,
      "peripher": 2736,
      "perl": 2737,
      "permanent": 2738,
      "permeat": 2739,
      "permiss": 2740,
      "permit": 2741,
      "permut": 2742,
      "perpendicular": 2743,
      "perplex": 2744,
      "persever": 2745,
      "persist": 2746,
      "person": 2747,
      "perspectiv": 2748,
      "persuad": 2749,
      "persuas": 2750,
      "pertain": 2751,
      "pertin": 2752,
      "perturb": 2753,
      "perus": 2754,
      "pervad": 2755,
      "pessimi": 2756,
      "peta": 2757,
      "phase": 2758,
      "phenomen": 2759,
      "philosoph": 2760,
      "phish": 2761,
      "phone": 2762,
      "phonet": 2763,
      "photo": 2764,
      "php": 2765,
      "phras": 2766,
      "physic": 2767,
      "pick": 2768,
      "pict": 2769,
      "pictur": 2770,
      "piece": 2771,
      "pilot": 2772,
      "pin": 2773,
      "ping": 2774,
      "pioneer": 2775,
      "pip": 2776,
      "pipe": 2777,
      "pipeline": 2778,
      "pit": 2779,
      "pitch": 2780,
      "pivot": 2781,
      "pix": 2782,
      "pixel": 2783,
      "plac": 2784,
      "plagued": 2785,
      "plain": 2786,
      "plan": 2787,
      "planar": 2788,
      "plane": 2789,
      "planet": 2790,
      "plast": 2791,
      "platform": 2792,
      "plausib": 2793,
      "play": 2794,
      "plead": 2795,
      "pleas": 2796,
      "pleasure": 2797,
      "pledg": 2798,
      "plent": 2800,
      "plex": 2800,
      "plot": 2801,
      "plug": 2802,
      "plung": 2803,
      "plural": 2804,
      "plus": 2805,
      "poach": 2806,
      "pocket": 2807,
      "pod": 2808,
      "podcast": 2809,
      "poem": 2810,
      "point": 2811,
      "polar": 2812,
      "polic": 2813,
      "polit": 2814,
      "poll": 2815,
      "poly": 2816,
      "pool": 2817,
      "poor": 2818,
      "pop": 2819,
      "popular": 2820,
      "populat": 2821,
      "port": 2822,
      "portal": 2823,
      "portion": 2824,
      "pos": 2825,
      "posit": 2826,
      "positiv": 2827,
      "possess": 2828,
      "possib": 2829,
      "post": 2830,
      "postgres": 2831,
      "postpon": 2832,
      "potent": 2833,
      "pour": 2834,
      "pow": 2835,
      "power": 2836,
      "pract": 2837,
      "pragm": 2838,
      "prais": 2839,
      "pray": 2840,
      "pre": 2841,
      "preach": 2842,
      "preambl": 2843,
      "preced": 2844,
      "precedent": 2845,
      "precipit": 2846,
      "precis": 2847,
      "preclud": 2848,
      "predecess": 2849,
      "predica": 2850,
      "predict": 2851,
      "prefer": 2852,
      "prejudic": 2853,
      "preliminar": 2854,
      "premier": 2855,
      "premis": 2856,
      "preneur": 2857,
      "prepar": 2858,
      "prepend": 2859,
      "present": 2860,
      "preserv": 2861,
      "press": 2862,
      "pressur": 2863,
      "presum": 2864,
      "pretenc": 2865,
      "pretend": 2866,
      "pretens": 2867,
      "prett": 2868,
      "prevail": 2869,
      "prevent": 2870,
      "previous": 2871,
      "pric": 2872,
      "pride": 2873,
      "prim": 2874,
      "primar": 2875,
      "primitiv": 2876,
      "princip": 2877,
      "print": 2878,
      "prior": 2879,
      "privat": 2880,
      "privileg": 2881,
      "pro": 2882,
      "prob": 2883,
      "probab": 2884,
      "problem": 2885,
      "procedur": 2886,
      "proceed": 2887,
      "process": 2888,
      "processor": 2889,
      "procrastinat": 2890,
      "procur": 2891,
      "produc": 2892,
      "profess": 2893,
      "profession": 2894,
      "profic": 2895,
      "profil": 2896,
      "profit": 2897,
      "program": 2898,
      "progress": 2899,
      "prohibit": 2900,
      "project": 2901,
      "prolog": 2902,
      "prolong": 2903,
      "prominen": 2904,
      "promis": 2905,
      "promot": 2906,
      "prompt": 2907,
      "pronoun": 2908,
      "pronunc": 2909,
      "proof": 2910,
      "propagat": 2911,
      "proper": 2912,
      "proportion": 2913,
      "propos": 2914,
      "propriet": 2915,
      "pros": 2916,
      "prospect": 2917,
      "prosper": 2918,
      "protect": 2919,
      "protest": 2920,
      "proto": 2921,
      "protocol": 2922,
      "prototyp": 2923,
      "protrud": 2924,
      "proud": 2925,
      "prov": 2926,
      "provid": 2927,
      "provis": 2928,
      "provocation": 2929,
      "provok": 2930,
      "prox": 2931,
      "proxim": 2932,
      "pruden": 2933,
      "prun": 2934,
      "pseudo": 2935,
      "publ": 2936,
      "public": 2937,
      "publish": 2938,
      "puff": 2939,
      "pull": 2940,
      "puls": 2941,
      "pump": 2942,
      "punct": 2943,
      "punish": 2944,
      "punk": 2945,
      "pupil": 2946,
      "pur": 2947,
      "purchas": 2948,
      "purpos": 2949,
      "pursu": 2950,
      "push": 2951,
      "put": 2952,
      "puzzl": 2953,
      "py": 2954,
      "pyramid": 2955,
      "python": 2956,
      "qa": 2957,
      "quad": 2958,
      "quaint": 2959,
      "qualif": 2960,
      "qualit": 2961,
      "quant": 2962,
      "quantif": 2963,
      "quarrel": 2964,
      "quart": 2965,
      "quarter": 2966,
      "quaternion": 2967,
      "queen": 2968,
      "queer": 2969,
      "quer": 2970,
      "quest": 2971,
      "question": 2972,
      "queu": 2973,
      "quick": 2974,
      "quiet": 2975,
      "quint": 2976,
      "quir": 2977,
      "quit": 2978,
      "quiz": 2979,
      "quot": 2980,
      "rac": 2981,
      "rad": 2982,
      "radiat": 2983,
      "radic": 2984,
      "radio": 2985,
      "radius": 2986,
      "rag": 2987,
      "raid": 2988,
      "rail": 2989,
      "rain": 2990,
      "rais": 2991,
      "rall": 2992,
      "ram": 2993,
      "rambl": 2994,
      "ramp": 2995,
      "ran": 2996,
      "rand": 2997,
      "random": 2998,
      "rang": 2999,
      "rank": 3000,
      "ransom": 3001,
      "rapid": 3002,
      "raptur": 3003,
      "rar": 3004,
      "raspberry": 3005,
      "raster": 3006,
      "rat": 3007,
      "rather": 3008,
      "ratio": 3009,
      "rational": 3010,
      "ravel": 3011,
      "raw": 3012,
      "ray": 3013,
      "re": 3014,
      "reach": 3015,
      "react": 3016,
      "read": 3017,
      "ready": 3018,
      "real": 3019,
      "realiz": 3020,
      "realm": 3021,
      "reanimat": 3022,
      "rear": 3023,
      "rearrang": 3024,
      "reason": 3025,
      "rebut": 3026,
      "recap": 3027,
      "recaptur": 3028,
      "receipt": 3029,
      "receiv": 3030,
      "recent": 3031,
      "recept": 3032,
      "recipe": 3033,
      "recipient": 3034,
      "reciproc": 3035,
      "reckon": 3036,
      "recogni": 3037,
      "recommend": 3038,
      "reconcil": 3039,
      "record": 3040,
      "recover": 3041,
      "recruit": 3042,
      "rectang": 3043,
      "rectif": 3044,
      "recur": 3045,
      "recurren": 3046,
      "recurs": 3047,
      "redact": 3048,
      "redis": 3049,
      "rediscover": 3050,
      "redistribut": 3051,
      "reduc": 3053,
      "redundan": 3053,
      "redux": 3054,
      "ref": 3055,
      "refactor": 3056,
      "refer": 3057,
      "refetch": 3058,
      "refil": 3059,
      "refill": 3060,
      "refin": 3061,
      "refit": 3062,
      "reflect": 3063,
      "reflex": 3064,
      "refocus": 3065,
      "reform": 3066,
      "reformat": 3067,
      "reformulat": 3068,
      "refract": 3069,
      "refrain": 3070,
      "refresh": 3071,
      "refund": 3072,
      "refurbish": 3073,
      "refus": 3074,
      "refut": 3075,
      "regain": 3076,
      "regard": 3078,
      "region": 3078,
      "regist": 3079,
      "regress": 3080,
      "regret": 3081,
      "regular": 3082,
      "regulat": 3083,
      "reif": 3084,
      "reign": 3085,
      "reject": 3086,
      "relat": 3087,
      "relax": 3088,
      "releas": 3089,
      "relegat": 3090,
      "relent": 3091,
      "relevan": 3092,
      "reliab": 3093,
      "relian": 3094,
      "reliev": 3095,
      "relinquish": 3096,
      "relish": 3097,
      "reluctan": 3098,
      "rely": 3099,
      "remain": 3100,
      "remed": 3101,
      "rememb": 3102,
      "remembr": 3103,
      "remind": 3104,
      "remiss": 3105,
      "remonstra": 3106,
      "remot": 3107,
      "remov": 3108,
      "render": 3109,
      "renovat": 3110,
      "rent": 3111,
      "repair": 3112,
      "repeat": 3113,
      "repetit": 3114,
      "repl": 3115,
      "repla": 3116,
      "replac": 3117,
      "replenish": 3118,
      "replet": 3119,
      "replic": 3120,
      "report": 3121,
      "repositor": 3122,
      "reprehen": 3123,
      "represent": 3124,
      "reproach": 3125,
      "reput": 3126,
      "reputa": 3127,
      "reque": 3128,
      "request": 3129,
      "requi": 3130,
      "requir": 3131,
      "requisit": 3132,
      "rescind": 3133,
      "rescu": 3134,
      "reserv": 3135,
      "reset": 3136,
      "resid": 3137,
      "resident": 3138,
      "resilien": 3139,
      "resist": 3140,
      "resolut": 3141,
      "resolv": 3142,
      "resonat": 3143,
      "respect": 3144,
      "respon": 3145,
      "rest": 3146,
      "restart": 3147,
      "restat": 3148,
      "restaurant": 3149,
      "restor": 3150,
      "restrain": 3151,
      "restrict": 3152,
      "restruct": 3153,
      "result": 3154,
      "resum": 3155,
      "resurrect": 3156,
      "retail": 3157,
      "retain": 3158,
      "retent": 3159,
      "retir": 3160,
      "retriev": 3161,
      "retro": 3162,
      "return": 3163,
      "revamp": 3164,
      "reveal": 3165,
      "revel": 3166,
      "revenue": 3167,
      "revers": 3168,
      "revert": 3169,
      "revis": 3170,
      "revisit": 3171,
      "reviv": 3172,
      "revok": 3173,
      "revolt": 3174,
      "revolut": 3175,
      "revolv": 3176,
      "reward": 3177,
      "rgb": 3178,
      "rich": 3179,
      "rid": 3180,
      "ridd": 3181,
      "ridicul": 3182,
      "right": 3183,
      "rigid": 3184,
      "rigorous": 3185,
      "rimm": 3186,
      "rip": 3187,
      "ris": 3188,
      "risk": 3189,
      "rival": 3190,
      "river": 3192,
      "rnn": 3192,
      "road": 3193,
      "roam": 3194,
      "roast": 3195,
      "robo": 3196,
      "robust": 3197,
      "rock": 3198,
      "rol": 3199,
      "roll": 3200,
      "roman": 3201,
      "room": 3202,
      "root": 3203,
      "rose": 3204,
      "rotat": 3205,
      "rough": 3206,
      "round": 3207,
      "rous": 3208,
      "rout": 3209,
      "routine": 3210,
      "row": 3211,
      "rpc": 3212,
      "rpg": 3213,
      "rsa": 3214,
      "rss": 3215,
      "rtti": 3216,
      "rubber": 3217,
      "rubric": 3218,
      "ruby": 3219,
      "rude": 3220,
      "rudimen": 3221,
      "rue": 3222,
      "rugged": 3223,
      "ruin": 3224,
      "rul": 3225,
      "rumor": 3226,
      "rumour": 3227,
      "run": 3228,
      "rush": 3229,
      "rust": 3230,
      "saas": 3231,
      "sad": 3232,
      "saf": 3233,
      "safar": 3234,
      "said": 3235,
      "sail": 3236,
      "sal": 3237,
      "salar": 3238,
      "same": 3239,
      "sampl": 3240,
      "samsung": 3241,
      "sang": 3242,
      "sanit": 3243,
      "sank": 3244,
      "satellit": 3245,
      "satisf": 3246,
      "satur": 3247,
      "saturat": 3248,
      "sauc": 3249,
      "saunter": 3250,
      "sav": 3251,
      "saw": 3252,
      "sawed": 3253,
      "sawn": 3254,
      "say": 3255,
      "scal": 3256,
      "scalar": 3257,
      "scan": 3258,
      "scap": 3259,
      "scar": 3260,
      "scatter": 3261,
      "scen": 3262,
      "scenar": 3263,
      "scept": 3264,
      "schedul": 3265,
      "schem": 3266,
      "scholar": 3267,
      "school": 3268,
      "sci": 3269,
      "scien": 3270,
      "scold": 3271,
      "scop": 3272,
      "scor": 3273,
      "scout": 3274,
      "scrab": 3275,
      "scrambl": 3276,
      "scrap": 3277,
      "scratch": 3278,
      "scream": 3279,
      "screen": 3280,
      "screw": 3281,
      "scrib": 3282,
      "script": 3283,
      "scroll": 3284,
      "scrum": 3285,
      "scrup": 3286,
      "scrut": 3287,
      "scrutiniz": 3288,
      "sdk": 3289,
      "sea": 3290,
      "seal": 3291,
      "seam": 3292,
      "search": 3293,
      "season": 3294,
      "seat": 3295,
      "second": 3296,
      "secret": 3297,
      "sect": 3298,
      "secur": 3299,
      "seduc": 3300,
      "see": 3301,
      "seed": 3302,
      "seek": 3303,
      "seem": 3304,
      "seen": 3305,
      "sees": 3306,
      "segment": 3307,
      "segregat": 3308,
      "segue": 3309,
      "seiz": 3310,
      "seldom": 3311,
      "select": 3312,
      "self": 3313,
      "sell": 3314,
      "selv": 3315,
      "semantic": 3316,
      "semaphor": 3317,
      "sembl": 3318,
      "semi": 3319,
      "seminar": 3320,
      "seminat": 3321,
      "send": 3322,
      "senior": 3323,
      "sens": 3324,
      "sensation": 3325,
      "sensitiv": 3326,
      "sensor": 3327,
      "sent": 3328,
      "sentenc": 3329,
      "sentiment": 3330,
      "seo": 3331,
      "separ": 3332,
      "september": 3333,
      "seque": 3334,
      "serial": 3335,
      "series": 3336,
      "serious": 3337,
      "serv": 3338,
      "server": 3339,
      "servic": 3340,
      "session": 3341,
      "set": 3342,
      "settl": 3343,
      "setup": 3344,
      "seven": 3345,
      "sever": 3346,
      "several": 3347,
      "sex": 3348,
      "sgd": 3349,
      "shad": 3350,
      "shadow": 3351,
      "shak": 3352,
      "shall": 3353,
      "shallow": 3354,
      "sham": 3355,
      "shap": 3356,
      "shar": 3357,
      "shard": 3358,
      "sharp": 3359,
      "she": 3360,
      "shed": 3361,
      "sheet": 3363,
      "shell": 3363,
      "shelter": 3364,
      "shift": 3365,
      "shin": 3366,
      "ship": 3367,
      "shock": 3368,
      "shoe": 3369,
      "shook": 3370,
      "shoot": 3371,
      "shop": 3372,
      "short": 3373,
      "shot": 3374,
      "should": 3375,
      "shout": 3376,
      "show": 3378,
      "shrank": 3379,
      "shrink": 3379,
      "shrunk": 3380,
      "shuffl": 3381,
      "shut": 3382,
      "shy": 3383,
      "sick": 3384,
      "side": 3385,
      "sigh": 3386,
      "sight": 3387,
      "sign": 3388,
      "signal": 3389,
      "signatur": 3390,
      "signif": 3391,
      "silen": 3392,
      "silhouett": 3393,
      "silicon": 3394,
      "sill": 3395,
      "silver": 3396,
      "similar": 3397,
      "simpl": 3399,
      "simplic": 3399,
      "simplif": 3400,
      "simulat": 3401,
      "simultaneous": 3402,
      "since": 3403,
      "sincere": 3404,
      "sing": 3406,
      "singl": 3406,
      "singular": 3407,
      "sink": 3408,
      "sinus": 3409,
      "sion": 3410,
      "sister": 3411,
      "sit": 3412,
      "site": 3413,
      "situat": 3414,
      "six": 3415,
      "siz": 3416,
      "size": 3417,
      "skeleton": 3418,
      "skept": 3419,
      "sketch": 3420,
      "skew": 3421,
      "skill": 3422,
      "skip": 3423,
      "sky": 3424,
      "skype": 3425,
      "slack": 3427,
      "slam": 3427,
      "slang": 3428,
      "slash": 3429,
      "slav": 3430,
      "slay": 3431,
      "sleek": 3432,
      "sleep": 3433,
      "sleet": 3434,
      "slept": 3435,
      "slew": 3436,
      "slic": 3437,
      "slid": 3438,
      "slight": 3439,
      "slim": 3440,
      "sling": 3441,
      "slip": 3442,
      "slop": 3443,
      "slot": 3444,
      "slow": 3445,
      "slugg": 3446,
      "slumber": 3447,
      "slung": 3448,
      "sly": 3449,
      "smack": 3450,
      "small": 3451,
      "smart": 3452,
      "smash": 3453,
      "smell": 3454,
      "smil": 3455,
      "smit": 3456,
      "smok": 3457,
      "smooth": 3458,
      "snap": 3459,
      "sneak": 3460,
      "sneer": 3461,
      "sniff": 3462,
      "snip": 3463,
      "snow": 3464,
      "so": 3465,
      "soap": 3466,
      "soar": 3467,
      "sober": 3468,
      "social": 3469,
      "sociat": 3470,
      "societ": 3471,
      "sock": 3472,
      "socket": 3473,
      "soft": 3474,
      "software": 3475,
      "solace": 3476,
      "sold": 3477,
      "solely": 3478,
      "solemn": 3479,
      "solicit": 3480,
      "solid": 3481,
      "solitar": 3482,
      "solution": 3483,
      "solv": 3484,
      "some": 3485,
      "son": 3486,
      "song": 3487,
      "soon": 3488,
      "sooth": 3489,
      "sophisticat": 3490,
      "sorrow": 3491,
      "sorry": 3492,
      "sort": 3493,
      "soul": 3494,
      "sound": 3495,
      "soup": 3496,
      "sourc": 3497,
      "south": 3498,
      "spac": 3499,
      "space": 3500,
      "spam": 3501,
      "span": 3502,
      "spar": 3503,
      "spark": 3504,
      "spars": 3505,
      "spatial": 3506,
      "spawn": 3507,
      "speak": 3508,
      "spec": 3509,
      "speci": 3510,
      "special": 3511,
      "specializ": 3512,
      "specif": 3514,
      "spect": 3514,
      "spectr": 3515,
      "speculat": 3516,
      "speech": 3517,
      "speed": 3518,
      "spel": 3519,
      "spen": 3520,
      "spend": 3521,
      "spher": 3522,
      "spill": 3523,
      "spin": 3524,
      "spirit": 3525,
      "spit": 3526,
      "splash": 3527,
      "splay": 3528,
      "splend": 3529,
      "splic": 3530,
      "splin": 3531,
      "split": 3532,
      "spoil": 3534,
      "spoke": 3534,
      "sponsor": 3535,
      "spontane": 3536,
      "spoof": 3537,
      "spool": 3538,
      "spoon": 3539,
      "sport": 3540,
      "spot": 3541,
      "sprang": 3542,
      "spread": 3543,
      "spring": 3544,
      "sprinkl": 3545,
      "sprint": 3546,
      "sql": 3547,
      "squar": 3548,
      "squeez": 3549,
      "stab": 3550,
      "stabil": 3551,
      "stabl": 3552,
      "stack": 3553,
      "staff": 3554,
      "stag": 3555,
      "stagnat": 3556,
      "stair": 3557,
      "stak": 3558,
      "stakeholder": 3559,
      "stale": 3560,
      "stall": 3561,
      "stamp": 3562,
      "stand": 3564,
      "standard": 3564,
      "standby": 3565,
      "star": 3566,
      "stare": 3567,
      "start": 3568,
      "stash": 3569,
      "stat": 3570,
      "static": 3571,
      "station": 3572,
      "stationar": 3573,
      "statistic": 3574,
      "status": 3575,
      "stay": 3576,
      "std": 3577,
      "stead": 3578,
      "steal": 3579,
      "steam": 3580,
      "steep": 3581,
      "steer": 3582,
      "stemm": 3583,
      "stencil": 3584,
      "step": 3585,
      "stereo": 3586,
      "stick": 3587,
      "still": 3588,
      "stimul": 3589,
      "stipulat": 3590,
      "stir": 3591,
      "stochast": 3592,
      "stock": 3593,
      "ston": 3595,
      "stood": 3595,
      "stoop": 3596,
      "stop": 3597,
      "stor": 3598,
      "storag": 3599,
      "storm": 3600,
      "story": 3601,
      "stout": 3602,
      "straggl": 3603,
      "straight": 3604,
      "strain": 3605,
      "strang": 3606,
      "strap": 3607,
      "strat": 3608,
      "strateg": 3609,
      "stratif": 3610,
      "stray": 3611,
      "stream": 3612,
      "street": 3613,
      "stren": 3614,
      "strength": 3615,
      "stress": 3617,
      "stretch": 3617,
      "strick": 3618,
      "strict": 3619,
      "strid": 3620,
      "strik": 3621,
      "string": 3622,
      "strip": 3623,
      "striv": 3624,
      "strok": 3625,
      "strong": 3626,
      "strov": 3627,
      "struct": 3628,
      "struggl": 3629,
      "stub": 3630,
      "stuck": 3631,
      "stud": 3632,
      "student": 3633,
      "studio": 3634,
      "stuff": 3635,
      "stumbl": 3636,
      "stump": 3637,
      "stun": 3638,
      "stupid": 3639,
      "styl": 3640,
      "sub": 3641,
      "subdu": 3642,
      "subject": 3643,
      "submiss": 3644,
      "submit": 3645,
      "subscrib": 3646,
      "subsid": 3647,
      "subsist": 3648,
      "substan": 3649,
      "substantiat": 3650,
      "substitut": 3651,
      "subtl": 3652,
      "subtract": 3653,
      "succe": 3654,
      "succinct": 3655,
      "such": 3656,
      "sudden": 3657,
      "sue": 3658,
      "suffer": 3659,
      "suffic": 3660,
      "suffix": 3661,
      "suggest": 3662,
      "suit": 3663,
      "summ": 3664,
      "summa": 3665,
      "summer": 3666,
      "summit": 3667,
      "summon": 3668,
      "sun": 3669,
      "sung": 3670,
      "sunk": 3671,
      "super": 3672,
      "supper": 3673,
      "suppl": 3674,
      "support": 3675,
      "suppos": 3676,
      "suppress": 3677,
      "suprem": 3678,
      "sure": 3679,
      "surf": 3680,
      "surfac": 3681,
      "surg": 3682,
      "surmis": 3683,
      "surpass": 3684,
      "surpris": 3685,
      "surrender": 3686,
      "surrogate": 3687,
      "surround": 3688,
      "survey": 3689,
      "surviv": 3690,
      "susceptib": 3691,
      "suspect": 3692,
      "suspend": 3693,
      "suspens": 3694,
      "suspic": 3695,
      "sustain": 3696,
      "svd": 3697,
      "svg": 3698,
      "svm": 3699,
      "svn": 3700,
      "swap": 3701,
      "sway": 3702,
      "swear": 3703,
      "sweep": 3704,
      "sweet": 3705,
      "swell": 3706,
      "swift": 3707,
      "swin": 3708,
      "swip": 3709,
      "swish": 3710,
      "switch": 3711,
      "swoop": 3712,
      "swung": 3713,
      "syllabl": 3714,
      "symbol": 3715,
      "symmetr": 3716,
      "sympath": 3717,
      "sync": 3718,
      "synchron": 3719,
      "synonym": 3720,
      "synt": 3721,
      "syntax": 3722,
      "synth": 3723,
      "synthes": 3724,
      "synthet": 3725,
      "sys": 3726,
      "system": 3727,
      "tab": 3728,
      "tabl": 3729,
      "tabul": 3730,
      "tackl": 3731,
      "tact": 3732,
      "tactic": 3733,
      "tag": 3734,
      "tail": 3735,
      "tailor": 3736,
      "tak": 3737,
      "take": 3738,
      "talent": 3739,
      "talk": 3740,
      "tall": 3741,
      "tam": 3742,
      "tamper": 3743,
      "tangent": 3744,
      "tangl": 3745,
      "tap": 3747,
      "target": 3747,
      "task": 3748,
      "tast": 3749,
      "taught": 3750,
      "tax": 3751,
      "tea": 3752,
      "teach": 3753,
      "team": 3754,
      "tear": 3755,
      "teas": 3756,
      "tech": 3757,
      "techni": 3758,
      "technolog": 3759,
      "tedious": 3760,
      "tele": 3761,
      "tell": 3762,
      "temp": 3763,
      "temper": 3764,
      "temperatur": 3765,
      "templat": 3766,
      "tempor": 3767,
      "tempt": 3768,
      "tenacious": 3769,
      "tend": 3770,
      "tendenc": 3771,
      "tender": 3772,
      "tens": 3773,
      "tensor": 3774,
      "tentat": 3775,
      "tera": 3776,
      "term": 3777,
      "termin": 3778,
      "terminal": 3779,
      "terminat": 3780,
      "terrain": 3781,
      "terribl": 3782,
      "terrif": 3783,
      "tessellat": 3784,
      "test": 3785,
      "tether": 3786,
      "text": 3787,
      "than": 3788,
      "thank": 3789,
      "that": 3790,
      "thaw": 3791,
      "the": 3792,
      "theft": 3793,
      "their": 3794,
      "them": 3795,
      "then": 3796,
      "theor": 3797,
      "theorem": 3798,
      "ther": 3799,
      "there": 3800,
      "thereby": 3801,
      "therm": 3802,
      "thes": 3803,
      "thesa": 3804,
      "thesis": 3805,
      "thest": 3806,
      "theta": 3807,
      "they": 3808,
      "thick": 3809,
      "thin": 3810,
      "thing": 3811,
      "think": 3812,
      "thir": 3813,
      "third": 3814,
      "thirt": 3815,
      "this": 3816,
      "thither": 3817,
      "thorough": 3818,
      "those": 3819,
      "though": 3820,
      "thought": 3821,
      "thous": 3822,
      "thousand": 3823,
      "thread": 3824,
      "threat": 3825,
      "three": 3826,
      "thres": 3827,
      "threw": 3828,
      "thrift": 3829,
      "thrill": 3830,
      "thriv": 3831,
      "through": 3832,
      "throw": 3833,
      "thumb": 3834,
      "thunder": 3835,
      "thunk": 3836,
      "thus": 3837,
      "thwart": 3838,
      "tick": 3839,
      "ticket": 3840,
      "tier": 3841,
      "tight": 3842,
      "til": 3843,
      "till": 3844,
      "tilt": 3845,
      "tim": 3846,
      "time": 3847,
      "timid": 3848,
      "tinker": 3849,
      "tiny": 3850,
      "tion": 3851,
      "tip": 3852,
      "tir": 3853,
      "titl": 3854,
      "to": 3855,
      "toggl": 3856,
      "token": 3857,
      "told": 3858,
      "tolera": 3859,
      "tolerat": 3860,
      "tong": 3861,
      "too": 3862,
      "took": 3863,
      "tool": 3864,
      "tooth": 3865,
      "top": 3866,
      "topic": 3867,
      "topolog": 3868,
      "torch": 3869,
      "torrent": 3870,
      "total": 3871,
      "touch": 3872,
      "tough": 3873,
      "tour": 3874,
      "tournament": 3875,
      "tout": 3876,
      "toward": 3877,
      "town": 3878,
      "trac": 3879,
      "track": 3880,
      "tract": 3881,
      "trad": 3882,
      "tradition": 3883,
      "traff": 3884,
      "trail": 3885,
      "train": 3886,
      "trait": 3887,
      "trajector": 3888,
      "tranquil": 3889,
      "trans": 3890,
      "transact": 3891,
      "transceiv": 3892,
      "transcend": 3893,
      "transclud": 3894,
      "transcrib": 3895,
      "transcript": 3896,
      "transduc": 3897,
      "transduct": 3898,
      "transfer": 3899,
      "transform": 3900,
      "transgress": 3901,
      "transient": 3902,
      "transist": 3903,
      "transit": 3904,
      "translat": 3905,
      "transliterat": 3906,
      "transmiss": 3907,
      "transmit": 3908,
      "transparen": 3909,
      "transpil": 3910,
      "transplant": 3911,
      "transport": 3912,
      "transpos": 3913,
      "trap": 3914,
      "trash": 3915,
      "travel": 3916,
      "travers": 3917,
      "tread": 3918,
      "treasur": 3919,
      "treat": 3920,
      "tree": 3921,
      "trembl": 3922,
      "tremend": 3923,
      "trend": 3924,
      "trial": 3925,
      "triang": 3926,
      "triangul": 3927,
      "trick": 3928,
      "trifl": 3929,
      "trigger": 3930,
      "trim": 3931,
      "tripl": 3932,
      "triumph": 3933,
      "trivial": 3934,
      "trop": 3935,
      "troubl": 3936,
      "tru": 3937,
      "true": 3938,
      "truncat": 3940,
      "trunk": 3940,
      "trust": 3941,
      "truth": 3942,
      "try": 3943,
      "tun": 3944,
      "tunel": 3945,
      "tunnel": 3946,
      "tupl": 3947,
      "turbo": 3948,
      "turn": 3949,
      "tutor": 3950,
      "tweak": 3951,
      "tweet": 3952,
      "twelve": 3953,
      "twent": 3954,
      "twice": 3955,
      "twiddl": 3956,
      "twin": 3957,
      "twink": 3958,
      "twist": 3959,
      "twitch": 3960,
      "twitter": 3961,
      "two": 3962,
      "txt": 3963,
      "typ": 3964,
      "type": 3965,
      "typic": 3966,
      "typo": 3967,
      "ubiquit": 3968,
      "ubuntu": 3969,
      "ugl": 3970,
      "ui": 3971,
      "uint": 3972,
      "ultimat": 3973,
      "ultra": 3974,
      "unar": 3975,
      "under": 3976,
      "understand": 3977,
      "understood": 3978,
      "underwent": 3979,
      "unfurl": 3980,
      "unicode": 3981,
      "unicorn": 3982,
      "unif": 3983,
      "unifi": 3984,
      "uniform": 3985,
      "union": 3986,
      "unique": 3987,
      "unit": 3988,
      "unity": 3989,
      "univers": 3990,
      "unix": 3991,
      "unleash": 3992,
      "untaint": 3993,
      "until": 3994,
      "unveil": 3995,
      "uous": 3996,
      "upbraid": 3997,
      "updat": 3998,
      "upgrad": 3999,
      "upon": 4000,
      "upped": 4001,
      "upper": 4002,
      "upset": 4003,
      "urban": 4004,
      "urg": 4005,
      "url": 4007,
      "us": 4007,
      "usab": 4008,
      "usag": 4009,
      "usb": 4010,
      "use": 4011,
      "user": 4012,
      "usual": 4013,
      "utf": 4014,
      "util": 4015,
      "utmost": 4016,
      "utter": 4017,
      "ux": 4019,
      "vacan": 4019,
      "vacat": 4020,
      "vagar": 4021,
      "vague": 4022,
      "vain": 4023,
      "val": 4024,
      "valen": 4025,
      "valenc": 4026,
      "valent": 4027,
      "valid": 4028,
      "valley": 4029,
      "valu": 4030,
      "vanish": 4031,
      "vanit": 4032,
      "variab": 4033,
      "variabl": 4034,
      "variad": 4036,
      "varianc": 4036,
      "variant": 4037,
      "variat": 4038,
      "varie": 4039,
      "various": 4040,
      "vary": 4041,
      "vast": 4042,
      "vaunt": 4043,
      "vector": 4044,
      "vehicl": 4045,
      "vendor": 4046,
      "ventilat": 4047,
      "ventur": 4048,
      "venue": 4049,
      "verb": 4050,
      "verbos": 4051,
      "veri": 4052,
      "verif": 4053,
      "verity": 4054,
      "vers": 4055,
      "versa": 4056,
      "version": 4057,
      "versus": 4058,
      "vertex": 4059,
      "vertic": 4060,
      "very": 4061,
      "vexat": 4062,
      "vga": 4063,
      "vgg": 4064,
      "via": 4065,
      "viab": 4066,
      "vib": 4067,
      "vibr": 4068,
      "vici": 4069,
      "vict": 4070,
      "video": 4071,
      "view": 4072,
      "vigorous": 4073,
      "vigour": 4074,
      "village": 4075,
      "vindic": 4076,
      "violat": 4077,
      "violen": 4078,
      "viral": 4079,
      "virtual": 4080,
      "virtue": 4081,
      "virus": 4082,
      "vis": 4083,
      "visib": 4084,
      "vision": 4085,
      "visit": 4086,
      "visual": 4087,
      "vocabular": 4088,
      "vocal": 4089,
      "vocat": 4090,
      "voic": 4091,
      "void": 4092,
      "volatil": 4093,
      "volt": 4094,
      "volub": 4095,
      "volum": 4096,
      "volunt": 4097,
      "vot": 4098,
      "vouch": 4099,
      "vpn": 4100,
      "vr": 4101,
      "vs": 4102,
      "vue": 4103,
      "vulgar": 4104,
      "vulner": 4105,
      "wait": 4106,
      "waiv": 4107,
      "wak": 4108,
      "walk": 4109,
      "wall": 4110,
      "wander": 4111,
      "want": 4112,
      "war": 4113,
      "ward": 4114,
      "ware": 4115,
      "warm": 4116,
      "warn": 4117,
      "warp": 4118,
      "warrant": 4119,
      "was": 4120,
      "wash": 4121,
      "wasm": 4122,
      "wast": 4123,
      "watch": 4124,
      "water": 4125,
      "wav": 4126,
      "way": 4127,
      "we": 4128,
      "weak": 4129,
      "wear": 4130,
      "web": 4131,
      "webinar": 4132,
      "wedg": 4133,
      "week": 4134,
      "weigh": 4135,
      "weight": 4136,
      "weird": 4137,
      "welcom": 4138,
      "weld": 4139,
      "well": 4140,
      "went": 4141,
      "were": 4142,
      "west": 4143,
      "what": 4144,
      "whelm": 4145,
      "when": 4146,
      "whence": 4147,
      "where": 4148,
      "which": 4149,
      "while": 4150,
      "whilst": 4151,
      "whim": 4152,
      "whip": 4153,
      "whirl": 4154,
      "whisp": 4155,
      "white": 4156,
      "whither": 4157,
      "who": 4158,
      "whole": 4159,
      "whop": 4160,
      "why": 4161,
      "wick": 4162,
      "wide": 4163,
      "widget": 4164,
      "widow": 4165,
      "width": 4166,
      "wield": 4167,
      "wife": 4168,
      "wifi": 4169,
      "wiki": 4170,
      "wild": 4171,
      "will": 4172,
      "willing": 4173,
      "win": 4174,
      "wind": 4175,
      "window": 4176,
      "winter": 4177,
      "wip": 4178,
      "wire": 4179,
      "wise": 4180,
      "wish": 4181,
      "with": 4182,
      "within": 4183,
      "without": 4184,
      "witness": 4185,
      "wizard": 4186,
      "woke": 4187,
      "woman": 4188,
      "women": 4189,
      "won": 4190,
      "wonder": 4191,
      "wont": 4192,
      "wood": 4193,
      "wor": 4194,
      "word": 4195,
      "work": 4196,
      "world": 4197,
      "worr": 4198,
      "wors": 4199,
      "worship": 4200,
      "worth": 4201,
      "would": 4202,
      "wound": 4203,
      "wrap": 4204,
      "wreak": 4205,
      "wretch": 4206,
      "wright": 4207,
      "writ": 4208,
      "wrong": 4209,
      "wrote": 4210,
      "www": 4211,
      "x64": 4212,
      "x86": 4213,
      "xml": 4214,
      "xor": 4215,
      "yaml": 4216,
      "yeah": 4217,
      "year": 4218,
      "yellow": 4219,
      "yes": 4220,
      "yet": 4221,
      "yield": 4222,
      "you": 4223,
      "young": 4224,
      "your": 4225,
      "youth": 4226,
      "youtub": 4227,
      "zero": 4228,
      "zip": 4229,
      "zon": 4230,
      "zoom": 4231,
      "##0": 4232,
      "##1": 4233,
      "##2": 4234,
      "##3": 4235,
      "##4": 4236,
      "##5": 4237,
      "##6": 4238,
      "##7": 4239,
      "##8": 4240,
      "##9": 4241,
      "##est": 4242,
      "##edly": 4243,
      "##ful": 4244,
      "##day": 4245,
      "##after": 4246,
      "##in": 4247,
      "##ing": 4248,
      "##ive": 4249,
      "##is": 4250,
      "##er": 4251,
      "##es": 4252,
      "##ed": 4253,
      "##ion": 4254,
      "##ment": 4255,
      "##less": 4256,
      "##ness": 4257,
      "##ly": 4258,
      "##al": 4259,
      "##ally": 4260,
      "##ous": 4261,
      "##ability": 4262,
      "##able": 4263,
      "##ably": 4264,
      "##ely": 4265,
      "##ently": 4266,
      "##ately": 4267,
      "##tion": 4268,
      "##ity": 4269,
      "##or": 4270,
      "##ior": 4271,
      "##up": 4272,
      "##out": 4273,
      "##about": 4274,
      "##over": 4275,
      "##fore": 4276,
      "##upon": 4277,
      "##self": 4278,
      "##time": 4279,
      "##ware": 4280,
      "##ever": 4281,
      "##some": 4282,
      "##back": 4283,
      "##ic": 4284,
      "##pad": 4285,
      "##mat": 4286,
      "##plot": 4287,
      "##lib": 4288,
      "##graph": 4289,
      "##shop": 4290,
      "##real": 4291,
      "##math": 4292,
      "##atic": 4293,
      "##noon": 4427,
      "##logic": 4295,
      "##load": 4296,
      "##ify": 4297,
      "##of": 4298,
      "##off": 4299,
      "##date": 4300,
      "##on": 4301,
      "##down": 4302,
      "##work": 4303,
      "##code": 4304,
      "##type": 4305,
      "##cod": 4306,
      "##ative": 4307,
      "##struct": 4308,
      "##fix": 4309,
      "##made": 4310,
      "##mak": 4311,
      "##ant": 4312,
      "##liv": 4313,
      "##norm": 4314,
      "##rich": 4315,
      "##queu": 4316,
      "##tech": 4317,
      "##search": 4318,
      "##advantag": 4319,
      "##agree": 4320,
      "##allow": 4321,
      "##ambigu": 4322,
      "##appear": 4323,
      "##abilities": 4324,
      "##tast": 4325,
      "##script": 4326,
      "##book": 4327,
      "##system": 4328,
      "##mail": 4329,
      "##case": 4330,
      "##list": 4331,
      "##coming": 4332,
      "##cut": 4333,
      "##fall": 4334,
      "##step": 4335,
      "##link": 4336,
      "##bar": 4337,
      "##line": 4338,
      "##flow": 4339,
      "##fus": 4340,
      "##diffus": 4341,
      "##locat": 4342,
      "##lock": 4343,
      "##activat": 4344,
      "##transform": 4345,
      "##solv": 4346,
      "##solution": 4347,
      "##sociat": 4348,
      "##equal": 4349,
      "##efficien": 4350,
      "##effect": 4351,
      "##elegan": 4352,
      "##ebriet": 4353,
      "##eligib": 4354,
      "##scrib": 4355,
      "##stream": 4356,
      "##quiet": 4357,
      "##paint": 4358,
      "##age": 4359,
      "##pag": 4360,
      "##ordinar": 4361,
      "##sampl": 4362,
      "##to": 4363,
      "##operat": 4364,
      "##ship": 4365,
      "##process": 4366,
      "##relat": 4367,
      "##tune": 4368,
      "##fortun": 4369,
      "##point": 4370,
      "##through": 4371,
      "##stag": 4372,
      "##manag": 4373,
      "##pack": 4374,
      "##packag": 4375,
      "##lang": 4376,
      "##languag": 4377,
      "##storag": 4378,
      "##fast": 4379,
      "##propagat": 4380,
      "##engag": 4381,
      "##damag": 4382,
      "##fastidious": 4383,
      "##top": 4384,
      "##web": 4385,
      "##cord": 4386,
      "##install": 4387,
      "##game": 4388,
      "##mongo": 4389,
      "##test": 4390,
      "##dev": 4391,
      "##torch": 4392,
      "##cuda": 4393,
      "##charm": 4394,
      "##pos": 4395,
      "##obj": 4396,
      "##compil": 4397,
      "##compos": 4398,
      "##compres": 4399,
      "##construct": 4400,
      "##convol": 4401,
      "##dispos": 4402,
      "##differ": 4403,
      "##direct": 4404,
      "##discreet": 4405,
      "##discret": 4406,
      "##disput": 4407,
      "##distinct": 4408,
      "##dispens": 4409,
      "##door": 4410,
      "##valid": 4411,
      "##valu": 4412,
      "##variabl": 4413,
      "##varianc": 4414,
      "##variant": 4415,
      "##tabl": 4416,
      "##phone": 4417,
      "##crypt": 4418,
      "##record": 4419,
      "##view": 4420,
      "##cycl": 4421,
      "##boost": 4422,
      "##delta": 4423,
      "##grad": 4424,
      "##updat": 4425,
      "##ward": 4426,
      "##grand": 4427,
      "##cast": 4428,
      "##mention": 4429,
      "##quarter": 4430,
      "##python": 4431,
      "##escap": 4432,
      "##exact": 4433,
      "##excus": 4434,
      "##expens": 4435,
      "##experien": 4436,
      "##express": 4437,
      "##famous": 4438,
      "##feasib": 4439,
      "##estima": 4440,
      "##class": 4441,
      "##cloud": 4442,
      "##channel": 4443,
      "##byte": 4444,
      "##comput": 4445,
      "##conceiv": 4446,
      "##condit": 4447,
      "##config": 4448,
      "##defin": 4449,
      "##determin": 4450,
      "##discover": 4451,
      "##task": 4452,
      "##map": 4453,
      "##check": 4454,
      "##connect": 4455,
      "##consider": 4456,
      "##creat": 4457,
      "##crawl": 4458,
      "##mark": 4459,
      "##declar": 4460,
      "##deliver": 4461,
      "##deploy": 4462,
      "##design": 4463,
      "##draw": 4464,
      "##enter": 4465,
      "##establish": 4466,
      "##examin": 4467,
      "##count": 4468,
      "##group": 4469,
      "##hash": 4470,
      "##mask": 4471,
      "##center": 4472,
      "##account": 4473,
      "##area": 4474,
      "##array": 4475,
      "##cluster": 4476,
      "##collect": 4477,
      "##command": 4478,
      "##complex": 4479,
      "##conscious": 4480,
      "##contain": 4481,
      "##divid": 4482,
      "##divis": 4483,
      "##document": 4484,
      "##domain": 4485,
      "##element": 4486,
      "##field": 4487,
      "##fold": 4488,
      "##gradient": 4489,
      "##sect": 4490,
      "##seque": 4491,
      "##set": 4492,
      "##space": 4493,
      "##strat": 4494,
      "##piece": 4495,
      "##title": 4496,
      "##tree": 4497,
      "##typ": 4498,
      "##variet": 4499,
      "##vocabular": 4500,
      "##version": 4501,
      "##word": 4502,
      "##wise": 4503,
      "##variat": 4504,
      "##data": 4505,
      "##board": 4506,
      "##lingu": 4507,
      "##classif": 4508,
      "##clutter": 4509,
      "##not": 4510,
      "##notat": 4511,
      "##quest": 4512,
      "##arm": 4513,
      "##attack": 4514,
      "##bion": 4515,
      "##crim": 4516,
      "##net": 4517,
      "##punk": 4518,
      "##secur": 4519,
      "##sport": 4520,
      "##vision": 4521,
      "##zon": 4522,
      "##scien": 4523,
      "##nois": 4524,
      "##nominat": 4525,
      "##normaliz": 4526,
      "##mystif": 4527,
      "##think": 4528,
      "##critic": 4529,
      "##gram": 4530,
      "##tool": 4531,
      "##prov": 4532,
      "##regard": 4533,
      "##respect": 4534,
      "##entangl": 4535,
      "##grunt": 4536,
      "##inclin": 4537,
      "##inform": 4538,
      "##ingen": 4539,
      "##interest": 4540,
      "##junct": 4541,
      "##cach": 4542,
      "##lik": 4543,
      "##order": 4544,
      "##patch": 4545,
      "##satisf": 4546,
      "##plac": 4547,
      "##pleas": 4548,
      "##seminat": 4549,
      "##servic": 4550,
      "##similar": 4551,
      "##proportion": 4552,
      "##approb": 4553,
      "##approv": 4554,
      "##assembl": 4555,
      "##associat": 4556,
      "##charg": 4557,
      "##claim": 4558,
      "##clos": 4559,
      "##concert": 4560,
      "##trust": 4561,
      "##util": 4562,
      "##file": 4563,
      "##click": 4564,
      "##rank": 4565,
      "##right": 4566,
      "##scal": 4567,
      "##side": 4568,
      "##size": 4569,
      "##siz": 4570,
      "##stair": 4571,
      "##turn": 4572,
      "##gen": 4573,
      "##talk": 4574,
      "##team": 4575
    }
  }
}