{
  "version": "1.0",
  "truncation": null,
  "padding": null,
  "added_tokens": [
    {
      "id": 0,
      "content": "[PAD]",
      "single_word": false,
      "lstrip": false,
      "rstrip": false,
      "normalized": false,
      "special": true
    },
    {
      "id": 1,
      "content": "[UNK]",
      "single_word": false,
      "lstrip": false,
      "rstrip": false,
      "normalized": false,
      "special": true
    },
    {
      "id": 2,
      "content": "[CLS]",
      "single_word": false,
      "lstrip": false,
      "rstrip": false,
      "normalized": false,
      "special": true
    },
    {
      "id": 3,
      "content": "[SEP]",
      "single_word": false,
      "lstrip": false,
      "rstrip": false,
      "normalized": false,
      "special": true
    },
    {
      "id": 4,
      "content": "[MASK]",
      "single_word": false,
      "lstrip": false,
      "rstrip": false,
      "normalized": false,
      "special": true
    }
  ],
  "normalizer": {
    "type": "Sequence",
    "normalizers": [
      {
        "type": "Lowercase"
      }
    ]
  },
  "pre_tokenizer": {
    "type": "Whitespace"
  },
  "post_processor": null,
  "decoder": null,
  "model": {
    "type": "WordPiece",
    "unk_token": "[UNK]",
    "continuing_subword_prefix": "##",
    "max_input_chars_per_word": 100,
    "vocab": {
      "[PAD]": 0,
      "[UNK]": 1,
      "[CLS]": 2,
      "[SEP]": 3,
      "[MASK]": 4,
      "#": 5,
      "&": 6,
      "'": 7,
      "+": 8,
      "-": 9,
      ".": 10,
      "0": 11,
      "1": 12,
      "2": 13,
      "3": 14,
      "4": 15,
      "5": 16,
      "6": 17,
      "7": 18,
      "8": 19,
      "9": 20,
      "_": 21,
      "a": 22,
      "b": 23,
      "c": 24,
      "d": 25,
      "e": 26,
      "f": 27,
      "g": 28,
      "h": 29,
      "i": 30,
      "j": 31,
      "k": 32,
      "l": 33,
      "m": 34,
      "n": 35,
      "o": 36,
      "p": 37,
      "q": 38,
      "r": 39,
      "s": 40,
      "t": 41,
      "u": 42,
      "v": 43,
      "w": 44,
      "x": 45,
      "y": 46,
      "z": 47,
      "##l": 48,
      "##o": 49,
      "##w": 50,
      "##u": 51,
      "##p": 52,
      "##t": 53,
      "##r": 54,
      "##a": 55,
      "##m": 56,
      "##e": 57,
      "##s": 58,
      "##n": 59,
      "##f": 60,
      "##i": 61,
      "##g": 62,
      "##c": 63,
      "##h": 64,
      "##d": 65,
      "##b": 66,
      "##z": 67,
      "##y": 68,
      "##v": 69,
      "##k": 70,
      "##7": 71,
      "##x": 72,
      "##j": 73,
      "##2": 74,
      "##0": 75,
      "##1": 76,
      "##3": 77,
      "##q": 78,
      "##8": 79,
      "##9": 80,
      "##6": 81,
      "##_": 82,
      "##5": 83,
      "##+": 84,
      "##4": 85,
      "##in": 86,
      "##ed": 87,
      "##er": 88,
      "##es": 89,
      "##on": 90,
      "##at": 91,
      "##ing": 92,
      "##en": 93,
      "##ti": 94,
      "##al": 95,
      "##or": 96,
      "##ar": 97,
      "##an": 98,
      "re": 99,
      "##le": 100,
      "##is": 101,
      "##ly": 102,
      "##it": 103,
      "in": 104,
      "##ion": 105,
      "##re": 106,
      "##ic": 107,
      "##ro": 108,
      "##ent": 109,
      "##as": 110,
      "##ab": 111,
      "##ation": 112,
      "##ec": 113,
      "##ac": 114,
      "un": 115,
      "##om": 116,
      "##ul": 117,
      "##ou": 118,
      "##el": 119,
      "##tr": 120,
      "con": 121,
      "##ess": 122,
      "##il": 123,
      "##ter": 124,
      "##ig": 125,
      "##tion": 126,
      "##ol": 127,
      "##iv": 128,
      "##iz": 129,
      "##ers": 130,
      "##ut": 131,
      "##ur": 132,
      "##am": 133,
      "##ad": 134,
      "##able": 135,
      "##et": 136,
      "##id": 137,
      "##us": 138,
      "##ce": 139,
      "##em": 140,
      "##ate": 141,
      "##ch": 142,
      "##pl": 143,
      "##ity": 144,
      "su": 145,
      "##ag": 146,
      "##ted": 147,
      "dis": 148,
      "ex": 149,
      "de": 150,
      "##ver": 151,
      "pro": 152,
      "##os": 153,
      "##ap": 154,
      "##ow": 155,
      "##ts": 156,
      "com": 157,
      "en": 158,
      "##ated": 159,
      "##if": 160,
      "##im": 161,
      "st": 162,
      "##ting": 163,
      "##od": 164,
      "##un": 165,
      "tr": 166,
      "##oc": 167,
      "##ain": 168,
      "##ally": 169,
      "##end": 170,
      "##ment": 171,
      "##op": 172,
      "##uc": 173,
      "##ot": 174,
      "##est": 175,
      "sp": 176,
      "##qu": 177,
      "##ir": 178,
      "##ib": 179,
      "##ve": 180,
      "##ates": 181,
      "##st": 182,
      "##ive": 183,
      "##ip": 184,
      "##igh": 185,
      "##ay": 186,
      "res": 187,
      "##ff": 188,
      "##ous": 189,
      "##ating": 190,
      "##tic": 191,
      "pre": 192,
      "##og": 193,
      "##orm": 194,
      "comp": 195,
      "im": 196,
      "##ens": 197,
      "rec": 198,
      "th": 199,
      "sub": 200,
      "ch": 201,
      "ac": 202,
      "##um": 203,
      "##ations": 204,
      "##and": 205,
      "pr": 206,
      "an": 207,
      "##ack": 208,
      "##pp": 209,
      "ad": 210,
      "##oun": 211,
      "mul": 212,
      "##per": 213,
      "we": 214,
      "##aliz": 215,
      "##ies": 216,
      "sh": 217,
      "##ard": 218,
      "inter": 219,
      "as": 220,
      "non": 221,
      "over": 222,
      "multi": 223,
      "##iti": 224,
      "##av": 225,
      "##ased": 226,
      "##led": 227,
      "##ak": 228,
      "##ine": 229,
      "##ans": 230,
      "cl": 231,
      "al": 232,
      "##th": 233,
      "##ex": 234,
      "##ew": 235,
      "##ud": 236,
      "##gr": 237,
      "##up": 238,
      "##ell": 239,
      "##ang": 240,
      "##ass": 241,
      "##our": 242,
      "sc": 243,
      "up": 244,
      "dec": 245,
      "##ful": 246,
      "se": 247,
      "##ors": 248,
      "##tions": 249,
      "based": 250,
      "##der": 251,
      "##ant": 252,
      "qu": 253,
      "##ility": 254,
      "co": 255,
      "##ign": 256,
      "rep": 257,
      "##ness": 258,
      "##ok": 259,
      "##ance": 260,
      "##ect": 261,
      "trans": 262,
      "##enc": 263,
      "imp": 264,
      "aut": 265,
      "##yp": 266,
      "##form": 267,
      "##cl": 268,
      "##tive": 269,
      "ar": 270,
      "par": 271,
      "##ence": 272,
      "cons": 273,
      "web": 274,
      "le": 275,
      "ind": 276,
      "em": 277,
      "##ish": 278,
      "des": 279,
      "fl": 280,
      "out": 281,
      "##ind": 282,
      "##lec": 283,
      "##ri": 284,
      "ins": 285,
      "for": 286,
      "ob": 287,
      "##all": 288,
      "##ure": 289,
      "per": 290,
      "##con": 291,
      "##age": 292,
      "pl": 293,
      "##ied": 294,
      "##com": 295,
      "##ork": 296,
      "##anc": 297,
      "##ach": 298,
      "str": 299,
      "app": 300,
      "##fer": 301,
      "##tim": 302,
      "ab": 303,
      "mis": 304,
      "##cr": 305,
      "##ative": 306,
      "rel": 307,
      "##rec": 308,
      "cont": 309,
      "##ock": 310,
      "##ight": 311,
      "##ized": 312,
      "##her": 313,
      "##ep": 314,
      "inv": 315,
      "##ability": 316,
      "##act": 317,
      "ass": 318,
      "##oin": 319,
      "##cess": 320,
      "##ill": 321,
      "gr": 322,
      "##enti": 323,
      "dr": 324,
      "on": 325,
      "##ist": 326,
      "it": 327,
      "##ub": 328,
      "##ial": 329,
      "##duc": 330,
      "##row": 331,
      "##ug": 332,
      "##ear": 333,
      "##erv": 334,
      "int": 335,
      "exp": 336,
      "at": 337,
      "mod": 338,
      "##ail": 339,
      "##own": 340,
      "col": 341,
      "##bo": 342,
      "##ound": 343,
      "inf": 344,
      "comm": 345,
      "sy": 346,
      "##app": 347,
      "bl": 348,
      "##ort": 349,
      "op": 350,
      "##se": 351,
      "##ings": 352,
      "##ically": 353,
      "def": 354,
      "##vers": 355,
      "##tiv": 356,
      "dev": 357,
      "##ator": 358,
      "spec": 359,
      "cr": 360,
      "or": 361,
      "##iew": 362,
      "##ord": 363,
      "##ast": 364,
      "##ably": 365,
      "##ame": 366,
      "ne": 367,
      "##ll": 368,
      "##tif": 369,
      "##ary": 370,
      "##ite": 371,
      "##truc": 372,
      "##ize": 373,
      "##ific": 374,
      "##less": 375,
      "##ious": 376,
      "##ons": 377,
      "##atch": 378,
      "conf": 379,
      "ai": 380,
      "dat": 381,
      "##oad": 382,
      "ref": 383,
      "##ash": 384,
      "am": 385,
      "fr": 386,
      "##are": 387,
      "be": 388,
      "red": 389,
      "##ress": 390,
      "##ink": 391,
      "##ular": 392,
      "cor": 393,
      "##les": 394,
      "##ech": 395,
      "##ust": 396,
      "##aw": 397,
      "##ise": 398,
      "##ement": 399,
      "##plic": 400,
      "he": 401,
      "sl": 402,
      "##ition": 403,
      "wh": 404,
      "##pos": 405,
      "##min": 406,
      "##ying": 407,
      "##ark": 408,
      "reg": 409,
      "##ice": 410,
      "##ical": 411,
      "##ling": 412,
      "##ros": 413,
      "und": 414,
      "##ide": 415,
      "##art": 416,
      "dep": 417,
      "##und": 418,
      "acc": 419,
      "##ext": 420,
      "man": 421,
      "tim": 422,
      "##ue": 423,
      "##als": 424,
      "rem": 425,
      "##out": 426,
      "##cep": 427,
      "bo": 428,
      "ev": 429,
      "high": 430,
      "##ari": 431,
      "##ently": 432,
      "##elf": 433,
      "##unc": 434,
      "di": 435,
      "off": 436,
      "us": 437,
      "##ong": 438,
      "##ree": 439,
      "##ick": 440,
      "##ace": 441,
      "ag": 442,
      "##ob": 443,
      "##ile": 444,
      "uns": 445,
      "to": 446,
      "##jec": 447,
      "##ities": 448,
      "ap": 449,
      "##ef": 450,
      "##ments": 451,
      "##ible": 452,
      "mic": 453,
      "##of": 454,
      "##sc": 455,
      "##eness": 456,
      "##ull": 457,
      "##olog": 458,
      "att": 459,
      "##res": 460,
      "##ions": 461,
      "all": 462,
      "cod": 463,
      "work": 464,
      "##ov": 465,
      "##ward": 466,
      "##ener": 467,
      "##ore": 468,
      "rev": 469,
      "##ters": 470,
      "##ization": 471,
      "back": 472,
      "te": 473,
      "##ix": 474,
      "##ited": 475,
      "##ase": 476,
      "sw": 477,
      "sm": 478,
      "##one": 479,
      "##ality": 480,
      "##its": 481,
      "##read": 482,
      "under": 483,
      "##emb": 484,
      "disc": 485,
      "del": 486,
      "me": 487,
      "min": 488,
      "self": 489,
      "##pro": 490,
      "##tu": 491,
      "##ered": 492,
      "##arg": 493,
      "##ets": 494,
      "##aph": 495,
      "br": 496,
      "ke": 497,
      "ph": 498,
      "##tur": 499,
      "##ning": 500,
      "el": 501,
      "##ph": 502,
      "##tain": 503,
      "##trac": 504,
      "form": 505,
      "pos": 506,
      "##oy": 507,
      "##over": 508,
      "##ple": 509,
      "##te": 510,
      "##ering": 511,
      "##ade": 512,
      "##par": 513,
      "##mis": 514,
      "hand": 515,
      "##ev": 516,
      "##ath": 517,
      "##ents": 518,
      "##ented": 519,
      "##old": 520,
      "##ified": 521,
      "##oint": 522,
      "equ": 523,
      "##ution": 524,
      "##ty": 525,
      "##ory": 526,
      "inc": 527,
      "##ational": 528,
      "##ome": 529,
      "##izes": 530,
      "##amm": 531,
      "subs": 532,
      "dem": 533,
      "tech": 534,
      "##af": 535,
      "##ble": 536,
      "##eck": 537,
      "##urr": 538,
      "##ify": 539,
      "aff": 540,
      "down": 541,
      "fin": 542,
      "##low": 543,
      "##mm": 544,
      "##ern": 545,
      "end": 546,
      "##alized": 547,
      "dif": 548,
      "fe": 549,
      "id": 550,
      "##pec": 551,
      "##ged": 552,
      "##ys": 553,
      "##inc": 554,
      "##ond": 555,
      "##ingly": 556,
      "##ream": 557,
      "unf": 558,
      "##izing": 559,
      "##ake": 560,
      "##fully": 561,
      "aw": 562,
      "gener": 563,
      "text": 564,
      "##ron": 565,
      "##sh": 566,
      "##ined": 567,
      "##ines": 568,
      "##ators": 569,
      "inst": 570,
      "contr": 571,
      "expl": 572,
      "div": 573,
      "er": 574,
      "net": 575,
      "pers": 576,
      "sur": 577,
      "##ped": 578,
      "##ik": 579,
      "##ge": 580,
      "##ank": 581,
      "##istic": 582,
      "##tric": 583,
      "conc": 584,
      "eng": 585,
      "##ously": 586,
      "##alize": 587,
      "##ency": 588,
      "##ross": 589,
      "sk": 590,
      "tw": 591,
      "ter": 592,
      "typ": 593,
      "vis": 594,
      "##ten": 595,
      "##rit": 596,
      "##nec": 597,
      "##ire": 598,
      "##ere": 599,
      "##ici": 600,
      "##elop": 601,
      "produc": 602,
      "syn": 603,
      "micro": 604,
      "sim": 605,
      "top": 606,
      "val": 607,
      "##line": 608,
      "##ook": 609,
      "##ual": 610,
      "##uil": 611,
      "##air": 612,
      "##arm": 613,
      "conv": 614,
      "##olv": 615,
      "##ched": 616,
      "gl": 617,
      "go": 618,
      "log": 619,
      "no": 620,
      "##load": 621,
      "##view": 622,
      "rein": 623,
      "##rop": 624,
      "##ute": 625,
      "supp": 626,
      "super": 627,
      "progr": 628,
      "pres": 629,
      "driv": 630,
      "cap": 631,
      "loc": 632,
      "oc": 633,
      "sec": 634,
      "##ax": 635,
      "##now": 636,
      "##ges": 637,
      "##ith": 638,
      "##reg": 639,
      "##ics": 640,
      "unp": 641,
      "unm": 642,
      "##ures": 643,
      "enc": 644,
      "##ained": 645,
      "##ending": 646,
      "##ays": 647,
      "##crib": 648,
      "specific": 649,
      "ge": 650,
      "ori": 651,
      "well": 652,
      "##ram": 653,
      "##ened": 654,
      "##ult": 655,
      "##tional": 656,
      "diss": 657,
      "##ends": 658,
      "pred": 659,
      "ann": 660,
      "emb": 661,
      "design": 662,
      "##ances": 663,
      "##crip": 664,
      "ver": 665,
      "##ool": 666,
      "##work": 667,
      "##ues": 668,
      "##iness": 669,
      "##atter": 670,
      "read": 671,
      "##ised": 672,
      "##iter": 673,
      "##ret": 674,
      "##ives": 675,
      "##ured": 676,
      "##used": 677,
      "prov": 678,
      "##aps": 679,
      "##ension": 680,
      "check": 681,
      "coll": 682,
      "develop": 683,
      "cy": 684,
      "coun": 685,
      "cross": 686,
      "full": 687,
      "hy": 688,
      "pur": 689,
      "serv": 690,
      "##ued": 691,
      "##por": 692,
      "##tor": 693,
      "##ier": 694,
      "##gan": 695,
      "##ced": 696,
      "##yn": 697,
      "##ject": 698,
      "##ored": 699,
      "##arn": 700,
      "##roll": 701,
      "##ask": 702,
      "##ost": 703,
      "anal": 704,
      "##comp": 705,
      "##miss": 706,
      "by": 707,
      "cal": 708,
      "dig": 709,
      "det": 710,
      "gu": 711,
      "low": 712,
      "ser": 713,
      "##ware": 714,
      "##rup": 715,
      "##mit": 716,
      "##vel": 717,
      "##int": 718,
      "##edi": 719,
      "##tit": 720,
      "##ases": 721,
      "##oug": 722,
      "##eld": 723,
      "##trib": 724,
      "##ately": 725,
      "summ": 726,
      "##ages": 727,
      "##ose": 728,
      "##ended": 729,
      "##oth": 730,
      "auth": 731,
      "obs": 732,
      "time": 733,
      "direc": 734,
      "bre": 735,
      "sol": 736,
      "win": 737,
      "##ging": 738,
      "##ql": 739,
      "##ater": 740,
      "##ale": 741,
      "reb": 742,
      "##lement": 743,
      "unb": 744,
      "prof": 745,
      "##ode": 746,
      "resp": 747,
      "char": 748,
      "##alization": 749,
      "##ude": 750,
      "##ange": 751,
      "##ences": 752,
      "##book": 753,
      "open": 754,
      "data": 755,
      "user": 756,
      "hyper": 757,
      "##ough": 758,
      "cle": 759,
      "eff": 760,
      "fir": 761,
      "jav": 762,
      "py": 763,
      "sign": 764,
      "tem": 765,
      "wor": 766,
      "##ave": 767,
      "##ee": 768,
      "##ior": 769,
      "##inu": 770,
      "ret": 771,
      "##iting": 772,
      "##ulated": 773,
      "##ided": 774,
      "##uses": 775,
      "##ploy": 776,
      "spe": 777,
      "##stem": 778,
      "##ively": 779,
      "recom": 780,
      "acqu": 781,
      "##itive": 782,
      "repro": 783,
      "autom": 784,
      "level": 785,
      "##ished": 786,
      "##lect": 787,
      "abs": 788,
      "##ugh": 789,
      "neg": 790,
      "mon": 791,
      "mem": 792,
      "overs": 793,
      "pow": 794,
      "pop": 795,
      "pass": 796,
      "view": 797,
      "##pt": 798,
      "##for": 799,
      "##oring": 800,
      "##ision": 801,
      "##olution": 802,
      "##ustr": 803,
      "process": 804,
      "##umer": 805,
      "add": 806,
      "##tively": 807,
      "head": 808,
      "driven": 809,
      "do": 810,
      "js": 811,
      "line": 812,
      "mo": 813,
      "of": 814,
      "oper": 815,
      "sing": 816,
      "sof": 817,
      "##ument": 818,
      "##ping": 819,
      "##put": 820,
      "##me": 821,
      "##ms": 822,
      "##ned": 823,
      "##ening": 824,
      "##ared": 825,
      "##ict": 826,
      "unw": 827,
      "##omin": 828,
      "##tered": 829,
      "##ifies": 830,
      "the": 831,
      "adv": 832,
      "class": 833,
      "scr": 834,
      "one": 835,
      "##unction": 836,
      "team": 837,
      "key": 838,
      "differ": 839,
      "bro": 840,
      "dim": 841,
      "es": 842,
      "ir": 843,
      "not": 844,
      "po": 845,
      "ren": 846,
      "vari": 847,
      "##ots": 848,
      "##uff": 849,
      "##pr": 850,
      "##aling": 851,
      "##arr": 852,
      "requ": 853,
      "##reh": 854,
      "##ices": 855,
      "##entr": 856,
      "##ables": 857,
      "unc": 858,
      "##ulate": 859,
      "##els": 860,
      "##eless": 861,
      "##ides": 862,
      "ste": 863,
      "stand": 864,
      "##alizes": 865,
      "##alizing": 866,
      "##aking": 867,
      "play": 868,
      "appro": 869,
      "##time": 870,
      "##here": 871,
      "organ": 872,
      "code": 873,
      "cre": 874,
      "cur": 875,
      "fact": 876,
      "hard": 877,
      "is": 878,
      "ill": 879,
      "mark": 880,
      "new": 881,
      "rest": 882,
      "wr": 883,
      "##ner": 884,
      "##net": 885,
      "##ient": 886,
      "##iev": 887,
      "##ery": 888,
      "##ene": 889,
      "##eng": 890,
      "##alk": 891,
      "##anti": 892,
      "rele": 893,
      "##lex": 894,
      "##rel": 895,
      "##ouch": 896,
      "##ived": 897,
      "##uted": 898,
      "##ampl": 899,
      "exper": 900,
      "prot": 901,
      "##ains": 902,
      "##ired": 903,
      "##ibly": 904,
      "##tically": 905,
      "##elling": 906,
      "ups": 907,
      "seg": 908,
      "##cont": 909,
      "##ubl": 910,
      "##rows": 911,
      "##iously": 912,
      "techn": 913,
      "occ": 914,
      "av": 915,
      "buil": 916,
      "dou": 917,
      "fre": 918,
      "free": 919,
      "long": 920,
      "##ood": 921,
      "##raph": 922,
      "##ely": 923,
      "##itions": 924,
      "##ining": 925,
      "##ars": 926,
      "##arch": 927,
      "inn": 928,
      "incon": 929,
      "##rol": 930,
      "##asing": 931,
      "##uring": 932,
      "##idd": 933,
      "##use": 934,
      "##ush": 935,
      "disp": 936,
      "dist": 937,
      "compl": 938,
      "##ifying": 939,
      "##aining": 940,
      "##ender": 941,
      "##ibility": 942,
      "thread": 943,
      "prac": 944,
      "decom": 945,
      "arch": 946,
      "##atively": 947,
      "related": 948,
      "##board": 949,
      "infl": 950,
      "##ification": 951,
      "##process": 952,
      "err": 953,
      "programm": 954,
      "oriented": 955,
      "aud": 956,
      "fac": 957,
      "gro": 958,
      "met": 959,
      "mind": 960,
      "sem": 961,
      "sens": 962,
      "##ring": 963,
      "##flow": 964,
      "##hip": 965,
      "##down": 966,
      "##ber": 967,
      "##ony": 968,
      "##ones": 969,
      "##ention": 970,
      "##ising": 971,
      "initi": 972,
      "##aster": 973,
      "unl": 974,
      "##ulation": 975,
      "##oud": 976,
      "##tern": 977,
      "##termin": 978,
      "##iving": 979,
      "##erst": 980,
      "##amp": 981,
      "##ider": 982,
      "##agn": 983,
      "ext": 984,
      "exc": 985,
      "ent": 986,
      "entr": 987,
      "and": 988,
      "##acks": 989,
      "short": 990,
      "decl": 991,
      "##ector": 992,
      "auto": 993,
      "optim": 994,
      "##truct": 995,
      "##ustom": 996,
      "manag": 997,
      "++": 998,
      "cir": 999,
      "ded": 1000,
      "elec": 1001,
      "lab": 1002,
      "lay": 1003,
      "mor": 1004,
      "ro": 1005,
      "sat": 1006,
      "set": 1007,
      "##red": 1008,
      "##aim": 1009,
      "##aun": 1010,
      "##sp": 1011,
      "##ns": 1012,
      "##ience": 1013,
      "##he": 1014,
      "##ont": 1015,
      "##atic": 1016,
      "##ature": 1017,
      "##ties": 1018,
      "##arity": 1019,
      "##ists": 1020,
      "inform": 1021,
      "##abl": 1022,
      "##aces": 1023,
      "##ulates": 1024,
      "##ulating": 1025,
      "##iles": 1026,
      "##tering": 1027,
      "deep": 1028,
      "env": 1029,
      "##imin": 1030,
      "interp": 1031,
      "##clus": 1032,
      "##ential": 1033,
      "##rowd": 1034,
      "inte": 1035,
      "##ails": 1036,
      "##box": 1037,
      "system": 1038,
      "beh": 1039,
      "engine": 1040,
      "bit": 1041,
      "cop": 1042,
      "custom": 1043,
      "ed": 1044,
      "lif": 1045,
      "opp": 1046,
      "pe": 1047,
      "sch": 1048,
      "##ld": 1049,
      "##oop": 1050,
      "##ually": 1051,
      "##tly": 1052,
      "##az": 1053,
      "##io": 1054,
      "##iable": 1055,
      "##ger": 1056,
      "##gor": 1057,
      "##tig": 1058,
      "retr": 1059,
      "repl": 1060,
      "##itch": 1061,
      "intr": 1062,
      "##acy": 1063,
      "cond": 1064,
      "##ession": 1065,
      "##ili": 1066,
      "##iding": 1067,
      "suff": 1068,
      "extr": 1069,
      "##uck": 1070,
      "##ips": 1071,
      "imm": 1072,
      "recon": 1073,
      "##umb": 1074,
      "##ours": 1075,
      "##antly": 1076,
      "arr": 1077,
      "##anced": 1078,
      "commun": 1079,
      "order": 1080,
      "##ements": 1081,
      "##plication": 1082,
      "##nowled": 1083,
      "first": 1084,
      "single": 1085,
      "circ": 1086,
      "bus": 1087,
      "ca": 1088,
      "crowd": 1089,
      "doc": 1090,
      "hash": 1091,
      "ll": 1092,
      "lib": 1093,
      "load": 1094,
      "lik": 1095,
      "mut": 1096,
      "main": 1097,
      "ow": 1098,
      "publ": 1099,
      "run": 1100,
      "so": 1101,
      "sus": 1102,
      "sql": 1103,
      "tre": 1104,
      "test": 1105,
      "vo": 1106,
      "##uter": 1107,
      "##table": 1108,
      "##aid": 1109,
      "##ml": 1110,
      "##mark": 1111,
      "##ek": 1112,
      "##ily": 1113,
      "##dr": 1114,
      "##dd": 1115,
      "##val": 1116,
      "##20": 1117,
      "##ins": 1118,
      "##ats": 1119,
      "##enu": 1120,
      "##aled": 1121,
      "##orted": 1122,
      "##arning": 1123,
      "##leg": 1124,
      "##istr": 1125,
      "##ites": 1126,
      "##roid": 1127,
      "##abil": 1128,
      "##essed": 1129,
      "##igur": 1130,
      "##urs": 1131,
      "##urn": 1132,
      "##eting": 1133,
      "##chron": 1134,
      "prop": 1135,
      "##osed": 1136,
      "sty": 1137,
      "start": 1138,
      "stream": 1139,
      "##ote": 1140,
      "##tical": 1141,
      "##ograph": 1142,
      "##ense": 1143,
      "ang": 1144,
      "sequ": 1145,
      "partic": 1146,
      "struc": 1147,
      "grad": 1148,
      "##tivity": 1149,
      "##tific": 1150,
      "##ception": 1151,
      "##ology": 1152,
      "##cript": 1153,
      "soft": 1154,
      "poly": 1155,
      "integr": 1156,
      "car": 1157,
      "call": 1158,
      "der": 1159,
      "den": 1160,
      "ever": 1161,
      "fast": 1162,
      "harm": 1163,
      "mer": 1164,
      "mat": 1165,
      "tes": 1166,
      "vol": 1167,
      "##off": 1168,
      "##we": 1169,
      "##aff": 1170,
      "##equ": 1171,
      "##iqu": 1172,
      "##irec": 1173,
      "##atically": 1174,
      "##order": 1175,
      "##ants": 1176,
      "##let": 1177,
      "##ection": 1178,
      "##ected": 1179,
      "##aced": 1180,
      "unt": 1181,
      "connec": 1182,
      "##essing": 1183,
      "##iled": 1184,
      "##illed": 1185,
      "##izer": 1186,
      "##using": 1187,
      "sup": 1188,
      "suc": 1189,
      "##aged": 1190,
      "disapp": 1191,
      "distrib": 1192,
      "prom": 1193,
      "##ows": 1194,
      "##iment": 1195,
      "##oci": 1196,
      "##ipped": 1197,
      "##tics": 1198,
      "che": 1199,
      "adj": 1200,
      "adap": 1201,
      "shar": 1202,
      "overl": 1203,
      "##thon": 1204,
      "##udes": 1205,
      "##ups": 1206,
      "##angu": 1207,
      "##ource": 1208,
      "separ": 1209,
      "##igned": 1210,
      "##enced": 1211,
      "##ypt": 1212,
      "art": 1213,
      "leg": 1214,
      "##ishing": 1215,
      "obl": 1216,
      "objec": 1217,
      "##comm": 1218,
      "block": 1219,
      "fram": 1220,
      "micros": 1221,
      "minim": 1222,
      "##ensional": 1223,
      "analy": 1224,
      "java": 1225,
      "ben": 1226,
      "bel": 1227,
      "ful": 1228,
      "foc": 1229,
      "found": 1230,
      "link": 1231,
      "langu": 1232,
      "max": 1233,
      "ple": 1234,
      "sn": 1235,
      "spl": 1236,
      "tun": 1237,
      "ur": 1238,
      "use": 1239,
      "vers": 1240,
      "vector": 1241,
      "wind": 1242,
      "##writ": 1243,
      "##utr": 1244,
      "##pir": 1245,
      "##ie": 1246,
      "##ield": 1247,
      "##cing": 1248,
      "##br": 1249,
      "##js": 1250,
      "##til": 1251,
      "##alled": 1252,
      "reac": 1253,
      "##lev": 1254,
      "##isf": 1255,
      "##itable": 1256,
      "##itting": 1257,
      "unin": 1258,
      "##eled": 1259,
      "##eling": 1260,
      "conce": 1261,
      "conver": 1262,
      "##iling": 1263,
      "##iver": 1264,
      "##utes": 1265,
      "##uting": 1266,
      "##ceed": 1267,
      "##aging": 1268,
      "deb": 1269,
      "##oss": 1270,
      "enter": 1271,
      "tri": 1272,
      "##ainer": 1273,
      "##aying": 1274,
      "access": 1275,
      "##acking": 1276,
      "##ework": 1277,
      "que": 1278,
      "transl": 1279,
      "##encies": 1280,
      "parame": 1281,
      "forward": 1282,
      "##aching": 1283,
      "##illing": 1284,
      "express": 1285,
      "##apped": 1286,
      "##tify": 1287,
      "beg": 1288,
      "##pose": 1289,
      "underst": 1290,
      "depend": 1291,
      "smart": 1292,
      "diff": 1293,
      "goog": 1294,
      "service": 1295,
      "digit": 1296,
      "observ": 1297,
      "break": 1298,
      "charac": 1299,
      "##ought": 1300,
      "##ength": 1301,
      "android": 1302,
      "af": 1303,
      "cer": 1304,
      "fa": 1305,
      "fol": 1306,
      "fav": 1307,
      "fix": 1308,
      "gre": 1309,
      "gam": 1310,
      "ip": 1311,
      "kn": 1312,
      "look": 1313,
      "pol": 1314,
      "rub": 1315,
      "ul": 1316,
      "vir": 1317,
      "##oted": 1318,
      "##oting": 1319,
      "##tle": 1320,
      "##ners": 1321,
      "##ially": 1322,
      "##hib": 1323,
      "##back": 1324,
      "##64": 1325,
      "##ination": 1326,
      "##ane": 1327,
      "real": 1328,
      "reass": 1329,
      "reform": 1330,
      "##isted": 1331,
      "##ich": 1332,
      "##asting": 1333,
      "##abor": 1334,
      "##ecting": 1335,
      "##eler": 1336,
      "convers": 1337,
      "##aded": 1338,
      "##ety": 1339,
      "##ident": 1340,
      "##empl": 1341,
      "exec": 1342,
      "##owed": 1343,
      "enl": 1344,
      "stud": 1345,
      "##ops": 1346,
      "##oper": 1347,
      "##ights": 1348,
      "##ighting": 1349,
      "##ayed": 1350,
      "prec": 1351,
      "prev": 1352,
      "##ogn": 1353,
      "##ump": 1354,
      "##ands": 1355,
      "admin": 1356,
      "##itiz": 1357,
      "cloud": 1358,
      "##oken": 1359,
      "transform": 1360,
      "index": 1361,
      "##ishes": 1362,
      "outl": 1363,
      "forg": 1364,
      "perm": 1365,
      "perform": 1366,
      "##ached": 1367,
      "##ocked": 1368,
      "##oints": 1369,
      "##ills": 1370,
      "draw": 1371,
      "##apping": 1372,
      "crypt": 1373,
      "##atching": 1374,
      "##arily": 1375,
      "post": 1376,
      "incre": 1377,
      "termin": 1378,
      "product": 1379,
      "valid": 1380,
      "speed": 1381,
      "power": 1382,
      "character": 1383,
      "bi": 1384,
      "brows": 1385,
      "ce": 1386,
      "dest": 1387,
      "dial": 1388,
      "drop": 1389,
      "fail": 1390,
      "file": 1391,
      "function": 1392,
      "get": 1393,
      "ht": 1394,
      "hel": 1395,
      "hum": 1396,
      "hyp": 1397,
      "happ": 1398,
      "iter": 1399,
      "list": 1400,
      "mid": 1401,
      "mob": 1402,
      "norm": 1403,
      "rol": 1404,
      "rank": 1405,
      "sil": 1406,
      "squ": 1407,
      "task": 1408,
      "touch": 1409,
      "upl": 1410,
      "ve": 1411,
      "vi": 1412,
      "word": 1413,
      "writ": 1414,
      "where": 1415,
      "##oom": 1416,
      "##oid": 1417,
      "##uit": 1418,
      "##uce": 1419,
      "##pow": 1420,
      "##point": 1421,
      "##med": 1422,
      "##eti": 1423,
      "##eet": 1424,
      "##iest": 1425,
      "##greg": 1426,
      "##be": 1427,
      "##ves": 1428,
      "##edd": 1429,
      "##ert": 1430,
      "##erc": 1431,
      "##estim": 1432,
      "##tiz": 1433,
      "##alle": 1434,
      "##arly": 1435,
      "refer": 1436,
      "##ises": 1437,
      "##rough": 1438,
      "##asc": 1439,
      "##asted": 1440,
      "##ects": 1441,
      "##acing": 1442,
      "##action": 1443,
      "##elled": 1444,
      "congr": 1445,
      "##igu": 1446,
      "##ivers": 1447,
      "##ural": 1448,
      "##etch": 1449,
      "##charg": 1450,
      "##osing": 1451,
      "comb": 1452,
      "ens": 1453,
      "##unk": 1454,
      "trav": 1455,
      "##aint": 1456,
      "spr": 1457,
      "pret": 1458,
      "recr": 1459,
      "any": 1460,
      "##acked": 1461,
      "intern": 1462,
      "asc": 1463,
      "##akes": 1464,
      "##uded": 1465,
      "scre": 1466,
      "decre": 1467,
      "quick": 1468,
      "repres": 1469,
      "lead": 1470,
      "outs": 1471,
      "##riend": 1472,
      "plug": 1473,
      "##ancing": 1474,
      "##reci": 1475,
      "inves": 1476,
      "assemb": 1477,
      "##entif": 1478,
      "collec": 1479,
      "##tified": 1480,
      "##onstr": 1481,
      "##atched": 1482,
      "correc": 1483,
      "regular": 1484,
      "##cept": 1485,
      "##ological": 1486,
      "##resh": 1487,
      "discre": 1488,
      "##tracted": 1489,
      "network": 1490,
      "person": 1491,
      "type": 1492,
      "predic": 1493,
      "cyber": 1494,
      "counter": 1495,
      "calc": 1496,
      "author": 1497,
      "innov": 1498,
      "decomp": 1499,
      "behav": 1500,
      "susp": 1501,
      "ast": 1502,
      "bot": 1503,
      "best": 1504,
      "bound": 1505,
      "cul": 1506,
      "du": 1507,
      "db": 1508,
      "eas": 1509,
      "fil": 1510,
      "fund": 1511,
      "mv": 1512,
      "medi": 1513,
      "pay": 1514,
      "point": 1515,
      "tens": 1516,
      "take": 1517,
      "talk": 1518,
      "ut": 1519,
      "zer": 1520,
      "##word": 1521,
      "##utions": 1522,
      "##tes": 1523,
      "##gn": 1524,
      "##ces": 1525,
      "##do": 1526,
      "##xim": 1527,
      "##atform": 1528,
      "##eni": 1529,
      "##tice": 1530,
      "##alu": 1531,
      "##ores": 1532,
      "##orts": 1533,
      "##aries": 1534,
      "##ann": 1535,
      "##isk": 1536,
      "##isting": 1537,
      "##itor": 1538,
      "##itation": 1539,
      "##round": 1540,
      "##enting": 1541,
      "##ason": 1542,
      "unre": 1543,
      "unex": 1544,
      "uncon": 1545,
      "##uld": 1546,
      "##ulations": 1547,
      "##ulator": 1548,
      "##outs": 1549,
      "conj": 1550,
      "##ival": 1551,
      "##uth": 1552,
      "##urity": 1553,
      "##ades": 1554,
      "##adic": 1555,
      "##usion": 1556,
      "##emm": 1557,
      "##ems": 1558,
      "enumer": 1559,
      "stat": 1560,
      "train": 1561,
      "##ird": 1562,
      "##ires": 1563,
      "##ibr": 1564,
      "resc": 1565,
      "pref": 1566,
      "compar": 1567,
      "computer": 1568,
      "imag": 1569,
      "image": 1570,
      "recons": 1571,
      "there": 1572,
      "##anding": 1573,
      "adver": 1574,
      "##ount": 1575,
      "##ards": 1576,
      "clus": 1577,
      "qual": 1578,
      "impro": 1579,
      "arg": 1580,
      "paralle": 1581,
      "webs": 1582,
      "learn": 1583,
      "indic": 1584,
      "industr": 1585,
      "employ": 1586,
      "##ache": 1587,
      "continu": 1588,
      "graph": 1589,
      "##entially": 1590,
      "common": 1591,
      "sym": 1592,
      "orig": 1593,
      "confl": 1594,
      "core": 1595,
      "##posed": 1596,
      "acceler": 1597,
      "diag": 1598,
      "tool": 1599,
      "ide": 1600,
      "install": 1601,
      "synth": 1602,
      "value": 1603,
      "development": 1604,
      "##mission": 1605,
      "respons": 1606,
      "motiv": 1607,
      "broad": 1608,
      "dimensional": 1609,
      "estim": 1610,
      "factor": 1611,
      "segment": 1612,
      "doub": 1613,
      "influ": 1614,
      "##onym": 1615,
      "electr": 1616,
      "business": 1617,
      "ach": 1618,
      "cent": 1619,
      "cate": 1620,
      "centr": 1621,
      "dil": 1622,
      "est": 1623,
      "educ": 1624,
      "esc": 1625,
      "fam": 1626,
      "func": 1627,
      "grow": 1628,
      "game": 1629,
      "hun": 1630,
      "hear": 1631,
      "lat": 1632,
      "live": 1633,
      "ms": 1634,
      "math": 1635,
      "master": 1636,
      "near": 1637,
      "null": 1638,
      "pen": 1639,
      "port": 1640,
      "rand": 1641,
      "side": 1642,
      "tro": 1643,
      "tree": 1644,
      "vs": 1645,
      "wid": 1646,
      "##pu": 1647,
      "##augh": 1648,
      "##sl": 1649,
      "##sed": 1650,
      "##set": 1651,
      "##iers": 1652,
      "##iance": 1653,
      "##go": 1654,
      "##hood": 1655,
      "##by": 1656,
      "##esh": 1657,
      "##onic": 1658,
      "##aten": 1659,
      "##atable": 1660,
      "##tible": 1661,
      "##ales": 1662,
      "##lying": 1663,
      "incl": 1664,
      "infer": 1665,
      "##asts": 1666,
      "##try": 1667,
      "conn": 1668,
      "const": 1669,
      "##ild": 1670,
      "##oler": 1671,
      "##ivity": 1672,
      "##amb": 1673,
      "##ample": 1674,
      "##usted": 1675,
      "##emp": 1676,
      "determin": 1677,
      "##oses": 1678,
      "##osition": 1679,
      "enh": 1680,
      "##tingu": 1681,
      "##odes": 1682,
      "##oding": 1683,
      "##ocation": 1684,
      "##otyp": 1685,
      "##query": 1686,
      "##iring": 1687,
      "##ighb": 1688,
      "prefer": 1689,
      "comple": 1690,
      "##ensive": 1691,
      "recip": 1692,
      "thought": 1693,
      "subt": 1694,
      "activ": 1695,
      "anti": 1696,
      "adm": 1697,
      "show": 1698,
      "asp": 1699,
      "overr": 1700,
      "search": 1701,
      "quad": 1702,
      "##oke": 1703,
      "implement": 1704,
      "##class": 1705,
      "##claim": 1706,
      "construc": 1707,
      "destruc": 1708,
      "flow": 1709,
      "##connec": 1710,
      "platform": 1711,
      "##ancy": 1712,
      "##aches": 1713,
      "control": 1714,
      "##epend": 1715,
      "expon": 1716,
      "moder": 1717,
      "##ounded": 1718,
      "defin": 1719,
      "special": 1720,
      "##ordin": 1721,
      "neighb": 1722,
      "##lessly": 1723,
      "##atches": 1724,
      "configur": 1725,
      "##ashes": 1726,
      "amb": 1727,
      "redis": 1728,
      "##inking": 1729,
      "manip": 1730,
      "book": 1731,
      "##resp": 1732,
      "##wards": 1733,
      "mean": 1734,
      "##tured": 1735,
      "##mme": 1736,
      "terr": 1737,
      "world": 1738,
      "memor": 1739,
      "build": 1740,
      "archit": 1741,
      "communic": 1742,
      "document": 1743,
      "propag": 1744,
      "angular": 1745,
      "oblig": 1746,
      "framework": 1747,
      "language": 1748,
      "maxim": 1749,
      "google": 1750,
      "follow": 1751,
      "ultr": 1752,
      "zero": 1753,
      "parallel": 1754,
      "aver": 1755,
      "bin": 1756,
      "big": 1757,
      "bet": 1758,
      "cut": 1759,
      "cri": 1760,
      "day": 1761,
      "dens": 1762,
      "dyn": 1763,
      "ep": 1764,
      "friend": 1765,
      "hon": 1766,
      "hor": 1767,
      "hom": 1768,
      "hop": 1769,
      "ie": 1770,
      "if": 1771,
      "ign": 1772,
      "jud": 1773,
      "knowled": 1774,
      "liv": 1775,
      "lim": 1776,
      "light": 1777,
      "law": 1778,
      "mach": 1779,
      "mail": 1780,
      "must": 1781,
      "magn": 1782,
      "nav": 1783,
      "numer": 1784,
      "pc": 1785,
      "pat": 1786,
      "pain": 1787,
      "pick": 1788,
      "patter": 1789,
      "sti": 1790,
      "some": 1791,
      "saf": 1792,
      "tag": 1793,
      "token": 1794,
      "util": 1795,
      "wa": 1796,
      "wide": 1797,
      "with": 1798,
      "year": 1799,
      "##lass": 1800,
      "##list": 1801,
      "##wise": 1802,
      "##uing": 1803,
      "##ule": 1804,
      "##uous": 1805,
      "##pace": 1806,
      "##tin": 1807,
      "##ture": 1808,
      "##eb": 1809,
      "##ever": 1810,
      "##nam": 1811,
      "##db": 1812,
      "##day": 1813,
      "##bol": 1814,
      "##ycl": 1815,
      "##32": 1816,
      "##inter": 1817,
      "##esc": 1818,
      "##ested": 1819,
      "##ests": 1820,
      "##onder": 1821,
      "##atives": 1822,
      "##alid": 1823,
      "##orn": 1824,
      "##orting": 1825,
      "rece": 1826,
      "reim": 1827,
      "react": 1828,
      "revers": 1829,
      "##iss": 1830,
      "##itted": 1831,
      "inver": 1832,
      "inqu": 1833,
      "##iced": 1834,
      "##roduc": 1835,
      "##aby": 1836,
      "unst": 1837,
      "conve": 1838,
      "conduc": 1839,
      "##igr": 1840,
      "##izable": 1841,
      "##izations": 1842,
      "##utable": 1843,
      "##ading": 1844,
      "##eted": 1845,
      "##agement": 1846,
      "displ": 1847,
      "disag": 1848,
      "disrup": 1849,
      "discont": 1850,
      "pros": 1851,
      "##mented": 1852,
      "##que": 1853,
      "##stream": 1854,
      "##ighted": 1855,
      "prem": 1856,
      "compan": 1857,
      "compil": 1858,
      "compress": 1859,
      "compreh": 1860,
      "##enses": 1861,
      "record": 1862,
      "thr": 1863,
      "through": 1864,
      "subd": 1865,
      "chat": 1866,
      "##ums": 1867,
      "priv": 1868,
      "prim": 1869,
      "prior": 1870,
      "anim": 1871,
      "sho": 1872,
      "interac": 1873,
      "overcom": 1874,
      "##ther": 1875,
      "##ells": 1876,
      "##anging": 1877,
      "scale": 1878,
      "cover": 1879,
      "##encing": 1880,
      "autoc": 1881,
      "consult": 1882,
      "desc": 1883,
      "flo": 1884,
      "##inds": 1885,
      "##inding": 1886,
      "instruc": 1887,
      "##crimin": 1888,
      "assist": 1889,
      "##earch": 1890,
      "need": 1891,
      "front": 1892,
      "##inks": 1893,
      "##position": 1894,
      "accum": 1895,
      "evalu": 1896,
      "alloc": 1897,
      "revolution": 1898,
      "switch": 1899,
      "meas": 1900,
      "meet": 1901,
      "php": 1902,
      "##tures": 1903,
      "##plex": 1904,
      "demonstr": 1905,
      "downs": 1906,
      "identif": 1907,
      "persu": 1908,
      "##istically": 1909,
      "visu": 1910,
      "##icient": 1911,
      "synchron": 1912,
      "##olved": 1913,
      "##chedul": 1914,
      "##ithm": 1915,
      "orient": 1916,
      "analog": 1917,
      "server": 1918,
      "##mitted": 1919,
      "clean": 1920,
      "recomm": 1921,
      "memory": 1922,
      "##force": 1923,
      "differenti": 1924,
      "double": 1925,
      "deduc": 1926,
      "satisf": 1927,
      "life": 1928,
      "schem": 1929,
      "software": 1930,
      "every": 1931,
      "success": 1932,
      "triang": 1933,
      "ruby": 1934,
      "administr": 1935,
      "viol": 1936,
      "represent": 1937,
      "investig": 1938,
      "mvc": 1939,
      "origin": 1940,
      "random": 1941,
      "dynam": 1942,
      "ax": 1943,
      "burn": 1944,
      "can": 1945,
      "dw": 1946,
      "dom": 1947,
      "dang": 1948,
      "dream": 1949,
      "domin": 1950,
      "eig": 1951,
      "fold": 1952,
      "fire": 1953,
      "gent": 1954,
      "hi": 1955,
      "how": 1956,
      "hous": 1957,
      "hold": 1958,
      "jus": 1959,
      "let": 1960,
      "lock": 1961,
      "liter": 1962,
      "loop": 1963,
      "length": 1964,
      "lemm": 1965,
      "ment": 1966,
      "mac": 1967,
      "mot": 1968,
      "mov": 1969,
      "made": 1970,
      "mater": 1971,
      "osc": 1972,
      "poin": 1973,
      "path": 1974,
      "rout": 1975,
      "risk": 1976,
      "sle": 1977,
      "sit": 1978,
      "sour": 1979,
      "site": 1980,
      "size": 1981,
      "toler": 1982,
      "upp": 1983,
      "walk": 1984,
      "##ls": 1985,
      "##ooth": 1986,
      "##wh": 1987,
      "##uf": 1988,
      "##ux": 1989,
      "##port": 1990,
      "##to": 1991,
      "##tp": 1992,
      "##aul": 1993,
      "##man": 1994,
      "##mod": 1995,
      "##ey": 1996,
      "##eff": 1997,
      "##etermin": 1998,
      "##ss": 1999,
      "##nn": 2000,
      "##fort": 2001,
      "##ian": 2002,
      "##gl": 2003,
      "##dk": 2004,
      "##bs": 2005,
      "##bed": 2006,
      "##bing": 2007,
      "##ved": 2008,
      "##ven": 2009,
      "##vari": 2010,
      "##knowled": 2011,
      "##_t": 2012,
      "##erg": 2013,
      "##erted": 2014,
      "##ertain": 2015,
      "##estion": 2016,
      "##entic": 2017,
      "##ares": 2018,
      "##aring": 2019,
      "rej": 2020,
      "##itude": 2021,
      "inex": 2022,
      "incom": 2023,
      "inher": 2024,
      "##rog": 2025,
      "##abled": 2026,
      "##ecess": 2027,
      "##acity": 2028,
      "unit": 2029,
      "untr": 2030,
      "uncom": 2031,
      "##esses": 2032,
      "##ilities": 2033,
      "##olid": 2034,
      "##iveness": 2035,
      "##ether": 2036,
      "##plied": 2037,
      "discrimin": 2038,
      "exam": 2039,
      "##aper": 2040,
      "##ifier": 2041,
      "stop": 2042,
      "step": 2043,
      "##ody": 2044,
      "##oded": 2045,
      "##une": 2046,
      "try": 2047,
      "##otes": 2048,
      "spread": 2049,
      "##irm": 2050,
      "##ipping": 2051,
      "compon": 2052,
      "comput": 2053,
      "compet": 2054,
      "competi": 2055,
      "##ensively": 2056,
      "recogn": 2057,
      "thank": 2058,
      "chro": 2059,
      "acknowled": 2060,
      "##anded": 2061,
      "ans": 2062,
      "multic": 2063,
      "weight": 2064,
      "shr": 2065,
      "interf": 2066,
      "interch": 2067,
      "##aved": 2068,
      "##aves": 2069,
      "##aving": 2070,
      "##aken": 2071,
      "altern": 2072,
      "##anged": 2073,
      "scal": 2074,
      "upd": 2075,
      "decor": 2076,
      "selec": 2077,
      "quar": 2078,
      "quan": 2079,
      "repe": 2080,
      "transfer": 2081,
      "part": 2082,
      "parti": 2083,
      "learning": 2084,
      "induc": 2085,
      "emph": 2086,
      "desp": 2087,
      "##rix": 2088,
      "object": 2089,
      "##alls": 2090,
      "##alling": 2091,
      "plan": 2092,
      "missp": 2093,
      "context": 2094,
      "container": 2095,
      "invalid": 2096,
      "associ": 2097,
      "only": 2098,
      "item": 2099,
      "##earing": 2100,
      "##erved": 2101,
      "intell": 2102,
      "model": 2103,
      "##ailed": 2104,
      "##ounds": 2105,
      "black": 2106,
      "##atory": 2107,
      "craw": 2108,
      "##tifies": 2109,
      "##tifying": 2110,
      "reflec": 2111,
      "refresh": 2112,
      "##ashed": 2113,
      "ampl": 2114,
      "amaz": 2115,
      "bef": 2116,
      "##ressed": 2117,
      "corresp": 2118,
      "##plicated": 2119,
      "who": 2120,
      "depth": 2121,
      "boot": 2122,
      "event": 2123,
      "aggr": 2124,
      "aggreg": 2125,
      "##jection": 2126,
      "review": 2127,
      "##tual": 2128,
      "poss": 2129,
      "feed": 2130,
      "feature": 2131,
      "awa": 2132,
      "contrib": 2133,
      "simpl": 2134,
      "##olves": 2135,
      "##olving": 2136,
      "glob": 2137,
      "##ropri": 2138,
      "##cribe": 2139,
      "##cribed": 2140,
      "collabor": 2141,
      "byte": 2142,
      "seri": 2143,
      "authentic": 2144,
      "direct": 2145,
      "##books": 2146,
      "python": 2147,
      "templ": 2148,
      "popular": 2149,
      "linear": 2150,
      "standard": 2151,
      "approxim": 2152,
      "illustr": 2153,
      "write": 2154,
      "##ampled": 2155,
      "##ampling": 2156,
      "occurr": 2157,
      "incons": 2158,
      "distinc": 2159,
      "programming": 2160,
      "group": 2161,
      "ground": 2162,
      "semi": 2163,
      "##tructure": 2164,
      "##aunch": 2165,
      "maintain": 2166,
      "public": 2167,
      "voice": 2168,
      "particip": 2169,
      "analyz": 2170,
      "benef": 2171,
      "fulf": 2172,
      "focused": 2173,
      "begin": 2174,
      "after": 2175,
      "help": 2176,
      "hypoth": 2177,
      "roll": 2178,
      "easy": 2179,
      "tensor": 2180,
      "categor": 2181,
      "vs20": 2182,
      "navig": 2183,
      "oscill": 2184,
      "correspond": 2185,
      "aug": 2186,
      "bas": 2187,
      "canc": 2188,
      "care": 2189,
      "date": 2190,
      "dock": 2191,
      "ec": 2192,
      "ell": 2193,
      "earn": 2194,
      "fo": 2195,
      "fat": 2196,
      "flex": 2197,
      "gen": 2198,
      "hes": 2199,
      "here": 2200,
      "know": 2201,
      "lo": 2202,
      "less": 2203,
      "lex": 2204,
      "mal": 2205,
      "mess": 2206,
      "mix": 2207,
      "memb": 2208,
      "next": 2209,
      "nov": 2210,
      "nomin": 2211,
      "odd": 2212,
      "outr": 2213,
      "pag": 2214,
      "pack": 2215,
      "page": 2216,
      "punc": 2217,
      "ra": 2218,
      "rer": 2219,
      "rot": 2220,
      "rob": 2221,
      "range": 2222,
      "sed": 2223,
      "som": 2224,
      "sid": 2225,
      "stim": 2226,
      "schedul": 2227,
      "tot": 2228,
      "ui": 2229,
      "van": 2230,
      "warm": 2231,
      "you": 2232,
      "##ler": 2233,
      "##oti": 2234,
      "##overs": 2235,
      "##uti": 2236,
      "##ror": 2237,
      "##ras": 2238,
      "##rame": 2239,
      "##aus": 2240,
      "##map": 2241,
      "##ees": 2242,
      "##sing": 2243,
      "##get": 2244,
      "##cast": 2245,
      "##hod": 2246,
      "##ystem": 2247,
      "##vm": 2248,
      "##vi": 2249,
      "##erting": 2250,
      "##oned": 2251,
      "##onom": 2252,
      "##att": 2253,
      "##ata": 2254,
      "##orrow": 2255,
      "##arted": 2256,
      "##arts": 2257,
      "##anted": 2258,
      "rewrit": 2259,
      "##isions": 2260,
      "inj": 2261,
      "inac": 2262,
      "ingr": 2263,
      "input": 2264,
      "##reat": 2265,
      "##icit": 2266,
      "##roup": 2267,
      "##ascript": 2268,
      "##ationally": 2269,
      "##acts": 2270,
      "unle": 2271,
      "univers": 2272,
      "##elt": 2273,
      "confer": 2274,
      "concep": 2275,
      "##igor": 2276,
      "##erse": 2277,
      "##amed": 2278,
      "##ames": 2279,
      "##aming": 2280,
      "##check": 2281,
      "##ples": 2282,
      "##place": 2283,
      "sug": 2284,
      "disg": 2285,
      "disj": 2286,
      "distr": 2287,
      "discl": 2288,
      "distingu": 2289,
      "extrac": 2290,
      "exempl": 2291,
      "prol": 2292,
      "prob": 2293,
      "proof": 2294,
      "propor": 2295,
      "##api": 2296,
      "##owing": 2297,
      "enj": 2298,
      "enti": 2299,
      "##ift": 2300,
      "stage": 2301,
      "##ung": 2302,
      "trig": 2303,
      "trad": 2304,
      "spo": 2305,
      "respec": 2306,
      "restric": 2307,
      "##tick": 2308,
      "prepar": 2309,
      "preprocess": 2310,
      "them": 2311,
      "cho": 2312,
      "action": 2313,
      "pron": 2314,
      "anonym": 2315,
      "weak": 2316,
      "inters": 2317,
      "interrup": 2318,
      "##itim": 2319,
      "##aked": 2320,
      "align": 2321,
      "alph": 2322,
      "algor": 2323,
      "##thy": 2324,
      "##uding": 2325,
      "##anges": 2326,
      "##assemb": 2327,
      "sci": 2328,
      "scop": 2329,
      "dece": 2330,
      "##fulness": 2331,
      "quanti": 2332,
      "question": 2333,
      "impr": 2334,
      "##ype": 2335,
      "##forms": 2336,
      "empow": 2337,
      "deser": 2338,
      "flatter": 2339,
      "##inded": 2340,
      "fores": 2341,
      "##cond": 2342,
      "##compl": 2343,
      "strat": 2344,
      "appe": 2345,
      "appreci": 2346,
      "##istent": 2347,
      "##ubs": 2348,
      "##ugg": 2349,
      "intens": 2350,
      "modern": 2351,
      "##ailing": 2352,
      "defined": 2353,
      "##tives": 2354,
      "##ameter": 2355,
      "neutr": 2356,
      "##itely": 2357,
      "##ifications": 2358,
      "##lessness": 2359,
      "confid": 2360,
      "datas": 2361,
      "##ashing": 2362,
      "frag": 2363,
      "bea": 2364,
      "correl": 2365,
      "##echan": 2366,
      "what": 2367,
      "undes": 2368,
      "manuf": 2369,
      "remov": 2370,
      "boots": 2371,
      "higher": 2372,
      "##jects": 2373,
      "##jective": 2374,
      "api": 2375,
      "applic": 2376,
      "apolog": 2377,
      "application": 2378,
      "small": 2379,
      "discus": 2380,
      "discover": 2381,
      "phot": 2382,
      "##phones": 2383,
      "hands": 2384,
      "incor": 2385,
      "afford": 2386,
      "explor": 2387,
      "##ike": 2388,
      "concaten": 2389,
      "skill": 2390,
      "two": 2391,
      "term": 2392,
      "##linear": 2393,
      "##uild": 2394,
      "##airs": 2395,
      "##loads": 2396,
      "superv": 2397,
      "local": 2398,
      "security": 2399,
      "encour": 2400,
      "geome": 2401,
      "annot": 2402,
      "developer": 2403,
      "purpose": 2404,
      "##ync": 2405,
      "##ynchron": 2406,
      "summar": 2407,
      "##itively": 2408,
      "powered": 2409,
      "processing": 2410,
      "scrap": 2411,
      "relev": 2412,
      "prototyp": 2413,
      "built": 2414,
      "frequ": 2415,
      "practic": 2416,
      "error": 2417,
      "##ableness": 2418,
      "envir": 2419,
      "interpol": 2420,
      "copy": 2421,
      "startup": 2422,
      "##tification": 2423,
      "deriv": 2424,
      "harmon": 2425,
      "cheer": 2426,
      "pleas": 2427,
      "understand": 2428,
      "congrat": 2429,
      "adverti": 2430,
      "industry": 2431,
      "synthes": 2432,
      "achiev": 2433,
      "mathem": 2434,
      "troub": 2435,
      "redistrib": 2436,
      "knowledge": 2437,
      "machine": 2438,
      "emphas": 2439,
      "manufact": 2440,
      "bal": 2441,
      "bur": 2442,
      "cat": 2443,
      "cam": 2444,
      "da": 2445,
      "dj": 2446,
      "don": 2447,
      "dam": 2448,
      "ear": 2449,
      "elev": 2450,
      "far": 2451,
      "fut": 2452,
      "fear": 2453,
      "face": 2454,
      "fade": 2455,
      "fool": 2456,
      "gri": 2457,
      "hos": 2458,
      "hot": 2459,
      "hook": 2460,
      "joy": 2461,
      "jquery": 2462,
      "kind": 2463,
      "kick": 2464,
      "kern": 2465,
      "lag": 2466,
      "larg": 2467,
      "later": 2468,
      "loss": 2469,
      "launch": 2470,
      "mu": 2471,
      "ma": 2472,
      "med": 2473,
      "mar": 2474,
      "mom": 2475,
      "mock": 2476,
      "migr": 2477,
      "mechan": 2478,
      "nar": 2479,
      "native": 2480,
      "necess": 2481,
      "pip": 2482,
      "pull": 2483,
      "right": 2484,
      "round": 2485,
      "render": 2486,
      "raster": 2487,
      "sust": 2488,
      "source": 2489,
      "tab": 2490,
      "targ": 2491,
      "turn": 2492,
      "uint": 2493,
      "vg": 2494,
      "war": 2495,
      "wit": 2496,
      "wire": 2497,
      "wret": 2498,
      "wonder": 2499,
      "##lock": 2500,
      "##light": 2501,
      "##lines": 2502,
      "##otion": 2503,
      "##ways": 2504,
      "##pe": 2505,
      "##pi": 2506,
      "##py": 2507,
      "##ply": 2508,
      "##press": 2509,
      "##path": 2510,
      "##points": 2511,
      "##tors": 2512,
      "##ra": 2513,
      "##ry": 2514,
      "##ryp": 2515,
      "##ah": 2516,
      "##auth": 2517,
      "##een": 2518,
      "##eav": 2519,
      "##eploy": 2520,
      "##str": 2521,
      "##fram": 2522,
      "##iom": 2523,
      "##ios": 2524,
      "##ief": 2525,
      "##ialize": 2526,
      "##cle": 2527,
      "##code": 2528,
      "##date": 2529,
      "##dev": 2530,
      "##bar": 2531,
      "##bit": 2532,
      "##bre": 2533,
      "##vity": 2534,
      "##inate": 2535,
      "##esting": 2536,
      "##onment": 2537,
      "##ather": 2538,
      "##ativity": 2539,
      "##inging": 2540,
      "##enet": 2541,
      "##titu": 2542,
      "##alc": 2543,
      "regr": 2544,
      "rearr": 2545,
      "##ism": 2546,
      "##isc": 2547,
      "##itate": 2548,
      "##itated": 2549,
      "##itating": 2550,
      "##ither": 2551,
      "ineff": 2552,
      "##icious": 2553,
      "##rom": 2554,
      "##roc": 2555,
      "##rob": 2556,
      "##asm": 2557,
      "##astic": 2558,
      "##ecl": 2559,
      "##ections": 2560,
      "##ective": 2561,
      "##acted": 2562,
      "unr": 2563,
      "unh": 2564,
      "unif": 2565,
      "unim": 2566,
      "unpro": 2567,
      "##uls": 2568,
      "##ulting": 2569,
      "##ulators": 2570,
      "##eline": 2571,
      "##igured": 2572,
      "##olve": 2573,
      "##olute": 2574,
      "##ersed": 2575,
      "##ads": 2576,
      "##idu": 2577,
      "##chmark": 2578,
      "##plus": 2579,
      "##play": 2580,
      "##agg": 2581,
      "##agger": 2582,
      "##tedly": 2583,
      "dismiss": 2584,
      "dele": 2585,
      "deploy": 2586,
      "prox": 2587,
      "proper": 2588,
      "project": 2589,
      "##apol": 2590,
      "encr": 2591,
      "station": 2592,
      "state": 2593,
      "stack": 2594,
      "##unt": 2595,
      "track": 2596,
      "trade": 2597,
      "##mentation": 2598,
      "##otted": 2599,
      "##iber": 2600,
      "resh": 2601,
      "research": 2602,
      "preced": 2603,
      "##ogs": 2604,
      "compos": 2605,
      "compens": 2606,
      "complex": 2607,
      "imper": 2608,
      "##ensible": 2609,
      "recol": 2610,
      "recover": 2611,
      "recurr": 2612,
      "throw": 2613,
      "subst": 2614,
      "chip": 2615,
      "charg": 2616,
      "accompl": 2617,
      "##ume": 2618,
      "princ": 2619,
      "##pping": 2620,
      "adop": 2621,
      "##ounting": 2622,
      "she": 2623,
      "shut": 2624,
      "shad": 2625,
      "shap": 2626,
      "##arded": 2627,
      "interview": 2628,
      "internet": 2629,
      "interoper": 2630,
      "asy": 2631,
      "overc": 2632,
      "overh": 2633,
      "overd": 2634,
      "overestim": 2635,
      "multif": 2636,
      "##aker": 2637,
      "clar": 2638,
      "clock": 2639,
      "alle": 2640,
      "allev": 2641,
      "##thread": 2642,
      "##graph": 2643,
      "##ango": 2644,
      "##ourn": 2645,
      "##oured": 2646,
      "scan": 2647,
      "scroll": 2648,
      "upsc": 2649,
      "seed": 2650,
      "sever": 2651,
      "##orship": 2652,
      "cool": 2653,
      "coinc": 2654,
      "cooper": 2655,
      "##igns": 2656,
      "repreh": 2657,
      "##okes": 2658,
      "impress": 2659,
      "party": 2660,
      "constr": 2661,
      "consider": 2662,
      "consequ": 2663,
      "webp": 2664,
      "lever": 2665,
      "indul": 2666,
      "independ": 2667,
      "flat": 2668,
      "outst": 2669,
      "##lected": 2670,
      "##ried": 2671,
      "inspir": 2672,
      "obtain": 2673,
      "##alloc": 2674,
      "##coming": 2675,
      "##achable": 2676,
      "stra": 2677,
      "string": 2678,
      "appreh": 2679,
      "miscon": 2680,
      "reloc": 2681,
      "content": 2682,
      "##eps": 2683,
      "invest": 2684,
      "invari": 2685,
      "grat": 2686,
      "##istence": 2687,
      "##ials": 2688,
      "##ervice": 2689,
      "intel": 2690,
      "introduc": 2691,
      "cold": 2692,
      "infring": 2693,
      "infras": 2694,
      "command": 2695,
      "commerc": 2696,
      "symme": 2697,
      "##tiveness": 2698,
      "devi": 2699,
      "cred": 2700,
      "##aste": 2701,
      "reduc": 2702,
      "redirec": 2703,
      "##ularity": 2704,
      "slow": 2705,
      "##itional": 2706,
      "##poses": 2707,
      "registr": 2708,
      "accord": 2709,
      "times": 2710,
      "rememb": 2711,
      "box": 2712,
      "diagn": 2713,
      "##jected": 2714,
      "appl": 2715,
      "##ologies": 2716,
      "attend": 2717,
      "worksh": 2718,
      "tele": 2719,
      "##ixel": 2720,
      "smooth": 2721,
      "delim": 2722,
      "mini": 2723,
      "phys": 2724,
      "elimin": 2725,
      "##phone": 2726,
      "##tracts": 2727,
      "demo": 2728,
      "##blem": 2729,
      "endeav": 2730,
      "##ship": 2731,
      "instanti": 2732,
      "explo": 2733,
      "concentr": 2734,
      "twe": 2735,
      "visual": 2736,
      "simil": 2737,
      "##olvable": 2738,
      "##loaded": 2739,
      "##loading": 2740,
      "reinst": 2741,
      "second": 2742,
      "encod": 2743,
      "##cribes": 2744,
      "geo": 2745,
      "##rams": 2746,
      "anne": 2747,
      "announ": 2748,
      "embedd": 2749,
      "verb": 2750,
      "cyb": 2751,
      "purs": 2752,
      "digitiz": 2753,
      "guid": 2754,
      "##mitting": 2755,
      "solid": 2756,
      "profession": 2757,
      "respect": 2758,
      "respond": 2759,
      "javascript": 2760,
      "worth": 2761,
      "recomp": 2762,
      "reproduc": 2763,
      "negoti": 2764,
      "monit": 2765,
      "monot": 2766,
      "scrip": 2767,
      "ess": 2768,
      "irrit": 2769,
      "renew": 2770,
      "##prise": 2771,
      "request": 2772,
      "experiment": 2773,
      "##controll": 2774,
      "technology": 2775,
      "occup": 2776,
      "##idden": 2777,
      "##iddle": 2778,
      "practi": 2779,
      "facil": 2780,
      "method": 2781,
      "dedic": 2782,
      "robo": 2783,
      "interpret": 2784,
      "##iliar": 2785,
      "extrapol": 2786,
      "reconf": 2787,
      "reconnec": 2788,
      "community": 2789,
      "circum": 2790,
      "like": 2791,
      "trem": 2792,
      "##abilities": 2793,
      "style": 2794,
      "##ographic": 2795,
      "matrix": 2796,
      "testing": 2797,
      "fully": 2798,
      "version": 2799,
      "entertain": 2800,
      "parameter": 2801,
      "digital": 2802,
      "favour": 2803,
      "browser": 2804,
      "html": 2805,
      "upload": 2806,
      "written": 2807,
      "recru": 2808,
      "aston": 2809,
      "utf": 2810,
      "reconstruc": 2811,
      "cluster": 2812,
      "symbol": 2813,
      "diagon": 2814,
      "establ": 2815,
      "functional": 2816,
      "quadr": 2817,
      "exponenti": 2818,
      "architect": 2819,
      "ultra": 2820,
      "betwe": 2821,
      "critic": 2822,
      "friendly": 2823,
      "pattern": 2824,
      "prioritiz": 2825,
      "eigen": 2826,
      "gentle": 2827,
      "lemmat": 2828,
      "vs201": 2829,
      "sugges": 2830,
      "enjoy": 2831,
      "pronoun": 2832,
      "algorithm": 2833,
      "bootstr": 2834,
      "django": 2835,
      "maj": 2836,
      "allevi": 2837,
      "16": 2838,
      "3d": 2839,
      "64": 2840,
      "aim": 2841,
      "bu": 2842,
      "ban": 2843,
      "bec": 2844,
      "bri": 2845,
      "bill": 2846,
      "bug": 2847,
      "batch": 2848,
      "cell": 2849,
      "case": 2850,
      "curr": 2851,
      "camp": 2852,
      "cpu": 2853,
      "css": 2854,
      "dur": 2855,
      "elect": 2856,
      "fab": 2857,
      "fid": 2858,
      "fine": 2859,
      "fanc": 2860,
      "fond": 2861,
      "fuck": 2862,
      "gig": 2863,
      "gall": 2864,
      "gover": 2865,
      "har": 2866,
      "hack": 2867,
      "hier": 2868,
      "host": 2869,
      "join": 2870,
      "lic": 2871,
      "land": 2872,
      "lect": 2873,
      "linu": 2874,
      "laugh": 2875,
      "mus": 2876,
      "mag": 2877,
      "map": 2878,
      "mir": 2879,
      "miti": 2880,
      "mill": 2881,
      "match": 2882,
      "mong": 2883,
      "mys": 2884,
      "matching": 2885,
      "nan": 2886,
      "node": 2887,
      "pi": 2888,
      "pot": 2889,
      "pool": 2890,
      "pene": 2891,
      "push": 2892,
      "pitch": 2893,
      "qa": 2894,
      "rou": 2895,
      "rad": 2896,
      "rap": 2897,
      "rend": 2898,
      "sa": 2899,
      "sv": 2900,
      "sin": 2901,
      "sig": 2902,
      "sized": 2903,
      "stick": 2904,
      "tit": 2905,
      "table": 2906,
      "tog": 2907,
      "tender": 2908,
      "ub": 2909,
      "ux": 2910,
      "vent": 2911,
      "vac": 2912,
      "vul": 2913,
      "vex": 2914,
      "vide": 2915,
      "vouch": 2916,
      "vibr": 2917,
      "wo": 2918,
      "wed": 2919,
      "watch": 2920,
      "water": 2921,
      "wave": 2922,
      "zoom": 2923,
      "##ole": 2924,
      "##och": 2925,
      "##way": 2926,
      "##uz": 2927,
      "##uation": 2928,
      "##pass": 2929,
      "##top": 2930,
      "##tech": 2931,
      "##rich": 2932,
      "##most": 2933,
      "##medi": 2934,
      "##eas": 2935,
      "##etic": 2936,
      "##eep": 2937,
      "##sql": 2938,
      "##na": 2939,
      "##ft": 2940,
      "##fs": 2941,
      "##fus": 2942,
      "##ialized": 2943,
      "##gb": 2944,
      "##gen": 2945,
      "##cur": 2946,
      "##hes": 2947,
      "##da": 2948,
      "##bound": 2949,
      "##backs": 2950,
      "##zes": 2951,
      "##ving": 2952,
      "##ks": 2953,
      "##kit": 2954,
      "##16": 2955,
      "##ints": 2956,
      "##inated": 2957,
      "##inations": 2958,
      "##erable": 2959,
      "##erver": 2960,
      "##erve": 2961,
      "##eries": 2962,
      "##error": 2963,
      "##oning": 2964,
      "##atics": 2965,
      "##atures": 2966,
      "##atisf": 2967,
      "##attle": 2968,
      "##entions": 2969,
      "##enness": 2970,
      "##till": 2971,
      "##alities": 2972,
      "##orter": 2973,
      "##organ": 2974,
      "##arting": 2975,
      "reti": 2976,
      "rean": 2977,
      "rever": 2978,
      "replic": 2979,
      "retur": 2980,
      "reason": 2981,
      "##lebr": 2982,
      "##ister": 2983,
      "##itter": 2984,
      "##itations": 2985,
      "intim": 2986,
      "##rets": 2987,
      "##icon": 2988,
      "##icing": 2989,
      "##icul": 2990,
      "##iction": 2991,
      "##icted": 2992,
      "##icial": 2993,
      "##asion": 2994,
      "##asive": 2995,
      "##abase": 2996,
      "##econd": 2997,
      "##acious": 2998,
      "##acement": 2999,
      "unn": 3000,
      "unk": 3001,
      "unqu": 3002,
      "unse": 3003,
      "unres": 3004,
      "unreg": 3005,
      "uncomp": 3006,
      "unequ": 3007,
      "##oupl": 3008,
      "##tract": 3009,
      "##trically": 3010,
      "conqu": 3011,
      "conform": 3012,
      "##igible": 3013,
      "##iven": 3014,
      "##ivial": 3015,
      "##erson": 3016,
      "##ersion": 3017,
      "##ams": 3018,
      "##ament": 3019,
      "##etched": 3020,
      "##iders": 3021,
      "##usting": 3022,
      "##ateg": 3023,
      "sun": 3024,
      "##ager": 3025,
      "distur": 3026,
      "distor": 3027,
      "disconnec": 3028,
      "exch": 3029,
      "excl": 3030,
      "excep": 3031,
      "exclus": 3032,
      "exceed": 3033,
      "exhib": 3034,
      "exagger": 3035,
      "deg": 3036,
      "dead": 3037,
      "degr": 3038,
      "deform": 3039,
      "defer": 3040,
      "deleg": 3041,
      "proced": 3042,
      "proceed": 3043,
      "prohib": 3044,
      "##osc": 3045,
      "##osure": 3046,
      "encl": 3047,
      "enroll": 3048,
      "entit": 3049,
      "enabled": 3050,
      "enrich": 3051,
      "##ifiers": 3052,
      "stor": 3053,
      "story": 3054,
      "stret": 3055,
      "stabil": 3056,
      "staff": 3057,
      "##under": 3058,
      "trunc": 3059,
      "training": 3060,
      "##menting": 3061,
      "##oph": 3062,
      "##ople": 3063,
      "##uctu": 3064,
      "spons": 3065,
      "spring": 3066,
      "##ibilities": 3067,
      "##ipher": 3068,
      "resur": 3069,
      "resist": 3070,
      "resemb": 3071,
      "##ousness": 3072,
      "##ticip": 3073,
      "prep": 3074,
      "preview": 3075,
      "imb": 3076,
      "impl": 3077,
      "recre": 3078,
      "reclass": 3079,
      "recycl": 3080,
      "recalc": 3081,
      "three": 3082,
      "chain": 3083,
      "chall": 3084,
      "chann": 3085,
      "actu": 3086,
      "##umes": 3087,
      "##uming": 3088,
      "##umped": 3089,
      "anticip": 3090,
      "##pped": 3091,
      "ador": 3092,
      "advers": 3093,
      "##ounted": 3094,
      "##ounts": 3095,
      "wear": 3096,
      "##alizer": 3097,
      "##alizations": 3098,
      "interv": 3099,
      "interfer": 3100,
      "overt": 3101,
      "overwh": 3102,
      "multiplic": 3103,
      "##aks": 3104,
      "click": 3105,
      "client": 3106,
      "upst": 3107,
      "upgr": 3108,
      "decons": 3109,
      "seek": 3110,
      "##antage": 3111,
      "coordin": 3112,
      "##igning": 3113,
      "repos": 3114,
      "##nesses": 3115,
      "##oked": 3116,
      "##oking": 3117,
      "##ectors": 3118,
      "transc": 3119,
      "import": 3120,
      "impair": 3121,
      "imperson": 3122,
      "autog": 3123,
      "arm": 3124,
      "parent": 3125,
      "parad": 3126,
      "consolid": 3127,
      "indiv": 3128,
      "##ishment": 3129,
      "desk": 3130,
      "flag": 3131,
      "flip": 3132,
      "flaw": 3133,
      "fluctu": 3134,
      "output": 3135,
      "##index": 3136,
      "inser": 3137,
      "instr": 3138,
      "inspec": 3139,
      "fore": 3140,
      "forb": 3141,
      "obfus": 3142,
      "perf": 3143,
      "permission": 3144,
      "plain": 3145,
      "strong": 3146,
      "strength": 3147,
      "strateg": 3148,
      "appear": 3149,
      "aband": 3150,
      "mist": 3151,
      "miss": 3152,
      "misclass": 3153,
      "controll": 3154,
      "contempl": 3155,
      "invent": 3156,
      "##actor": 3157,
      "asser": 3158,
      "gramm": 3159,
      "##entil": 3160,
      "drag": 3161,
      "draf": 3162,
      "##ugged": 3163,
      "##erves": 3164,
      "expect": 3165,
      "atom": 3166,
      "attrib": 3167,
      "color": 3168,
      "##ounding": 3169,
      "inflec": 3170,
      "commit": 3171,
      "##ortun": 3172,
      "##tivated": 3173,
      "device": 3174,
      "ord": 3175,
      "fright": 3176,
      "frustr": 3177,
      "fresh": 3178,
      "redef": 3179,
      "redecl": 3180,
      "##ressing": 3181,
      "corpor": 3182,
      "corrup": 3183,
      "##away": 3184,
      "heav": 3185,
      "##itioned": 3186,
      "##itionally": 3187,
      "##posing": 3188,
      "##arked": 3189,
      "region": 3190,
      "unders": 3191,
      "depr": 3192,
      "deprec": 3193,
      "depart": 3194,
      "depreci": 3195,
      "accent": 3196,
      "timest": 3197,
      "evid": 3198,
      "##ongs": 3199,
      "agree": 3200,
      "agile": 3201,
      "##ologically": 3202,
      "attenu": 3203,
      "backl": 3204,
      "##ixed": 3205,
      "underl": 3206,
      "undert": 3207,
      "underestim": 3208,
      "deliber": 3209,
      "meg": 3210,
      "keyp": 3211,
      "keys": 3212,
      "elabor": 3213,
      "##traction": 3214,
      "##tracting": 3215,
      "##mised": 3216,
      "##mises": 3217,
      "substit": 3218,
      "##afe": 3219,
      "##ront": 3220,
      "contradic": 3221,
      "divis": 3222,
      "surf": 3223,
      "##istics": 3224,
      "concurr": 3225,
      "sketch": 3226,
      "##icially": 3227,
      "##iciency": 3228,
      "production": 3229,
      "synt": 3230,
      "topic": 3231,
      "##uilt": 3232,
      "good": 3233,
      "progress": 3234,
      "capit": 3235,
      "capac": 3236,
      "location": 3237,
      "oct": 3238,
      "encaps": 3239,
      "##cribing": 3240,
      "dissip": 3241,
      "predict": 3242,
      "annoy": 3243,
      "embod": 3244,
      "##cription": 3245,
      "ready": 3246,
      "collaps": 3247,
      "developers": 3248,
      "cycl": 3249,
      "calm": 3250,
      "calibr": 3251,
      "breath": 3252,
      "clear": 3253,
      "clever": 3254,
      "effect": 3255,
      "temp": 3256,
      "temper": 3257,
      "speech": 3258,
      "acquies": 3259,
      "overst": 3260,
      "they": 3261,
      "theore": 3262,
      "irres": 3263,
      "note": 3264,
      "renov": 3265,
      "require": 3266,
      "stead": 3267,
      "player": 3268,
      "iss": 3269,
      "isol": 3270,
      "experi": 3271,
      "##control": 3272,
      "freel": 3273,
      "practice": 3274,
      "##boards": 3275,
      "programmer": 3276,
      "audio": 3277,
      "minded": 3278,
      "##entioned": 3279,
      "entre": 3280,
      "entrop": 3281,
      "declar": 3282,
      "manager": 3283,
      "management": 3284,
      "layer": 3285,
      "satur": 3286,
      "##head": 3287,
      "engineers": 3288,
      "engineering": 3289,
      "customer": 3290,
      "people": 3291,
      "retriev": 3292,
      "liber": 3293,
      "sole": 3294,
      "##200": 3295,
      "styl": 3296,
      "particular": 3297,
      "##tifications": 3298,
      "volat": 3299,
      "##ordered": 3300,
      "connected": 3301,
      "suppl": 3302,
      "distribution": 3303,
      "adjust": 3304,
      "sharp": 3305,
      "legitim": 3306,
      "benchmark": 3307,
      "linked": 3308,
      "windows": 3309,
      "enterprise": 3310,
      "fault": 3311,
      "favor": 3312,
      "fixed": 3313,
      "known": 3314,
      "enlarg": 3315,
      "studio": 3316,
      "permut": 3317,
      "celebr": 3318,
      "mobile": 3319,
      "ranked": 3320,
      "squared": 3321,
      "##charged": 3322,
      "travers": 3323,
      "recruit": 3324,
      "ascertain": 3325,
      "outsour": 3326,
      "discretiz": 3327,
      "bott": 3328,
      "conjug": 3329,
      "conjunc": 3330,
      "argument": 3331,
      "escal": 3332,
      "familiar": 3333,
      "##going": 3334,
      "reciproc": 3335,
      "##claimed": 3336,
      "ambigu": 3337,
      "##abyte": 3338,
      "disagree": 3339,
      "discontinu": 3340,
      "recommend": 3341,
      "domain": 3342,
      "mother": 3343,
      "chrome": 3344,
      "answ": 3345,
      "interface": 3346,
      "interchange": 3347,
      "hypothes": 3348,
      "docker": 3349,
      "punctu": 3350,
      "proportion": 3351,
      "alphab": 3352,
      "incorpor": 3353,
      "environment": 3354,
      "catal": 3355,
      "camer": 3356,
      "griev": 3357,
      "kernel": 3358,
      "much": 3359,
      "moment": 3360,
      "narrow": 3361,
      "vgg": 3362,
      "uniform": 3363,
      "encryp": 3364,
      "straight": 3365,
      "brief": 3366,
      "hierarch": 3367,
      "linux": 3368,
      "mitig": 3369,
      "penetr": 3370,
      "##uzz": 3371,
      "obfusc": 3372,
      "32": 3373,
      "are": 3374,
      "air": 3375,
      "award": 3376,
      "boun": 3377,
      "byp": 3378,
      "bind": 3379,
      "bund": 3380,
      "base": 3381,
      "buff": 3382,
      "civ": 3383,
      "cand": 3384,
      "cub": 3385,
      "cost": 3386,
      "carr": 3387,
      "casc": 3388,
      "cache": 3389,
      "dub": 3390,
      "dark": 3391,
      "dual": 3392,
      "econ": 3393,
      "element": 3394,
      "etern": 3395,
      "eleg": 3396,
      "early": 3397,
      "fi": 3398,
      "fal": 3399,
      "fle": 3400,
      "four": 3401,
      "fair": 3402,
      "fasc": 3403,
      "gp": 3404,
      "gle": 3405,
      "git": 3406,
      "got": 3407,
      "gest": 3408,
      "hal": 3409,
      "hab": 3410,
      "hur": 3411,
      "had": 3412,
      "hist": 3413,
      "hub": 3414,
      "haun": 3415,
      "il": 3416,
      "ios": 3417,
      "just": 3418,
      "job": 3419,
      "journ": 3420,
      "lp": 3421,
      "ling": 3422,
      "lit": 3423,
      "last": 3424,
      "lov": 3425,
      "lived": 3426,
      "luck": 3427,
      "lamb": 3428,
      "lux": 3429,
      "mass": 3430,
      "mash": 3431,
      "make": 3432,
      "mask": 3433,
      "mesh": 3434,
      "mild": 3435,
      "middle": 3436,
      "nat": 3437,
      "nul": 3438,
      "now": 3439,
      "nod": 3440,
      "old": 3441,
      "other": 3442,
      "pa": 3443,
      "pin": 3444,
      "pal": 3445,
      "por": 3446,
      "pion": 3447,
      "pec": 3448,
      "piv": 3449,
      "put": 3450,
      "pod": 3451,
      "piti": 3452,
      "pair": 3453,
      "pixel": 3454,
      "puzz": 3455,
      "rat": 3456,
      "ration": 3457,
      "riv": 3458,
      "rid": 3459,
      "ray": 3460,
      "rum": 3461,
      "rav": 3462,
      "rails": 3463,
      "rich": 3464,
      "sent": 3465,
      "sel": 3466,
      "ster": 3467,
      "soc": 3468,
      "sigh": 3469,
      "sell": 3470,
      "sinc": 3471,
      "snow": 3472,
      "sales": 3473,
      "tac": 3474,
      "tess": 3475,
      "tur": 3476,
      "tang": 3477,
      "vb": 3478,
      "var": 3479,
      "vag": 3480,
      "vue": 3481,
      "ventil": 3482,
      "wom": 3483,
      "wel": 3484,
      "way": 3485,
      "wand": 3486,
      "wav": 3487,
      "wher": 3488,
      "wise": 3489,
      "warn": 3490,
      "x8": 3491,
      "xml": 3492,
      "yield": 3493,
      "##lab": 3494,
      "##leness": 3495,
      "##laim": 3496,
      "##ove": 3497,
      "##oying": 3498,
      "##uent": 3499,
      "##utive": 3500,
      "##uters": 3501,
      "##pin": 3502,
      "##page": 3503,
      "##part": 3504,
      "##pret": 3505,
      "##test": 3506,
      "##text": 3507,
      "##tree": 3508,
      "##type": 3509,
      "##ric": 3510,
      "##rance": 3511,
      "##right": 3512,
      "##rase": 3513,
      "##aug": 3514,
      "##ault": 3515,
      "##men": 3516,
      "##mind": 3517,
      "##more": 3518,
      "##eq": 3519,
      "##ead": 3520,
      "##eem": 3521,
      "##etically": 3522,
      "##eties": 3523,
      "##sd": 3524,
      "##nns": 3525,
      "##field": 3526,
      "##frame": 3527,
      "##ia": 3528,
      "##iet": 3529,
      "##iod": 3530,
      "##iors": 3531,
      "##iant": 3532,
      "##iability": 3533,
      "##iently": 3534,
      "##ients": 3535,
      "##gest": 3536,
      "##gence": 3537,
      "##grow": 3538,
      "##group": 3539,
      "##cent": 3540,
      "##ho": 3541,
      "##hor": 3542,
      "##how": 3543,
      "##host": 3544,
      "##held": 3545,
      "##de": 3546,
      "##base": 3547,
      "##body": 3548,
      "##ze": 3549,
      "##zed": 3550,
      "##yed": 3551,
      "##vis": 3552,
      "##king": 3553,
      "##kill": 3554,
      "##jud": 3555,
      "##_cast": 3556,
      "##_eq": 3557,
      "##iny": 3558,
      "##inates": 3559,
      "##edron": 3560,
      "##erge": 3561,
      "##only": 3562,
      "##enly": 3563,
      "##alth": 3564,
      "##orthy": 3565,
      "##arter": 3566,
      "##arant": 3567,
      "##arse": 3568,
      "##anch": 3569,
      "##anting": 3570,
      "reh": 3571,
      "reun": 3572,
      "reop": 3573,
      "reve": 3574,
      "reth": 3575,
      "rebo": 3576,
      "reapp": 3577,
      "retain": 3578,
      "reiter": 3579,
      "reorgan": 3580,
      "reindex": 3581,
      "##lements": 3582,
      "##iser": 3583,
      "##itates": 3584,
      "inad": 3585,
      "intric": 3586,
      "incomp": 3587,
      "##rees": 3588,
      "##requ": 3589,
      "##icity": 3590,
      "##icting": 3591,
      "##rocess": 3592,
      "##asp": 3593,
      "##asure": 3594,
      "##ece": 3595,
      "##acting": 3596,
      "##actions": 3597,
      "##aciously": 3598,
      "unve": 3599,
      "unav": 3600,
      "ungr": 3601,
      "uniqu": 3602,
      "##uli": 3603,
      "##ulus": 3604,
      "##ulted": 3605,
      "##ults": 3606,
      "##ulous": 3607,
      "##outed": 3608,
      "##outing": 3609,
      "##elines": 3610,
      "##eliness": 3611,
      "concl": 3612,
      "conges": 3613,
      "conject": 3614,
      "conclus": 3615,
      "congreg": 3616,
      "##igent": 3617,
      "##igence": 3618,
      "##oles": 3619,
      "##older": 3620,
      "##ivable": 3621,
      "##izers": 3622,
      "##utor": 3623,
      "##urance": 3624,
      "##amped": 3625,
      "##eth": 3626,
      "##idity": 3627,
      "##usable": 3628,
      "##usts": 3629,
      "##emy": 3630,
      "##emon": 3631,
      "##chain": 3632,
      "##places": 3633,
      "suit": 3634,
      "disk": 3635,
      "disall": 3636,
      "discon": 3637,
      "dispro": 3638,
      "disreg": 3639,
      "disassemb": 3640,
      "exh": 3641,
      "excess": 3642,
      "extern": 3643,
      "exception": 3644,
      "deac": 3645,
      "deque": 3646,
      "proud": 3647,
      "procr": 3648,
      "##ape": 3649,
      "##apes": 3650,
      "##apse": 3651,
      "complic": 3652,
      "comfort": 3653,
      "encomp": 3654,
      "##ifted": 3655,
      "##impl": 3656,
      "std": 3657,
      "stup": 3658,
      "static": 3659,
      "##odb": 3660,
      "##uned": 3661,
      "##unes": 3662,
      "##unch": 3663,
      "tra": 3664,
      "trick": 3665,
      "tracking": 3666,
      "##occ": 3667,
      "##ocab": 3668,
      "##ocations": 3669,
      "##ainable": 3670,
      "##aints": 3671,
      "##ainst": 3672,
      "##ope": 3673,
      "##otech": 3674,
      "##esty": 3675,
      "spy": 3676,
      "spat": 3677,
      "spher": 3678,
      "##qual": 3679,
      "##irmed": 3680,
      "##ighter": 3681,
      "reson": 3682,
      "restr": 3683,
      "result": 3684,
      "resolution": 3685,
      "resource": 3686,
      "pretr": 3687,
      "##ogue": 3688,
      "##ogene": 3689,
      "compr": 3690,
      "compact": 3691,
      "complement": 3692,
      "implic": 3693,
      "##ensed": 3694,
      "##ensions": 3695,
      "reck": 3696,
      "recurs": 3697,
      "reclaim": 3698,
      "thw": 3699,
      "that": 3700,
      "third": 3701,
      "threat": 3702,
      "subse": 3703,
      "charm": 3704,
      "change": 3705,
      "chunk": 3706,
      "accep": 3707,
      "accomp": 3708,
      "accomm": 3709,
      "##umed": 3710,
      "pra": 3711,
      "prin": 3712,
      "press": 3713,
      "print": 3714,
      "anch": 3715,
      "adher": 3716,
      "##perform": 3717,
      "weigh": 3718,
      "week": 3719,
      "weird": 3720,
      "shop": 3721,
      "shuff": 3722,
      "##arding": 3723,
      "interle": 3724,
      "interconnec": 3725,
      "aspir": 3726,
      "async": 3727,
      "nons": 3728,
      "noncon": 3729,
      "overf": 3730,
      "overview": 3731,
      "overflow": 3732,
      "multit": 3733,
      "multid": 3734,
      "multipl": 3735,
      "multiprocess": 3736,
      "multiplex": 3737,
      "##itivity": 3738,
      "clut": 3739,
      "clos": 3740,
      "clim": 3741,
      "close": 3742,
      "cloth": 3743,
      "claim": 3744,
      "closed": 3745,
      "ali": 3746,
      "alarm": 3747,
      "##grid": 3748,
      "##gramm": 3749,
      "##assed": 3750,
      "##asses": 3751,
      "##assing": 3752,
      "##ouring": 3753,
      "##ourse": 3754,
      "science": 3755,
      "decep": 3756,
      "decentr": 3757,
      "decryp": 3758,
      "seem": 3759,
      "select": 3760,
      "covari": 3761,
      "repur": 3762,
      "repair": 3763,
      "transduc": 3764,
      "transvers": 3765,
      "imped": 3766,
      "autonom": 3767,
      "##formation": 3768,
      "ard": 3769,
      "artif": 3770,
      "arith": 3771,
      "consc": 3772,
      "constit": 3773,
      "webdr": 3774,
      "left": 3775,
      "indis": 3776,
      "indign": 3777,
      "flour": 3778,
      "fluff": 3779,
      "flush": 3780,
      "outd": 3781,
      "outdo": 3782,
      "##lecom": 3783,
      "insinu": 3784,
      "instig": 3785,
      "forec": 3786,
      "force": 3787,
      "obsc": 3788,
      "perp": 3789,
      "perv": 3790,
      "perce": 3791,
      "percep": 3792,
      "perme": 3793,
      "perplex": 3794,
      "period": 3795,
      "place": 3796,
      "##come": 3797,
      "##ancies": 3798,
      "strang": 3799,
      "strugg": 3800,
      "append": 3801,
      "appropri": 3802,
      "##times": 3803,
      "abol": 3804,
      "abomin": 3805,
      "abhor": 3806,
      "mism": 3807,
      "misund": 3808,
      "misbe": 3809,
      "misinter": 3810,
      "relations": 3811,
      "reload": 3812,
      "relax": 3813,
      "contin": 3814,
      "##ocking": 3815,
      "##epoint": 3816,
      "##actable": 3817,
      "assu": 3818,
      "assign": 3819,
      "grab": 3820,
      "grid": 3821,
      "grade": 3822,
      "drink": 3823,
      "##istently": 3824,
      "##ears": 3825,
      "##eared": 3826,
      "##ervices": 3827,
      "intu": 3828,
      "exped": 3829,
      "module": 3830,
      "colle": 3831,
      "infin": 3832,
      "blog": 3833,
      "opens": 3834,
      "defl": 3835,
      "defe": 3836,
      "##tivate": 3837,
      "##tivating": 3838,
      "devops": 3839,
      "speci": 3840,
      "crush": 3841,
      "orth": 3842,
      "never": 3843,
      "config": 3844,
      "confirm": 3845,
      "datag": 3846,
      "database": 3847,
      "refr": 3848,
      "refoc": 3849,
      "refact": 3850,
      "betr": 3851,
      "redes": 3852,
      "redown": 3853,
      "##ression": 3854,
      "##inked": 3855,
      "corrob": 3856,
      "##awn": 3857,
      "heap": 3858,
      "##itioning": 3859,
      "whis": 3860,
      "##positions": 3861,
      "regener": 3862,
      "undo": 3863,
      "accur": 3864,
      "account": 3865,
      "many": 3866,
      "manif": 3867,
      "remark": 3868,
      "boos": 3869,
      "highl": 3870,
      "offs": 3871,
      "office": 3872,
      "used": 3873,
      "users": 3874,
      "agent": 3875,
      "unsh": 3876,
      "unsubs": 3877,
      "##jecting": 3878,
      "apache": 3879,
      "##scre": 3880,
      "allow": 3881,
      "codes": 3882,
      "codec": 3883,
      "working": 3884,
      "##wardly": 3885,
      "backtr": 3886,
      "telecom": 3887,
      "sweet": 3888,
      "sweep": 3889,
      "underpin": 3890,
      "discern": 3891,
      "deliv": 3892,
      "deliver": 3893,
      "bright": 3894,
      "brush": 3895,
      "keep": 3896,
      "phone": 3897,
      "##turing": 3898,
      "##tural": 3899,
      "##tractive": 3900,
      "format": 3901,
      "##plete": 3902,
      "##parameter": 3903,
      "equip": 3904,
      "equipped": 3905,
      "equival": 3906,
      "incub": 3907,
      "demys": 3908,
      "finet": 3909,
      "finally": 3910,
      "##ernet": 3911,
      "feel": 3912,
      "##pective": 3913,
      "##inct": 3914,
      "unfe": 3915,
      "unfur": 3916,
      "unfold": 3917,
      "awk": 3918,
      "instant": 3919,
      "explan": 3920,
      "divers": 3921,
      "eradic": 3922,
      "surv": 3923,
      "surve": 3924,
      "surpass": 3925,
      "##ikit": 3926,
      "engross": 3927,
      "skills": 3928,
      "typed": 3929,
      "types": 3930,
      "visit": 3931,
      "vision": 3932,
      "##ician": 3933,
      "synonym": 3934,
      "##linearity": 3935,
      "conven": 3936,
      "convolution": 3937,
      "logar": 3938,
      "reins": 3939,
      "reinv": 3940,
      "reiniti": 3941,
      "supplement": 3942,
      "supported": 3943,
      "unmask": 3944,
      "encoun": 3945,
      "embr": 3946,
      "designed": 3947,
      "##works": 3948,
      "provision": 3949,
      "checked": 3950,
      "checking": 3951,
      "purch": 3952,
      "services": 3953,
      "analys": 3954,
      "##missions": 3955,
      "guarant": 3956,
      "lower": 3957,
      "##titude": 3958,
      "director": 3959,
      "solicit": 3960,
      "win9": 3961,
      "rebr": 3962,
      "rebal": 3963,
      "rebuild": 3964,
      "unbund": 3965,
      "hyperl": 3966,
      "tempor": 3967,
      "recomb": 3968,
      "recomput": 3969,
      "acquaint": 3970,
      "automated": 3971,
      "absor": 3972,
      "abscond": 3973,
      "negl": 3974,
      "month": 3975,
      "password": 3976,
      "processor": 3977,
      "operation": 3978,
      "unwr": 3979,
      "theor": 3980,
      "brok": 3981,
      "dimin": 3982,
      "dimension": 3983,
      "renorm": 3984,
      "##prene": 3985,
      "steep": 3986,
      "organized": 3987,
      "organization": 3988,
      "created": 3989,
      "hardware": 3990,
      "illum": 3991,
      "market": 3992,
      "marketing": 3993,
      "news": 3994,
      "wrap": 3995,
      "wrong": 3996,
      "releg": 3997,
      "##amples": 3998,
      "segreg": 3999,
      "occasion": 4000,
      "avail": 4001,
      "threaded": 4002,
      "facing": 4003,
      "declass": 4004,
      "autoenc": 4005,
      "sett": 4006,
      "information": 4007,
      "interpre": 4008,
      "##boxes": 4009,
      "systemat": 4010,
      "editor": 4011,
      "schol": 4012,
      "school": 4013,
      "extra": 4014,
      "reconc": 4015,
      "array": 4016,
      "caus": 4017,
      "crowds": 4018,
      "loaded": 4019,
      "##valued": 4020,
      "propri": 4021,
      "##ography": 4022,
      "sequel": 4023,
      "sequence": 4024,
      "structured": 4025,
      "structure": 4026,
      "deno": 4027,
      "##weight": 4028,
      "connection": 4029,
      "succeed": 4030,
      "promp": 4031,
      "sharing": 4032,
      "overlook": 4033,
      "obliter": 4034,
      "believ": 4035,
      "sne": 4036,
      "tunn": 4037,
      "url": 4038,
      "window": 4039,
      "##ieve": 4040,
      "uninter": 4041,
      "uninst": 4042,
      "debug": 4043,
      "dependent": 4044,
      "certain": 4045,
      "great": 4046,
      "looking": 4047,
      "virtu": 4048,
      "##aneous": 4049,
      "reassemb": 4050,
      "##umption": 4051,
      "performing": 4052,
      "postp": 4053,
      "destro": 4054,
      "http": 4055,
      "happen": 4056,
      "mobil": 4057,
      "##charge": 4058,
      "combin": 4059,
      "internation": 4060,
      "screen": 4061,
      "screens": 4062,
      "behavior": 4063,
      "duplic": 4064,
      "dbus": 4065,
      "filtr": 4066,
      "idea": 4067,
      "doubt": 4068,
      "electron": 4069,
      "growing": 4070,
      "growth": 4071,
      "##hoods": 4072,
      "##ambigu": 4073,
      "complete": 4074,
      "admir": 4075,
      "showc": 4076,
      "controlled": 4077,
      "neighbour": 4078,
      "bookmark": 4079,
      "meaning": 4080,
      "horr": 4081,
      "horiz": 4082,
      "judg": 4083,
      "stip": 4084,
      "safe": 4085,
      "widely": 4086,
      "reimple": 4087,
      "##abytes": 4088,
      "convex": 4089,
      "compiler": 4090,
      "should": 4091,
      "autocor": 4092,
      "meetup": 4093,
      "dynamic": 4094,
      "dwind": 4095,
      "pointer": 4096,
      "rejoin": 4097,
      "component": 4098,
      "acknowledg": 4099,
      "quarrel": 4100,
      "partition": 4101,
      "before": 4102,
      "aggrav": 4103,
      "inconsider": 4104,
      "tensorflow": 4105,
      "ellip": 4106,
      "lexic": 4107,
      "malf": 4108,
      "members": 4109,
      "robot": 4110,
      "seduc": 4111,
      "inaccur": 4112,
      "distinguish": 4113,
      "discuss": 4114,
      "frequency": 4115,
      "advertis": 4116,
      "troubles": 4117,
      "future": 4118,
      "wretched": 4119,
      "unrav": 4120,
      "proxy": 4121,
      "substanti": 4122,
      "princip": 4123,
      "asymme": 4124,
      "independent": 4125,
      "infrastructure": 4126,
      "cybers": 4127,
      "monitoring": 4128,
      "between": 4129,
      "bootstrap": 4130,
      "major": 4131,
      "togg": 4132,
      "video": 4133,
      "would": 4134,
      "reanim": 4135,
      "stretch": 4136,
      "resurrec": 4137,
      "challen": 4138,
      "channel": 4139,
      "overwhel": 4140,
      "deconstruc": 4141,
      "instrument": 4142,
      "entreprene": 4143,
      "econom": 4144,
      "false": 4145,
      "illeg": 4146,
      "luxur": 4147,
      "pione": 4148,
      "peculi": 4149,
      "stere": 4150,
      "tessell": 4151,
      "x86": 4152,
      "procrast": 4153,
      "subsequ": 4154,
      "accompan": 4155,
      "accommod": 4156,
      "arithme": 4157,
      "misunderst": 4158,
      "misbeh": 4159,
      "corrobor": 4160,
      "10": 4161,
      "19": 4162,
      "around": 4163,
      "bes": 4164,
      "bis": 4165,
      "but": 4166,
      "bad": 4167,
      "band": 4168,
      "bear": 4169,
      "batter": 4170,
      "borrow": 4171,
      "battle": 4172,
      "cm": 4173,
      "cos": 4174,
      "cum": 4175,
      "cpp": 4176,
      "card": 4177,
      "cases": 4178,
      "dro": 4179,
      "dot": 4180,
      "dir": 4181,
      "dup": 4182,
      "dign": 4183,
      "drow": 4184,
      "dash": 4185,
      "dere": 4186,
      "dict": 4187,
      "ddr": 4188,
      "et": 4189,
      "ey": 4190,
      "each": 4191,
      "eager": 4192,
      "fed": 4193,
      "fing": 4194,
      "fas": 4195,
      "fig": 4196,
      "fem": 4197,
      "fif": 4198,
      "few": 4199,
      "fell": 4200,
      "fors": 4201,
      "fant": 4202,
      "find": 4203,
      "fall": 4204,
      "fash": 4205,
      "files": 4206,
      "field": 4207,
      "fetch": 4208,
      "gate": 4209,
      "glow": 4210,
      "gather": 4211,
      "hin": 4212,
      "her": 4213,
      "has": 4214,
      "hang": 4215,
      "hass": 4216,
      "hence": 4217,
      "hast": 4218,
      "holog": 4219,
      "hover": 4220,
      "home": 4221,
      "held": 4222,
      "haz": 4223,
      "humb": 4224,
      "io": 4225,
      "ia": 4226,
      "icon": 4227,
      "j2": 4228,
      "jun": 4229,
      "jump": 4230,
      "jvm": 4231,
      "kub": 4232,
      "lin": 4233,
      "led": 4234,
      "late": 4235,
      "latter": 4236,
      "loud": 4237,
      "liqu": 4238,
      "lasting": 4239,
      "ml": 4240,
      "mc": 4241,
      "ming": 4242,
      "mil": 4243,
      "mak": 4244,
      "might": 4245,
      "marg": 4246,
      "matter": 4247,
      "marr": 4248,
      "making": 4249,
      "mails": 4250,
      "medd": 4251,
      "na": 4252,
      "nin": 4253,
      "nic": 4254,
      "nest": 4255,
      "night": 4256,
      "nerv": 4257,
      "nice": 4258,
      "nob": 4259,
      "numb": 4260,
      "names": 4261,
      "ost": 4262,
      "ours": 4263,
      "pit": 4264,
      "pic": 4265,
      "pul": 4266,
      "pad": 4267,
      "pap": 4268,
      "pyp": 4269,
      "pse": 4270,
      "patch": 4271,
      "pages": 4272,
      "qt": 4273,
      "ru": 4274,
      "rom": 4275,
      "rul": 4276,
      "row": 4277,
      "rous": 4278,
      "road": 4279,
      "rational": 4280,
      "ridd": 4281,
      "ramp": 4282,
      "rasp": 4283,
      "sd": 4284,
      "sav": 4285,
      "senti": 4286,
      "sound": 4287,
      "splic": 4288,
      "sick": 4289,
      "six": 4290,
      "soci": 4291,
      "sample": 4292,
      "sdk": 4293,
      "sorrow": 4294,
      "tf": 4295,
      "tal": 4296,
      "tor": 4297,
      "tom": 4298,
      "tod": 4299,
      "tend": 4300,
      "tack": 4301,
      "tour": 4302,
      "tight": 4303,
      "tick": 4304,
      "tough": 4305,
      "tether": 4306,
      "ugl": 4307,
      "vr": 4308,
      "vc": 4309,
      "vic": 4310,
      "vend": 4311,
      "vind": 4312,
      "wip": 4313,
      "wish": 4314,
      "wall": 4315,
      "wick": 4316,
      "wake": 4317,
      "wik": 4318,
      "wild": 4319,
      "worship": 4320,
      "xam": 4321,
      "x64": 4322,
      "yes": 4323,
      "youn": 4324,
      "your": 4325,
      "yours": 4326,
      "##lers": 4327,
      "##lib": 4328,
      "##lay": 4329,
      "##lists": 4330,
      "##like": 4331,
      "##ox": 4332,
      "##otic": 4333,
      "##wares": 4334,
      "##ui": 4335,
      "##uate": 4336,
      "##uity": 4337,
      "##uated": 4338,
      "##uations": 4339,
      "##uably": 4340,
      "##uments": 4341,
      "##util": 4342,
      "##ps": 4343,
      "##pg": 4344,
      "##pan": 4345,
      "##ptr": 4346,
      "##pad": 4347,
      "##pable": 4348,
      "##pag": 4349,
      "##pect": 4350,
      "##pool": 4351,
      "##pired": 4352,
      "##paces": 4353,
      "##ton": 4354,
      "##tun": 4355,
      "##tang": 4356,
      "##rent": 4357,
      "##rary": 4358,
      "##ramm": 4359,
      "##range": 4360,
      "##raid": 4361,
      "##aud": 4362,
      "##ause": 4363,
      "##mp": 4364,
      "##mn": 4365,
      "##mi": 4366,
      "##ming": 4367,
      "##mun": 4368,
      "##mine": 4369,
      "##mits": 4370,
      "##menu": 4371,
      "##eed": 4372,
      "##eal": 4373,
      "##eter": 4374,
      "##eful": 4375,
      "##elec": 4376,
      "##elect": 4377,
      "##nom": 4378,
      "##norm": 4379,
      "##nect": 4380,
      "##nings": 4381,
      "##nets": 4382,
      "##fall": 4383,
      "##file": 4384,
      "##ipl": 4385,
      "##iances": 4386,
      "##gu": 4387,
      "##gers": 4388,
      "##gets": 4389,
      "##gpt": 4390,
      "##ground": 4391,
      "##cover": 4392,
      "##casts": 4393,
      "##hic": 4394,
      "##had": 4395,
      "##hold": 4396,
      "##ded": 4397,
      "##dious": 4398,
      "##def": 4399,
      "##duce": 4400,
      "##depend": 4401,
      "##bation": 4402,
      "##band": 4403,
      "##bled": 4404,
      "##bling": 4405,
      "##brows": 4406,
      "##ycle": 4407,
      "##vy": 4408,
      "##vid": 4409,
      "##volution": 4410,
      "##ka": 4411,
      "##ked": 4412,
      "##kills": 4413,
      "##key": 4414,
      "##x1": 4415,
      "##2d": 4416,
      "##28": 4417,
      "##3d": 4418,
      "##inable": 4419,
      "##inqu": 4420,
      "##inating": 4421,
      "##eds": 4422,
      "##erce": 4423,
      "##onal": 4424,
      "##atible": 4425,
      "##atured": 4426,
      "##ativeness": 4427,
      "##inged": 4428,
      "##enom": 4429,
      "##entive": 4430,
      "##ename": 4431,
      "##tib": 4432,
      "##tily": 4433,
      "##alistic": 4434,
      "##orious": 4435,
      "##arti": 4436,
      "##around": 4437,
      "##anity": 4438,
      "##anqu": 4439,
      "##antic": 4440,
      "##anned": 4441,
      "rew": 4442,
      "reent": 4443,
      "reest": 4444,
      "reex": 4445,
      "reward": 4446,
      "rework": 4447,
      "reaff": 4448,
      "recheck": 4449,
      "##lead": 4450,
      "##lets": 4451,
      "##learning": 4452,
      "##isation": 4453,
      "##isite": 4454,
      "##isters": 4455,
      "##istered": 4456,
      "##itly": 4457,
      "##itous": 4458,
      "##itory": 4459,
      "##itudes": 4460,
      "inl": 4461,
      "incr": 4462,
      "inapp": 4463,
      "inclus": 4464,
      "inception": 4465,
      "inhib": 4466,
      "inaug": 4467,
      "##rew": 4468,
      "##rem": 4469,
      "##reet": 4470,
      "##reaking": 4471,
      "##ication": 4472,
      "##icate": 4473,
      "##icts": 4474,
      "##icited": 4475,
      "##icacy": 4476,
      "##rous": 4477,
      "##rovers": 4478,
      "##rote": 4479,
      "##entation": 4480,
      "##asions": 4481,
      "##abling": 4482,
      "##abouts": 4483,
      "##acle": 4484,
      "##acent": 4485,
      "##acies": 4486,
      "uni": 4487,
      "unic": 4488,
      "unac": 4489,
      "unch": 4490,
      "unity": 4491,
      "unans": 4492,
      "uncl": 4493,
      "unrec": 4494,
      "unob": 4495,
      "unread": 4496,
      "unev": 4497,
      "unroll": 4498,
      "unhe": 4499,
      "uncomm": 4500,
      "unesc": 4501,
      "unatt": 4502,
      "##oming": 4503,
      "##omal": 4504,
      "##omeness": 4505,
      "##ulative": 4506,
      "##oub": 4507,
      "##eli": 4508,
      "##elves": 4509,
      "##tries": 4510,
      "##trical": 4511,
      "contig": 4512,
      "##essive": 4513,
      "##essions": 4514,
      "##ilos": 4515,
      "##iline": 4516,
      "##terior": 4517,
      "##igm": 4518,
      "##tionally": 4519,
      "##oload": 4520,
      "##olutions": 4521,
      "##ivari": 4522,
      "##uty": 4523,
      "##urated": 4524,
      "##ama": 4525,
      "##amper": 4526,
      "##adv": 4527,
      "##adable": 4528,
      "##etting": 4529,
      "##idly": 4530,
      "##idate": 4531,
      "##idates": 4532,
      "##idence": 4533,
      "##usi": 4534,
      "##usive": 4535,
      "##emark": 4536,
      "##empt": 4537,
      "##ateful": 4538,
      "##pless": 4539,
      "sudd": 4540,
      "disd": 4541,
      "disin": 4542,
      "disgr": 4543,
      "dispar": 4544,
      "disput": 4545,
      "distill": 4546,
      "disqual": 4547,
      "disadv": 4548,
      "exact": 4549,
      "exist": 4550,
      "exerc": 4551,
      "except": 4552,
      "exemp": 4553,
      "extingu": 4554,
      "deal": 4555,
      "dear": 4556,
      "deem": 4557,
      "depl": 4558,
      "dealloc": 4559,
      "proc": 4560,
      "proac": 4561,
      "protr": 4562,
      "promin": 4563,
      "proxim": 4564,
      "problem": 4565,
      "##osp": 4566,
      "##aped": 4567,
      "##aping": 4568,
      "##oward": 4569,
      "come": 4570,
      "comment": 4571,
      "enable": 4572,
      "enth": 4573,
      "enfor": 4574,
      "enque": 4575,
      "##atedly": 4576,
      "##iff": 4577,
      "##ifts": 4578,
      "##iffer": 4579,
      "##ifiable": 4580,
      "##iments": 4581,
      "##imensional": 4582,
      "stro": 4583,
      "stun": 4584,
      "stub": 4585,
      "store": 4586,
      "stagn": 4587,
      "stoop": 4588,
      "stumb": 4589,
      "stemm": 4590,
      "stagg": 4591,
      "##untu": 4592,
      "tru": 4593,
      "trac": 4594,
      "trif": 4595,
      "trim": 4596,
      "trend": 4597,
      "trust": 4598,
      "trace": 4599,
      "traff": 4600,
      "truth": 4601,
      "trivial": 4602,
      "tranqu": 4603,
      "##ocal": 4604,
      "##ocol": 4605,
      "##ocument": 4606,
      "##ainted": 4607,
      "##ainting": 4608,
      "##ainability": 4609,
      "##endo": 4610,
      "##mental": 4611,
      "##uct": 4612,
      "##other": 4613,
      "##estly": 4614,
      "spam": 4615,
      "spir": 4616,
      "spell": 4617,
      "spill": 4618,
      "spark": 4619,
      "space": 4620,
      "spool": 4621,
      "spars": 4622,
      "##irms": 4623,
      "##station": 4624,
      "##stage": 4625,
      "resent": 4626,
      "resell": 4627,
      "resub": 4628,
      "reserv": 4629,
      "restruc": 4630,
      "precl": 4631,
      "precomp": 4632,
      "precond": 4633,
      "prejud": 4634,
      "compro": 4635,
      "complet": 4636,
      "computing": 4637,
      "composition": 4638,
      "recap": 4639,
      "rectang": 4640,
      "thin": 4641,
      "ther": 4642,
      "thes": 4643,
      "thick": 4644,
      "though": 4645,
      "thresh": 4646,
      "thinking": 4647,
      "subnet": 4648,
      "subclass": 4649,
      "submod": 4650,
      "chop": 4651,
      "chang": 4652,
      "chart": 4653,
      "champ": 4654,
      "chips": 4655,
      "child": 4656,
      "changing": 4657,
      "acad": 4658,
      "active": 4659,
      "accept": 4660,
      "##umph": 4661,
      "##umble": 4662,
      "##umping": 4663,
      "price": 4664,
      "anx": 4665,
      "anomal": 4666,
      "ads": 4667,
      "##ounder": 4668,
      "##ountable": 4669,
      "weighting": 4670,
      "shot": 4671,
      "shame": 4672,
      "shout": 4673,
      "##ardon": 4674,
      "intercep": 4675,
      "interrel": 4676,
      "intermedi": 4677,
      "interdepend": 4678,
      "overw": 4679,
      "overcl": 4680,
      "overtur": 4681,
      "overhe": 4682,
      "overwrit": 4683,
      "overpow": 4684,
      "multip": 4685,
      "multithread": 4686,
      "##akable": 4687,
      "club": 4688,
      "alge": 4689,
      "always": 4690,
      "##through": 4691,
      "##eware": 4692,
      "##ewise": 4693,
      "##udent": 4694,
      "##udence": 4695,
      "##gres": 4696,
      "##upon": 4697,
      "##angement": 4698,
      "##angements": 4699,
      "scen": 4700,
      "score": 4701,
      "scram": 4702,
      "scatter": 4703,
      "scaling": 4704,
      "decod": 4705,
      "decision": 4706,
      "season": 4707,
      "quer": 4708,
      "quiz": 4709,
      "quality": 4710,
      "quoted": 4711,
      "quiet": 4712,
      "cof": 4713,
      "cov": 4714,
      "coex": 4715,
      "cook": 4716,
      "coach": 4717,
      "coher": 4718,
      "could": 4719,
      "repeti": 4720,
      "reposition": 4721,
      "##ectable": 4722,
      "transp": 4723,
      "transce": 4724,
      "transcl": 4725,
      "transpar": 4726,
      "transcrip": 4727,
      "transpor": 4728,
      "transmit": 4729,
      "transport": 4730,
      "impat": 4731,
      "imposs": 4732,
      "imparti": 4733,
      "autosc": 4734,
      "autoload": 4735,
      "arti": 4736,
      "artic": 4737,
      "arrog": 4738,
      "pars": 4739,
      "constric": 4740,
      "consumer": 4741,
      "constitu": 4742,
      "webm": 4743,
      "webview": 4744,
      "lean": 4745,
      "leak": 4746,
      "indel": 4747,
      "indef": 4748,
      "indirec": 4749,
      "induce": 4750,
      "indetermin": 4751,
      "emo": 4752,
      "emp": 4753,
      "emin": 4754,
      "emer": 4755,
      "emulator": 4756,
      "emerg": 4757,
      "desir": 4758,
      "descrip": 4759,
      "flood": 4760,
      "outsc": 4761,
      "outsh": 4762,
      "outgrow": 4763,
      "outperform": 4764,
      "##lection": 4765,
      "##lects": 4766,
      "##lecting": 4767,
      "insens": 4768,
      "foret": 4769,
      "forest": 4770,
      "forth": 4771,
      "obv": 4772,
      "obj": 4773,
      "obst": 4774,
      "obvi": 4775,
      "pertin": 4776,
      "percent": 4777,
      "plun": 4778,
      "plot": 4779,
      "placement": 4780,
      "##ancer": 4781,
      "##ancers": 4782,
      "##achability": 4783,
      "strip": 4784,
      "strik": 4785,
      "appoint": 4786,
      "appra": 4787,
      "abl": 4788,
      "abund": 4789,
      "abrog": 4790,
      "abbre": 4791,
      "abnorm": 4792,
      "relational": 4793,
      "relinqu": 4794,
      "reluct": 4795,
      "controvers": 4796,
      "##ocket": 4797,
      "##ightful": 4798,
      "invo": 4799,
      "invis": 4800,
      "invigor": 4801,
      "assess": 4802,
      "##ointed": 4803,
      "##illa": 4804,
      "gram": 4805,
      "##entials": 4806,
      "ont": 4807,
      "onboard": 4808,
      "##earance": 4809,
      "intros": 4810,
      "expos": 4811,
      "expir": 4812,
      "expans": 4813,
      "expedi": 4814,
      "models": 4815,
      "modeling": 4816,
      "inflex": 4817,
      "commiss": 4818,
      "blind": 4819,
      "blank": 4820,
      "opin": 4821,
      "defaul": 4822,
      "##tivation": 4823,
      "##tivates": 4824,
      "deval": 4825,
      "crack": 4826,
      "criti": 4827,
      "criter": 4828,
      "crunch": 4829,
      "ornam": 4830,
      "neu": 4831,
      "neur": 4832,
      "neural": 4833,
      "##tifier": 4834,
      "##tifiable": 4835,
      "##arying": 4836,
      "##iousness": 4837,
      "confron": 4838,
      "datat": 4839,
      "datam": 4840,
      "datast": 4841,
      "dataf": 4842,
      "refin": 4843,
      "reflect": 4844,
      "amend": 4845,
      "frame": 4846,
      "fruit": 4847,
      "##arely": 4848,
      "redr": 4849,
      "redund": 4850,
      "redeploy": 4851,
      "##resses": 4852,
      "##ularly": 4853,
      "##isely": 4854,
      "heur": 4855,
      "height": 4856,
      "slip": 4857,
      "slight": 4858,
      "slashes": 4859,
      "whit": 4860,
      "whats": 4861,
      "regroup": 4862,
      "undoub": 4863,
      "accident": 4864,
      "manage": 4865,
      "remod": 4866,
      "remain": 4867,
      "remote": 4868,
      "remonstr": 4869,
      "even": 4870,
      "highly": 4871,
      "offer": 4872,
      "unsu": 4873,
      "unsus": 4874,
      "##jections": 4875,
      "apart": 4876,
      "##oft": 4877,
      "##scale": 4878,
      "attack": 4879,
      "attach": 4880,
      "attention": 4881,
      "attemp": 4882,
      "alliance": 4883,
      "coded": 4884,
      "revis": 4885,
      "revision": 4886,
      "backend": 4887,
      "backpro": 4888,
      "backsl": 4889,
      "teach": 4890,
      "teamm": 4891,
      "swip": 4892,
      "undermin": 4893,
      "##ember": 4894,
      "discour": 4895,
      "deline": 4896,
      "minific": 4897,
      "brid": 4898,
      "brag": 4899,
      "brand": 4900,
      "brisk": 4901,
      "branch": 4902,
      "phr": 4903,
      "phenom": 4904,
      "philos": 4905,
      "eluc": 4906,
      "else": 4907,
      "elong": 4908,
      "forms": 4909,
      "formul": 4910,
      "##teen": 4911,
      "##tegr": 4912,
      "handling": 4913,
      "incident": 4914,
      "##ometric": 4915,
      "substr": 4916,
      "subscrip": 4917,
      "substitu": 4918,
      "demand": 4919,
      "##after": 4920,
      "##urred": 4921,
      "##urring": 4922,
      "affili": 4923,
      "affection": 4924,
      "affirm": 4925,
      "downgr": 4926,
      "download": 4927,
      "final": 4928,
      "##erned": 4929,
      "endors": 4930,
      "idiom": 4931,
      "##pected": 4932,
      "##pects": 4933,
      "##pecting": 4934,
      "##inced": 4935,
      "awes": 4936,
      "away": 4937,
      "awak": 4938,
      "generation": 4939,
      "generated": 4940,
      "generating": 4941,
      "##ships": 4942,
      "##sheet": 4943,
      "instance": 4944,
      "contract": 4945,
      "diver": 4946,
      "persever": 4947,
      "surpr": 4948,
      "surround": 4949,
      "##anking": 4950,
      "##trics": 4951,
      "conced": 4952,
      "concili": 4953,
      "engagement": 4954,
      "skew": 4955,
      "twidd": 4956,
      "typec": 4957,
      "##iciently": 4958,
      "##iciencies": 4959,
      "productiz": 4960,
      "simple": 4961,
      "simulation": 4962,
      "valued": 4963,
      "glad": 4964,
      "notic": 4965,
      "notice": 4966,
      "reinter": 4967,
      "reinfor": 4968,
      "reinforce": 4969,
      "reintegr": 4970,
      "supercomp": 4971,
      "driving": 4972,
      "capacity": 4973,
      "secret": 4974,
      "unpr": 4975,
      "unpubl": 4976,
      "unpred": 4977,
      "unmod": 4978,
      "dissu": 4979,
      "dissem": 4980,
      "dissatisf": 4981,
      "predef": 4982,
      "embell": 4983,
      "embarr": 4984,
      "designer": 4985,
      "verify": 4986,
      "provided": 4987,
      "checks": 4988,
      "cycle": 4989,
      "count": 4990,
      "##missible": 4991,
      "byt": 4992,
      "detection": 4993,
      "direction": 4994,
      "directed": 4995,
      "directional": 4996,
      "win200": 4997,
      "profit": 4998,
      "effort": 4999
    }
  }
}