{
  "version": "1.0",
  "truncation": null,
  "padding": null,
  "added_tokens": [
    {
      "id": 0,
      "content": "[PAD]",
      "single_word": false,
      "lstrip": false,
      "rstrip": false,
      "normalized": false,
      "special": true
    },
    {
      "id": 1,
      "content": "[UNK]",
      "single_word": false,
      "lstrip": false,
      "rstrip": false,
      "normalized": false,
      "special": true
    },
    {
      "id": 2,
      "content": "[CLS]",
      "single_word": false,
      "lstrip": false,
      "rstrip": false,
      "normalized": false,
      "special": true
    },
    {
      "id": 3,
      "content": "[SEP]",
      "single_word": false,
      "lstrip": false,
      "rstrip": false,
      "normalized": false,
      "special": true
    },
    {
      "id": 4,
      "content": "[MASK]",
      "single_word": false,
      "lstrip": false,
      "rstrip": false,
      "normalized": false,
      "special": true
    },
    {
      "id": 5,
      "content": "##a",
      "single_word": false,
      "lstrip": false,
      "rstrip": false,
      "normalized": false,
      "special": true
    },
    {
      "id": 6,
      "content": "##b",
      "single_word": false,
      "lstrip": false,
      "rstrip": false,
      "normalized": false,
      "special": true
    },
    {
      "id": 7,
      "content": "##c",
      "single_word": false,
      "lstrip": false,
      "rstrip": false,
      "normalized": false,
      "special": true
    },
    {
      "id": 8,
      "content": "##d",
      "single_word": false,
      "lstrip": false,
      "rstrip": false,
      "normalized": false,
      "special": true
    },
    {
      "id": 9,
      "content": "##e",
      "single_word": false,
      "lstrip": false,
      "rstrip": false,
      "normalized": false,
      "special": true
    },
    {
      "id": 10,
      "content": "##f",
      "single_word": false,
      "lstrip": false,
      "rstrip": false,
      "normalized": false,
      "special": true
    },
    {
      "id": 11,
      "content": "##g",
      "single_word": false,
      "lstrip": false,
      "rstrip": false,
      "normalized": false,
      "special": true
    },
    {
      "id": 12,
      "content": "##h",
      "single_word": false,
      "lstrip": false,
      "rstrip": false,
      "normalized": false,
      "special": true
    },
    {
      "id": 13,
      "content": "##i",
      "single_word": false,
      "lstrip": false,
      "rstrip": false,
      "normalized": false,
      "special": true
    },
    {
      "id": 14,
      "content": "##j",
      "single_word": false,
      "lstrip": false,
      "rstrip": false,
      "normalized": false,
      "special": true
    },
    {
      "id": 15,
      "content": "##k",
      "single_word": false,
      "lstrip": false,
      "rstrip": false,
      "normalized": false,
      "special": true
    },
    {
      "id": 16,
      "content": "##l",
      "single_word": false,
      "lstrip": false,
      "rstrip": false,
      "normalized": false,
      "special": true
    },
    {
      "id": 17,
      "content": "##m",
      "single_word": false,
      "lstrip": false,
      "rstrip": false,
      "normalized": false,
      "special": true
    },
    {
      "id": 18,
      "content": "##n",
      "single_word": false,
      "lstrip": false,
      "rstrip": false,
      "normalized": false,
      "special": true
    },
    {
      "id": 19,
      "content": "##o",
      "single_word": false,
      "lstrip": false,
      "rstrip": false,
      "normalized": false,
      "special": true
    },
    {
      "id": 20,
      "content": "##p",
      "single_word": false,
      "lstrip": false,
      "rstrip": false,
      "normalized": false,
      "special": true
    },
    {
      "id": 21,
      "content": "##q",
      "single_word": false,
      "lstrip": false,
      "rstrip": false,
      "normalized": false,
      "special": true
    },
    {
      "id": 22,
      "content": "##r",
      "single_word": false,
      "lstrip": false,
      "rstrip": false,
      "normalized": false,
      "special": true
    },
    {
      "id": 23,
      "content": "##s",
      "single_word": false,
      "lstrip": false,
      "rstrip": false,
      "normalized": false,
      "special": true
    },
    {
      "id": 24,
      "content": "##t",
      "single_word": false,
      "lstrip": false,
      "rstrip": false,
      "normalized": false,
      "special": true
    },
    {
      "id": 25,
      "content": "##u",
      "single_word": false,
      "lstrip": false,
      "rstrip": false,
      "normalized": false,
      "special": true
    },
    {
      "id": 26,
      "content": "##v",
      "single_word": false,
      "lstrip": false,
      "rstrip": false,
      "normalized": false,
      "special": true
    },
    {
      "id": 27,
      "content": "##w",
      "single_word": false,
      "lstrip": false,
      "rstrip": false,
      "normalized": false,
      "special": true
    },
    {
      "id": 28,
      "content": "##x",
      "single_word": false,
      "lstrip": false,
      "rstrip": false,
      "normalized": false,
      "special": true
    },
    {
      "id": 29,
      "content": "##y",
      "single_word": false,
      "lstrip": false,
      "rstrip": false,
      "normalized": false,
      "special": true
    },
    {
      "id": 30,
      "content": "##z",
      "single_word": false,
      "lstrip": false,
      "rstrip": false,
      "normalized": false,
      "special": true
    }
  ],
  "normalizer": {
    "type": "BertNormalizer",
    "clean_text": true,
    "handle_chinese_chars": true,
    "strip_accents": true,
    "lowercase": true
  },
  "pre_tokenizer": {
    "type": "BertPreTokenizer"
  },
  "post_processor": null,
  "decoder": {
    "type": "WordPiece",
    "prefix": "##",
    "cleanup": true
  },
  "model": {
    "type": "WordPiece",
    "unk_token": "[UNK]",
    "continuing_subword_prefix": "##",
    "max_input_chars_per_word": 100,
    "vocab": {
      "[PAD]": 0,
      "[UNK]": 1,
      "[CLS]": 2,
      "[SEP]": 3,
      "[MASK]": 4,
      "##a": 5,
      "##b": 6,
      "##c": 7,
      "##d": 8,
      "##e": 9,
      "##f": 10,
      "##g": 11,
      "##h": 12,
      "##i": 13,
      "##j": 14,
      "##k": 15,
      "##l": 16,
      "##m": 17,
      "##n": 18,
      "##o": 19,
      "##p": 20,
      "##q": 21,
      "##r": 22,
      "##s": 23,
      "##t": 24,
      "##u": 25,
      "##v": 26,
      "##w": 27,
      "##x": 28,
      "##y": 29,
      "##z": 30,
      "+": 31,
      "-": 32,
      ".": 33,
      "0": 34,
      "1": 35,
      "2": 36,
      "3": 37,
      "4": 38,
      "5": 39,
      "6": 40,
      "7": 41,
      "8": 42,
      "9": 43,
      "_": 44,
      "a": 45,
      "b": 46,
      "c": 47,
      "d": 48,
      "e": 49,
      "f": 50,
      "g": 51,
      "h": 52,
      "i": 53,
      "j": 54,
      "k": 55,
      "l": 56,
      "m": 57,
      "n": 58,
      "o": 59,
      "p": 60,
      "q": 61,
      "r": 62,
      "s": 63,
      "t": 64,
      "u": 65,
      "v": 66,
      "w": 67,
      "x": 68,
      "y": 69,
      "z": 70,
      "##er": 71,
      "##at": 72,
      "##en": 73,
      "##on": 74,
      "##in": 75,
      "##an": 76,
      "##ar": 77,
      "##or": 78,
      "##st": 79,
      "re": 80,
      "##it": 81,
      "##ic": 82,
      "##al": 83,
      "##re": 84,
      "in": 85,
      "##ra": 86,
      "##is": 87,
      "##ou": 88,
      "##mp": 89,
      "de": 90,
      "##ent": 91,
      "##ct": 92,
      "##ro": 93,
      "con": 94,
      "##ur": 95,
      "##ol": 96,
      "##il": 97,
      "st": 98,
      "##ss": 99,
      "##et": 100,
      "##el": 101,
      "co": 102,
      "##ch": 103,
      "##ul": 104,
      "##id": 105,
      "##le": 106,
      "##iv": 107,
      "##un": 108,
      "##ig": 109,
      "##ut": 110,
      "ex": 111,
      "##as": 112,
      "##ot": 113,
      "##ir": 114,
      "##us": 115,
      "##if": 116,
      "##ran": 117,
      "en": 118,
      "th": 119,
      "##la": 120,
      "sp": 121,
      "##im": 122,
      "##ad": 123,
      "##pt": 124,
      "pro": 125,
      "##ce": 126,
      "##om": 127,
      "##ter": 128,
      "##am": 129,
      "##ck": 130,
      "##pp": 131,
      "##ag": 132,
      "##ip": 133,
      "##um": 134,
      "##end": 135,
      "##em": 136,
      "##ion": 137,
      "##bl": 138,
      "sh": 139,
      "##ed": 140,
      "##lo": 141,
      "##ud": 142,
      "##ain": 143,
      "##ver": 144,
      "dis": 145,
      "##ect": 146,
      "##ff": 147,
      "##ist": 148,
      "##qu": 149,
      "##od": 150,
      "##ri": 151,
      "al": 152,
      "an": 153,
      "ch": 154,
      "for": 155,
      "pre": 156,
      "su": 157,
      "comp": 158,
      "##ru": 159,
      "ad": 160,
      "##ap": 161,
      "##os": 162,
      "sc": 163,
      "se": 164,
      "##ous": 165,
      "##ht": 166,
      "##ing": 167,
      "##ab": 168,
      "##est": 169,
      "per": 170,
      "##oun": 171,
      "##her": 172,
      "ab": 173,
      "tran": 174,
      "##ish": 175,
      "##sc": 176,
      "ac": 177,
      "imp": 178,
      "exp": 179,
      "##op": 180,
      "ar": 181,
      "app": 182,
      "##ens": 183,
      "##sp": 184,
      "##and": 185,
      "##ort": 186,
      "cont": 187,
      "##ast": 188,
      "##ib": 189,
      "##mm": 190,
      "le": 191,
      "un": 192,
      "ref": 193,
      "##av": 194,
      "##og": 195,
      "##ow": 196,
      "##rat": 197,
      "be": 198,
      "fl": 199,
      "qu": 200,
      "##ak": 201,
      "##ant": 202,
      "##art": 203,
      "ent": 204,
      "##mb": 205,
      "##oc": 206,
      "gra": 207,
      "ne": 208,
      "##ert": 209,
      "##ang": 210,
      "int": 211,
      "##ill": 212,
      "##ight": 213,
      "##ac": 214,
      "##du": 215,
      "##ug": 216,
      "he": 217,
      "wh": 218,
      "##ard": 219,
      "##our": 220,
      "##ell": 221,
      "##ult": 222,
      "##ach": 223,
      "##cl": 224,
      "##iat": 225,
      "##lic": 226,
      "##ok": 227,
      "at": 228,
      "ass": 229,
      "col": 230,
      "te": 231,
      "##anc": 232,
      "rep": 233,
      "##ress": 234,
      "##ay": 235,
      "##act": 236,
      "##ail": 237,
      "##es": 238,
      "##iz": 239,
      "##ial": 240,
      "##ron": 241,
      "##th": 242,
      "cl": 243,
      "ob": 244,
      "##erat": 245,
      "##ind": 246,
      "rec": 247,
      "def": 248,
      "##ulat": 249,
      "trans": 250,
      "##ue": 251,
      "##ust": 252,
      "ag": 253,
      "cr": 254,
      "tra": 255,
      "##enc": 256,
      "##orm": 257,
      "##all": 258,
      "inter": 259,
      "conf": 260,
      "##ash": 261,
      "##ound": 262,
      "##mis": 263,
      "pr": 264,
      "sw": 265,
      "sy": 266,
      "tr": 267,
      "##inat": 268,
      "##ick": 269,
      "##ict": 270,
      "dep": 271,
      "comm": 272,
      "disc": 273,
      "##amp": 274,
      "##ack": 275,
      "##ec": 276,
      "##ee": 277,
      "##ious": 278,
      "ev": 279,
      "pl": 280,
      "par": 281,
      "sl": 282,
      "tw": 283,
      "##ers": 284,
      "res": 285,
      "inst": 286,
      "##ract": 287,
      "##oug": 288,
      "##lect": 289,
      "##und": 290,
      "sub": 291,
      "acc": 292,
      "##ber": 293,
      "##ess": 294,
      "##ment": 295,
      "##ock": 296,
      "am": 297,
      "cor": 298,
      "sur": 299,
      "rev": 300,
      "ind": 301,
      "inf": 302,
      "dec": 303,
      "##ign": 304,
      "##apt": 305,
      "##gat": 306,
      "##ie": 307,
      "##ix": 308,
      "##lat": 309,
      "##ov": 310,
      "##tain": 311,
      "##ub": 312,
      "##yp": 313,
      "as": 314,
      "bo": 315,
      "fe": 316,
      "ph": 317,
      "po": 318,
      "var": 319,
      "##ere": 320,
      "ins": 321,
      "##rag": 322,
      "dev": 323,
      "##row": 324,
      "conc": 325,
      "conv": 326,
      "ext": 327,
      "##ject": 328,
      "##mit": 329,
      "##ual": 330,
      "aff": 331,
      "cur": 332,
      "dist": 333,
      "el": 334,
      "mat": 335,
      "mod": 336,
      "or": 337,
      "sa": 338,
      "sol": 339,
      "##ation": 340,
      "##ink": 341,
      "reg": 342,
      "inc": 343,
      "inv": 344,
      "##rain": 345,
      "##out": 346,
      "cons": 347,
      "##ung": 348,
      "##cept": 349,
      "##low": 350,
      "att": 351,
      "##miss": 352,
      "##ass": 353,
      "##air": 354,
      "##abl": 355,
      "##der": 356,
      "##ft": 357,
      "##gl": 358,
      "##io": 359,
      "##ien": 360,
      "##li": 361,
      "##ph": 362,
      "##up": 363,
      "ap": 364,
      "aw": 365,
      "bl": 366,
      "emb": 367,
      "gr": 368,
      "gen": 369,
      "mon": 370,
      "man": 371,
      "mar": 372,
      "sk": 373,
      "sm": 374,
      "so": 375,
      "ter": 376,
      "we": 377,
      "##erv": 378,
      "##are": 379,
      "rem": 380,
      "rest": 381,
      "##mpl": 382,
      "str": 383,
      "##ular": 384,
      "##unk": 385,
      "##unt": 386,
      "##rib": 387,
      "##duc": 388,
      "##de": 389,
      "##ge": 390,
      "##ient": 391,
      "##min": 392,
      "##uat": 393,
      "div": 394,
      "er": 395,
      "lat": 396,
      "me": 397,
      "met": 398,
      "op": 399,
      "opt": 400,
      "off": 401,
      "pat": 402,
      "ro": 403,
      "us": 404,
      "val": 405,
      "##ine": 406,
      "##int": 407,
      "##ord": 408,
      "##orat": 409,
      "##ret": 410,
      "##ram": 411,
      "##mpt": 412,
      "del": 413,
      "##rop": 414,
      "cong": 415,
      "##eld": 416,
      "##ide": 417,
      "##lex": 418,
      "##oth": 419,
      "##iff": 420,
      "spec": 421,
      "##cess": 422,
      "syn": 423,
      "##ough": 424,
      "##aug": 425,
      "##cat": 426,
      "##ex": 427,
      "##ey": 428,
      "##eer": 429,
      "##get": 430,
      "##ia": 431,
      "##ll": 432,
      "##ost": 433,
      "##ood": 434,
      "##sh": 435,
      "##ump": 436,
      "act": 437,
      "aut": 438,
      "br": 439,
      "cra": 440,
      "diff": 441,
      "equ": 442,
      "gl": 443,
      "gu": 444,
      "lo": 445,
      "log": 446,
      "min": 447,
      "mut": 448,
      "mult": 449,
      "pla": 450,
      "sn": 451,
      "sem": 452,
      "tre": 453,
      "ver": 454,
      "##ond": 455,
      "##ong": 456,
      "rel": 457,
      "ret": 458,
      "##ith": 459,
      "##ity": 460,
      "##icat": 461,
      "ing": 462,
      "dem": 463,
      "##old": 464,
      "##ull": 465,
      "##ush": 466,
      "##ift": 467,
      "##rant": 468,
      "prot": 469,
      "##ame": 470,
      "##que": 471,
      "ann": 472,
      "##ruct": 473,
      "vari": 474,
      "##aw": 475,
      "##ax": 476,
      "##az": 477,
      "##cc": 478,
      "##dl": 479,
      "##dit": 480,
      "##dent": 481,
      "##eg": 482,
      "##eat": 483,
      "##eal": 484,
      "##gan": 485,
      "##ire": 486,
      "##ld": 487,
      "##ner": 488,
      "##ps": 489,
      "##riv": 490,
      "##su": 491,
      "##uck": 492,
      "##uff": 493,
      "asc": 494,
      "blo": 495,
      "cou": 496,
      "cir": 497,
      "cla": 498,
      "cap": 499,
      "capt": 500,
      "do": 501,
      "dom": 502,
      "elect": 503,
      "fin": 504,
      "flo": 505,
      "gre": 506,
      "imm": 507,
      "jo": 508,
      "kn": 509,
      "mor": 510,
      "mis": 511,
      "mot": 512,
      "main": 513,
      "not": 514,
      "opp": 515,
      "pol": 516,
      "sle": 517,
      "sla": 518,
      "sum": 519,
      "to": 520,
      "vis": 521,
      "vol": 522,
      "war": 523,
      "##ern": 524,
      "##atur": 525,
      "##one": 526,
      "##ither": 527,
      "##aliz": 528,
      "##ree": 529,
      "##rap": 530,
      "##ray": 531,
      "des": 532,
      "##olv": 533,
      "##olog": 534,
      "##ivat": 535,
      "##irt": 536,
      "##rang": 537,
      "##rank": 538,
      "the": 539,
      "spo": 540,
      "prof": 541,
      "prov": 542,
      "##ceiv": 543,
      "##agn": 544,
      "##vers": 545,
      "##vert": 546,
      "disp": 547,
      "all": 548,
      "char": 549,
      "form": 550,
      "supp": 551,
      "adv": 552,
      "##osit": 553,
      "##ount": 554,
      "transp": 555,
      "acqu": 556,
      "art": 557,
      "##spect": 558,
      "leg": 559,
      "##clud": 560,
      "coll": 561,
      "temp": 562,
      "##ought": 563,
      "multip": 564,
      "##ace": 565,
      "##ew": 566,
      "##ear": 567,
      "##eet": 568,
      "##ept": 569,
      "##eak": 570,
      "##form": 571,
      "##gra": 572,
      "##hor": 573,
      "##lin": 574,
      "##let": 575,
      "##ma": 576,
      "##over": 577,
      "##rit": 578,
      "##ric": 579,
      "##se": 580,
      "##ther": 581,
      "##uc": 582,
      "##ux": 583,
      "amb": 584,
      "bu": 585,
      "bat": 586,
      "ben": 587,
      "bre": 588,
      "bra": 589,
      "bro": 590,
      "bas": 591,
      "bot": 592,
      "cal": 593,
      "cre": 594,
      "clo": 595,
      "dr": 596,
      "ep": 597,
      "ear": 598,
      "est": 599,
      "emp": 600,
      "eff": 601,
      "fo": 602,
      "fat": 603,
      "fle": 604,
      "fla": 605,
      "fru": 606,
      "grat": 607,
      "ha": 608,
      "har": 609,
      "ill": 610,
      "lab": 611,
      "lib": 612,
      "mer": 613,
      "med": 614,
      "no": 615,
      "nom": 616,
      "on": 617,
      "out": 618,
      "pu": 619,
      "pur": 620,
      "part": 621,
      "si": 622,
      "sv": 623,
      "ser": 624,
      "sil": 625,
      "sch": 626,
      "sus": 627,
      "sing": 628,
      "sens": 629,
      "sign": 630,
      "tri": 631,
      "typ": 632,
      "up": 633,
      "ur": 634,
      "ut": 635,
      "vers": 636,
      "wor": 637,
      "##eral": 638,
      "##inc": 639,
      "##inar": 640,
      "##ane": 641,
      "##ank": 642,
      "requ": 643,
      "##itch": 644,
      "##res": 645,
      "##read": 646,
      "inn": 647,
      "##oud": 648,
      "det": 649,
      "desc": 650,
      "const": 651,
      "##urb": 652,
      "##urr": 653,
      "##olat": 654,
      "##olut": 655,
      "stat": 656,
      "stand": 657,
      "com": 658,
      "##igh": 659,
      "##ask": 660,
      "env": 661,
      "##lay": 662,
      "##imat": 663,
      "prop": 664,
      "##ced": 665,
      "##tern": 666,
      "##umbl": 667,
      "##istic": 668,
      "anal": 669,
      "forg": 670,
      "pret": 671,
      "##rupt": 672,
      "add": 673,
      "##ose": 674,
      "##ingu": 675,
      "transc": 676,
      "appro": 677,
      "under": 678,
      "beh": 679,
      "##ake": 680,
      "##clus": 681,
      "cry": 682,
      "##eep": 683,
      "optim": 684,
      "circ": 685,
      "susp": 686,
      "##aid": 687,
      "##aus": 688,
      "##ault": 689,
      "##by": 690,
      "##borat": 691,
      "##eb": 692,
      "##ef": 693,
      "##ep": 694,
      "##een": 695,
      "##empt": 696,
      "##fer": 697,
      "##gn": 698,
      "##gu": 699,
      "##gin": 700,
      "##gress": 701,
      "##hen": 702,
      "##hib": 703,
      "##ik": 704,
      "##ier": 705,
      "##iar": 706,
      "##ior": 707,
      "##ibl": 708,
      "##iqu": 709,
      "##ield": 710,
      "##jo": 711,
      "##lt": 712,
      "##ly": 713,
      "##nel": 714,
      "##nam": 715,
      "##oid": 716,
      "##oop": 717,
      "##ook": 718,
      "##rin": 719,
      "##ror": 720,
      "##ris": 721,
      "##rim": 722,
      "##rum": 723,
      "##son": 724,
      "##sor": 725,
      "##sic": 726,
      "##te": 727,
      "##tl": 728,
      "##ve": 729,
      "##vat": 730,
      "##viat": 731,
      "##xt": 732,
      "##ym": 733,
      "ax": 734,
      "ast": 735,
      "amp": 736,
      "aud": 737,
      "asp": 738,
      "ampl": 739,
      "by": 740,
      "bor": 741,
      "bur": 742,
      "bet": 743,
      "bel": 744,
      "ble": 745,
      "cm": 746,
      "cat": 747,
      "can": 748,
      "car": 749,
      "cle": 750,
      "cas": 751,
      "camp": 752,
      "dat": 753,
      "dar": 754,
      "dra": 755,
      "dur": 756,
      "dil": 757,
      "dang": 758,
      "dial": 759,
      "ec": 760,
      "em": 761,
      "ele": 762,
      "ela": 763,
      "esc": 764,
      "fel": 765,
      "fun": 766,
      "fir": 767,
      "fam": 768,
      "fast": 769,
      "fund": 770,
      "frag": 771,
      "go": 772,
      "gro": 773,
      "get": 774,
      "gig": 775,
      "gam": 776,
      "glo": 777,
      "hor": 778,
      "hol": 779,
      "hom": 780,
      "hyp": 781,
      "is": 782,
      "it": 783,
      "ident": 784,
      "jun": 785,
      "just": 786,
      "lit": 787,
      "lay": 788,
      "mo": 789,
      "ment": 790,
      "mem": 791,
      "magn": 792,
      "non": 793,
      "nov": 794,
      "obl": 795,
      "over": 796,
      "occ": 797,
      "pen": 798,
      "ple": 799,
      "pip": 800,
      "pop": 801,
      "port": 802,
      "pass": 803,
      "rat": 804,
      "rid": 805,
      "riv": 806,
      "rad": 807,
      "rub": 808,
      "sit": 809,
      "sou": 810,
      "sent": 811,
      "set": 812,
      "sel": 813,
      "sim": 814,
      "soc": 815,
      "tun": 816,
      "tim": 817,
      "tend": 818,
      "tru": 819,
      "top": 820,
      "vi": 821,
      "voc": 822,
      "wid": 823,
      "##era": 824,
      "##erg": 825,
      "##ath": 826,
      "##eng": 827,
      "##ont": 828,
      "##onat": 829,
      "##onent": 830,
      "##onom": 831,
      "##inct": 832,
      "##ary": 833,
      "##stic": 834,
      "rele": 835,
      "##itat": 836,
      "##itud": 837,
      "##icl": 838,
      "##ale": 839,
      "##rec": 840,
      "##rew": 841,
      "##ream": 842,
      "##regat": 843,
      "##rehen": 844,
      "##isit": 845,
      "deb": 846,
      "dest": 847,
      "cond": 848,
      "##urs": 849,
      "##oll": 850,
      "##olen": 851,
      "##ild": 852,
      "##ile": 853,
      "##ilt": 854,
      "stor": 855,
      "stud": 856,
      "strat": 857,
      "##etch": 858,
      "##chan": 859,
      "##uls": 860,
      "##idat": 861,
      "##ident": 862,
      "##ive": 863,
      "##unch": 864,
      "##igu": 865,
      "##igat": 866,
      "##igen": 867,
      "exc": 868,
      "##ird": 869,
      "##rand": 870,
      "end": 871,
      "eng": 872,
      "enter": 873,
      "thr": 874,
      "thes": 875,
      "##lac": 876,
      "spl": 877,
      "spr": 878,
      "spar": 879,
      "##imit": 880,
      "##iment": 881,
      "prob": 882,
      "##umb": 883,
      "##aint": 884,
      "##ript": 885,
      "alle": 886,
      "ans": 887,
      "ant": 888,
      "fort": 889,
      "pres": 890,
      "prev": 891,
      "suff": 892,
      "sec": 893,
      "seg": 894,
      "perm": 895,
      "exped": 896,
      "explo": 897,
      "arch": 898,
      "unif": 899,
      "reform": 900,
      "bec": 901,
      "entrop": 902,
      "grad": 903,
      "##duct": 904,
      "##lict": 905,
      "tech": 906,
      "obs": 907,
      "obst": 908,
      "recip": 909,
      "crit": 910,
      "##eek": 911,
      "plan": 912,
      "parad": 913,
      "subst": 914,
      "corre": 915,
      "##iev": 916,
      "asy": 917,
      "post": 918,
      "saw": 919,
      "incre": 920,
      "##ribut": 921,
      "synth": 922,
      "##ithm": 923,
      "electr": 924,
      "summ": 925,
      "publ": 926,
      "simpl": 927,
      "analy": 928,
      "behav": 929,
      "##hibit": 930,
      "##aj": 931,
      "##aut": 932,
      "##aff": 933,
      "##aunt": 934,
      "##bo": 935,
      "##br": 936,
      "##ban": 937,
      "##bra": 938,
      "##co": 939,
      "##cis": 940,
      "##dd": 941,
      "##dg": 942,
      "##dk": 943,
      "##den": 944,
      "##dict": 945,
      "##dicat": 946,
      "##ek": 947,
      "##eu": 948,
      "##ev": 949,
      "##emp": 950,
      "##eas": 951,
      "##ead": 952,
      "##eed": 953,
      "##for": 954,
      "##fac": 955,
      "##ga": 956,
      "##gg": 957,
      "##gor": 958,
      "##iet": 959,
      "##ias": 960,
      "##iom": 961,
      "##iod": 962,
      "##ies": 963,
      "##ique": 964,
      "##lant": 965,
      "##ml": 966,
      "##mag": 967,
      "##mend": 968,
      "##minat": 969,
      "##ni": 970,
      "##nn": 971,
      "##net": 972,
      "##ness": 973,
      "##of": 974,
      "##oic": 975,
      "##oss": 976,
      "##och": 977,
      "##oint": 978,
      "##pc": 979,
      "##pg": 980,
      "##pu": 981,
      "##par": 982,
      "##pend": 983,
      "##pris": 984,
      "##ry": 985,
      "##rent": 986,
      "##rut": 987,
      "##rud": 988,
      "##right": 989,
      "##sist": 990,
      "##tp": 991,
      "##tle": 992,
      "##uen": 993,
      "##uin": 994,
      "##uit": 995,
      "##ure": 996,
      "##uct": 997,
      "##uss": 998,
      "##uag": 999,
      "##vm": 1000,
      "##ven": 1001,
      "##vel": 1002,
      "##ward": 1003,
      "##ware": 1004,
      "##xic": 1005,
      "##yst": 1006,
      "##zz": 1007,
      "af": 1008,
      "av": 1009,
      "are": 1010,
      "ach": 1011,
      "apt": 1012,
      "aug": 1013,
      "bin": 1014,
      "ban": 1015,
      "but": 1016,
      "bus": 1017,
      "bla": 1018,
      "bad": 1019,
      "bend": 1020,
      "best": 1021,
      "bow": 1022,
      "bere": 1023,
      "cy": 1024,
      "cent": 1025,
      "cro": 1026,
      "cru": 1027,
      "cand": 1028,
      "cert": 1029,
      "card": 1030,
      "cult": 1031,
      "db": 1032,
      "du": 1033,
      "dw": 1034,
      "dou": 1035,
      "dig": 1036,
      "dim": 1037,
      "dens": 1038,
      "doc": 1039,
      "dict": 1040,
      "dock": 1041,
      "dup": 1042,
      "dram": 1043,
      "dire": 1044,
      "drank": 1045,
      "ed": 1046,
      "eu": 1047,
      "era": 1048,
      "ess": 1049,
      "ever": 1050,
      "fa": 1051,
      "fu": 1052,
      "fre": 1053,
      "fro": 1054,
      "fur": 1055,
      "ful": 1056,
      "fid": 1057,
      "fem": 1058,
      "fed": 1059,
      "fri": 1060,
      "foc": 1061,
      "fac": 1062,
      "fact": 1063,
      "fract": 1064,
      "fix": 1065,
      "fair": 1066,
      "fram": 1067,
      "free": 1068,
      "gn": 1069,
      "gat": 1070,
      "gar": 1071,
      "gle": 1072,
      "got": 1073,
      "gla": 1074,
      "gem": 1075,
      "gall": 1076,
      "hi": 1077,
      "ht": 1078,
      "hon": 1079,
      "hit": 1080,
      "hal": 1081,
      "hel": 1082,
      "had": 1083,
      "hum": 1084,
      "hist": 1085,
      "hand": 1086,
      "hind": 1087,
      "hack": 1088,
      "here": 1089,
      "hook": 1090,
      "ic": 1091,
      "id": 1092,
      "imb": 1093,
      "ide": 1094,
      "ign": 1095,
      "imag": 1096,
      "jud": 1097,
      "jour": 1098,
      "kept": 1099,
      "ll": 1100,
      "lar": 1101,
      "lic": 1102,
      "let": 1103,
      "lag": 1104,
      "list": 1105,
      "lap": 1106,
      "loc": 1107,
      "lang": 1108,
      "lingu": 1109,
      "mv": 1110,
      "men": 1111,
      "mel": 1112,
      "mid": 1113,
      "mig": 1114,
      "mad": 1115,
      "mill": 1116,
      "mac": 1117,
      "mess": 1118,
      "mix": 1119,
      "maj": 1120,
      "myst": 1121,
      "nar": 1122,
      "net": 1123,
      "nod": 1124,
      "norm": 1125,
      "oct": 1126,
      "osc": 1127,
      "pe": 1128,
      "pun": 1129,
      "pod": 1130,
      "pow": 1131,
      "pron": 1132,
      "pict": 1133,
      "pack": 1134,
      "pix": 1135,
      "posit": 1136,
      "ran": 1137,
      "ris": 1138,
      "rig": 1139,
      "ram": 1140,
      "rum": 1141,
      "rud": 1142,
      "rand": 1143,
      "rout": 1144,
      "sat": 1145,
      "sin": 1146,
      "sor": 1147,
      "sal": 1148,
      "squ": 1149,
      "siz": 1150,
      "sock": 1151,
      "serv": 1152,
      "satur": 1153,
      "tor": 1154,
      "tal": 1155,
      "tol": 1156,
      "tap": 1157,
      "tab": 1158,
      "tens": 1159,
      "tang": 1160,
      "tour": 1161,
      "tact": 1162,
      "tail": 1163,
      "tick": 1164,
      "ub": 1165,
      "upp": 1166,
      "ult": 1167,
      "van": 1168,
      "vent": 1169,
      "vul": 1170,
      "vig": 1171,
      "vir": 1172,
      "vag": 1173,
      "vib": 1174,
      "vert": 1175,
      "vac": 1176,
      "virt": 1177,
      "wa": 1178,
      "wat": 1179,
      "win": 1180,
      "was": 1181,
      "wif": 1182,
      "will": 1183,
      "wind": 1184,
      "you": 1185,
      "##ate": 1186,
      "##ence": 1187,
      "##enue": 1188,
      "##enuat": 1189,
      "##onst": 1190,
      "##onym": 1191,
      "##inal": 1192,
      "##arch": 1193,
      "##ork": 1194,
      "##orn": 1195,
      "##orous": 1196,
      "##stain": 1197,
      "red": 1198,
      "rear": 1199,
      "real": 1200,
      "rect": 1201,
      "read": 1202,
      "resc": 1203,
      "reli": 1204,
      "reduc": 1205,
      "##ite": 1206,
      "##itl": 1207,
      "##itut": 1208,
      "##itter": 1209,
      "##iterat": 1210,
      "##ice": 1211,
      "##ich": 1212,
      "##icul": 1213,
      "##icip": 1214,
      "##rem": 1215,
      "##reat": 1216,
      "##reet": 1217,
      "init": 1218,
      "inher": 1219,
      "##rab": 1220,
      "##rac": 1221,
      "##rast": 1222,
      "##rais": 1223,
      "##ouch": 1224,
      "##ould": 1225,
      "dece": 1226,
      "decl": 1227,
      "##rov": 1228,
      "##rogat": 1229,
      "##roll": 1230,
      "conj": 1231,
      "conn": 1232,
      "conce": 1233,
      "consp": 1234,
      "##urn": 1235,
      "##ole": 1236,
      "##iliat": 1237,
      "##iliar": 1238,
      "ston": 1239,
      "stab": 1240,
      "stress": 1241,
      "station": 1242,
      "##eta": 1243,
      "##etr": 1244,
      "##elop": 1245,
      "##elerat": 1246,
      "cod": 1247,
      "cop": 1248,
      "comb": 1249,
      "##iden": 1250,
      "##lem": 1251,
      "##lement": 1252,
      "##ivil": 1253,
      "##ivers": 1254,
      "##uncat": 1255,
      "##ute": 1256,
      "##utter": 1257,
      "exam": 1258,
      "exec": 1259,
      "exclus": 1260,
      "##ason": 1261,
      "##asur": 1262,
      "##otat": 1263,
      "##irl": 1264,
      "##irm": 1265,
      "##usiv": 1266,
      "##ranc": 1267,
      "enc": 1268,
      "ens": 1269,
      "enum": 1270,
      "ther": 1271,
      "thous": 1272,
      "there": 1273,
      "##lax": 1274,
      "spect": 1275,
      "proc": 1276,
      "prox": 1277,
      "process": 1278,
      "##ceed": 1279,
      "##ome": 1280,
      "##oman": 1281,
      "##ipher": 1282,
      "##umn": 1283,
      "##ument": 1284,
      "##umulat": 1285,
      "##ender": 1286,
      "##emn": 1287,
      "##emon": 1288,
      "##embl": 1289,
      "##ember": 1290,
      "sho": 1291,
      "shr": 1292,
      "shar": 1293,
      "shad": 1294,
      "show": 1295,
      "shrank": 1296,
      "sheet": 1297,
      "##loy": 1298,
      "##uden": 1299,
      "##verag": 1300,
      "diss": 1301,
      "##quir": 1302,
      "##riet": 1303,
      "##ribl": 1304,
      "##riev": 1305,
      "alli": 1306,
      "alph": 1307,
      "and": 1308,
      "ang": 1309,
      "che": 1310,
      "forb": 1311,
      "fore": 1312,
      "press": 1313,
      "sup": 1314,
      "compet": 1315,
      "comput": 1316,
      "compli": 1317,
      "##rup": 1318,
      "adj": 1319,
      "##aphor": 1320,
      "scen": 1321,
      "scal": 1322,
      "scrut": 1323,
      "sever": 1324,
      "##ouse": 1325,
      "pert": 1326,
      "persu": 1327,
      "##ounc": 1328,
      "abs": 1329,
      "import": 1330,
      "implic": 1331,
      "expl": 1332,
      "exper": 1333,
      "##oph": 1334,
      "ardu": 1335,
      "##orth": 1336,
      "contro": 1337,
      "contemp": 1338,
      "##aster": 1339,
      "##mmetr": 1340,
      "less": 1341,
      "lexic": 1342,
      "unic": 1343,
      "##avel": 1344,
      "##own": 1345,
      "beg": 1346,
      "quar": 1347,
      "quest": 1348,
      "quant": 1349,
      "##arth": 1350,
      "##artment": 1351,
      "entr": 1352,
      "grav": 1353,
      "gradu": 1354,
      "graph": 1355,
      "neg": 1356,
      "negat": 1357,
      "intr": 1358,
      "intel": 1359,
      "##ugg": 1360,
      "heat": 1361,
      "heal": 1362,
      "head": 1363,
      "heav": 1364,
      "##ourish": 1365,
      "##oke": 1366,
      "assur": 1367,
      "colle": 1368,
      "colla": 1369,
      "repl": 1370,
      "reput": 1371,
      "##rong": 1372,
      "##ront": 1373,
      "clar": 1374,
      "defin": 1375,
      "again": 1376,
      "##encil": 1377,
      "interp": 1378,
      "confer": 1379,
      "prim": 1380,
      "truncat": 1381,
      "deprec": 1382,
      "commis": 1383,
      "commun": 1384,
      "discrim": 1385,
      "##ampl": 1386,
      "##amper": 1387,
      "even": 1388,
      "plent": 1389,
      "##under": 1390,
      "##undan": 1391,
      "amaz": 1392,
      "corp": 1393,
      "surr": 1394,
      "surv": 1395,
      "decre": 1396,
      "##aptur": 1397,
      "##ief": 1398,
      "##ovat": 1399,
      "poss": 1400,
      "conven": 1401,
      "extra": 1402,
      "ord": 1403,
      "organ": 1404,
      "saf": 1405,
      "regard": 1406,
      "invest": 1407,
      "embar": 1408,
      "gener": 1409,
      "mark": 1410,
      "margin": 1411,
      "soft": 1412,
      "termin": 1413,
      "web": 1414,
      "remem": 1415,
      "##minen": 1416,
      "divers": 1417,
      "mechan": 1418,
      "patron": 1419,
      "##retch": 1420,
      "congru": 1421,
      "congrat": 1422,
      "specif": 1423,
      "special": 1424,
      "synt": 1425,
      "##augh": 1426,
      "##aught": 1427,
      "auth": 1428,
      "differ": 1429,
      "logic": 1430,
      "verb": 1431,
      "variad": 1432,
      "class": 1433,
      "caps": 1434,
      "know": 1435,
      "miss": 1436,
      "maintain": 1437,
      "slack": 1438,
      "theor": 1439,
      "spoil": 1440,
      "profess": 1441,
      "##grad": 1442,
      "benef": 1443,
      "earn": 1444,
      "emph": 1445,
      "effic": 1446,
      "frust": 1447,
      "gratif": 1448,
      "happ": 1449,
      "harm": 1450,
      "noone": 1451,
      "triang": 1452,
      "url": 1453,
      "##aneous": 1454,
      "##urbish": 1455,
      "comf": 1456,
      "##inguish": 1457,
      "underst": 1458,
      "crypt": 1459,
      "##join": 1460,
      "##nament": 1461,
      "##rinsic": 1462,
      "during": 1463,
      "identif": 1464,
      "river": 1465,
      "##ength": 1466,
      "journ": 1467,
      "migrat": 1468,
      "oscill": 1469,
      "##onstra": 1470,
      "depreciat": 1471,
      "##af": 1472,
      "##ah": 1473,
      "##ao": 1474,
      "##ais": 1475,
      "##aur": 1476,
      "##app": 1477,
      "##aign": 1478,
      "##aque": 1479,
      "##aive": 1480,
      "##aunch": 1481,
      "##auss": 1482,
      "##aemon": 1483,
      "##bd": 1484,
      "##bt": 1485,
      "##bit": 1486,
      "##bre": 1487,
      "##bol": 1488,
      "##bil": 1489,
      "##but": 1490,
      "##bag": 1491,
      "##bru": 1492,
      "##band": 1493,
      "##bow": 1494,
      "##bust": 1495,
      "##bber": 1496,
      "##briet": 1497,
      "##cent": 1498,
      "##cil": 1499,
      "##cul": 1500,
      "##cad": 1501,
      "##cce": 1502,
      "##com": 1503,
      "##cip": 1504,
      "##cast": 1505,
      "##cant": 1506,
      "##cell": 1507,
      "##cial": 1508,
      "##cinat": 1509,
      "##cious": 1510,
      "##cient": 1511,
      "##cclud": 1512,
      "##da": 1513,
      "##dm": 1514,
      "##do": 1515,
      "##dr": 1516,
      "##dat": 1517,
      "##dic": 1518,
      "##dain": 1519,
      "##dib": 1520,
      "##dibl": 1521,
      "##eh": 1522,
      "##eo": 1523,
      "##eit": 1524,
      "##eur": 1525,
      "##eil": 1526,
      "##eam": 1527,
      "##eem": 1528,
      "##eff": 1529,
      "##equ": 1530,
      "##eous": 1531,
      "##empl": 1532,
      "##eah": 1533,
      "##fur": 1534,
      "##fil": 1535,
      "##ful": 1536,
      "##fus": 1537,
      "##fect": 1538,
      "##fact": 1539,
      "##found": 1540,
      "##fram": 1541,
      "##feit": 1542,
      "##gb": 1543,
      "##gd": 1544,
      "##go": 1545,
      "##ger": 1546,
      "##gar": 1547,
      "##gal": 1548,
      "##ght": 1549,
      "##gerat": 1550,
      "##gust": 1551,
      "##ggl": 1552,
      "##gram": 1553,
      "##gree": 1554,
      "##gres": 1555,
      "##gonom": 1556,
      "##gregat": 1557,
      "##gument": 1558,
      "##hou": 1559,
      "##hol": 1560,
      "##hus": 1561,
      "##ham": 1562,
      "##hod": 1563,
      "##hast": 1564,
      "##hanc": 1565,
      "##hes": 1566,
      "##host": 1567,
      "##ii": 1568,
      "##ira": 1569,
      "##iou": 1570,
      "##ipt": 1571,
      "##ios": 1572,
      "##iab": 1573,
      "##iast": 1574,
      "##iant": 1575,
      "##iabl": 1576,
      "##iagn": 1577,
      "##ja": 1578,
      "##jur": 1579,
      "##jud": 1580,
      "##jang": 1581,
      "##jack": 1582,
      "##jax": 1583,
      "##ka": 1584,
      "##ke": 1585,
      "##kin": 1586,
      "##lp": 1587,
      "##lar": 1588,
      "##las": 1589,
      "##lla": 1590,
      "##lim": 1591,
      "##lip": 1592,
      "##lud": 1593,
      "##lang": 1594,
      "##long": 1595,
      "##liment": 1596,
      "##luen": 1597,
      "##literat": 1598,
      "##mo": 1599,
      "##ms": 1600,
      "##mur": 1601,
      "##mot": 1602,
      "##mir": 1603,
      "##mbl": 1604,
      "##mod": 1605,
      "##most": 1606,
      "##mier": 1607,
      "##nc": 1608,
      "##nit": 1609,
      "##ning": 1610,
      "##nolog": 1611,
      "##ox": 1612,
      "##oy": 1613,
      "##ool": 1614,
      "##opt": 1615,
      "##oom": 1616,
      "##oos": 1617,
      "##ober": 1618,
      "##ompl": 1619,
      "##ooth": 1620,
      "##pl": 1621,
      "##pon": 1622,
      "##pit": 1623,
      "##put": 1624,
      "##pos": 1625,
      "##pber": 1626,
      "##pass": 1627,
      "##plex": 1628,
      "##peg": 1629,
      "##ql": 1630,
      "##ral": 1631,
      "##ril": 1632,
      "##rid": 1633,
      "##rif": 1634,
      "##ring": 1635,
      "##renc": 1636,
      "##rict": 1637,
      "##ricat": 1638,
      "##raliz": 1639,
      "##sa": 1640,
      "##sm": 1641,
      "##so": 1642,
      "##sw": 1643,
      "##sin": 1644,
      "##set": 1645,
      "##sel": 1646,
      "##sid": 1647,
      "##som": 1648,
      "##sens": 1649,
      "##sulat": 1650,
      "##sung": 1651,
      "##side": 1652,
      "##sitat": 1653,
      "##ta": 1654,
      "##tc": 1655,
      "##ti": 1656,
      "##tw": 1657,
      "##ten": 1658,
      "##ton": 1659,
      "##tic": 1660,
      "##til": 1661,
      "##tom": 1662,
      "##tail": 1663,
      "##tract": 1664,
      "##trud": 1665,
      "##ture": 1666,
      "##tti": 1667,
      "##uch": 1668,
      "##uber": 1669,
      "##uary": 1670,
      "##ufact": 1671,
      "##van": 1672,
      "##val": 1673,
      "##vet": 1674,
      "##vas": 1675,
      "##vad": 1676,
      "##vag": 1677,
      "##vious": 1678,
      "##vity": 1679,
      "##wl": 1680,
      "##wn": 1681,
      "##wt": 1682,
      "##ww": 1683,
      "##wer": 1684,
      "##went": 1685,
      "##wart": 1686,
      "##way": 1687,
      "##ween": 1688,
      "##work": 1689,
      "##xter": 1690,
      "##xious": 1691,
      "##ximat": 1692,
      "##ye": 1693,
      "##yl": 1694,
      "##yal": 1695,
      "##yter": 1696,
      "##yth": 1697,
      "##yond": 1698,
      "##ynam": 1699,
      "##ysic": 1700,
      "##ybr": 1701,
      "##zure": 1702,
      "air": 1703,
      "ala": 1704,
      "aim": 1705,
      "abl": 1706,
      "amiss": 1707,
      "alex": 1708,
      "avert": 1709,
      "aspect": 1710,
      "aux": 1711,
      "avat": 1712,
      "alac": 1713,
      "averag": 1714,
      "ajax": 1715,
      "aka": 1716,
      "azure": 1717,
      "bon": 1718,
      "bar": 1719,
      "bit": 1720,
      "bal": 1721,
      "bis": 1722,
      "bent": 1723,
      "bul": 1724,
      "big": 1725,
      "bran": 1726,
      "bag": 1727,
      "bion": 1728,
      "bud": 1729,
      "bod": 1730,
      "bri": 1731,
      "bing": 1732,
      "band": 1733,
      "bert": 1734,
      "bill": 1735,
      "bug": 1736,
      "bell": 1737,
      "bay": 1738,
      "bind": 1739,
      "ball": 1740,
      "bash": 1741,
      "bound": 1742,
      "back": 1743,
      "bund": 1744,
      "brag": 1745,
      "brow": 1746,
      "brain": 1747,
      "blow": 1748,
      "bio": 1749,
      "both": 1750,
      "bump": 1751,
      "bond": 1752,
      "bold": 1753,
      "buck": 1754,
      "bone": 1755,
      "bought": 1756,
      "bunch": 1757,
      "bird": 1758,
      "brand": 1759,
      "baff": 1760,
      "bias": 1761,
      "bounc": 1762,
      "bios": 1763,
      "btw": 1764,
      "cer": 1765,
      "cit": 1766,
      "cis": 1767,
      "css": 1768,
      "cel": 1769,
      "cul": 1770,
      "cut": 1771,
      "cad": 1772,
      "cam": 1773,
      "cud": 1774,
      "cri": 1775,
      "cab": 1776,
      "coun": 1777,
      "cast": 1778,
      "cart": 1779,
      "cour": 1780,
      "cell": 1781,
      "cach": 1782,
      "clic": 1783,
      "canc": 1784,
      "cron": 1785,
      "cust": 1786,
      "call": 1787,
      "cub": 1788,
      "crow": 1789,
      "care": 1790,
      "crop": 1791,
      "cull": 1792,
      "came": 1793,
      "crank": 1794,
      "count": 1795,
      "caus": 1796,
      "caut": 1797,
      "ceas": 1798,
      "cnn": 1799,
      "cpu": 1800,
      "civil": 1801,
      "cipher": 1802,
      "cumulat": 1803,
      "caught": 1804,
      "cbow": 1805,
      "ceil": 1806,
      "der": 1807,
      "din": 1808,
      "did": 1809,
      "dut": 1810,
      "dot": 1811,
      "dus": 1812,
      "dam": 1813,
      "dos": 1814,
      "dab": 1815,
      "dart": 1816,
      "danc": 1817,
      "dress": 1818,
      "day": 1819,
      "dron": 1820,
      "due": 1821,
      "dust": 1822,
      "dash": 1823,
      "damp": 1824,
      "dign": 1825,
      "die": 1826,
      "dub": 1827,
      "drag": 1828,
      "drow": 1829,
      "dual": 1830,
      "drain": 1831,
      "drop": 1832,
      "doth": 1833,
      "dia": 1834,
      "dump": 1835,
      "dull": 1836,
      "daw": 1837,
      "driv": 1838,
      "duck": 1839,
      "dirt": 1840,
      "duc": 1841,
      "dread": 1842,
      "donat": 1843,
      "drew": 1844,
      "dream": 1845,
      "daunt": 1846,
      "diod": 1847,
      "dole": 1848,
      "drup": 1849,
      "down": 1850,
      "daugh": 1851,
      "daemon": 1852,
      "ddr": 1853,
      "diagn": 1854,
      "djang": 1855,
      "dynam": 1856,
      "es": 1857,
      "eat": 1858,
      "ech": 1859,
      "eul": 1860,
      "eas": 1861,
      "eag": 1862,
      "esp": 1863,
      "east": 1864,
      "eight": 1865,
      "each": 1866,
      "ecl": 1867,
      "elic": 1868,
      "eject": 1869,
      "emit": 1870,
      "emiss": 1871,
      "educ": 1872,
      "empt": 1873,
      "edit": 1874,
      "either": 1875,
      "ether": 1876,
      "etern": 1877,
      "eigen": 1878,
      "earth": 1879,
      "eminen": 1880,
      "ebriet": 1881,
      "etc": 1882,
      "eye": 1883,
      "fan": 1884,
      "far": 1885,
      "fit": 1886,
      "fic": 1887,
      "fal": 1888,
      "fra": 1889,
      "fol": 1890,
      "fig": 1891,
      "fut": 1892,
      "fas": 1893,
      "fus": 1894,
      "fad": 1895,
      "fend": 1896,
      "fing": 1897,
      "fab": 1898,
      "fest": 1899,
      "fish": 1900,
      "fav": 1901,
      "fant": 1902,
      "fill": 1903,
      "fight": 1904,
      "four": 1905,
      "fell": 1906,
      "fanc": 1907,
      "fail": 1908,
      "find": 1909,
      "fenc": 1910,
      "fall": 1911,
      "fash": 1912,
      "found": 1913,
      "fick": 1914,
      "fee": 1915,
      "flect": 1916,
      "fung": 1917,
      "flow": 1918,
      "fabl": 1919,
      "fare": 1920,
      "fine": 1921,
      "fide": 1922,
      "flex": 1923,
      "food": 1924,
      "fond": 1925,
      "ficat": 1926,
      "fold": 1927,
      "full": 1928,
      "fift": 1929,
      "frant": 1930,
      "fame": 1931,
      "fire": 1932,
      "fps": 1933,
      "fuck": 1934,
      "fought": 1935,
      "face": 1936,
      "fumbl": 1937,
      "fake": 1938,
      "fault": 1939,
      "field": 1940,
      "font": 1941,
      "foll": 1942,
      "file": 1943,
      "filt": 1944,
      "fetch": 1945,
      "five": 1946,
      "faint": 1947,
      "fright": 1948,
      "ftp": 1949,
      "franc": 1950,
      "farth": 1951,
      "front": 1952,
      "furbish": 1953,
      "gb": 1954,
      "gon": 1955,
      "gan": 1956,
      "gor": 1957,
      "git": 1958,
      "gent": 1959,
      "giv": 1960,
      "gran": 1961,
      "gad": 1962,
      "gpt": 1963,
      "gain": 1964,
      "gist": 1965,
      "gru": 1966,
      "gap": 1967,
      "gest": 1968,
      "gav": 1969,
      "gue": 1970,
      "grow": 1971,
      "glow": 1972,
      "gli": 1973,
      "gaug": 1974,
      "good": 1975,
      "gold": 1976,
      "gift": 1977,
      "grant": 1978,
      "game": 1979,
      "gaz": 1980,
      "gcc": 1981,
      "gps": 1982,
      "gover": 1983,
      "grand": 1984,
      "geek": 1985,
      "gpu": 1986,
      "girl": 1987,
      "griev": 1988,
      "gauss": 1989,
      "geo": 1990,
      "ghost": 1991,
      "giant": 1992,
      "gsm": 1993,
      "her": 1994,
      "hat": 1995,
      "his": 1996,
      "hur": 1997,
      "het": 1998,
      "hid": 1999,
      "hiv": 2000,
      "has": 2001,
      "hot": 2002,
      "hir": 2003,
      "hus": 2004,
      "him": 2005,
      "hed": 2006,
      "hos": 2007,
      "hab": 2008,
      "hop": 2009,
      "hast": 2010,
      "hib": 2011,
      "hav": 2012,
      "how": 2013,
      "hang": 2014,
      "hug": 2015,
      "hard": 2016,
      "hour": 2017,
      "hail": 2018,
      "hash": 2019,
      "hund": 2020,
      "hapt": 2021,
      "hub": 2022,
      "hung": 2023,
      "hass": 2024,
      "hunt": 2025,
      "hint": 2026,
      "held": 2027,
      "host": 2028,
      "hood": 2029,
      "hold": 2030,
      "hush": 2031,
      "haz": 2032,
      "hither": 2033,
      "hover": 2034,
      "hurr": 2035,
      "high": 2036,
      "hask": 2037,
      "humbl": 2038,
      "hier": 2039,
      "hdd": 2040,
      "hence": 2041,
      "house": 2042,
      "hamper": 2043,
      "hdm": 2044,
      "hybr": 2045,
      "ion": 2046,
      "iss": 2047,
      "iter": 2048,
      "imit": 2049,
      "istic": 2050,
      "ight": 2051,
      "js": 2052,
      "jen": 2053,
      "jin": 2054,
      "jan": 2055,
      "jre": 2056,
      "jet": 2057,
      "jul": 2058,
      "jut": 2059,
      "jas": 2060,
      "jot": 2061,
      "jam": 2062,
      "jest": 2063,
      "jav": 2064,
      "jug": 2065,
      "jok": 2066,
      "jup": 2067,
      "junk": 2068,
      "jump": 2069,
      "jeal": 2070,
      "json": 2071,
      "jdk": 2072,
      "jpg": 2073,
      "jvm": 2074,
      "jitter": 2075,
      "jdo": 2076,
      "jira": 2077,
      "jpeg": 2078,
      "jwt": 2079,
      "ker": 2080,
      "kan": 2081,
      "kit": 2082,
      "kil": 2083,
      "kiv": 2084,
      "kot": 2085,
      "king": 2086,
      "kill": 2087,
      "kind": 2088,
      "kick": 2089,
      "kde": 2090,
      "key": 2091,
      "kern": 2092,
      "keep": 2093,
      "keen": 2094,
      "kuber": 2095,
      "ly": 2096,
      "lon": 2097,
      "lin": 2098,
      "lan": 2099,
      "lst": 2100,
      "lent": 2101,
      "lur": 2102,
      "lid": 2103,
      "liv": 2104,
      "lif": 2105,
      "lla": 2106,
      "lam": 2107,
      "lum": 2108,
      "lend": 2109,
      "lem": 2110,
      "led": 2111,
      "lect": 2112,
      "lod": 2113,
      "los": 2114,
      "lens": 2115,
      "land": 2116,
      "last": 2117,
      "lav": 2118,
      "low": 2119,
      "light": 2120,
      "lanc": 2121,
      "lash": 2122,
      "lack": 2123,
      "lock": 2124,
      "lie": 2125,
      "lov": 2126,
      "link": 2127,
      "line": 2128,
      "long": 2129,
      "lift": 2130,
      "law": 2131,
      "laz": 2132,
      "luck": 2133,
      "lace": 2134,
      "lux": 2135,
      "loud": 2136,
      "laid": 2137,
      "lik": 2138,
      "liqu": 2139,
      "limit": 2140,
      "laugh": 2141,
      "length": 2142,
      "launch": 2143,
      "lda": 2144,
      "liab": 2145,
      "mit": 2146,
      "mic": 2147,
      "mal": 2148,
      "mur": 2149,
      "mir": 2150,
      "mus": 2151,
      "mim": 2152,
      "mom": 2153,
      "mam": 2154,
      "mag": 2155,
      "mist": 2156,
      "map": 2157,
      "moun": 2158,
      "mand": 2159,
      "mort": 2160,
      "mak": 2161,
      "might": 2162,
      "mach": 2163,
      "may": 2164,
      "mail": 2165,
      "mes": 2166,
      "mind": 2167,
      "must": 2168,
      "mash": 2169,
      "mock": 2170,
      "mov": 2171,
      "mere": 2172,
      "mass": 2173,
      "meld": 2174,
      "most": 2175,
      "mull": 2176,
      "max": 2177,
      "mount": 2178,
      "mask": 2179,
      "male": 2180,
      "mild": 2181,
      "mile": 2182,
      "mouse": 2183,
      "master": 2184,
      "much": 2185,
      "ng": 2186,
      "nat": 2187,
      "nan": 2188,
      "nam": 2189,
      "num": 2190,
      "noun": 2191,
      "nop": 2192,
      "nav": 2193,
      "now": 2194,
      "night": 2195,
      "nail": 2196,
      "nation": 2197,
      "nerv": 2198,
      "nine": 2199,
      "null": 2200,
      "natur": 2201,
      "nought": 2202,
      "nlt": 2203,
      "nurs": 2204,
      "numb": 2205,
      "nice": 2206,
      "north": 2207,
      "nourish": 2208,
      "naive": 2209,
      "nlp": 2210,
      "of": 2211,
      "ost": 2212,
      "oem": 2213,
      "ori": 2214,
      "oug": 2215,
      "oust": 2216,
      "omit": 2217,
      "oft": 2218,
      "old": 2219,
      "oner": 2220,
      "other": 2221,
      "odd": 2222,
      "orac": 2223,
      "occlud": 2224,
      "own": 2225,
      "pin": 2226,
      "pan": 2227,
      "pit": 2228,
      "pal": 2229,
      "pent": 2230,
      "pil": 2231,
      "piv": 2232,
      "put": 2233,
      "pot": 2234,
      "pad": 2235,
      "pag": 2236,
      "pend": 2237,
      "pion": 2238,
      "ped": 2239,
      "pain": 2240,
      "pri": 2241,
      "pap": 2242,
      "pos": 2243,
      "ping": 2244,
      "pens": 2245,
      "past": 2246,
      "pard": 2247,
      "pour": 2248,
      "pick": 2249,
      "pec": 2250,
      "pract": 2251,
      "pess": 2252,
      "pock": 2253,
      "pie": 2254,
      "prag": 2255,
      "pair": 2256,
      "pup": 2257,
      "punk": 2258,
      "plex": 2259,
      "peer": 2260,
      "pump": 2261,
      "pull": 2262,
      "push": 2263,
      "puff": 2264,
      "pray": 2265,
      "peak": 2266,
      "pse": 2267,
      "pitch": 2268,
      "peep": 2269,
      "paid": 2270,
      "paus": 2271,
      "puls": 2272,
      "paint": 2273,
      "peek": 2274,
      "prais": 2275,
      "peta": 2276,
      "pencil": 2277,
      "pyth": 2278,
      "ren": 2279,
      "rar": 2280,
      "rent": 2281,
      "rol": 2282,
      "rss": 2283,
      "rul": 2284,
      "run": 2285,
      "ras": 2286,
      "rim": 2287,
      "rag": 2288,
      "rip": 2289,
      "rain": 2290,
      "rap": 2291,
      "rous": 2292,
      "row": 2293,
      "rang": 2294,
      "right": 2295,
      "rac": 2296,
      "ray": 2297,
      "rail": 2298,
      "rue": 2299,
      "rust": 2300,
      "round": 2301,
      "ramp": 2302,
      "rock": 2303,
      "ration": 2304,
      "rough": 2305,
      "rush": 2306,
      "raw": 2307,
      "rank": 2308,
      "rose": 2309,
      "raid": 2310,
      "roll": 2311,
      "rnn": 2312,
      "rpc": 2313,
      "rpg": 2314,
      "ruin": 2315,
      "rich": 2316,
      "rotat": 2317,
      "roman": 2318,
      "render": 2319,
      "raster": 2320,
      "ravel": 2321,
      "rugg": 2322,
      "raptur": 2323,
      "rais": 2324,
      "rgb": 2325,
      "rsa": 2326,
      "rtti": 2327,
      "sen": 2328,
      "son": 2329,
      "san": 2330,
      "sun": 2331,
      "sad": 2332,
      "sam": 2333,
      "send": 2334,
      "sion": 2335,
      "sed": 2336,
      "slo": 2337,
      "sud": 2338,
      "sect": 2339,
      "sist": 2340,
      "sort": 2341,
      "sav": 2342,
      "sang": 2343,
      "sill": 2344,
      "sight": 2345,
      "sour": 2346,
      "sell": 2347,
      "slic": 2348,
      "say": 2349,
      "sail": 2350,
      "sound": 2351,
      "sick": 2352,
      "six": 2353,
      "smit": 2354,
      "sink": 2355,
      "sung": 2356,
      "scept": 2357,
      "slow": 2358,
      "sunk": 2359,
      "seld": 2360,
      "side": 2361,
      "song": 2362,
      "same": 2363,
      "sinc": 2364,
      "sank": 2365,
      "sigh": 2366,
      "sdk": 2367,
      "some": 2368,
      "soph": 2369,
      "sampl": 2370,
      "sgd": 2371,
      "sql": 2372,
      "ten": 2373,
      "tin": 2374,
      "tar": 2375,
      "tent": 2376,
      "til": 2377,
      "tet": 2378,
      "tel": 2379,
      "tut": 2380,
      "tot": 2381,
      "tir": 2382,
      "tam": 2383,
      "tag": 2384,
      "tip": 2385,
      "tion": 2386,
      "ted": 2387,
      "test": 2388,
      "tast": 2389,
      "tog": 2390,
      "tak": 2391,
      "till": 2392,
      "tight": 2393,
      "tell": 2394,
      "tok": 2395,
      "tall": 2396,
      "tack": 2397,
      "tink": 2398,
      "tout": 2399,
      "tabl": 2400,
      "tup": 2401,
      "trop": 2402,
      "tough": 2403,
      "told": 2404,
      "tax": 2405,
      "task": 2406,
      "take": 2407,
      "tier": 2408,
      "txt": 2409,
      "tilt": 2410,
      "titl": 2411,
      "touch": 2412,
      "turn": 2413,
      "town": 2414,
      "tamper": 2415,
      "taught": 2416,
      "ux": 2417,
      "uous": 2418,
      "ugl": 2419,
      "ups": 2420,
      "vic": 2421,
      "vil": 2422,
      "vot": 2423,
      "vend": 2424,
      "vain": 2425,
      "vect": 2426,
      "vast": 2427,
      "vind": 2428,
      "vue": 2429,
      "vict": 2430,
      "vie": 2431,
      "vide": 2432,
      "vex": 2433,
      "via": 2434,
      "void": 2435,
      "vaunt": 2436,
      "vga": 2437,
      "vgg": 2438,
      "voic": 2439,
      "venue": 2440,
      "vouch": 2441,
      "veh": 2442,
      "won": 2443,
      "wit": 2444,
      "wal": 2445,
      "wre": 2446,
      "wis": 2447,
      "went": 2448,
      "wro": 2449,
      "wel": 2450,
      "wip": 2451,
      "wed": 2452,
      "west": 2453,
      "wher": 2454,
      "wish": 2455,
      "wand": 2456,
      "wast": 2457,
      "wav": 2458,
      "wak": 2459,
      "want": 2460,
      "ward": 2461,
      "well": 2462,
      "way": 2463,
      "wiz": 2464,
      "wall": 2465,
      "wash": 2466,
      "wound": 2467,
      "wick": 2468,
      "were": 2469,
      "ware": 2470,
      "word": 2471,
      "weld": 2472,
      "wide": 2473,
      "wood": 2474,
      "with": 2475,
      "wire": 2476,
      "wrap": 2477,
      "writ": 2478,
      "wik": 2479,
      "wield": 2480,
      "wont": 2481,
      "wild": 2482,
      "week": 2483,
      "wright": 2484,
      "would": 2485,
      "woman": 2486,
      "worth": 2487,
      "woke": 2488,
      "wrong": 2489,
      "wretch": 2490,
      "www": 2491,
      "xor": 2492,
      "xml": 2493,
      "yet": 2494,
      "yel": 2495,
      "youn": 2496,
      "yes": 2497,
      "year": 2498,
      "yield": 2499,
      "yeah": 2500,
      "zer": 2501,
      "zon": 2502,
      "zip": 2503,
      "zoom": 2504,
      "##erc": 2505,
      "##eri": 2506,
      "##erial": 2507,
      "##errant": 2508,
      "##ercis": 2509,
      "##aten": 2510,
      "##atil": 2511,
      "##atter": 2512,
      "##atial": 2513,
      "##atern": 2514,
      "##atform": 2515,
      "##enn": 2516,
      "##ench": 2517,
      "##enom": 2518,
      "##enish": 2519,
      "##eneur": 2520,
      "##onan": 2521,
      "##onic": 2522,
      "##onet": 2523,
      "##onish": 2524,
      "##ongat": 2525,
      "##onsor": 2526,
      "##oncil": 2527,
      "##ina": 2528,
      "##ini": 2529,
      "##ino": 2530,
      "##inu": 2531,
      "##inen": 2532,
      "##inan": 2533,
      "##inent": 2534,
      "##inion": 2535,
      "##inqu": 2536,
      "##inish": 2537,
      "##inant": 2538,
      "##iniz": 2539,
      "##iness": 2540,
      "##inuat": 2541,
      "##ans": 2542,
      "##anat": 2543,
      "##anent": 2544,
      "##anch": 2545,
      "##animat": 2546,
      "##annel": 2547,
      "##arm": 2548,
      "##arn": 2549,
      "##aren": 2550,
      "##arent": 2551,
      "##arant": 2552,
      "##arithm": 2553,
      "##ora": 2554,
      "##orc": 2555,
      "##ors": 2556,
      "##orious": 2557,
      "##orough": 2558,
      "##str": 2559,
      "##stal": 2560,
      "##stem": 2561,
      "##stract": 2562,
      "rece": 2563,
      "reck": 2564,
      "resp": 2565,
      "redu": 2566,
      "reach": 2567,
      "react": 2568,
      "relat": 2569,
      "retain": 2570,
      "reject": 2571,
      "recept": 2572,
      "remiss": 2573,
      "reque": 2574,
      "realiz": 2575,
      "receiv": 2576,
      "revers": 2577,
      "revert": 2578,
      "respect": 2579,
      "reward": 2580,
      "reason": 2581,
      "relax": 2582,
      "rebut": 2583,
      "reanimat": 2584,
      "##itar": 2585,
      "##itor": 2586,
      "##ital": 2587,
      "##itiv": 2588,
      "##itim": 2589,
      "##itect": 2590,
      "##icon": 2591,
      "##icit": 2592,
      "##icult": 2593,
      "##iculat": 2594,
      "##icular": 2595,
      "##icient": 2596,
      "##ali": 2597,
      "##alu": 2598,
      "##alat": 2599,
      "##alog": 2600,
      "##allow": 2601,
      "##aluat": 2602,
      "##allax": 2603,
      "##red": 2604,
      "##rel": 2605,
      "##rep": 2606,
      "##reen": 2607,
      "##rect": 2608,
      "##reast": 2609,
      "##recat": 2610,
      "##resh": 2611,
      "ink": 2612,
      "inur": 2613,
      "inch": 2614,
      "insp": 2615,
      "inert": 2616,
      "indu": 2617,
      "incl": 2618,
      "inject": 2619,
      "incept": 2620,
      "induc": 2621,
      "inaug": 2622,
      "inner": 2623,
      "invers": 2624,
      "invert": 2625,
      "inspect": 2626,
      "includ": 2627,
      "inlin": 2628,
      "inclus": 2629,
      "inimit": 2630,
      "induct": 2631,
      "inhibit": 2632,
      "inquir": 2633,
      "injur": 2634,
      "input": 2635,
      "##ras": 2636,
      "##rass": 2637,
      "##raid": 2638,
      "##raight": 2639,
      "##raph": 2640,
      "##radict": 2641,
      "##isf": 2642,
      "##isi": 2643,
      "##isk": 2644,
      "##isp": 2645,
      "##ision": 2646,
      "##isod": 2647,
      "##oup": 2648,
      "##oust": 2649,
      "##oubl": 2650,
      "##ourag": 2651,
      "##mps": 2652,
      "##mplic": 2653,
      "##mpath": 2654,
      "dear": 2655,
      "deal": 2656,
      "dele": 2657,
      "dead": 2658,
      "dept": 2659,
      "deter": 2660,
      "deem": 2661,
      "deed": 2662,
      "desp": 2663,
      "delic": 2664,
      "detain": 2665,
      "decept": 2666,
      "deduc": 2667,
      "deque": 2668,
      "deceiv": 2669,
      "delay": 2670,
      "deep": 2671,
      "dedicat": 2672,
      "degrad": 2673,
      "degree": 2674,
      "dexter": 2675,
      "##entur": 2676,
      "##entrat": 2677,
      "##ential": 2678,
      "##entious": 2679,
      "##entia": 2680,
      "##entraliz": 2681,
      "##ctrin": 2682,
      "##roc": 2683,
      "##rok": 2684,
      "##rom": 2685,
      "##roy": 2686,
      "##ross": 2687,
      "##roid": 2688,
      "##roach": 2689,
      "##romis": 2690,
      "##roph": 2691,
      "##rogan": 2692,
      "##roborat": 2693,
      "cone": 2694,
      "conver": 2695,
      "conqu": 2696,
      "consc": 2697,
      "conund": 2698,
      "conject": 2699,
      "concept": 2700,
      "conduc": 2701,
      "concess": 2702,
      "condit": 2703,
      "conceiv": 2704,
      "convers": 2705,
      "convert": 2706,
      "conclud": 2707,
      "conced": 2708,
      "conclus": 2709,
      "conduct": 2710,
      "##urat": 2711,
      "##ural": 2712,
      "##uristic": 2713,
      "##urrect": 2714,
      "##oli": 2715,
      "##olt": 2716,
      "##olar": 2717,
      "##olet": 2718,
      "##olish": 2719,
      "##olenc": 2720,
      "##olith": 2721,
      "##ilat": 2722,
      "##ilar": 2723,
      "##ilst": 2724,
      "##ilit": 2725,
      "##ilos": 2726,
      "##ilog": 2727,
      "##ilien": 2728,
      "##ility": 2729,
      "std": 2730,
      "star": 2731,
      "stun": 2732,
      "stir": 2733,
      "stim": 2734,
      "stag": 2735,
      "stip": 2736,
      "stem": 2737,
      "stri": 2738,
      "stru": 2739,
      "stop": 2740,
      "stak": 2741,
      "start": 2742,
      "still": 2743,
      "stay": 2744,
      "storm": 2745,
      "stall": 2746,
      "stash": 2747,
      "stick": 2748,
      "stamp": 2749,
      "stack": 2750,
      "stock": 2751,
      "stub": 2752,
      "stere": 2753,
      "strag": 2754,
      "strain": 2755,
      "stout": 2756,
      "stair": 2757,
      "stabl": 2758,
      "stup": 2759,
      "stare": 2760,
      "steer": 2761,
      "stood": 2762,
      "stump": 2763,
      "struct": 2764,
      "steal": 2765,
      "stuck": 2766,
      "stuff": 2767,
      "strap": 2768,
      "stray": 2769,
      "strang": 2770,
      "stagn": 2771,
      "stumbl": 2772,
      "stake": 2773,
      "steep": 2774,
      "step": 2775,
      "stoop": 2776,
      "stale": 2777,
      "stream": 2778,
      "staff": 2779,
      "stead": 2780,
      "stoch": 2781,
      "street": 2782,
      "strov": 2783,
      "strong": 2784,
      "stencil": 2785,
      "stretch": 2786,
      "steam": 2787,
      "styl": 2788,
      "straight": 2789,
      "strok": 2790,
      "##ssom": 2791,
      "##ssion": 2792,
      "##ssell": 2793,
      "##ett": 2794,
      "##eton": 2795,
      "##etit": 2796,
      "##etrat": 2797,
      "##etell": 2798,
      "##ette": 2799,
      "##elm": 2800,
      "##ely": 2801,
      "##elter": 2802,
      "##eline": 2803,
      "##elibl": 2804,
      "##elve": 2805,
      "##eleton": 2806,
      "coin": 2807,
      "cost": 2808,
      "cool": 2809,
      "cover": 2810,
      "coff": 2811,
      "coher": 2812,
      "coop": 2813,
      "coach": 2814,
      "cook": 2815,
      "code": 2816,
      "coord": 2817,
      "coax": 2818,
      "coinc": 2819,
      "cogn": 2820,
      "coco": 2821,
      "cobol": 2822,
      "coeff": 2823,
      "cofound": 2824,
      "cohes": 2825,
      "cosin": 2826,
      "covet": 2827,
      "##cha": 2828,
      "##chor": 2829,
      "##chas": 2830,
      "##chant": 2831,
      "##ulg": 2832,
      "##uliar": 2833,
      "##idg": 2834,
      "##ider": 2835,
      "##idious": 2836,
      "##idual": 2837,
      "##iddl": 2838,
      "##ley": 2839,
      "##leash": 2840,
      "##ledg": 2841,
      "##iver": 2842,
      "##ivial": 2843,
      "##ividual": 2844,
      "##unc": 2845,
      "##unct": 2846,
      "##unter": 2847,
      "##igm": 2848,
      "##igin": 2849,
      "##igib": 2850,
      "##igorat": 2851,
      "##igger": 2852,
      "##uth": 2853,
      "##utiv": 2854,
      "##ution": 2855,
      "##utral": 2856,
      "exter": 2857,
      "exag": 2858,
      "exist": 2859,
      "exert": 2860,
      "exult": 2861,
      "exact": 2862,
      "except": 2863,
      "excess": 2864,
      "exclud": 2865,
      "extern": 2866,
      "exempt": 2867,
      "exigen": 2868,
      "exhibit": 2869,
      "exceed": 2870,
      "exampl": 2871,
      "exempl": 2872,
      "exercis": 2873,
      "##ase": 2874,
      "##asion": 2875,
      "##asib": 2876,
      "##oto": 2877,
      "##oton": 2878,
      "##otion": 2879,
      "##otiat": 2880,
      "##otyp": 2881,
      "##iron": 2882,
      "##irit": 2883,
      "##use": 2884,
      "##usib": 2885,
      "##ifl": 2886,
      "##ifest": 2887,
      "##rance": 2888,
      "enem": 2889,
      "enabl": 2890,
      "ende": 2891,
      "enough": 2892,
      "ensu": 2893,
      "enjo": 2894,
      "energ": 2895,
      "enfor": 2896,
      "enroll": 2897,
      "enquir": 2898,
      "enhanc": 2899,
      "enlar": 2900,
      "enchant": 2901,
      "that": 2902,
      "then": 2903,
      "thin": 2904,
      "than": 2905,
      "this": 2906,
      "thir": 2907,
      "thus": 2908,
      "them": 2909,
      "thing": 2910,
      "thest": 2911,
      "thick": 2912,
      "throw": 2913,
      "think": 2914,
      "thunk": 2915,
      "though": 2916,
      "they": 2917,
      "thaw": 2918,
      "thriv": 2919,
      "thither": 2920,
      "three": 2921,
      "thirt": 2922,
      "thought": 2923,
      "thank": 2924,
      "thres": 2925,
      "thread": 2926,
      "those": 2927,
      "threw": 2928,
      "third": 2929,
      "thumb": 2930,
      "threat": 2931,
      "theta": 2932,
      "thunder": 2933,
      "thwart": 2934,
      "thorough": 2935,
      "##lai": 2936,
      "##lap": 2937,
      "##lain": 2938,
      "##last": 2939,
      "##laim": 2940,
      "##laud": 2941,
      "##lage": 2942,
      "spen": 2943,
      "spin": 2944,
      "span": 2945,
      "spit": 2946,
      "spel": 2947,
      "spot": 2948,
      "spam": 2949,
      "spend": 2950,
      "spher": 2951,
      "sport": 2952,
      "spill": 2953,
      "spac": 2954,
      "splic": 2955,
      "spee": 2956,
      "spaw": 2957,
      "sprang": 2958,
      "space": 2959,
      "speak": 2960,
      "splin": 2961,
      "spread": 2962,
      "splay": 2963,
      "spont": 2964,
      "speed": 2965,
      "spoke": 2966,
      "spatial": 2967,
      "sponsor": 2968,
      "spirit": 2969,
      "##ima": 2970,
      "##imb": 2971,
      "##imi": 2972,
      "##imen": 2973,
      "##imal": 2974,
      "##iminat": 2975,
      "##adem": 2976,
      "##ptember": 2977,
      "pros": 2978,
      "prolo": 2979,
      "prosp": 2980,
      "promis": 2981,
      "project": 2982,
      "produc": 2983,
      "prompt": 2984,
      "prospect": 2985,
      "proced": 2986,
      "progress": 2987,
      "prohibit": 2988,
      "proof": 2989,
      "proceed": 2990,
      "prominen": 2991,
      "program": 2992,
      "prolong": 2993,
      "promot": 2994,
      "##cedent": 2995,
      "##omal": 2996,
      "##omla": 2997,
      "##omerat": 2998,
      "##ommend": 2999,
      "##ommod": 3000,
      "##omina": 3001,
      "##ament": 3002,
      "##ambl": 3003,
      "##ppl": 3004,
      "##age": 3005,
      "##agat": 3006,
      "##ague": 3007,
      "##agraph": 3008,
      "##ipl": 3009,
      "##ips": 3010,
      "##ipat": 3011,
      "##ipul": 3012,
      "##iplin": 3013,
      "##uminat": 3014,
      "##umber": 3015,
      "##enda": 3016,
      "##endar": 3017,
      "##endum": 3018,
      "she": 3019,
      "shy": 3020,
      "shin": 3021,
      "shut": 3022,
      "shot": 3023,
      "sham": 3024,
      "ship": 3025,
      "shed": 3026,
      "shap": 3027,
      "shop": 3028,
      "short": 3029,
      "shak": 3030,
      "shard": 3031,
      "shell": 3032,
      "shall": 3033,
      "shock": 3034,
      "shout": 3035,
      "shift": 3036,
      "shuff": 3037,
      "shook": 3038,
      "should": 3039,
      "shallow": 3040,
      "shelter": 3041,
      "##edul": 3042,
      "##ediat": 3043,
      "##edien": 3044,
      "##locat": 3045,
      "##ude": 3046,
      "##udg": 3047,
      "##udo": 3048,
      "##verat": 3049,
      "dish": 3050,
      "disk": 3051,
      "dismiss": 3052,
      "disabl": 3053,
      "dissu": 3054,
      "disgra": 3055,
      "disrupt": 3056,
      "disgu": 3057,
      "disson": 3058,
      "disjoin": 3059,
      "disapp": 3060,
      "disdain": 3061,
      "disgust": 3062,
      "##isticat": 3063,
      "##quen": 3064,
      "##quil": 3065,
      "##ode": 3066,
      "##odulat": 3067,
      "##rix": 3068,
      "##riat": 3069,
      "##riag": 3070,
      "alter": 3071,
      "alert": 3072,
      "alth": 3073,
      "align": 3074,
      "allow": 3075,
      "alge": 3076,
      "along": 3077,
      "alone": 3078,
      "alread": 3079,
      "aloud": 3080,
      "altern": 3081,
      "alik": 3082,
      "alive": 3083,
      "algor": 3084,
      "alias": 3085,
      "also": 3086,
      "alway": 3087,
      "alarm": 3088,
      "allocat": 3089,
      "any": 3090,
      "anim": 3091,
      "angl": 3092,
      "anew": 3093,
      "animat": 3094,
      "anonym": 3095,
      "ancient": 3096,
      "anxious": 3097,
      "anchor": 3098,
      "anomal": 3099,
      "chat": 3100,
      "chin": 3101,
      "chip": 3102,
      "chain": 3103,
      "chop": 3104,
      "chart": 3105,
      "chang": 3106,
      "chanc": 3107,
      "chron": 3108,
      "chall": 3109,
      "champ": 3110,
      "chapt": 3111,
      "chair": 3112,
      "chunk": 3113,
      "cheer": 3114,
      "cheat": 3115,
      "chose": 3116,
      "child": 3117,
      "choic": 3118,
      "chief": 3119,
      "chao": 3120,
      "choos": 3121,
      "channel": 3122,
      "chrom": 3123,
      "forc": 3124,
      "fork": 3125,
      "forum": 3126,
      "forest": 3127,
      "foray": 3128,
      "fores": 3129,
      "forth": 3130,
      "forge": 3131,
      "forget": 3132,
      "foreb": 3133,
      "forward": 3134,
      "forfeit": 3135,
      "forsw": 3136,
      "foretell": 3137,
      "preach": 3138,
      "premis": 3139,
      "prede": 3140,
      "preclud": 3141,
      "preced": 3142,
      "prefer": 3143,
      "precis": 3144,
      "predict": 3145,
      "prepar": 3146,
      "prepend": 3147,
      "precip": 3148,
      "predic": 3149,
      "prejud": 3150,
      "prelim": 3151,
      "premier": 3152,
      "precedent": 3153,
      "preambl": 3154,
      "sue": 3155,
      "suit": 3156,
      "sure": 3157,
      "such": 3158,
      "succ": 3159,
      "sugg": 3160,
      "sustain": 3161,
      "succe": 3162,
      "compat": 3163,
      "compan": 3164,
      "compar": 3165,
      "compil": 3166,
      "compel": 3167,
      "compos": 3168,
      "compens": 3169,
      "complic": 3170,
      "compact": 3171,
      "compound": 3172,
      "compass": 3173,
      "complex": 3174,
      "complet": 3175,
      "compres": 3176,
      "comply": 3177,
      "compris": 3178,
      "component": 3179,
      "comprehen": 3180,
      "compuls": 3181,
      "complac": 3182,
      "complement": 3183,
      "compliment": 3184,
      "compromis": 3185,
      "complai": 3186,
      "##rue": 3187,
      "##rust": 3188,
      "##ruit": 3189,
      "ada": 3190,
      "ador": 3191,
      "adher": 3192,
      "adapt": 3193,
      "adject": 3194,
      "admit": 3195,
      "admiss": 3196,
      "admin": 3197,
      "addit": 3198,
      "advers": 3199,
      "advert": 3200,
      "adept": 3201,
      "adware": 3202,
      "adorn": 3203,
      "adjoin": 3204,
      "adequ": 3205,
      "admir": 3206,
      "adopt": 3207,
      "##aporat": 3208,
      "##apsulat": 3209,
      "sci": 3210,
      "scan": 3211,
      "scar": 3212,
      "scor": 3213,
      "scap": 3214,
      "scop": 3215,
      "scrat": 3216,
      "scout": 3217,
      "scien": 3218,
      "scrib": 3219,
      "scram": 3220,
      "scold": 3221,
      "scrap": 3222,
      "scrum": 3223,
      "screw": 3224,
      "scream": 3225,
      "script": 3226,
      "scrab": 3227,
      "scroll": 3228,
      "scrup": 3229,
      "scatter": 3230,
      "screen": 3231,
      "sea": 3232,
      "see": 3233,
      "seo": 3234,
      "sex": 3235,
      "seat": 3236,
      "seen": 3237,
      "seal": 3238,
      "seam": 3239,
      "seem": 3240,
      "seed": 3241,
      "sees": 3242,
      "seiz": 3243,
      "seque": 3244,
      "seek": 3245,
      "separ": 3246,
      "seven": 3247,
      "search": 3248,
      "season": 3249,
      "session": 3250,
      "september": 3251,
      "##ingen": 3252,
      "##abol": 3253,
      "##abil": 3254,
      "##abet": 3255,
      "##abular": 3256,
      "##estic": 3257,
      "perl": 3258,
      "perus": 3259,
      "pertain": 3260,
      "permit": 3261,
      "percept": 3262,
      "permiss": 3263,
      "perceiv": 3264,
      "perspect": 3265,
      "perform": 3266,
      "perse": 3267,
      "person": 3268,
      "period": 3269,
      "perpend": 3270,
      "persist": 3271,
      "peripher": 3272,
      "percent": 3273,
      "perfect": 3274,
      "perplex": 3275,
      "pervad": 3276,
      "abat": 3277,
      "abid": 3278,
      "able": 3279,
      "abus": 3280,
      "absc": 3281,
      "aband": 3282,
      "abort": 3283,
      "abound": 3284,
      "abov": 3285,
      "about": 3286,
      "abhor": 3287,
      "abrupt": 3288,
      "absor": 3289,
      "abstain": 3290,
      "abrogat": 3291,
      "abundan": 3292,
      "abbre": 3293,
      "aberrant": 3294,
      "abstract": 3295,
      "abreast": 3296,
      "aboli": 3297,
      "ability": 3298,
      "abomina": 3299,
      "tranquil": 3300,
      "##scur": 3301,
      "##scrib": 3302,
      "acron": 3303,
      "accept": 3304,
      "access": 3305,
      "acced": 3306,
      "acute": 3307,
      "acoust": 3308,
      "academ": 3309,
      "impl": 3310,
      "impur": 3311,
      "impet": 3312,
      "impel": 3313,
      "imput": 3314,
      "impend": 3315,
      "imped": 3316,
      "impos": 3317,
      "impart": 3318,
      "impert": 3319,
      "impress": 3320,
      "impact": 3321,
      "impers": 3322,
      "impair": 3323,
      "impuls": 3324,
      "implant": 3325,
      "imposs": 3326,
      "improv": 3327,
      "implement": 3328,
      "impuden": 3329,
      "expir": 3330,
      "expend": 3331,
      "expect": 3332,
      "expos": 3333,
      "expens": 3334,
      "expand": 3335,
      "export": 3336,
      "expert": 3337,
      "explic": 3338,
      "express": 3339,
      "expound": 3340,
      "exponent": 3341,
      "expans": 3342,
      "explain": 3343,
      "##opl": 3344,
      "arm": 3345,
      "aris": 3346,
      "around": 3347,
      "arrow": 3348,
      "ardent": 3349,
      "arriv": 3350,
      "array": 3351,
      "arrang": 3352,
      "argu": 3353,
      "arithm": 3354,
      "arbit": 3355,
      "argument": 3356,
      "arrogan": 3357,
      "appl": 3358,
      "apple": 3359,
      "append": 3360,
      "appell": 3361,
      "applic": 3362,
      "appli": 3363,
      "approp": 3364,
      "appeal": 3365,
      "apposit": 3366,
      "appear": 3367,
      "applet": 3368,
      "apprec": 3369,
      "apprehen": 3370,
      "appeas": 3371,
      "appoint": 3372,
      "apprais": 3373,
      "apparent": 3374,
      "applaud": 3375,
      "##spond": 3376,
      "##ortun": 3377,
      "contr": 3378,
      "content": 3379,
      "contend": 3380,
      "contain": 3381,
      "contest": 3382,
      "contour": 3383,
      "contact": 3384,
      "contract": 3385,
      "contex": 3386,
      "contriv": 3387,
      "contrit": 3388,
      "contempt": 3389,
      "contigu": 3390,
      "contribut": 3391,
      "contrast": 3392,
      "continu": 3393,
      "contradict": 3394,
      "contingen": 3395,
      "##astat": 3396,
      "##ible": 3397,
      "##ibrat": 3398,
      "##iberat": 3399,
      "lean": 3400,
      "leas": 3401,
      "lead": 3402,
      "leap": 3403,
      "leav": 3404,
      "leak": 3405,
      "left": 3406,
      "level": 3407,
      "leverag": 3408,
      "leaf": 3409,
      "learn": 3410,
      "leverat": 3411,
      "unar": 3412,
      "unit": 3413,
      "union": 3414,
      "unix": 3415,
      "untain": 3416,
      "unity": 3417,
      "unve": 3418,
      "unique": 3419,
      "univers": 3420,
      "unfur": 3421,
      "until": 3422,
      "unleash": 3423,
      "refer": 3424,
      "refin": 3425,
      "refit": 3426,
      "refil": 3427,
      "refut": 3428,
      "refus": 3429,
      "refoc": 3430,
      "refill": 3431,
      "refact": 3432,
      "refract": 3433,
      "reflect": 3434,
      "refund": 3435,
      "refrain": 3436,
      "reflex": 3437,
      "refetch": 3438,
      "refurbish": 3439,
      "refresh": 3440,
      "##ogl": 3441,
      "##ogen": 3442,
      "##ogni": 3443,
      "##ognit": 3444,
      "beat": 3445,
      "been": 3446,
      "bear": 3447,
      "beam": 3448,
      "began": 3449,
      "begin": 3450,
      "beaut": 3451,
      "befor": 3452,
      "beside": 3453,
      "beyond": 3454,
      "fli": 3455,
      "fly": 3456,
      "flat": 3457,
      "flip": 3458,
      "fling": 3459,
      "flight": 3460,
      "flash": 3461,
      "flick": 3462,
      "flung": 3463,
      "flare": 3464,
      "flush": 3465,
      "fluff": 3466,
      "flirt": 3467,
      "flux": 3468,
      "flurr": 3469,
      "flask": 3470,
      "fluen": 3471,
      "fluct": 3472,
      "flutter": 3473,
      "flourish": 3474,
      "quer": 3475,
      "quit": 3476,
      "quot": 3477,
      "quir": 3478,
      "quad": 3479,
      "quiz": 3480,
      "quick": 3481,
      "quint": 3482,
      "queer": 3483,
      "queen": 3484,
      "queu": 3485,
      "quiet": 3486,
      "quatern": 3487,
      "quali": 3488,
      "##antic": 3489,
      "##antag": 3490,
      "##antiat": 3491,
      "entit": 3492,
      "entic": 3493,
      "entre": 3494,
      "entang": 3495,
      "entail": 3496,
      "entrain": 3497,
      "entrant": 3498,
      "entire": 3499,
      "entrap": 3500,
      "entitl": 3501,
      "entreat": 3502,
      "enthus": 3503,
      "entrance": 3504,
      "entrust": 3505,
      "##mber": 3506,
      "##mbol": 3507,
      "##ocat": 3508,
      "##ocent": 3509,
      "##ocol": 3510,
      "##ociat": 3511,
      "##ocation": 3512,
      "grab": 3513,
      "gram": 3514,
      "gray": 3515,
      "grace": 3516,
      "grasp": 3517,
      "gramm": 3518,
      "gradl": 3519,
      "gracious": 3520,
      "grappl": 3521,
      "new": 3522,
      "neat": 3523,
      "near": 3524,
      "neur": 3525,
      "ness": 3526,
      "neck": 3527,
      "need": 3528,
      "never": 3529,
      "negl": 3530,
      "necess": 3531,
      "neither": 3532,
      "neigh": 3533,
      "next": 3534,
      "neutral": 3535,
      "##ertur": 3536,
      "##ertain": 3537,
      "into": 3538,
      "inten": 3539,
      "intra": 3540,
      "intent": 3541,
      "intro": 3542,
      "intim": 3543,
      "intend": 3544,
      "intens": 3545,
      "intell": 3546,
      "intract": 3547,
      "integ": 3548,
      "intric": 3549,
      "intuit": 3550,
      "intrinsic": 3551,
      "##aci": 3552,
      "##acl": 3553,
      "##acen": 3554,
      "##acit": 3555,
      "##acious": 3556,
      "##uga": 3557,
      "hex": 3558,
      "hear": 3559,
      "heir": 3560,
      "heap": 3561,
      "heart": 3562,
      "height": 3563,
      "hesitat": 3564,
      "heuristic": 3565,
      "who": 3566,
      "why": 3567,
      "what": 3568,
      "when": 3569,
      "whim": 3570,
      "whip": 3571,
      "whop": 3572,
      "whither": 3573,
      "while": 3574,
      "whence": 3575,
      "white": 3576,
      "which": 3577,
      "whole": 3578,
      "whirl": 3579,
      "whisp": 3580,
      "whilst": 3581,
      "whelm": 3582,
      "##ellit": 3583,
      "##ellish": 3584,
      "##ultaneous": 3585,
      "##ache": 3586,
      "##clid": 3587,
      "##iatur": 3588,
      "aton": 3589,
      "atic": 3590,
      "ativ": 3591,
      "atom": 3592,
      "attain": 3593,
      "atlas": 3594,
      "atmo": 3595,
      "assent": 3596,
      "asset": 3597,
      "assid": 3598,
      "assum": 3599,
      "assist": 3600,
      "assort": 3601,
      "assert": 3602,
      "assail": 3603,
      "assess": 3604,
      "assign": 3605,
      "assault": 3606,
      "assuag": 3607,
      "assembl": 3608,
      "associat": 3609,
      "cold": 3610,
      "colon": 3611,
      "color": 3612,
      "colour": 3613,
      "collect": 3614,
      "collat": 3615,
      "column": 3616,
      "tea": 3617,
      "tear": 3618,
      "teas": 3619,
      "team": 3620,
      "teach": 3621,
      "tempt": 3622,
      "text": 3623,
      "tessell": 3624,
      "repla": 3625,
      "report": 3626,
      "replic": 3627,
      "repair": 3628,
      "repeat": 3629,
      "reposit": 3630,
      "replet": 3631,
      "repres": 3632,
      "reprehen": 3633,
      "replac": 3634,
      "reproach": 3635,
      "repetit": 3636,
      "##acter": 3637,
      "##izon": 3638,
      "##roneous": 3639,
      "##tho": 3640,
      "cli": 3641,
      "clon": 3642,
      "clip": 3643,
      "cling": 3644,
      "clue": 3645,
      "clust": 3646,
      "clash": 3647,
      "club": 3648,
      "client": 3649,
      "cloth": 3650,
      "cloud": 3651,
      "clutter": 3652,
      "climb": 3653,
      "obtain": 3654,
      "object": 3655,
      "obey": 3656,
      "obviat": 3657,
      "obfus": 3658,
      "obtrud": 3659,
      "obvious": 3660,
      "obedien": 3661,
      "obscur": 3662,
      "##eratur": 3663,
      "##indl": 3664,
      "recent": 3665,
      "recur": 3666,
      "recap": 3667,
      "record": 3668,
      "recover": 3669,
      "recurr": 3670,
      "recurs": 3671,
      "recaptur": 3672,
      "reconcil": 3673,
      "recommend": 3674,
      "recruit": 3675,
      "recogni": 3676,
      "deft": 3677,
      "defer": 3678,
      "defic": 3679,
      "defus": 3680,
      "defend": 3681,
      "defect": 3682,
      "defens": 3683,
      "defenc": 3684,
      "deform": 3685,
      "deflect": 3686,
      "deflat": 3687,
      "defeat": 3688,
      "default": 3689,
      "transit": 3690,
      "transist": 3691,
      "transact": 3692,
      "translat": 3693,
      "transmit": 3694,
      "transmiss": 3695,
      "transduc": 3696,
      "transient": 3697,
      "transceiv": 3698,
      "transform": 3699,
      "transfer": 3700,
      "transgress": 3701,
      "transduct": 3702,
      "transliterat": 3703,
      "##ustrat": 3704,
      "ago": 3705,
      "agent": 3706,
      "agil": 3707,
      "agenc": 3708,
      "aggl": 3709,
      "agree": 3710,
      "aggra": 3711,
      "aggress": 3712,
      "agitat": 3713,
      "aggregat": 3714,
      "aghast": 3715,
      "agenda": 3716,
      "crm": 3717,
      "cris": 3718,
      "crim": 3719,
      "crush": 3720,
      "crumbl": 3721,
      "crunch": 3722,
      "crude": 3723,
      "trac": 3724,
      "trad": 3725,
      "trap": 3726,
      "train": 3727,
      "trait": 3728,
      "tract": 3729,
      "trail": 3730,
      "track": 3731,
      "traff": 3732,
      "traject": 3733,
      "trash": 3734,
      "tradit": 3735,
      "travers": 3736,
      "travel": 3737,
      "##allel": 3738,
      "intern": 3739,
      "interest": 3740,
      "interact": 3741,
      "intercept": 3742,
      "intermiss": 3743,
      "interrupt": 3744,
      "interfer": 3745,
      "interfac": 3746,
      "internet": 3747,
      "interven": 3748,
      "interval": 3749,
      "confin": 3750,
      "confid": 3751,
      "config": 3752,
      "confus": 3753,
      "confes": 3754,
      "conform": 3755,
      "confound": 3756,
      "conflat": 3757,
      "conflict": 3758,
      "confirm": 3759,
      "confront": 3760,
      "confluen": 3761,
      "pric": 3762,
      "prun": 3763,
      "print": 3764,
      "pride": 3765,
      "privat": 3766,
      "princ": 3767,
      "proud": 3768,
      "primit": 3769,
      "privil": 3770,
      "pruden": 3771,
      "preneur": 3772,
      "swin": 3773,
      "swip": 3774,
      "swap": 3775,
      "swish": 3776,
      "swell": 3777,
      "sway": 3778,
      "swung": 3779,
      "swift": 3780,
      "swear": 3781,
      "sweet": 3782,
      "switch": 3783,
      "sweep": 3784,
      "swoop": 3785,
      "sys": 3786,
      "symmetr": 3787,
      "sylla": 3788,
      "system": 3789,
      "sympath": 3790,
      "symbol": 3791,
      "try": 3792,
      "trim": 3793,
      "trend": 3794,
      "trick": 3795,
      "trunk": 3796,
      "troubl": 3797,
      "trivial": 3798,
      "trigger": 3799,
      "truth": 3800,
      "trifl": 3801,
      "tripl": 3802,
      "##inate": 3803,
      "deput": 3804,
      "depend": 3805,
      "depart": 3806,
      "depress": 3807,
      "depict": 3808,
      "depriv": 3809,
      "deposit": 3810,
      "deplet": 3811,
      "deploy": 3812,
      "department": 3813,
      "deprecat": 3814,
      "comma": 3815,
      "common": 3816,
      "commit": 3817,
      "comment": 3818,
      "commut": 3819,
      "commend": 3820,
      "command": 3821,
      "commenc": 3822,
      "commerc": 3823,
      "discard": 3824,
      "discord": 3825,
      "discret": 3826,
      "discern": 3827,
      "discount": 3828,
      "discover": 3829,
      "discuss": 3830,
      "discreet": 3831,
      "discrep": 3832,
      "discourag": 3833,
      "disciplin": 3834,
      "##ecial": 3835,
      "##ecutiv": 3836,
      "##eez": 3837,
      "event": 3838,
      "evas": 3839,
      "evad": 3840,
      "evok": 3841,
      "evict": 3842,
      "evolv": 3843,
      "evolut": 3844,
      "eviden": 3845,
      "evaluat": 3846,
      "evaporat": 3847,
      "plot": 3848,
      "plus": 3849,
      "plug": 3850,
      "plung": 3851,
      "plane": 3852,
      "platform": 3853,
      "plural": 3854,
      "para": 3855,
      "park": 3856,
      "pars": 3857,
      "parent": 3858,
      "param": 3859,
      "parallax": 3860,
      "paragraph": 3861,
      "parabol": 3862,
      "parallel": 3863,
      "sly": 3864,
      "slid": 3865,
      "slot": 3866,
      "slim": 3867,
      "slip": 3868,
      "sling": 3869,
      "slang": 3870,
      "slight": 3871,
      "slash": 3872,
      "slung": 3873,
      "slugg": 3874,
      "slumber": 3875,
      "two": 3876,
      "twin": 3877,
      "twent": 3878,
      "twist": 3879,
      "twink": 3880,
      "tweet": 3881,
      "tweak": 3882,
      "twitch": 3883,
      "twitter": 3884,
      "twice": 3885,
      "twelve": 3886,
      "twiddl": 3887,
      "##ersand": 3888,
      "reset": 3889,
      "resid": 3890,
      "resum": 3891,
      "resist": 3892,
      "result": 3893,
      "reserv": 3894,
      "resolv": 3895,
      "resolut": 3896,
      "resonat": 3897,
      "resident": 3898,
      "resurrect": 3899,
      "resilien": 3900,
      "instat": 3901,
      "instant": 3902,
      "instanc": 3903,
      "install": 3904,
      "instruct": 3905,
      "instrum": 3906,
      "instinct": 3907,
      "instigat": 3908,
      "instead": 3909,
      "institut": 3910,
      "instabil": 3911,
      "subject": 3912,
      "submit": 3913,
      "submiss": 3914,
      "subtl": 3915,
      "subsist": 3916,
      "subsid": 3917,
      "subtract": 3918,
      "subscrib": 3919,
      "accent": 3920,
      "accur": 3921,
      "accus": 3922,
      "accord": 3923,
      "account": 3924,
      "accident": 3925,
      "accelerat": 3926,
      "accumulat": 3927,
      "accompl": 3928,
      "acclaim": 3929,
      "accommod": 3930,
      "accrue": 3931,
      "amo": 3932,
      "amid": 3933,
      "amus": 3934,
      "amend": 3935,
      "amass": 3936,
      "among": 3937,
      "amount": 3938,
      "amiabl": 3939,
      "core": 3940,
      "corout": 3941,
      "corner": 3942,
      "corrupt": 3943,
      "coroll": 3944,
      "corroborat": 3945,
      "surf": 3946,
      "surg": 3947,
      "surmis": 3948,
      "surfac": 3949,
      "surpris": 3950,
      "surrogat": 3951,
      "surpass": 3952,
      "revis": 3953,
      "revel": 3954,
      "reviv": 3955,
      "revok": 3956,
      "revamp": 3957,
      "reveal": 3958,
      "revolv": 3959,
      "revolut": 3960,
      "revisit": 3961,
      "revenue": 3962,
      "revolt": 3963,
      "indic": 3964,
      "indent": 3965,
      "indign": 3966,
      "index": 3967,
      "indicat": 3968,
      "indeb": 3969,
      "indolen": 3970,
      "indeed": 3971,
      "indelibl": 3972,
      "indulg": 3973,
      "individual": 3974,
      "info": 3975,
      "infer": 3976,
      "infra": 3977,
      "infus": 3978,
      "infect": 3979,
      "inform": 3980,
      "inflect": 3981,
      "inflat": 3982,
      "inflict": 3983,
      "infring": 3984,
      "inforc": 3985,
      "decen": 3986,
      "decid": 3987,
      "decad": 3988,
      "decay": 3989,
      "decorat": 3990,
      "decelerat": 3991,
      "decisi": 3992,
      "decentraliz": 3993,
      "decimal": 3994,
      "##latform": 3995,
      "##ubat": 3996,
      "##ype": 3997,
      "##yph": 3998,
      "ask": 3999,
      "asm": 4000,
      "asap": 4001,
      "aside": 4002,
      "asunder": 4003,
      "asham": 4004,
      "box": 4005,
      "boy": 4006,
      "bool": 4007,
      "boil": 4008,
      "boss": 4009,
      "boot": 4010,
      "boast": 4011,
      "board": 4012,
      "book": 4013,
      "boost": 4014,
      "few": 4015,
      "fear": 4016,
      "feet": 4017,
      "feel": 4018,
      "feed": 4019,
      "fees": 4020,
      "feign": 4021,
      "featur": 4022,
      "febru": 4023,
      "feasib": 4024,
      "php": 4025,
      "phish": 4026,
      "phone": 4027,
      "physic": 4028,
      "phenom": 4029,
      "phonet": 4030,
      "phras": 4031,
      "philos": 4032,
      "phase": 4033,
      "photo": 4034,
      "poor": 4035,
      "pool": 4036,
      "poem": 4037,
      "poach": 4038,
      "point": 4039,
      "vary": 4040,
      "variat": 4041,
      "various": 4042,
      "varie": 4043,
      "inso": 4044,
      "insan": 4045,
      "insur": 4046,
      "insist": 4047,
      "insert": 4048,
      "insight": 4049,
      "insult": 4050,
      "insuff": 4051,
      "insolen": 4052,
      "insinuat": 4053,
      "##rage": 4054,
      "devic": 4055,
      "devis": 4056,
      "devot": 4057,
      "deviat": 4058,
      "devolv": 4059,
      "devoid": 4060,
      "develop": 4061,
      "devalu": 4062,
      "devastat": 4063,
      "concis": 4064,
      "concav": 4065,
      "concert": 4066,
      "concord": 4067,
      "concret": 4068,
      "concern": 4069,
      "concurr": 4070,
      "conciliat": 4071,
      "concaten": 4072,
      "concentrat": 4073,
      "convent": 4074,
      "convol": 4075,
      "conviv": 4076,
      "convict": 4077,
      "convex": 4078,
      "convey": 4079,
      "convinc": 4080,
      "exten": 4081,
      "extract": 4082,
      "extrap": 4083,
      "extenuat": 4084,
      "extrem": 4085,
      "extinguish": 4086,
      "extrinsic": 4087,
      "extricat": 4088,
      "affin": 4089,
      "affect": 4090,
      "affab": 4091,
      "affix": 4092,
      "affair": 4093,
      "afford": 4094,
      "afflict": 4095,
      "affiliat": 4096,
      "affirm": 4097,
      "curl": 4098,
      "curv": 4099,
      "curat": 4100,
      "curio": 4101,
      "cursor": 4102,
      "current": 4103,
      "currenc": 4104,
      "curtail": 4105,
      "distan": 4106,
      "distort": 4107,
      "distill": 4108,
      "distress": 4109,
      "distract": 4110,
      "disturb": 4111,
      "distinct": 4112,
      "distribut": 4113,
      "distinguish": 4114,
      "elud": 4115,
      "elde": 4116,
      "else": 4117,
      "eluc": 4118,
      "elusiv": 4119,
      "ellip": 4120,
      "elongat": 4121,
      "eligib": 4122,
      "eliminat": 4123,
      "math": 4124,
      "matur": 4125,
      "match": 4126,
      "matter": 4127,
      "matric": 4128,
      "matrim": 4129,
      "material": 4130,
      "matrix": 4131,
      "modal": 4132,
      "model": 4133,
      "modul": 4134,
      "modif": 4135,
      "modem": 4136,
      "modest": 4137,
      "moderat": 4138,
      "modern": 4139,
      "order": 4140,
      "ornament": 4141,
      "origin": 4142,
      "ortho": 4143,
      "said": 4144,
      "saas": 4145,
      "sauc": 4146,
      "saunter": 4147,
      "sold": 4148,
      "solv": 4149,
      "solid": 4150,
      "solace": 4151,
      "solemn": 4152,
      "solitar": 4153,
      "solicit": 4154,
      "solely": 4155,
      "solution": 4156,
      "##inkl": 4157,
      "region": 4158,
      "regain": 4159,
      "regist": 4160,
      "regress": 4161,
      "regulat": 4162,
      "regular": 4163,
      "regret": 4164,
      "incit": 4165,
      "incent": 4166,
      "incur": 4167,
      "incident": 4168,
      "incognit": 4169,
      "incubat": 4170,
      "invit": 4171,
      "invent": 4172,
      "invad": 4173,
      "invok": 4174,
      "involv": 4175,
      "invigorat": 4176,
      "invocat": 4177,
      "consent": 4178,
      "consol": 4179,
      "consum": 4180,
      "consist": 4181,
      "consult": 4182,
      "conserv": 4183,
      "consonan": 4184,
      "consider": 4185,
      "consecutiv": 4186,
      "attent": 4187,
      "attend": 4188,
      "attach": 4189,
      "attack": 4190,
      "attract": 4191,
      "attrit": 4192,
      "attempt": 4193,
      "attribut": 4194,
      "attenuat": 4195,
      "##ablish": 4196,
      "##phi": 4197,
      "api": 4198,
      "apart": 4199,
      "apost": 4200,
      "apolog": 4201,
      "apartment": 4202,
      "april": 4203,
      "apertur": 4204,
      "apache": 4205,
      "awe": 4206,
      "awk": 4207,
      "aws": 4208,
      "awak": 4209,
      "award": 4210,
      "away": 4211,
      "aware": 4212,
      "awful": 4213,
      "blur": 4214,
      "blend": 4215,
      "blind": 4216,
      "blue": 4217,
      "blund": 4218,
      "blink": 4219,
      "blunt": 4220,
      "blank": 4221,
      "ember": 4222,
      "embed": 4223,
      "embod": 4224,
      "embrac": 4225,
      "emblem": 4226,
      "embellish": 4227,
      "grid": 4228,
      "grip": 4229,
      "grind": 4230,
      "ground": 4231,
      "grunt": 4232,
      "grpc": 4233,
      "group": 4234,
      "grudg": 4235,
      "geni": 4236,
      "genet": 4237,
      "generat": 4238,
      "general": 4239,
      "genuin": 4240,
      "mono": 4241,
      "month": 4242,
      "money": 4243,
      "mongo": 4244,
      "monitor": 4245,
      "monolith": 4246,
      "monoton": 4247,
      "many": 4248,
      "manag": 4249,
      "manual": 4250,
      "maneu": 4251,
      "manufact": 4252,
      "manifest": 4253,
      "manipul": 4254,
      "marr": 4255,
      "march": 4256,
      "marsh": 4257,
      "marriag": 4258,
      "sky": 4259,
      "skip": 4260,
      "skill": 4261,
      "skew": 4262,
      "skept": 4263,
      "sketch": 4264,
      "skeleton": 4265,
      "skype": 4266,
      "smil": 4267,
      "smart": 4268,
      "smell": 4269,
      "smok": 4270,
      "small": 4271,
      "smash": 4272,
      "smack": 4273,
      "smooth": 4274,
      "soon": 4275,
      "soar": 4276,
      "soap": 4277,
      "sober": 4278,
      "sooth": 4279,
      "tera": 4280,
      "term": 4281,
      "terrain": 4282,
      "terminat": 4283,
      "terribl": 4284,
      "terrif": 4285,
      "wear": 4286,
      "weak": 4287,
      "weight": 4288,
      "weigh": 4289,
      "weird": 4290,
      "remot": 4291,
      "remed": 4292,
      "remain": 4293,
      "remind": 4294,
      "remov": 4295,
      "remonstra": 4296,
      "restat": 4297,
      "restor": 4298,
      "restart": 4299,
      "restrain": 4300,
      "restruct": 4301,
      "restaur": 4302,
      "restrict": 4303,
      "stren": 4304,
      "strid": 4305,
      "striv": 4306,
      "strip": 4307,
      "string": 4308,
      "strick": 4309,
      "strict": 4310,
      "strength": 4311,
      "##untu": 4312,
      "##geous": 4313,
      "divis": 4314,
      "divid": 4315,
      "divert": 4316,
      "diverg": 4317,
      "errant": 4318,
      "error": 4319,
      "errand": 4320,
      "ergonom": 4321,
      "erlang": 4322,
      "erroneous": 4323,
      "late": 4324,
      "laten": 4325,
      "latin": 4326,
      "latch": 4327,
      "latter": 4328,
      "lateral": 4329,
      "latitud": 4330,
      "mean": 4331,
      "meal": 4332,
      "meet": 4333,
      "mega": 4334,
      "measur": 4335,
      "meta": 4336,
      "metr": 4337,
      "meter": 4338,
      "metal": 4339,
      "metaphor": 4340,
      "method": 4341,
      "ops": 4342,
      "oper": 4343,
      "open": 4344,
      "operat": 4345,
      "opaque": 4346,
      "opinion": 4347,
      "opaci": 4348,
      "optic": 4349,
      "option": 4350,
      "offer": 4351,
      "offic": 4352,
      "offend": 4353,
      "offens": 4354,
      "offenc": 4355,
      "offset": 4356,
      "path": 4357,
      "patent": 4358,
      "patch": 4359,
      "patien": 4360,
      "pattern": 4361,
      "root": 4362,
      "road": 4363,
      "room": 4364,
      "roam": 4365,
      "roast": 4366,
      "robo": 4367,
      "robust": 4368,
      "usb": 4369,
      "use": 4370,
      "user": 4371,
      "usag": 4372,
      "usab": 4373,
      "usual": 4374,
      "valu": 4375,
      "valen": 4376,
      "valent": 4377,
      "valid": 4378,
      "valenc": 4379,
      "valley": 4380,
      "##inear": 4381,
      "##orator": 4382,
      "##mptot": 4383,
      "delv": 4384,
      "delet": 4385,
      "delight": 4386,
      "delta": 4387,
      "deliver": 4388,
      "deliberat": 4389,
      "delphi": 4390,
      "congest": 4391,
      "congress": 4392,
      "congregat": 4393,
      "speci": 4394,
      "speculat": 4395,
      "sync": 4396,
      "synonym": 4397,
      "##umph": 4398,
      "activ": 4399,
      "action": 4400,
      "actual": 4401,
      "actuat": 4402,
      "activat": 4403,
      "auto": 4404,
      "author": 4405,
      "autonom": 4406,
      "autumn": 4407,
      "bring": 4408,
      "bright": 4409,
      "brush": 4410,
      "brought": 4411,
      "brisk": 4412,
      "bridg": 4413,
      "crav": 4414,
      "cramp": 4415,
      "crack": 4416,
      "craft": 4417,
      "crash": 4418,
      "crawl": 4419,
      "diffus": 4420,
      "diffiden": 4421,
      "difficult": 4422,
      "equi": 4423,
      "equat": 4424,
      "equit": 4425,
      "equal": 4426,
      "equip": 4427,
      "equaliz": 4428,
      "glar": 4429,
      "glor": 4430,
      "glanc": 4431,
      "glue": 4432,
      "glitch": 4433,
      "glyph": 4434,
      "gui": 4435,
      "guid": 4436,
      "guest": 4437,
      "guard": 4438,
      "guilt": 4439,
      "guarant": 4440,
      "load": 4441,
      "loom": 4442,
      "loop": 4443,
      "look": 4444,
      "loose": 4445,
      "loyal": 4446,
      "logit": 4447,
      "logistic": 4448,
      "logarithm": 4449,
      "mini": 4450,
      "minor": 4451,
      "minus": 4452,
      "minif": 4453,
      "minute": 4454,
      "miniatur": 4455,
      "mutat": 4456,
      "mutter": 4457,
      "mutab": 4458,
      "mutual": 4459,
      "mutex": 4460,
      "multi": 4461,
      "plac": 4462,
      "play": 4463,
      "plain": 4464,
      "plast": 4465,
      "plagu": 4466,
      "plausib": 4467,
      "snip": 4468,
      "snap": 4469,
      "snow": 4470,
      "sniff": 4471,
      "sneer": 4472,
      "sneak": 4473,
      "semi": 4474,
      "sembl": 4475,
      "seminat": 4476,
      "seminar": 4477,
      "semaphor": 4478,
      "semantic": 4479,
      "tree": 4480,
      "treat": 4481,
      "tread": 4482,
      "tremend": 4483,
      "treasur": 4484,
      "trembl": 4485,
      "veri": 4486,
      "very": 4487,
      "verif": 4488,
      "verity": 4489,
      "rely": 4490,
      "relent": 4491,
      "relish": 4492,
      "reliev": 4493,
      "reluct": 4494,
      "relinqu": 4495,
      "retent": 4496,
      "retro": 4497,
      "retir": 4498,
      "retail": 4499,
      "return": 4500,
      "retriev": 4501,
      "ingen": 4502,
      "ingest": 4503,
      "ingrat": 4504,
      "ingress": 4505,
      "ingrain": 4506,
      "demo": 4507,
      "demot": 4508,
      "demand": 4509,
      "demonstra": 4510,
      "demolish": 4511,
      "demodulat": 4512,
      "proto": 4513,
      "protect": 4514,
      "protest": 4515,
      "protrud": 4516,
      "prototyp": 4517,
      "protocol": 4518,
      "annual": 4519,
      "anneal": 4520,
      "annivers": 4521,
      "annotat": 4522,
      "announc": 4523,
      "annoy": 4524,
      "variab": 4525,
      "variant": 4526,
      "varianc": 4527,
      "variabl": 4528,
      "##egor": 4529,
      "##eath": 4530,
      "ascent": 4531,
      "ascend": 4532,
      "ascrib": 4533,
      "ascii": 4534,
      "ascertain": 4535,
      "blob": 4536,
      "blog": 4537,
      "bloom": 4538,
      "block": 4539,
      "blossom": 4540,
      "couch": 4541,
      "couth": 4542,
      "courag": 4543,
      "could": 4544,
      "coupl": 4545,
      "circl": 4546,
      "clamp": 4547,
      "claim": 4548,
      "clause": 4549,
      "capab": 4550,
      "capital": 4551,
      "capacit": 4552,
      "captur": 4553,
      "caption": 4554,
      "captivat": 4555,
      "captcha": 4556,
      "doat": 4557,
      "door": 4558,
      "doom": 4559,
      "doctrin": 4560,
      "domain": 4561,
      "dominat": 4562,
      "dominan": 4563,
      "domestic": 4564,
      "electron": 4565,
      "finit": 4566,
      "final": 4567,
      "finish": 4568,
      "financ": 4569,
      "float": 4570,
      "floor": 4571,
      "flock": 4572,
      "flopp": 4573,
      "flood": 4574,
      "grep": 4575,
      "grew": 4576,
      "great": 4577,
      "greet": 4578,
      "greed": 4579,
      "immut": 4580,
      "immens": 4581,
      "immers": 4582,
      "imminent": 4583,
      "immediat": 4584,
      "job": 4585,
      "joy": 4586,
      "join": 4587,
      "joic": 4588,
      "joomla": 4589,
      "knack": 4590,
      "knock": 4591,
      "knew": 4592,
      "more": 4593,
      "moral": 4594,
      "morrow": 4595,
      "morph": 4596,
      "morning": 4597,
      "miser": 4598,
      "miscell": 4599,
      "motor": 4600,
      "motiv": 4601,
      "motion": 4602,
      "mother": 4603,
      "motivat": 4604,
      "mainfram": 4605,
      "mainten": 4606,
      "notat": 4607,
      "notic": 4608,
      "notif": 4609,
      "notorious": 4610,
      "oppos": 4611,
      "oppress": 4612,
      "opponent": 4613,
      "opposs": 4614,
      "opportun": 4615,
      "poll": 4616,
      "poly": 4617,
      "polar": 4618,
      "polit": 4619,
      "polic": 4620,
      "slew": 4621,
      "sleet": 4622,
      "slept": 4623,
      "sleep": 4624,
      "sleek": 4625,
      "slam": 4626,
      "slav": 4627,
      "slay": 4628,
      "summit": 4629,
      "summa": 4630,
      "too": 4631,
      "tool": 4632,
      "took": 4633,
      "tooth": 4634,
      "visit": 4635,
      "vision": 4636,
      "visib": 4637,
      "visual": 4638,
      "volt": 4639,
      "volum": 4640,
      "volub": 4641,
      "volunt": 4642,
      "volatil": 4643,
      "warm": 4644,
      "warn": 4645,
      "warp": 4646,
      "warrant": 4647,
      "desk": 4648,
      "desir": 4649,
      "desert": 4650,
      "design": 4651,
      "deserv": 4652,
      "##ologic": 4653,
      "their": 4654,
      "theft": 4655,
      "spoon": 4656,
      "spool": 4657,
      "spoof": 4658,
      "profit": 4659,
      "profic": 4660,
      "profil": 4661,
      "provis": 4662,
      "provid": 4663,
      "provok": 4664,
      "provocation": 4665,
      "disput": 4666,
      "dispos": 4667,
      "dispens": 4668,
      "dispers": 4669,
      "display": 4670,
      "ally": 4671,
      "allot": 4672,
      "allus": 4673,
      "allud": 4674,
      "charg": 4675,
      "charm": 4676,
      "charit": 4677,
      "character": 4678,
      "format": 4679,
      "formul": 4680,
      "formulat": 4681,
      "formaliz": 4682,
      "suppl": 4683,
      "supper": 4684,
      "suppos": 4685,
      "support": 4686,
      "suppress": 4687,
      "advic": 4688,
      "advis": 4689,
      "advanc": 4690,
      "adventur": 4691,
      "advantag": 4692,
      "transpil": 4693,
      "transpos": 4694,
      "transport": 4695,
      "transplant": 4696,
      "transparen": 4697,
      "acquit": 4698,
      "acquir": 4699,
      "acquisit": 4700,
      "acquaint": 4701,
      "acquies": 4702,
      "arti": 4703,
      "artist": 4704,
      "articl": 4705,
      "articulat": 4706,
      "legal": 4707,
      "legend": 4708,
      "legib": 4709,
      "legac": 4710,
      "legitim": 4711,
      "collis": 4712,
      "collid": 4713,
      "collud": 4714,
      "collung": 4715,
      "collinear": 4716,
      "temper": 4717,
      "tempor": 4718,
      "templat": 4719,
      "temperatur": 4720,
      "multipl": 4721,
      "multiple": 4722,
      "multiplex": 4723,
      "multiplay": 4724,
      "multiplatform": 4725,
      "##ework": 4726,
      "ambi": 4727,
      "ambit": 4728,
      "ambient": 4729,
      "ambigu": 4730,
      "buf": 4731,
      "buy": 4732,
      "buil": 4733,
      "buch": 4734,
      "batch": 4735,
      "batter": 4736,
      "battle": 4737,
      "bench": 4738,
      "beneath": 4739,
      "break": 4740,
      "breach": 4741,
      "breath": 4742,
      "brevity": 4743,
      "brac": 4744,
      "brak": 4745,
      "brack": 4746,
      "brave": 4747,
      "broad": 4748,
      "broach": 4749,
      "brother": 4750,
      "broke": 4751,
      "base": 4752,
      "basic": 4753,
      "basis": 4754,
      "bother": 4755,
      "bottle": 4756,
      "bottom": 4757,
      "calm": 4758,
      "calcul": 4759,
      "calendar": 4760,
      "calibrat": 4761,
      "creat": 4762,
      "credit": 4763,
      "creden": 4764,
      "credib": 4765,
      "clog": 4766,
      "clos": 4767,
      "clock": 4768,
      "clobber": 4769,
      "dry": 4770,
      "drill": 4771,
      "drink": 4772,
      "drunk": 4773,
      "epic": 4774,
      "epoch": 4775,
      "episod": 4776,
      "epilog": 4777,
      "earl": 4778,
      "estate": 4779,
      "esteem": 4780,
      "estima": 4781,
      "establish": 4782,
      "empir": 4783,
      "employ": 4784,
      "effect": 4785,
      "effort": 4786,
      "fox": 4787,
      "fool": 4788,
      "foot": 4789,
      "fopp": 4790,
      "fatal": 4791,
      "fatig": 4792,
      "father": 4793,
      "fled": 4794,
      "flee": 4795,
      "flew": 4796,
      "fleet": 4797,
      "flag": 4798,
      "flam": 4799,
      "flav": 4800,
      "flaw": 4801,
      "fruit": 4802,
      "frugal": 4803,
      "grate": 4804,
      "haul": 4805,
      "haunt": 4806,
      "harsh": 4807,
      "harness": 4808,
      "illus": 4809,
      "illuminat": 4810,
      "illustrat": 4811,
      "labo": 4812,
      "label": 4813,
      "laborator": 4814,
      "libr": 4815,
      "libert": 4816,
      "liberal": 4817,
      "merg": 4818,
      "merit": 4819,
      "merchan": 4820,
      "mercant": 4821,
      "medic": 4822,
      "media": 4823,
      "meddl": 4824,
      "meditat": 4825,
      "nois": 4826,
      "nomi": 4827,
      "nominat": 4828,
      "nominal": 4829,
      "one": 4830,
      "once": 4831,
      "only": 4832,
      "outer": 4833,
      "outlast": 4834,
      "outage": 4835,
      "outrage": 4836,
      "puzz": 4837,
      "pursu": 4838,
      "purpos": 4839,
      "purchas": 4840,
      "particl": 4841,
      "particul": 4842,
      "particip": 4843,
      "simplic": 4844,
      "svd": 4845,
      "svg": 4846,
      "svm": 4847,
      "svn": 4848,
      "server": 4849,
      "serial": 4850,
      "serious": 4851,
      "series": 4852,
      "silen": 4853,
      "silver": 4854,
      "silhou": 4855,
      "silicon": 4856,
      "schem": 4857,
      "school": 4858,
      "scholar": 4859,
      "schedul": 4860,
      "singl": 4861,
      "singular": 4862,
      "sensor": 4863,
      "sensation": 4864,
      "sensitiv": 4865,
      "signal": 4866,
      "signif": 4867,
      "signatur": 4868,
      "trial": 4869,
      "triumph": 4870,
      "type": 4871,
      "typo": 4872,
      "typic": 4873,
      "upon": 4874,
      "upbra": 4875,
      "upgrad": 4876,
      "updat": 4877,
      "urg": 4878,
      "urban": 4879,
      "utf": 4880,
      "util": 4881,
      "utter": 4882,
      "utmost": 4883,
      "versa": 4884,
      "versus": 4885,
      "version": 4886,
      "work": 4887,
      "worr": 4888,
      "world": 4889,
      "requi": 4890,
      "requir": 4891,
      "request": 4892,
      "requisit": 4893,
      "inno": 4894,
      "innate": 4895,
      "innovat": 4896,
      "innocent": 4897,
      "detect": 4898,
      "detach": 4899,
      "detail": 4900,
      "detract": 4901,
      "descen": 4902,
      "descri": 4903,
      "describ": 4904,
      "descript": 4905,
      "constit": 4906,
      "constrain": 4907,
      "construct": 4908,
      "static": 4909,
      "status": 4910,
      "statistic": 4911,
      "standard": 4912,
      "standby": 4913,
      "come": 4914,
      "coming": 4915,
      "envi": 4916,
      "envelop": 4917,
      "envision": 4918,
      "environ": 4919,
      "proper": 4920,
      "propos": 4921,
      "propriet": 4922,
      "propagat": 4923,
      "analog": 4924,
      "forgo": 4925,
      "forgiv": 4926,
      "forgot": 4927,
      "forgav": 4928,
      "prett": 4929,
      "pretend": 4930,
      "pretens": 4931,
      "pretenc": 4932,
      "address": 4933,
      "addict": 4934,
      "addendum": 4935,
      "transcend": 4936,
      "transcrib": 4937,
      "transcript": 4938,
      "transclud": 4939,
      "approb": 4940,
      "approv": 4941,
      "approach": 4942,
      "approximat": 4943,
      "underwent": 4944,
      "behind": 4945,
      "crystal": 4946,
      "optimal": 4947,
      "optimis": 4948,
      "optimiz": 4949,
      "circum": 4950,
      "circulat": 4951,
      "circular": 4952,
      "circuit": 4953,
      "suspic": 4954,
      "suspend": 4955,
      "suspect": 4956,
      "suspens": 4957,
      "##ause": 4958,
      "##ebrat": 4959,
      "##iquit": 4960,
      "##iquity": 4961,
      "axis": 4962,
      "axes": 4963,
      "axiom": 4964,
      "astound": 4965,
      "astray": 4966,
      "astonish": 4967,
      "amper": 4968,
      "amplic": 4969,
      "ampersand": 4970,
      "audi": 4971,
      "audit": 4972,
      "audio": 4973,
      "asper": 4974,
      "aspir": 4975,
      "amplif": 4976,
      "amplitud": 4977,
      "bye": 4978,
      "byte": 4979,
      "born": 4980,
      "borrow": 4981,
      "border": 4982,
      "burn": 4983,
      "burst": 4984,
      "beta": 4985,
      "betray": 4986,
      "between": 4987,
      "belong": 4988,
      "believ": 4989,
      "belief": 4990,
      "blew": 4991,
      "bless": 4992,
      "bleak": 4993,
      "cmd": 4994,
      "cms": 4995,
      "cmos": 4996,
      "catch": 4997,
      "catalog": 4998,
      "categor": 4999,
      "canvas": 5000,
      "canonic": 5001,
      "carr": 5002,
      "carv": 5003,
      "clean": 5004,
      "clear": 5005,
      "clever": 5006,
      "case": 5007,
      "cascad": 5008,
      "campus": 5009,
      "campaign": 5010,
      "data": 5011,
      "date": 5012,
      "dark": 5013,
      "darl": 5014,
      "draw": 5015,
      "draft": 5016,
      "drastic": 5017,
      "duration": 5018,
      "dilat": 5019,
      "dilut": 5020,
      "diligen": 5021,
      "dangl": 5022,
      "danger": 5023,
      "dialect": 5024,
      "dialog": 5025,
      "ecolog": 5026,
      "ecma": 5027,
      "econom": 5028,
      "emulat": 5029,
      "emerg": 5030,
      "emotion": 5031,
      "element": 5032,
      "elegan": 5033,
      "elevat": 5034,
      "elaps": 5035,
      "elaborat": 5036,
      "elastic": 5037,
      "escap": 5038,
      "escort": 5039,
      "escalat": 5040,
      "felt": 5041,
      "felic": 5042,
      "fellow": 5043,
      "func": 5044,
      "funnel": 5045,
      "firm": 5046,
      "first": 5047,
      "famil": 5048,
      "famous": 5049,
      "familiar": 5050,
      "fasten": 5051,
      "fastidious": 5052,
      "funder": 5053,
      "fundament": 5054,
      "fragil": 5055,
      "fragran": 5056,
      "fragment": 5057,
      "goal": 5058,
      "googl": 5059,
      "gross": 5060,
      "groom": 5061,
      "groov": 5062,
      "gether": 5063,
      "giga": 5064,
      "gigant": 5065,
      "gamif": 5066,
      "gambl": 5067,
      "glob": 5068,
      "gloss": 5069,
      "gloom": 5070,
      "horror": 5071,
      "horribl": 5072,
      "horizon": 5073,
      "holi": 5074,
      "holo": 5075,
      "holistic": 5076,
      "home": 5077,
      "homo": 5078,
      "homogen": 5079,
      "hype": 5080,
      "hyper": 5081,
      "hypoth": 5082,
      "isolat": 5083,
      "ity": 5084,
      "item": 5085,
      "june": 5086,
      "junct": 5087,
      "junior": 5088,
      "justic": 5089,
      "justif": 5090,
      "liter": 5091,
      "littl": 5092,
      "litera": 5093,
      "layer": 5094,
      "layout": 5095,
      "moon": 5096,
      "moor": 5097,
      "mobil": 5098,
      "mentor": 5099,
      "mention": 5100,
      "memor": 5101,
      "member": 5102,
      "magnet": 5103,
      "magnif": 5104,
      "magnitud": 5105,
      "noname": 5106,
      "nonsens": 5107,
      "novic": 5108,
      "novel": 5109,
      "november": 5110,
      "oblig": 5111,
      "obliterat": 5112,
      "obliquity": 5113,
      "overrid": 5114,
      "overlap": 5115,
      "occur": 5116,
      "occup": 5117,
      "occasion": 5118,
      "penal": 5119,
      "penetrat": 5120,
      "pleas": 5121,
      "plead": 5122,
      "pledg": 5123,
      "pipe": 5124,
      "pipeline": 5125,
      "populat": 5126,
      "popular": 5127,
      "portal": 5128,
      "portion": 5129,
      "passiv": 5130,
      "passag": 5131,
      "rather": 5132,
      "ratio": 5133,
      "ridd": 5134,
      "ridicul": 5135,
      "rival": 5136,
      "radic": 5137,
      "radio": 5138,
      "ruby": 5139,
      "rubber": 5140,
      "rubric": 5141,
      "site": 5142,
      "situat": 5143,
      "soul": 5144,
      "soup": 5145,
      "south": 5146,
      "sentenc": 5147,
      "sentiment": 5148,
      "setup": 5149,
      "settl": 5150,
      "self": 5151,
      "selv": 5152,
      "select": 5153,
      "simulat": 5154,
      "similar": 5155,
      "simultaneous": 5156,
      "sociat": 5157,
      "social": 5158,
      "societ": 5159,
      "tunel": 5160,
      "tunnel": 5161,
      "time": 5162,
      "timid": 5163,
      "tender": 5164,
      "tendenc": 5165,
      "true": 5166,
      "trust": 5167,
      "topic": 5168,
      "topolog": 5169,
      "viab": 5170,
      "violat": 5171,
      "violen": 5172,
      "vocat": 5173,
      "vocal": 5174,
      "vocabular": 5175,
      "widow": 5176,
      "width": 5177,
      "widget": 5178,
      "##athon": 5179,
      "releas": 5180,
      "relegat": 5181,
      "relevan": 5182,
      "debat": 5183,
      "debut": 5184,
      "debug": 5185,
      "destin": 5186,
      "destruct": 5187,
      "destroy": 5188,
      "condens": 5189,
      "condemn": 5190,
      "condolenc": 5191,
      "story": 5192,
      "storag": 5193,
      "student": 5194,
      "studio": 5195,
      "stratif": 5196,
      "strateg": 5197,
      "excit": 5198,
      "excel": 5199,
      "excus": 5200,
      "endur": 5201,
      "endors": 5202,
      "engag": 5203,
      "engine": 5204,
      "engross": 5205,
      "entertain": 5206,
      "enterpris": 5207,
      "thrill": 5208,
      "through": 5209,
      "thrift": 5210,
      "thesa": 5211,
      "thesis": 5212,
      "split": 5213,
      "splend": 5214,
      "splash": 5215,
      "spring": 5216,
      "sprint": 5217,
      "sprinkl": 5218,
      "spark": 5219,
      "spars": 5220,
      "probab": 5221,
      "problem": 5222,
      "alleg": 5223,
      "alleviat": 5224,
      "allegor": 5225,
      "ansi": 5226,
      "answer": 5227,
      "ansible": 5228,
      "anti": 5229,
      "anticip": 5230,
      "antenn": 5231,
      "fortun": 5232,
      "fortif": 5233,
      "fortran": 5234,
      "present": 5235,
      "presum": 5236,
      "preserv": 5237,
      "prevent": 5238,
      "prevail": 5239,
      "previous": 5240,
      "suffer": 5241,
      "suffic": 5242,
      "suffix": 5243,
      "secur": 5244,
      "secret": 5245,
      "second": 5246,
      "segue": 5247,
      "segment": 5248,
      "segregat": 5249,
      "permut": 5250,
      "permeat": 5251,
      "permanent": 5252,
      "expedit": 5253,
      "expedien": 5254,
      "expedite": 5255,
      "explod": 5256,
      "explos": 5257,
      "exploit": 5258,
      "archiv": 5259,
      "architect": 5260,
      "unifi": 5261,
      "uniform": 5262,
      "reformat": 5263,
      "reformulat": 5264,
      "becom": 5265,
      "became": 5266,
      "because": 5267,
      "entropic": 5268,
      "gradat": 5269,
      "gradient": 5270,
      "techni": 5271,
      "technolog": 5272,
      "obsess": 5273,
      "observ": 5274,
      "obsolet": 5275,
      "obstruct": 5276,
      "obstacl": 5277,
      "obstinate": 5278,
      "recipe": 5279,
      "recipient": 5280,
      "reciproc": 5281,
      "critic": 5282,
      "critique": 5283,
      "criteri": 5284,
      "planar": 5285,
      "planet": 5286,
      "paradox": 5287,
      "paradigm": 5288,
      "substan": 5289,
      "substitut": 5290,
      "substantiat": 5291,
      "correct": 5292,
      "correlat": 5293,
      "correspond": 5294,
      "asymmetr": 5295,
      "async": 5296,
      "asymptot": 5297,
      "postgres": 5298,
      "postpon": 5299,
      "sawn": 5300,
      "sawed": 5301,
      "increas": 5302,
      "increment": 5303,
      "incredibl": 5304,
      "synthet": 5305,
      "synthes": 5306,
      "electrif": 5307,
      "summer": 5308,
      "summon": 5309,
      "public": 5310,
      "publish": 5311,
      "simplif": 5312,
      "analys": 5313,
      "analyz": 5314,
      "analytic": 5315,
      "behavio": 5316,
      "behaviou": 5317,
      "##dicate": 5318,
      "after": 5319,
      "afraid": 5320,
      "avail": 5321,
      "avoid": 5322,
      "area": 5323,
      "ache": 5324,
      "achiev": 5325,
      "aptly": 5326,
      "august": 5327,
      "augment": 5328,
      "binanc": 5329,
      "banish": 5330,
      "button": 5331,
      "business": 5332,
      "blam": 5333,
      "black": 5334,
      "badg": 5335,
      "bestow": 5336,
      "bowl": 5337,
      "bereav": 5338,
      "bereft": 5339,
      "cycl": 5340,
      "cyber": 5341,
      "centr": 5342,
      "center": 5343,
      "cross": 5344,
      "croach": 5345,
      "crux": 5346,
      "crucial": 5347,
      "candid": 5348,
      "candidat": 5349,
      "certif": 5350,
      "certain": 5351,
      "cardinal": 5352,
      "cultur": 5353,
      "cultivat": 5354,
      "dbc": 5355,
      "dbms": 5356,
      "duo": 5357,
      "durab": 5358,
      "dwel": 5359,
      "dwindl": 5360,
      "doubl": 5361,
      "doubt": 5362,
      "digit": 5363,
      "dimens": 5364,
      "diminish": 5365,
      "densif": 5366,
      "document": 5367,
      "dictat": 5368,
      "docker": 5369,
      "dupl": 5370,
      "drama": 5371,
      "direct": 5372,
      "edge": 5373,
      "euro": 5374,
      "euclid": 5375,
      "eras": 5376,
      "eradicate": 5377,
      "essen": 5378,
      "essential": 5379,
      "every": 5380,
      "faq": 5381,
      "faith": 5382,
      "fuel": 5383,
      "fuzz": 5384,
      "fresh": 5385,
      "frequen": 5386,
      "from": 5387,
      "froz": 5388,
      "furcat": 5389,
      "further": 5390,
      "fulfil": 5391,
      "fidel": 5392,
      "fidget": 5393,
      "femin": 5394,
      "female": 5395,
      "federat": 5396,
      "federal": 5397,
      "friend": 5398,
      "focal": 5399,
      "focus": 5400,
      "facilit": 5401,
      "factor": 5402,
      "fraction": 5403,
      "fixat": 5404,
      "framework": 5405,
      "freez": 5406,
      "gnu": 5407,
      "gnome": 5408,
      "gather": 5409,
      "garment": 5410,
      "garbag": 5411,
      "glee": 5412,
      "glean": 5413,
      "goto": 5414,
      "glad": 5415,
      "glass": 5416,
      "gemini": 5417,
      "galler": 5418,
      "gallant": 5419,
      "hijack": 5420,
      "html": 5421,
      "http": 5422,
      "honest": 5423,
      "honour": 5424,
      "half": 5425,
      "halt": 5426,
      "help": 5427,
      "hello": 5428,
      "hadoop": 5429,
      "human": 5430,
      "humour": 5431,
      "histor": 5432,
      "handl": 5433,
      "hinder": 5434,
      "hindranc": 5435,
      "hackathon": 5436,
      "hereby": 5437,
      "icon": 5438,
      "idol": 5439,
      "idiom": 5440,
      "imbue": 5441,
      "imburs": 5442,
      "idea": 5443,
      "ideal": 5444,
      "ignor": 5445,
      "ignit": 5446,
      "imagin": 5447,
      "judg": 5448,
      "judic": 5449,
      "llm": 5450,
      "llvm": 5451,
      "large": 5452,
      "laravel": 5453,
      "licens": 5454,
      "licentious": 5455,
      "letter": 5456,
      "lagrang": 5457,
      "listen": 5458,
      "laps": 5459,
      "locat": 5460,
      "local": 5461,
      "languag": 5462,
      "linguist": 5463,
      "mvc": 5464,
      "mvp": 5465,
      "menu": 5466,
      "melod": 5467,
      "melanch": 5468,
      "middl": 5469,
      "made": 5470,
      "milli": 5471,
      "million": 5472,
      "macro": 5473,
      "messag": 5474,
      "mixture": 5475,
      "major": 5476,
      "majest": 5477,
      "myster": 5478,
      "mystif": 5479,
      "narrat": 5480,
      "narrow": 5481,
      "network": 5482,
      "node": 5483,
      "normaliz": 5484,
      "octa": 5485,
      "october": 5486,
      "peac": 5487,
      "peopl": 5488,
      "punct": 5489,
      "punish": 5490,
      "podcast": 5491,
      "power": 5492,
      "pronoun": 5493,
      "pronunc": 5494,
      "pictur": 5495,
      "packag": 5496,
      "pixel": 5497,
      "positiv": 5498,
      "ransom": 5499,
      "risk": 5500,
      "rigid": 5501,
      "rigorous": 5502,
      "rambl": 5503,
      "rumor": 5504,
      "rumour": 5505,
      "rude": 5506,
      "rudimen": 5507,
      "random": 5508,
      "routine": 5509,
      "satisf": 5510,
      "satellit": 5511,
      "sinus": 5512,
      "since": 5513,
      "sorrow": 5514,
      "sorry": 5515,
      "salar": 5516,
      "squar": 5517,
      "squeez": 5518,
      "size": 5519,
      "socket": 5520,
      "servic": 5521,
      "saturat": 5522,
      "torch": 5523,
      "torrent": 5524,
      "talk": 5525,
      "talent": 5526,
      "tolerat": 5527,
      "tolera": 5528,
      "tabul": 5529,
      "tensor": 5530,
      "tangl": 5531,
      "tangent": 5532,
      "tournament": 5533,
      "tactic": 5534,
      "tailor": 5535,
      "ticket": 5536,
      "ubuntu": 5537,
      "ubiquit": 5538,
      "upper": 5539,
      "upped": 5540,
      "ultra": 5541,
      "ultimat": 5542,
      "vanit": 5543,
      "vanish": 5544,
      "ventur": 5545,
      "ventilat": 5546,
      "vulner": 5547,
      "vulgar": 5548,
      "vigour": 5549,
      "vigorous": 5550,
      "viral": 5551,
      "virus": 5552,
      "vagar": 5553,
      "vague": 5554,
      "vibr": 5555,
      "vertic": 5556,
      "vertex": 5557,
      "vacat": 5558,
      "vacan": 5559,
      "virtue": 5560,
      "virtual": 5561,
      "wait": 5562,
      "waiv": 5563,
      "water": 5564,
      "watch": 5565,
      "winter": 5566,
      "wasm": 5567,
      "wife": 5568,
      "wifi": 5569,
      "willing": 5570,
      "window": 5571,
      "youth": 5572,
      "redact": 5573,
      "redundan": 5574,
      "rearrang": 5575,
      "realm": 5576,
      "rectif": 5577,
      "rectang": 5578,
      "ready": 5579,
      "rescu": 5580,
      "rescind": 5581,
      "relian": 5582,
      "reliab": 5583,
      "initiat": 5584,
      "inherit": 5585,
      "inherent": 5586,
      "##rastinat": 5587,
      "deceit": 5588,
      "december": 5589,
      "declin": 5590,
      "declar": 5591,
      "conjunct": 5592,
      "conjuga": 5593,
      "conniv": 5594,
      "connect": 5595,
      "conceit": 5596,
      "conceal": 5597,
      "conspic": 5598,
      "conspir": 5599,
      "stabil": 5600,
      "stationar": 5601,
      "codif": 5602,
      "copi": 5603,
      "copy": 5604,
      "combat": 5605,
      "combin": 5606,
      "examin": 5607,
      "execut": 5608,
      "exclusiv": 5609,
      "encumb": 5610,
      "encapsulat": 5611,
      "ensur": 5612,
      "ensembl": 5613,
      "enumer": 5614,
      "therm": 5615,
      "thousand": 5616,
      "thereby": 5617,
      "spectr": 5618,
      "procur": 5619,
      "procrastinat": 5620,
      "proxim": 5621,
      "processor": 5622,
      "shoe": 5623,
      "shoot": 5624,
      "shrink": 5625,
      "shrunk": 5626,
      "sharp": 5627,
      "shadow": 5628,
      "dissent": 5629,
      "dissipat": 5630,
      "allianc": 5631,
      "alpha": 5632,
      "alphabet": 5633,
      "android": 5634,
      "angel": 5635,
      "angular": 5636,
      "check": 5637,
      "cheap": 5638,
      "forbid": 5639,
      "forever": 5640,
      "pressur": 5641,
      "super": 5642,
      "suprem": 5643,
      "competen": 5644,
      "computer": 5645,
      "complian": 5646,
      "adjust": 5647,
      "adjacen": 5648,
      "scenar": 5649,
      "scalar": 5650,
      "scrutiniz": 5651,
      "several": 5652,
      "pertin": 5653,
      "perturb": 5654,
      "persuas": 5655,
      "persuad": 5656,
      "absen": 5657,
      "absolut": 5658,
      "implicat": 5659,
      "implicit": 5660,
      "explor": 5661,
      "explanat": 5662,
      "experien": 5663,
      "experiment": 5664,
      "arduous": 5665,
      "arduino": 5666,
      "control": 5667,
      "controver": 5668,
      "contemplat": 5669,
      "lesson": 5670,
      "unicorn": 5671,
      "unicode": 5672,
      "begun": 5673,
      "quarter": 5674,
      "quarrel": 5675,
      "question": 5676,
      "quantif": 5677,
      "entrench": 5678,
      "gravit": 5679,
      "graduat": 5680,
      "gradual": 5681,
      "graphic": 5682,
      "neglect": 5683,
      "negotiat": 5684,
      "negativ": 5685,
      "intrigu": 5686,
      "intrusiv": 5687,
      "intellect": 5688,
      "heather": 5689,
      "health": 5690,
      "heaven": 5691,
      "assuranc": 5692,
      "college": 5693,
      "colleague": 5694,
      "collaps": 5695,
      "collaborat": 5696,
      "replenish": 5697,
      "reputa": 5698,
      "clarif": 5699,
      "clarity": 5700,
      "definit": 5701,
      "against": 5702,
      "interpret": 5703,
      "interpolat": 5704,
      "conferenc": 5705,
      "primar": 5706,
      "commiss": 5707,
      "commiserat": 5708,
      "communic": 5709,
      "discriminat": 5710,
      "discriminant": 5711,
      "evening": 5712,
      "amazon": 5713,
      "corpus": 5714,
      "corpora": 5715,
      "surround": 5716,
      "surrender": 5717,
      "surviv": 5718,
      "survey": 5719,
      "decreas": 5720,
      "decrement": 5721,
      "possib": 5722,
      "possess": 5723,
      "convenien": 5724,
      "extravag": 5725,
      "ordinat": 5726,
      "ordinar": 5727,
      "organic": 5728,
      "organiz": 5729,
      "safar": 5730,
      "investigat": 5731,
      "embark": 5732,
      "embarrass": 5733,
      "generic": 5734,
      "market": 5735,
      "marginal": 5736,
      "software": 5737,
      "terminal": 5738,
      "webinar": 5739,
      "rememb": 5740,
      "remembr": 5741,
      "diversif": 5742,
      "mechanic": 5743,
      "patronag": 5744,
      "congruent": 5745,
      "congratulat": 5746,
      "specializ": 5747,
      "syntax": 5748,
      "authent": 5749,
      "differentia": 5750,
      "verbos": 5751,
      "classif": 5752,
      "capsul": 5753,
      "knowledg": 5754,
      "mission": 5755,
      "theorem": 5756,
      "profession": 5757,
      "benefit": 5758,
      "benefic": 5759,
      "emphat": 5760,
      "emphas": 5761,
      "efficien": 5762,
      "frustum": 5763,
      "frustrat": 5764,
      "happen": 5765,
      "harmon": 5766,
      "triangul": 5767,
      "comfy": 5768,
      "comfort": 5769,
      "understand": 5770,
      "understood": 5771,
      "crypto": 5772,
      "journal": 5773,
      "oscillat": 5774,
      "depreciate": 5775,
      "##holder": 5776,
      "##kins": 5777,
      "##pberry": 5778,
      "alack": 5779,
      "ablat": 5780,
      "auxiliar": 5781,
      "avatar": 5782,
      "alacrit": 5783,
      "bonus": 5784,
      "balanc": 5785,
      "bisect": 5786,
      "bulk": 5787,
      "branch": 5788,
      "budget": 5789,
      "body": 5790,
      "brief": 5791,
      "bayes": 5792,
      "bundl": 5793,
      "brows": 5794,
      "bucket": 5795,
      "baffl": 5796,
      "ceremon": 5797,
      "citation": 5798,
      "cisco": 5799,
      "celebrat": 5800,
      "culminat": 5801,
      "camera": 5802,
      "cuda": 5803,
      "cable": 5804,
      "counsel": 5805,
      "cours": 5806,
      "click": 5807,
      "cancel": 5808,
      "custom": 5809,
      "crowd": 5810,
      "cautio": 5811,
      "deriv": 5812,
      "dinner": 5813,
      "dusk": 5814,
      "damag": 5815,
      "dabbl": 5816,
      "dignit": 5817,
      "drown": 5818,
      "dawdl": 5819,
      "drupal": 5820,
      "daughter": 5821,
      "diagnos": 5822,
      "django": 5823,
      "echo": 5824,
      "euler": 5825,
      "eager": 5826,
      "especial": 5827,
      "eclips": 5828,
      "elicit": 5829,
      "educat": 5830,
      "ficial": 5831,
      "false": 5832,
      "fraud": 5833,
      "follow": 5834,
      "figur": 5835,
      "futur": 5836,
      "fascinat": 5837,
      "finger": 5838,
      "fabric": 5839,
      "festiv": 5840,
      "favo": 5841,
      "fantas": 5842,
      "fashion": 5843,
      "fickl": 5844,
      "feebl": 5845,
      "fungib": 5846,
      "frantic": 5847,
      "franca": 5848,
      "gonal": 5849,
      "gorgeous": 5850,
      "gentl": 5851,
      "granular": 5852,
      "gadget": 5853,
      "gruel": 5854,
      "gestur": 5855,
      "gave": 5856,
      "guess": 5857,
      "glimps": 5858,
      "govern": 5859,
      "hurt": 5860,
      "heter": 5861,
      "husband": 5862,
      "hedron": 5863,
      "hospit": 5864,
      "habit": 5865,
      "hiber": 5866,
      "huge": 5867,
      "hundred": 5868,
      "hassl": 5869,
      "hazard": 5870,
      "haskell": 5871,
      "hierarch": 5872,
      "hdmi": 5873,
      "hybrid": 5874,
      "issu": 5875,
      "itera": 5876,
      "imitat": 5877,
      "jenkins": 5878,
      "jinja": 5879,
      "january": 5880,
      "july": 5881,
      "jasmin": 5882,
      "jott": 5883,
      "java": 5884,
      "juggl": 5885,
      "jupyter": 5886,
      "jealous": 5887,
      "keras": 5888,
      "kanban": 5889,
      "kilo": 5890,
      "kivy": 5891,
      "kotlin": 5892,
      "kernel": 5893,
      "kubernet": 5894,
      "lonel": 5895,
      "linux": 5896,
      "lstm": 5897,
      "lurk": 5898,
      "lidar": 5899,
      "life": 5900,
      "llama": 5901,
      "lambd": 5902,
      "lumin": 5903,
      "lemma": 5904,
      "lodg": 5905,
      "lavish": 5906,
      "luxur": 5907,
      "liquidat": 5908,
      "mitigat": 5909,
      "micro": 5910,
      "malic": 5911,
      "murmur": 5912,
      "mirror": 5913,
      "music": 5914,
      "mimic": 5915,
      "moment": 5916,
      "mama": 5917,
      "magic": 5918,
      "mistake": 5919,
      "mountain": 5920,
      "mandat": 5921,
      "mortif": 5922,
      "machin": 5923,
      "mesh": 5924,
      "nativ": 5925,
      "nano": 5926,
      "numer": 5927,
      "nope": 5928,
      "navi": 5929,
      "nltk": 5930,
      "osten": 5931,
      "orient": 5932,
      "ought": 5933,
      "often": 5934,
      "onerous": 5935,
      "oracle": 5936,
      "panel": 5937,
      "palette": 5938,
      "pilot": 5939,
      "pivot": 5940,
      "potent": 5941,
      "pioneer": 5942,
      "pedia": 5943,
      "prior": 5944,
      "paper": 5945,
      "pardon": 5946,
      "peculiar": 5947,
      "pessimi": 5948,
      "pocket": 5949,
      "piece": 5950,
      "pragm": 5951,
      "pupil": 5952,
      "pseudo": 5953,
      "python": 5954,
      "renovat": 5955,
      "raspberry": 5956,
      "rimm": 5957,
      "rapid": 5958,
      "rational": 5959,
      "rugged": 5960,
      "senior": 5961,
      "sanit": 5962,
      "samsung": 5963,
      "seduc": 5964,
      "slop": 5965,
      "sudden": 5966,
      "sister": 5967,
      "sourc": 5968,
      "seldom": 5969,
      "sincere": 5970,
      "sophisticat": 5971,
      "tenacious": 5972,
      "tiny": 5973,
      "target": 5974,
      "tentat": 5975,
      "tether": 5976,
      "tele": 5977,
      "tutor": 5978,
      "total": 5979,
      "tedious": 5980,
      "toggl": 5981,
      "token": 5982,
      "tackl": 5983,
      "tinker": 5984,
      "tupl": 5985,
      "upset": 5986,
      "vici": 5987,
      "village": 5988,
      "vendor": 5989,
      "vector": 5990,
      "vindic": 5991,
      "view": 5992,
      "video": 5993,
      "vexat": 5994,
      "vehicl": 5995,
      "wonder": 5996,
      "witness": 5997,
      "walk": 5998,
      "wreak": 5999,
      "wise": 6000,
      "wrote": 6001,
      "welcom": 6002,
      "wedg": 6003,
      "where": 6004,
      "wander": 6005,
      "wizard": 6006,
      "wiki": 6007,
      "yellow": 6008,
      "young": 6009,
      "zero": 6010,
      "receipt": 6011,
      "reckon": 6012,
      "respon": 6013,
      "redux": 6014,
      "inspir": 6015,
      "industr": 6016,
      "inclin": 6017,
      "inaugurat": 6018,
      "inimitab": 6019,
      "delegat": 6020,
      "depth": 6021,
      "determin": 6022,
      "despit": 6023,
      "##rophe": 6024,
      "converg": 6025,
      "conquer": 6026,
      "conscious": 6027,
      "conundrum": 6028,
      "conjectur": 6029,
      "conclusi": 6030,
      "stimul": 6031,
      "stipulat": 6032,
      "stemm": 6033,
      "strik": 6034,
      "struggl": 6035,
      "stereo": 6036,
      "straggl": 6037,
      "stupid": 6038,
      "stagnat": 6039,
      "stakeholder": 6040,
      "stochast": 6041,
      "coffee": 6042,
      "coheren": 6043,
      "cooperat": 6044,
      "coordinat": 6045,
      "coaxial": 6046,
      "coincid": 6047,
      "cognit": 6048,
      "cocoa": 6049,
      "coefficient": 6050,
      "cohesi": 6051,
      "exterior": 6052,
      "exaggerat": 6053,
      "endeav": 6054,
      "enjoy": 6055,
      "enforc": 6056,
      "enlarg": 6057,
      "speech": 6058,
      "spawn": 6059,
      "spontane": 6060,
      "prolog": 6061,
      "prosper": 6062,
      "procedur": 6063,
      "shuffl": 6064,
      "dissuad": 6065,
      "disgrac": 6066,
      "disguis": 6067,
      "dissonan": 6068,
      "disappoint": 6069,
      "although": 6070,
      "algebra": 6071,
      "already": 6072,
      "alternat": 6073,
      "alike": 6074,
      "algorithm": 6075,
      "always": 6076,
      "chronologic": 6077,
      "challeng": 6078,
      "foresee": 6079,
      "forebod": 6080,
      "forswear": 6081,
      "predecess": 6082,
      "precipit": 6083,
      "predica": 6084,
      "prejudic": 6085,
      "preliminar": 6086,
      "succinct": 6087,
      "suggest": 6088,
      "compensat": 6089,
      "complicat": 6090,
      "complacen": 6091,
      "adjectiv": 6092,
      "adequat": 6093,
      "scratch": 6094,
      "scrambl": 6095,
      "perspectiv": 6096,
      "persever": 6097,
      "perpendicular": 6098,
      "abscond": 6099,
      "abandon": 6100,
      "above": 6101,
      "absorb": 6102,
      "abbreviat": 6103,
      "acronym": 6104,
      "impertinen": 6105,
      "impersonat": 6106,
      "impossibl": 6107,
      "arithmet": 6108,
      "appellation": 6109,
      "applianc": 6110,
      "appropriat": 6111,
      "apprecia": 6112,
      "context": 6113,
      "untaint": 6114,
      "unveil": 6115,
      "unfurl": 6116,
      "refocus": 6117,
      "refactor": 6118,
      "fluctuat": 6119,
      "quaternion": 6120,
      "entangl": 6121,
      "enthusiast": 6122,
      "neglig": 6123,
      "neighbo": 6124,
      "intelli": 6125,
      "integr": 6126,
      "tessellat": 6127,
      "repositor": 6128,
      "represent": 6129,
      "cluster": 6130,
      "obfuscat": 6131,
      "recurren": 6132,
      "agglomerat": 6133,
      "aggravat": 6134,
      "trajector": 6135,
      "tradition": 6136,
      "princip": 6137,
      "primitiv": 6138,
      "privileg": 6139,
      "syllabl": 6140,
      "instrument": 6141,
      "accomplish": 6142,
      "accommodat": 6143,
      "coroutin": 6144,
      "corollar": 6145,
      "surrogate": 6146,
      "indebt": 6147,
      "february": 6148,
      "phenomen": 6149,
      "philosoph": 6150,
      "concatenat": 6151,
      "extrapolat": 6152,
      "elucidat": 6153,
      "matrimon": 6154,
      "incognito": 6155,
      "apostrophe": 6156,
      "maneuver": 6157,
      "manufactur": 6158,
      "marshall": 6159,
      "restaurant": 6160,
      "guarante": 6161,
      "plagued": 6162,
      "reluctan": 6163,
      "relinquish": 6164,
      "anniversary": 6165,
      "miscellaneous": 6166,
      "acquisition": 6167,
      "puzzl": 6168,
      "silhouett": 6169,
      "upbraid": 6170,
      "canonical": 6171,
      "anticipat": 6172,
      "melanchol": 6173,
      "extravagan": 6174
    }
  }
}