{
  "version": "1.0",
  "truncation": null,
  "padding": null,
  "added_tokens": [
    {
      "id": 0,
      "content": "[PAD]",
      "single_word": false,
      "lstrip": false,
      "rstrip": false,
      "normalized": false,
      "special": true
    },
    {
      "id": 1,
      "content": "[UNK]",
      "single_word": false,
      "lstrip": false,
      "rstrip": false,
      "normalized": false,
      "special": true
    },
    {
      "id": 2,
      "content": "[CLS]",
      "single_word": false,
      "lstrip": false,
      "rstrip": false,
      "normalized": false,
      "special": true
    },
    {
      "id": 3,
      "content": "[SEP]",
      "single_word": false,
      "lstrip": false,
      "rstrip": false,
      "normalized": false,
      "special": true
    },
    {
      "id": 4,
      "content": "[MASK]",
      "single_word": false,
      "lstrip": false,
      "rstrip": false,
      "normalized": false,
      "special": true
    },
    {
      "id": 5,
      "content": "##a",
      "single_word": false,
      "lstrip": false,
      "rstrip": false,
      "normalized": false,
      "special": true
    },
    {
      "id": 6,
      "content": "##b",
      "single_word": false,
      "lstrip": false,
      "rstrip": false,
      "normalized": false,
      "special": true
    },
    {
      "id": 7,
      "content": "##c",
      "single_word": false,
      "lstrip": false,
      "rstrip": false,
      "normalized": false,
      "special": true
    },
    {
      "id": 8,
      "content": "##d",
      "single_word": false,
      "lstrip": false,
      "rstrip": false,
      "normalized": false,
      "special": true
    },
    {
      "id": 9,
      "content": "##e",
      "single_word": false,
      "lstrip": false,
      "rstrip": false,
      "normalized": false,
      "special": true
    },
    {
      "id": 10,
      "content": "##f",
      "single_word": false,
      "lstrip": false,
      "rstrip": false,
      "normalized": false,
      "special": true
    },
    {
      "id": 11,
      "content": "##g",
      "single_word": false,
      "lstrip": false,
      "rstrip": false,
      "normalized": false,
      "special": true
    },
    {
      "id": 12,
      "content": "##h",
      "single_word": false,
      "lstrip": false,
      "rstrip": false,
      "normalized": false,
      "special": true
    },
    {
      "id": 13,
      "content": "##i",
      "single_word": false,
      "lstrip": false,
      "rstrip": false,
      "normalized": false,
      "special": true
    },
    {
      "id": 14,
      "content": "##j",
      "single_word": false,
      "lstrip": false,
      "rstrip": false,
      "normalized": false,
      "special": true
    },
    {
      "id": 15,
      "content": "##k",
      "single_word": false,
      "lstrip": false,
      "rstrip": false,
      "normalized": false,
      "special": true
    },
    {
      "id": 16,
      "content": "##l",
      "single_word": false,
      "lstrip": false,
      "rstrip": false,
      "normalized": false,
      "special": true
    },
    {
      "id": 17,
      "content": "##m",
      "single_word": false,
      "lstrip": false,
      "rstrip": false,
      "normalized": false,
      "special": true
    },
    {
      "id": 18,
      "content": "##n",
      "single_word": false,
      "lstrip": false,
      "rstrip": false,
      "normalized": false,
      "special": true
    },
    {
      "id": 19,
      "content": "##o",
      "single_word": false,
      "lstrip": false,
      "rstrip": false,
      "normalized": false,
      "special": true
    },
    {
      "id": 20,
      "content": "##p",
      "single_word": false,
      "lstrip": false,
      "rstrip": false,
      "normalized": false,
      "special": true
    },
    {
      "id": 21,
      "content": "##q",
      "single_word": false,
      "lstrip": false,
      "rstrip": false,
      "normalized": false,
      "special": true
    },
    {
      "id": 22,
      "content": "##r",
      "single_word": false,
      "lstrip": false,
      "rstrip": false,
      "normalized": false,
      "special": true
    },
    {
      "id": 23,
      "content": "##s",
      "single_word": false,
      "lstrip": false,
      "rstrip": false,
      "normalized": false,
      "special": true
    },
    {
      "id": 24,
      "content": "##t",
      "single_word": false,
      "lstrip": false,
      "rstrip": false,
      "normalized": false,
      "special": true
    },
    {
      "id": 25,
      "content": "##u",
      "single_word": false,
      "lstrip": false,
      "rstrip": false,
      "normalized": false,
      "special": true
    },
    {
      "id": 26,
      "content": "##v",
      "single_word": false,
      "lstrip": false,
      "rstrip": false,
      "normalized": false,
      "special": true
    },
    {
      "id": 27,
      "content": "##w",
      "single_word": false,
      "lstrip": false,
      "rstrip": false,
      "normalized": false,
      "special": true
    },
    {
      "id": 28,
      "content": "##x",
      "single_word": false,
      "lstrip": false,
      "rstrip": false,
      "normalized": false,
      "special": true
    },
    {
      "id": 29,
      "content": "##y",
      "single_word": false,
      "lstrip": false,
      "rstrip": false,
      "normalized": false,
      "special": true
    },
    {
      "id": 30,
      "content": "##z",
      "single_word": false,
      "lstrip": false,
      "rstrip": false,
      "normalized": false,
      "special": true
    }
  ],
  "normalizer": {
    "type": "BertNormalizer",
    "clean_text": true,
    "handle_chinese_chars": true,
    "strip_accents": true,
    "lowercase": true
  },
  "pre_tokenizer": {
    "type": "BertPreTokenizer"
  },
  "post_processor": null,
  "decoder": {
    "type": "WordPiece",
    "prefix": "##",
    "cleanup": true
  },
  "model": {
    "type": "WordPiece",
    "unk_token": "[UNK]",
    "continuing_subword_prefix": "##",
    "max_input_chars_per_word": 100,
    "vocab": {
      "[PAD]": 0,
      "[UNK]": 1,
      "[CLS]": 2,
      "[SEP]": 3,
      "[MASK]": 4,
      "##a": 5,
      "##b": 6,
      "##c": 7,
      "##d": 8,
      "##e": 9,
      "##f": 10,
      "##g": 11,
      "##h": 12,
      "##i": 13,
      "##j": 14,
      "##k": 15,
      "##l": 16,
      "##m": 17,
      "##n": 18,
      "##o": 19,
      "##p": 20,
      "##q": 21,
      "##r": 22,
      "##s": 23,
      "##t": 24,
      "##u": 25,
      "##v": 26,
      "##w": 27,
      "##x": 28,
      "##y": 29,
      "##z": 30,
      "+": 31,
      "-": 32,
      "0": 33,
      "1": 34,
      "2": 35,
      "3": 36,
      "4": 37,
      "5": 38,
      "6": 39,
      "7": 40,
      "8": 41,
      "9": 42,
      "_": 43,
      "a": 44,
      "b": 45,
      "c": 46,
      "d": 47,
      "e": 48,
      "f": 49,
      "g": 50,
      "h": 51,
      "i": 52,
      "j": 53,
      "k": 54,
      "l": 55,
      "m": 56,
      "n": 57,
      "o": 58,
      "p": 59,
      "q": 60,
      "r": 61,
      "s": 62,
      "t": 63,
      "u": 64,
      "v": 65,
      "w": 66,
      "x": 67,
      "y": 68,
      "z": 69,
      ".js": 70,
      "abandon": 71,
      "abat": 72,
      "abbreviat": 73,
      "aberrant": 74,
      "abhor": 75,
      "abid": 76,
      "ability": 77,
      "ablat": 78,
      "able": 79,
      "aboli": 80,
      "abomina": 81,
      "abort": 82,
      "abound": 83,
      "about": 84,
      "above": 85,
      "abreast": 86,
      "abrogat": 87,
      "abrupt": 88,
      "abscond": 89,
      "absen": 90,
      "absolut": 91,
      "absorb": 92,
      "abstain": 93,
      "abstract": 94,
      "abundan": 95,
      "abus": 96,
      "academ": 97,
      "acced": 98,
      "accelerat": 99,
      "accent": 100,
      "accept": 101,
      "access": 102,
      "accident": 103,
      "acclaim": 104,
      "accommodat": 105,
      "accomplish": 106,
      "accord": 107,
      "account": 108,
      "accrue": 109,
      "accumulat": 110,
      "accur": 111,
      "accus": 112,
      "ache": 113,
      "achiev": 114,
      "acoust": 115,
      "acquaint": 116,
      "acquies": 117,
      "acquir": 118,
      "acquisition": 119,
      "acquit": 120,
      "acronym": 121,
      "act": 122,
      "action": 123,
      "activ": 124,
      "activat": 125,
      "actual": 126,
      "actuat": 127,
      "acute": 128,
      "ada": 129,
      "adapt": 130,
      "add": 131,
      "addendum": 132,
      "addict": 133,
      "addit": 134,
      "address": 135,
      "adept": 136,
      "adequat": 137,
      "adher": 138,
      "adjacen": 139,
      "adjectiv": 140,
      "adjoin": 141,
      "adjust": 142,
      "admin": 143,
      "admir": 144,
      "admiss": 145,
      "admit": 146,
      "adopt": 147,
      "ador": 148,
      "adorn": 149,
      "advanc": 150,
      "advantag": 151,
      "adventur": 152,
      "advers": 153,
      "advert": 154,
      "advic": 155,
      "advis": 156,
      "adware": 157,
      "affab": 158,
      "affair": 159,
      "affect": 160,
      "affiliat": 161,
      "affin": 162,
      "affirm": 163,
      "affix": 164,
      "afflict": 165,
      "afford": 166,
      "affront": 167,
      "afraid": 168,
      "after": 169,
      "again": 170,
      "against": 171,
      "agenc": 172,
      "agenda": 173,
      "agent": 174,
      "agglomerat": 175,
      "aggravat": 176,
      "aggregat": 177,
      "aggress": 178,
      "aghast": 179,
      "agil": 180,
      "agitat": 181,
      "ago": 182,
      "agree": 183,
      "aim": 184,
      "air": 185,
      "ajax": 186,
      "aka": 187,
      "al": 188,
      "alack": 189,
      "alacrit": 190,
      "alarm": 191,
      "alert": 192,
      "alex": 193,
      "algebra": 194,
      "algorithm": 195,
      "alias": 196,
      "align": 197,
      "alike": 198,
      "alive": 199,
      "all": 200,
      "alleg": 201,
      "allegor": 202,
      "alleviat": 203,
      "alli": 204,
      "allianc": 205,
      "allocat": 206,
      "allot": 207,
      "allow": 208,
      "allud": 209,
      "allus": 210,
      "ally": 211,
      "alone": 212,
      "along": 213,
      "aloud": 214,
      "alpha": 215,
      "alphabet": 216,
      "already": 217,
      "also": 218,
      "alter": 219,
      "alternat": 220,
      "although": 221,
      "always": 222,
      "am": 223,
      "amass": 224,
      "amaz": 225,
      "amazon": 226,
      "ambi": 227,
      "ambient": 228,
      "ambigu": 229,
      "ambit": 230,
      "amend": 231,
      "amiabl": 232,
      "amid": 233,
      "amiss": 234,
      "amo": 235,
      "among": 236,
      "amount": 237,
      "amper": 238,
      "ampersand": 239,
      "ampl": 240,
      "amplic": 241,
      "amplif": 242,
      "amplitud": 243,
      "amus": 244,
      "an": 245,
      "analog": 246,
      "analys": 247,
      "analytic": 248,
      "analyz": 249,
      "anchor": 250,
      "ancient": 251,
      "and": 252,
      "android": 253,
      "anew": 254,
      "angel": 255,
      "angl": 256,
      "angular": 257,
      "anim": 258,
      "animat": 259,
      "anneal": 260,
      "anniversary": 261,
      "annotat": 262,
      "announc": 263,
      "annoy": 264,
      "annual": 265,
      "anomal": 266,
      "anonym": 267,
      "ansi": 268,
      "ansible": 269,
      "answer": 270,
      "antenn": 271,
      "anti": 272,
      "anticipat": 273,
      "anxious": 274,
      "any": 275,
      "apache": 276,
      "apart": 277,
      "apartment": 278,
      "apertur": 279,
      "api": 280,
      "apolog": 281,
      "apostrophe": 282,
      "app": 283,
      "apparent": 284,
      "appeal": 285,
      "appear": 286,
      "appeas": 287,
      "appellation": 288,
      "append": 289,
      "appl": 290,
      "applaud": 291,
      "apple": 292,
      "applet": 293,
      "applianc": 294,
      "applic": 295,
      "appoint": 296,
      "apposit": 297,
      "apprais": 298,
      "apprecia": 299,
      "apprehen": 300,
      "approach": 301,
      "approb": 302,
      "appropriat": 303,
      "approv": 304,
      "approximat": 305,
      "april": 306,
      "apt": 307,
      "aptly": 308,
      "arbit": 309,
      "arch": 310,
      "architect": 311,
      "archiv": 312,
      "ardent": 313,
      "arduino": 314,
      "arduous": 315,
      "are": 316,
      "area": 317,
      "argu": 318,
      "argument": 319,
      "aris": 320,
      "arithmet": 321,
      "arm": 322,
      "around": 323,
      "arrang": 324,
      "array": 325,
      "arriv": 326,
      "arrogan": 327,
      "arrow": 328,
      "art": 329,
      "arti": 330,
      "articl": 331,
      "articulat": 332,
      "artist": 333,
      "as": 334,
      "asap": 335,
      "ascend": 336,
      "ascent": 337,
      "ascertain": 338,
      "ascii": 339,
      "ascrib": 340,
      "asham": 341,
      "aside": 342,
      "ask": 343,
      "asm": 344,
      "asp": 345,
      "aspect": 346,
      "asper": 347,
      "aspir": 348,
      "assail": 349,
      "assault": 350,
      "assembl": 351,
      "assent": 352,
      "assert": 353,
      "assess": 354,
      "asset": 355,
      "assid": 356,
      "assign": 357,
      "assist": 358,
      "associat": 359,
      "assort": 360,
      "assuag": 361,
      "assum": 362,
      "assur": 363,
      "assuranc": 364,
      "astonish": 365,
      "astound": 366,
      "astray": 367,
      "asunder": 368,
      "asymmetr": 369,
      "asymptot": 370,
      "async": 371,
      "atic": 372,
      "ativ": 373,
      "atlas": 374,
      "atmo": 375,
      "atom": 376,
      "aton": 377,
      "attach": 378,
      "attack": 379,
      "attain": 380,
      "attempt": 381,
      "attend": 382,
      "attent": 383,
      "attenuat": 384,
      "attract": 385,
      "attribut": 386,
      "attrit": 387,
      "audi": 388,
      "audio": 389,
      "audit": 390,
      "augment": 391,
      "august": 392,
      "auth": 393,
      "authent": 394,
      "author": 395,
      "auto": 396,
      "autonom": 397,
      "autumn": 398,
      "auxiliar": 399,
      "avail": 400,
      "avatar": 401,
      "averag": 402,
      "avert": 403,
      "avoid": 404,
      "awak": 405,
      "award": 406,
      "aware": 407,
      "away": 408,
      "awe": 409,
      "awful": 410,
      "awk": 411,
      "aws": 412,
      "axes": 413,
      "axiom": 414,
      "axis": 415,
      "azure": 416,
      "back": 417,
      "bad": 418,
      "badg": 419,
      "baffl": 420,
      "bag": 421,
      "balanc": 422,
      "ball": 423,
      "ban": 424,
      "band": 425,
      "banish": 426,
      "bar": 427,
      "bas": 428,
      "base": 429,
      "bash": 430,
      "basic": 431,
      "basis": 432,
      "bat": 433,
      "batch": 434,
      "batter": 435,
      "battle": 436,
      "bayes": 437,
      "be": 438,
      "beam": 439,
      "bear": 440,
      "beat": 441,
      "beaut": 442,
      "became": 443,
      "because": 444,
      "becom": 445,
      "been": 446,
      "befor": 447,
      "beg": 448,
      "began": 449,
      "begin": 450,
      "begun": 451,
      "behav": 452,
      "behavio": 453,
      "behaviou": 454,
      "behind": 455,
      "belief": 456,
      "believ": 457,
      "bell": 458,
      "belong": 459,
      "bench": 460,
      "bend": 462,
      "beneath": 462,
      "benefic": 463,
      "benefit": 464,
      "bent": 465,
      "bereav": 466,
      "bereft": 467,
      "bert": 468,
      "beside": 469,
      "best": 470,
      "bestow": 471,
      "beta": 472,
      "betray": 473,
      "between": 474,
      "beyond": 475,
      "bias": 476,
      "big": 477,
      "bill": 478,
      "bin": 479,
      "binanc": 480,
      "bind": 481,
      "bing": 482,
      "bio": 483,
      "bion": 484,
      "bios": 485,
      "bird": 486,
      "bisect": 487,
      "bit": 488,
      "black": 489,
      "blam": 490,
      "blank": 491,
      "bleak": 492,
      "blend": 493,
      "bless": 494,
      "blew": 495,
      "blind": 496,
      "blink": 497,
      "blob": 498,
      "block": 499,
      "blog": 500,
      "bloom": 501,
      "blossom": 502,
      "blow": 503,
      "blue": 504,
      "blund": 505,
      "blunt": 506,
      "blur": 507,
      "board": 508,
      "boast": 509,
      "body": 510,
      "boil": 511,
      "bold": 512,
      "bond": 513,
      "bone": 514,
      "bonus": 515,
      "book": 516,
      "bool": 517,
      "boom": 518,
      "boost": 519,
      "boot": 520,
      "bor": 521,
      "border": 522,
      "born": 523,
      "borrow": 524,
      "boss": 525,
      "bot": 526,
      "both": 527,
      "bother": 528,
      "bottle": 529,
      "bottom": 530,
      "bought": 531,
      "bounc": 532,
      "bound": 533,
      "bow": 534,
      "bowl": 535,
      "box": 536,
      "boy": 537,
      "brac": 538,
      "brack": 539,
      "brag": 540,
      "brain": 541,
      "brak": 542,
      "branch": 543,
      "brand": 544,
      "brave": 545,
      "breach": 546,
      "break": 547,
      "breath": 548,
      "brevity": 549,
      "bridg": 550,
      "brief": 551,
      "bright": 552,
      "bring": 553,
      "brisk": 554,
      "broach": 555,
      "broad": 556,
      "broke": 557,
      "brother": 558,
      "brought": 559,
      "brows": 560,
      "brush": 561,
      "btw": 562,
      "buch": 563,
      "bucket": 564,
      "budget": 565,
      "buf": 566,
      "bug": 567,
      "buil": 568,
      "bulk": 569,
      "bump": 570,
      "bunch": 571,
      "bundl": 572,
      "bur": 573,
      "burn": 574,
      "burst": 575,
      "bus": 576,
      "business": 577,
      "but": 578,
      "button": 579,
      "buy": 580,
      "by": 581,
      "bye": 582,
      "byte": 583,
      "cable": 584,
      "cach": 585,
      "cad": 586,
      "calcul": 587,
      "calendar": 588,
      "calibrat": 589,
      "call": 590,
      "calm": 591,
      "came": 592,
      "camera": 593,
      "camp": 594,
      "campaign": 595,
      "campus": 596,
      "can": 597,
      "cancel": 598,
      "candid": 599,
      "candidat": 600,
      "canonical": 601,
      "canvas": 602,
      "capab": 603,
      "capacit": 604,
      "capital": 605,
      "caps": 606,
      "capsul": 607,
      "capt": 608,
      "captcha": 609,
      "caption": 610,
      "captivat": 611,
      "captur": 612,
      "car": 613,
      "card": 614,
      "cardinal": 615,
      "care": 616,
      "carr": 617,
      "cart": 618,
      "carv": 619,
      "cas": 620,
      "cascad": 621,
      "case": 622,
      "cast": 623,
      "catalog": 624,
      "catch": 625,
      "categor": 626,
      "caught": 627,
      "caus": 628,
      "cautio": 629,
      "cbow": 630,
      "ceas": 631,
      "ceil": 632,
      "celebrat": 633,
      "cell": 634,
      "center": 635,
      "centr": 636,
      "ceremon": 637,
      "certain": 638,
      "certif": 639,
      "chain": 640,
      "chair": 641,
      "challeng": 642,
      "champ": 643,
      "chanc": 644,
      "chang": 645,
      "channel": 646,
      "chao": 647,
      "chapt": 648,
      "char": 649,
      "character": 650,
      "charg": 651,
      "charit": 652,
      "charm": 653,
      "chart": 654,
      "chat": 655,
      "cheap": 656,
      "cheat": 657,
      "check": 658,
      "cheer": 659,
      "chief": 660,
      "child": 661,
      "chin": 662,
      "chip": 663,
      "choic": 664,
      "choos": 665,
      "chop": 666,
      "chose": 667,
      "chrom": 668,
      "chronologic": 669,
      "chunk": 670,
      "cipher": 671,
      "circl": 672,
      "circuit": 673,
      "circular": 674,
      "circulat": 675,
      "circum": 676,
      "cisco": 677,
      "citation": 678,
      "civil": 679,
      "claim": 680,
      "clamp": 681,
      "clarif": 682,
      "clarity": 683,
      "clash": 684,
      "class": 685,
      "classif": 686,
      "clause": 687,
      "clean": 688,
      "clear": 689,
      "clever": 690,
      "cli": 691,
      "click": 692,
      "client": 693,
      "climb": 694,
      "cling": 695,
      "clip": 696,
      "clobber": 697,
      "clock": 698,
      "clog": 699,
      "clon": 700,
      "clos": 701,
      "cloth": 702,
      "cloud": 703,
      "club": 704,
      "clue": 705,
      "cluster": 706,
      "clutter": 707,
      "cmd": 708,
      "cmos": 709,
      "cms": 710,
      "cnn": 711,
      "coach": 712,
      "coaxial": 713,
      "cobol": 714,
      "cocoa": 715,
      "cod": 716,
      "code": 717,
      "codif": 718,
      "coefficient": 719,
      "coffee": 720,
      "cofound": 721,
      "cognit": 722,
      "coheren": 723,
      "cohesi": 724,
      "coin": 725,
      "coincid": 726,
      "cold": 727,
      "collaborat": 728,
      "collaps": 729,
      "collat": 730,
      "colleague": 731,
      "collect": 732,
      "college": 733,
      "collid": 734,
      "collinear": 735,
      "collis": 736,
      "collud": 737,
      "collung": 738,
      "colon": 739,
      "color": 740,
      "colour": 741,
      "column": 742,
      "combat": 743,
      "combin": 744,
      "come": 745,
      "comfort": 746,
      "comfy": 747,
      "coming": 748,
      "comma": 749,
      "command": 750,
      "commenc": 751,
      "commend": 752,
      "comment": 753,
      "commerc": 754,
      "commiserat": 755,
      "commiss": 756,
      "commit": 757,
      "common": 758,
      "commun": 759,
      "communic": 760,
      "commut": 761,
      "compact": 762,
      "compan": 763,
      "compar": 764,
      "compass": 765,
      "compat": 766,
      "compel": 767,
      "compensat": 768,
      "compet": 769,
      "competen": 770,
      "compil": 771,
      "complacen": 772,
      "complai": 773,
      "complement": 774,
      "complet": 775,
      "complex": 776,
      "compli": 777,
      "complian": 778,
      "complicat": 779,
      "compliment": 780,
      "comply": 781,
      "component": 782,
      "compos": 783,
      "compound": 784,
      "comprehen": 785,
      "compres": 786,
      "compris": 787,
      "compromis": 788,
      "compuls": 789,
      "comput": 790,
      "computer": 791,
      "concatenat": 792,
      "concav": 793,
      "conceal": 794,
      "conced": 795,
      "conceit": 796,
      "conceiv": 797,
      "concentrat": 798,
      "concept": 799,
      "concern": 800,
      "concert": 801,
      "concess": 802,
      "conciliat": 803,
      "concis": 804,
      "conclud": 805,
      "conclusi": 806,
      "concord": 807,
      "concret": 808,
      "concurr": 809,
      "condemn": 810,
      "condens": 811,
      "condit": 812,
      "condolenc": 813,
      "conduc": 814,
      "conduct": 815,
      "cone": 816,
      "confer": 817,
      "conferenc": 818,
      "confes": 819,
      "confid": 820,
      "config": 821,
      "confin": 822,
      "confirm": 823,
      "conflat": 824,
      "conflict": 825,
      "confluen": 826,
      "conform": 827,
      "confound": 828,
      "confront": 829,
      "confus": 830,
      "congest": 831,
      "congrat": 832,
      "congratulat": 833,
      "congregat": 834,
      "congress": 835,
      "congru": 836,
      "congruent": 837,
      "conjectur": 838,
      "conjuga": 839,
      "conjunct": 840,
      "connect": 841,
      "conniv": 842,
      "conquer": 843,
      "conscious": 844,
      "consecutiv": 845,
      "consent": 846,
      "conserv": 847,
      "consider": 848,
      "consist": 849,
      "consol": 850,
      "consonan": 851,
      "conspic": 852,
      "conspir": 853,
      "const": 854,
      "constit": 855,
      "constrain": 856,
      "construct": 857,
      "consult": 858,
      "consum": 859,
      "contact": 860,
      "contain": 861,
      "contemp": 862,
      "contemplat": 863,
      "contempt": 864,
      "contend": 865,
      "content": 866,
      "contest": 867,
      "context": 868,
      "contigu": 869,
      "contingen": 870,
      "continu": 871,
      "contour": 872,
      "contr": 873,
      "contract": 874,
      "contradict": 875,
      "contrast": 876,
      "contribut": 877,
      "contrit": 878,
      "contriv": 879,
      "control": 880,
      "controver": 881,
      "conundrum": 882,
      "conv": 883,
      "conven": 884,
      "convenien": 885,
      "convent": 886,
      "converg": 887,
      "convers": 888,
      "convert": 889,
      "convex": 890,
      "convey": 891,
      "convict": 892,
      "convinc": 893,
      "conviv": 894,
      "convol": 895,
      "cook": 896,
      "cool": 897,
      "cooperat": 898,
      "coordinat": 899,
      "copi": 900,
      "copy": 901,
      "core": 902,
      "corner": 903,
      "corollar": 904,
      "coroutin": 905,
      "corpora": 906,
      "corpus": 907,
      "correct": 908,
      "correlat": 909,
      "correspond": 910,
      "corroborat": 911,
      "corrupt": 912,
      "cosin": 913,
      "cost": 914,
      "couch": 915,
      "could": 916,
      "counsel": 917,
      "count": 918,
      "coupl": 919,
      "courag": 920,
      "cours": 921,
      "couth": 922,
      "cover": 923,
      "covet": 924,
      "cpu": 925,
      "crack": 926,
      "craft": 927,
      "cramp": 928,
      "crank": 929,
      "crash": 930,
      "crav": 931,
      "crawl": 932,
      "creat": 933,
      "creden": 934,
      "credib": 935,
      "credit": 936,
      "cri": 937,
      "crim": 938,
      "cris": 939,
      "criteri": 940,
      "critic": 941,
      "critique": 942,
      "crm": 943,
      "croach": 944,
      "cron": 945,
      "crop": 946,
      "cross": 947,
      "crowd": 948,
      "crucial": 949,
      "crude": 950,
      "crumbl": 951,
      "crunch": 952,
      "crush": 953,
      "crux": 954,
      "cry": 955,
      "crypt": 956,
      "crypto": 957,
      "crystal": 958,
      "css": 959,
      "cub": 960,
      "cuda": 961,
      "cull": 962,
      "culminat": 963,
      "cultivat": 964,
      "cultur": 965,
      "cumulat": 966,
      "cur": 967,
      "curat": 968,
      "curio": 969,
      "curl": 970,
      "currenc": 971,
      "current": 972,
      "cursor": 973,
      "curtail": 974,
      "curv": 975,
      "custom": 976,
      "cut": 977,
      "cyber": 978,
      "cycl": 979,
      "dabbl": 980,
      "daemon": 981,
      "damag": 982,
      "damp": 983,
      "danc": 984,
      "dang": 985,
      "danger": 986,
      "dangl": 987,
      "dar": 988,
      "dark": 989,
      "darl": 990,
      "dart": 991,
      "dash": 992,
      "dat": 993,
      "data": 994,
      "date": 995,
      "daughter": 996,
      "daunt": 997,
      "dawdl": 998,
      "day": 999,
      "dbc": 1000,
      "dbms": 1001,
      "ddr": 1002,
      "dead": 1003,
      "deal": 1004,
      "dear": 1005,
      "debat": 1006,
      "debug": 1007,
      "debut": 1008,
      "decad": 1009,
      "decay": 1010,
      "deceit": 1011,
      "deceiv": 1012,
      "decelerat": 1013,
      "december": 1014,
      "decen": 1015,
      "decentraliz": 1016,
      "decept": 1017,
      "decid": 1018,
      "decimal": 1019,
      "decisi": 1020,
      "declar": 1021,
      "declin": 1022,
      "decorat": 1023,
      "decreas": 1024,
      "decrement": 1025,
      "dedicat": 1026,
      "deduc": 1027,
      "deed": 1028,
      "deem": 1029,
      "deep": 1030,
      "default": 1031,
      "defeat": 1032,
      "defect": 1033,
      "defenc": 1034,
      "defend": 1035,
      "defens": 1036,
      "defer": 1037,
      "defic": 1038,
      "defin": 1039,
      "definit": 1040,
      "deflat": 1041,
      "deflect": 1042,
      "deform": 1043,
      "deft": 1044,
      "defus": 1045,
      "degrad": 1046,
      "degree": 1047,
      "delay": 1048,
      "delegat": 1049,
      "delet": 1050,
      "deliberat": 1051,
      "delic": 1052,
      "delight": 1053,
      "deliver": 1054,
      "delphi": 1055,
      "delta": 1056,
      "delv": 1057,
      "demand": 1058,
      "demo": 1059,
      "demodulat": 1060,
      "demolish": 1061,
      "demonstra": 1062,
      "demot": 1063,
      "dens": 1064,
      "densif": 1065,
      "depart": 1066,
      "department": 1067,
      "depend": 1068,
      "depict": 1069,
      "deplet": 1070,
      "deploy": 1071,
      "deposit": 1072,
      "deprecat": 1073,
      "depreciat": 1074,
      "depreciate": 1075,
      "depress": 1076,
      "depriv": 1077,
      "depth": 1078,
      "deput": 1079,
      "deque": 1080,
      "deriv": 1081,
      "descen": 1082,
      "descri": 1083,
      "describ": 1084,
      "descript": 1085,
      "desert": 1086,
      "deserv": 1087,
      "design": 1088,
      "desir": 1089,
      "desk": 1090,
      "despit": 1091,
      "destin": 1092,
      "destroy": 1093,
      "destruct": 1094,
      "detach": 1095,
      "detail": 1096,
      "detain": 1097,
      "detect": 1098,
      "determin": 1099,
      "detract": 1100,
      "dev": 1101,
      "devalu": 1102,
      "devastat": 1103,
      "develop": 1104,
      "deviat": 1105,
      "devic": 1106,
      "devis": 1107,
      "devoid": 1108,
      "devolv": 1109,
      "devot": 1110,
      "dexter": 1111,
      "dia": 1112,
      "diagnos": 1113,
      "dial": 1114,
      "dialect": 1115,
      "dialog": 1116,
      "dict": 1117,
      "dictat": 1118,
      "did": 1119,
      "die": 1120,
      "diff": 1121,
      "differ": 1122,
      "differentia": 1123,
      "difficult": 1124,
      "diffiden": 1125,
      "diffus": 1126,
      "dig": 1127,
      "digit": 1128,
      "dignit": 1129,
      "dilat": 1130,
      "diligen": 1131,
      "dilut": 1132,
      "dimens": 1133,
      "diminish": 1134,
      "dinner": 1135,
      "diod": 1136,
      "dire": 1137,
      "direct": 1138,
      "dirt": 1139,
      "dis": 1140,
      "disabl": 1141,
      "disappoint": 1142,
      "discard": 1143,
      "discern": 1144,
      "disciplin": 1145,
      "discord": 1146,
      "discount": 1147,
      "discourag": 1148,
      "discover": 1149,
      "discreet": 1150,
      "discrep": 1151,
      "discret": 1152,
      "discriminant": 1153,
      "discriminat": 1154,
      "discuss": 1155,
      "disdain": 1156,
      "disgrac": 1157,
      "disguis": 1158,
      "disgust": 1159,
      "dish": 1160,
      "disjoin": 1161,
      "disk": 1162,
      "dismiss": 1163,
      "dispens": 1164,
      "dispers": 1165,
      "display": 1166,
      "dispos": 1167,
      "disput": 1168,
      "disrupt": 1169,
      "dissent": 1170,
      "dissipat": 1171,
      "dissonan": 1172,
      "dissuad": 1173,
      "distan": 1174,
      "distill": 1175,
      "distinct": 1176,
      "distinguish": 1177,
      "distort": 1178,
      "distract": 1179,
      "distress": 1180,
      "distribut": 1181,
      "disturb": 1182,
      "div": 1183,
      "diverg": 1184,
      "divers": 1185,
      "diversif": 1186,
      "divert": 1187,
      "divid": 1188,
      "divis": 1189,
      "django": 1190,
      "do": 1191,
      "doat": 1192,
      "doc": 1193,
      "dock": 1194,
      "docker": 1195,
      "doctrin": 1196,
      "document": 1197,
      "dole": 1198,
      "dom": 1199,
      "domain": 1200,
      "domestic": 1201,
      "dominan": 1202,
      "dominat": 1203,
      "donat": 1204,
      "doom": 1205,
      "door": 1206,
      "dos": 1207,
      "dot": 1208,
      "doth": 1209,
      "doubl": 1210,
      "doubt": 1211,
      "down": 1212,
      "draft": 1213,
      "drag": 1214,
      "drain": 1215,
      "dram": 1216,
      "drama": 1217,
      "drank": 1219,
      "drastic": 1219,
      "draw": 1220,
      "dread": 1221,
      "dream": 1222,
      "dress": 1223,
      "drew": 1224,
      "drill": 1225,
      "drink": 1226,
      "driv": 1227,
      "dron": 1228,
      "drop": 1229,
      "drown": 1230,
      "drunk": 1231,
      "drupal": 1232,
      "dry": 1233,
      "dual": 1234,
      "dub": 1235,
      "duc": 1236,
      "duck": 1237,
      "due": 1238,
      "dull": 1239,
      "dump": 1240,
      "duo": 1241,
      "dup": 1242,
      "dupl": 1243,
      "durab": 1244,
      "duration": 1245,
      "during": 1247,
      "dusk": 1247,
      "dust": 1248,
      "dut": 1249,
      "dwel": 1250,
      "dwindl": 1251,
      "dynam": 1252,
      "each": 1253,
      "eager": 1254,
      "ear": 1255,
      "earl": 1256,
      "earn": 1258,
      "earth": 1258,
      "eas": 1259,
      "east": 1260,
      "eat": 1261,
      "ebriet": 1262,
      "echo": 1263,
      "eclips": 1264,
      "ecma": 1265,
      "ecolog": 1266,
      "econom": 1267,
      "ed": 1268,
      "edge": 1269,
      "edit": 1270,
      "educat": 1271,
      "effect": 1272,
      "effic": 1273,
      "efficien": 1274,
      "effort": 1275,
      "eigen": 1276,
      "eight": 1277,
      "either": 1278,
      "eject": 1279,
      "elaborat": 1280,
      "elaps": 1281,
      "elastic": 1282,
      "elde": 1283,
      "elect": 1284,
      "electr": 1286,
      "electrif": 1286,
      "electron": 1287,
      "elegan": 1288,
      "element": 1289,
      "elevat": 1290,
      "elicit": 1291,
      "eligib": 1292,
      "eliminat": 1293,
      "ellip": 1294,
      "elongat": 1295,
      "else": 1296,
      "elucidat": 1297,
      "elud": 1298,
      "elusiv": 1299,
      "embark": 1300,
      "embarrass": 1301,
      "embed": 1302,
      "embellish": 1303,
      "ember": 1304,
      "emblem": 1305,
      "embod": 1306,
      "embrac": 1307,
      "emerg": 1308,
      "eminen": 1309,
      "emiss": 1310,
      "emit": 1311,
      "emotion": 1312,
      "emphas": 1313,
      "emphat": 1314,
      "empir": 1315,
      "employ": 1316,
      "empt": 1317,
      "emulat": 1318,
      "enabl": 1319,
      "encapsulat": 1320,
      "enchant": 1321,
      "encumb": 1322,
      "end": 1323,
      "endeav": 1324,
      "endors": 1325,
      "endur": 1326,
      "enem": 1327,
      "energ": 1328,
      "enforc": 1329,
      "engag": 1330,
      "engine": 1331,
      "engross": 1332,
      "enhanc": 1333,
      "enjoy": 1334,
      "enlarg": 1335,
      "enough": 1336,
      "enquir": 1337,
      "enroll": 1338,
      "ensembl": 1339,
      "ensu": 1340,
      "ensur": 1341,
      "entail": 1342,
      "entangl": 1343,
      "enter": 1344,
      "enterpris": 1345,
      "entertain": 1346,
      "enthusiast": 1347,
      "entic": 1348,
      "entire": 1349,
      "entit": 1350,
      "entitl": 1351,
      "entr": 1352,
      "entrain": 1353,
      "entrance": 1354,
      "entrant": 1355,
      "entrap": 1356,
      "entre": 1357,
      "entreat": 1358,
      "entrench": 1359,
      "entrop": 1361,
      "entropic": 1361,
      "entrust": 1362,
      "enum": 1363,
      "enumer": 1364,
      "envelop": 1365,
      "envi": 1366,
      "environ": 1367,
      "envision": 1368,
      "epic": 1369,
      "epilog": 1370,
      "episod": 1371,
      "epoch": 1372,
      "equal": 1373,
      "equaliz": 1374,
      "equat": 1375,
      "equi": 1376,
      "equip": 1377,
      "equit": 1378,
      "er": 1379,
      "eradicate": 1380,
      "eras": 1381,
      "ergonom": 1382,
      "erlang": 1383,
      "errand": 1384,
      "errant": 1385,
      "erroneous": 1386,
      "error": 1387,
      "es": 1388,
      "escalat": 1389,
      "escap": 1390,
      "escort": 1391,
      "especial": 1392,
      "essen": 1393,
      "essential": 1394,
      "establish": 1395,
      "estate": 1396,
      "esteem": 1397,
      "estima": 1398,
      "etc": 1399,
      "etern": 1400,
      "ether": 1401,
      "euclid": 1402,
      "euler": 1403,
      "euro": 1404,
      "evad": 1405,
      "evaluat": 1406,
      "evaporat": 1407,
      "evas": 1408,
      "even": 1409,
      "evening": 1410,
      "event": 1411,
      "ever": 1412,
      "every": 1413,
      "evict": 1414,
      "eviden": 1415,
      "evok": 1416,
      "evolut": 1417,
      "evolv": 1418,
      "exact": 1419,
      "exaggerat": 1420,
      "exam": 1421,
      "examin": 1422,
      "exampl": 1423,
      "exceed": 1424,
      "excel": 1425,
      "except": 1426,
      "excess": 1427,
      "excit": 1428,
      "exclud": 1429,
      "exclus": 1430,
      "exclusiv": 1431,
      "excus": 1432,
      "exec": 1433,
      "execut": 1434,
      "exempl": 1435,
      "exempt": 1436,
      "exercis": 1437,
      "exert": 1438,
      "exhaust": 1439,
      "exhibit": 1440,
      "exigen": 1441,
      "exist": 1442,
      "exit": 1443,
      "expand": 1444,
      "expans": 1445,
      "expect": 1446,
      "expedien": 1447,
      "expedit": 1448,
      "expedite": 1449,
      "expend": 1450,
      "expens": 1451,
      "experien": 1452,
      "experiment": 1453,
      "expert": 1454,
      "expir": 1455,
      "explain": 1456,
      "explanat": 1457,
      "explic": 1458,
      "explod": 1459,
      "exploit": 1460,
      "explor": 1461,
      "explos": 1462,
      "exponent": 1463,
      "export": 1464,
      "expos": 1465,
      "expound": 1466,
      "express": 1467,
      "exten": 1468,
      "extenuat": 1469,
      "exterior": 1470,
      "extern": 1471,
      "extinguish": 1472,
      "extra": 1473,
      "extract": 1474,
      "extrapolat": 1475,
      "extravagan": 1476,
      "extrem": 1477,
      "extricat": 1478,
      "extrinsic": 1479,
      "exult": 1480,
      "eye": 1481,
      "fabl": 1482,
      "fabric": 1483,
      "fac": 1484,
      "face": 1485,
      "facilit": 1486,
      "fact": 1487,
      "factor": 1488,
      "fad": 1489,
      "fail": 1490,
      "faint": 1491,
      "fair": 1493,
      "faith": 1493,
      "fake": 1494,
      "fall": 1495,
      "false": 1496,
      "fame": 1497,
      "famil": 1498,
      "familiar": 1499,
      "famous": 1500,
      "fan": 1501,
      "fanc": 1502,
      "fantas": 1503,
      "faq": 1504,
      "far": 1505,
      "fare": 1506,
      "farth": 1507,
      "fascinat": 1508,
      "fashion": 1509,
      "fast": 1510,
      "fasten": 1511,
      "fastidious": 1512,
      "fat": 1513,
      "fatal": 1514,
      "father": 1515,
      "fatig": 1516,
      "fault": 1517,
      "favo": 1518,
      "fear": 1519,
      "feasib": 1520,
      "featur": 1521,
      "february": 1522,
      "federal": 1523,
      "federat": 1524,
      "feebl": 1525,
      "feed": 1526,
      "feel": 1527,
      "fees": 1528,
      "feet": 1529,
      "feign": 1530,
      "felic": 1531,
      "fell": 1532,
      "fellow": 1533,
      "felt": 1534,
      "female": 1535,
      "femin": 1536,
      "fenc": 1537,
      "fend": 1538,
      "festiv": 1539,
      "fetch": 1540,
      "few": 1541,
      "ficat": 1542,
      "ficial": 1543,
      "fickl": 1544,
      "fide": 1545,
      "fidel": 1546,
      "fidget": 1547,
      "field": 1548,
      "fift": 1549,
      "fight": 1550,
      "figur": 1551,
      "file": 1552,
      "fill": 1553,
      "filt": 1554,
      "fin": 1555,
      "final": 1556,
      "financ": 1557,
      "find": 1558,
      "fine": 1559,
      "finger": 1560,
      "finish": 1561,
      "finit": 1562,
      "fir": 1563,
      "fire": 1564,
      "firm": 1565,
      "first": 1566,
      "fish": 1567,
      "fit": 1568,
      "five": 1569,
      "fix": 1570,
      "fixat": 1571,
      "flag": 1572,
      "flam": 1573,
      "flare": 1574,
      "flash": 1575,
      "flask": 1576,
      "flat": 1577,
      "flav": 1578,
      "flaw": 1579,
      "flect": 1580,
      "fled": 1581,
      "flee": 1582,
      "fleet": 1583,
      "flew": 1584,
      "flex": 1585,
      "fli": 1586,
      "flick": 1587,
      "flight": 1588,
      "fling": 1589,
      "flip": 1590,
      "flirt": 1591,
      "float": 1592,
      "flock": 1593,
      "flood": 1594,
      "floor": 1595,
      "flopp": 1596,
      "flourish": 1597,
      "flow": 1598,
      "fluctuat": 1599,
      "fluen": 1600,
      "fluff": 1601,
      "flung": 1602,
      "flurr": 1603,
      "flush": 1604,
      "flutter": 1605,
      "flux": 1606,
      "fly": 1607,
      "focal": 1608,
      "focus": 1609,
      "fold": 1610,
      "foll": 1611,
      "follow": 1612,
      "fond": 1613,
      "font": 1614,
      "food": 1615,
      "fool": 1616,
      "foot": 1617,
      "fopp": 1618,
      "for": 1619,
      "foray": 1620,
      "forb": 1621,
      "forbid": 1622,
      "forc": 1623,
      "fore": 1624,
      "forebod": 1625,
      "foresee": 1626,
      "forest": 1627,
      "foretell": 1628,
      "forever": 1629,
      "forfeit": 1630,
      "forgav": 1631,
      "forge": 1632,
      "forget": 1633,
      "forgiv": 1634,
      "forgo": 1635,
      "forgot": 1636,
      "fork": 1637,
      "form": 1638,
      "formaliz": 1639,
      "format": 1640,
      "formul": 1641,
      "formulat": 1642,
      "forswear": 1643,
      "forth": 1644,
      "fortif": 1645,
      "fortran": 1646,
      "fortun": 1647,
      "forum": 1648,
      "forward": 1649,
      "fought": 1650,
      "found": 1651,
      "four": 1652,
      "fox": 1653,
      "fps": 1654,
      "fract": 1655,
      "fraction": 1656,
      "fragil": 1657,
      "fragment": 1658,
      "fragran": 1659,
      "fram": 1660,
      "framework": 1661,
      "franca": 1662,
      "frantic": 1663,
      "fraud": 1664,
      "free": 1665,
      "freez": 1666,
      "frequen": 1667,
      "fresh": 1668,
      "fri": 1669,
      "friend": 1670,
      "fright": 1671,
      "from": 1672,
      "front": 1673,
      "froz": 1674,
      "frugal": 1675,
      "fruit": 1676,
      "frustrat": 1677,
      "frustum": 1678,
      "ftp": 1679,
      "fuck": 1680,
      "fuel": 1681,
      "ful": 1682,
      "fulfil": 1683,
      "full": 1684,
      "fumbl": 1685,
      "fun": 1686,
      "func": 1687,
      "fund": 1688,
      "fundament": 1689,
      "funder": 1690,
      "fungib": 1691,
      "funnel": 1692,
      "furbish": 1693,
      "furcat": 1694,
      "further": 1695,
      "fus": 1696,
      "futur": 1697,
      "fuzz": 1698,
      "gadget": 1699,
      "gain": 1700,
      "gallant": 1701,
      "galler": 1702,
      "gam": 1703,
      "gambl": 1704,
      "game": 1705,
      "gamif": 1706,
      "gan": 1707,
      "gap": 1708,
      "garbag": 1709,
      "garment": 1710,
      "gat": 1711,
      "gather": 1712,
      "gaug": 1713,
      "gauss": 1714,
      "gave": 1715,
      "gaz": 1716,
      "gb": 1717,
      "gcc": 1718,
      "geek": 1719,
      "gem": 1721,
      "gemini": 1721,
      "gen": 1722,
      "gener": 1723,
      "general": 1724,
      "generat": 1725,
      "generic": 1726,
      "genet": 1727,
      "geni": 1728,
      "gentl": 1729,
      "genuin": 1730,
      "geo": 1731,
      "gestur": 1732,
      "get": 1734,
      "gether": 1734,
      "ghost": 1735,
      "giant": 1736,
      "gift": 1737,
      "gig": 1738,
      "giga": 1739,
      "gigant": 1740,
      "girl": 1741,
      "gist": 1742,
      "git": 1743,
      "giv": 1744,
      "glad": 1745,
      "glanc": 1746,
      "glar": 1747,
      "glass": 1748,
      "glean": 1749,
      "glee": 1750,
      "glimps": 1751,
      "glitch": 1752,
      "glob": 1753,
      "gloom": 1754,
      "glor": 1755,
      "gloss": 1756,
      "glow": 1757,
      "glue": 1758,
      "glyph": 1759,
      "gnome": 1760,
      "gnu": 1761,
      "go": 1762,
      "goal": 1763,
      "gold": 1764,
      "gonal": 1765,
      "good": 1766,
      "googl": 1767,
      "gorgeous": 1768,
      "got": 1769,
      "goto": 1770,
      "govern": 1771,
      "gps": 1772,
      "gpt": 1773,
      "gpu": 1774,
      "grab": 1775,
      "grace": 1776,
      "gracious": 1777,
      "grad": 1778,
      "gradat": 1779,
      "gradient": 1780,
      "gradl": 1781,
      "gradual": 1782,
      "graduat": 1783,
      "gram": 1784,
      "gramm": 1785,
      "grand": 1786,
      "grant": 1787,
      "granular": 1788,
      "graph": 1789,
      "graphic": 1790,
      "grappl": 1791,
      "grasp": 1792,
      "grat": 1793,
      "grate": 1794,
      "gratif": 1796,
      "grav": 1796,
      "gravit": 1797,
      "gray": 1798,
      "great": 1799,
      "greed": 1800,
      "greet": 1801,
      "grep": 1802,
      "grew": 1803,
      "grid": 1804,
      "griev": 1805,
      "grind": 1806,
      "grip": 1807,
      "groom": 1808,
      "groov": 1809,
      "gross": 1810,
      "ground": 1811,
      "group": 1812,
      "grow": 1813,
      "grpc": 1814,
      "grudg": 1815,
      "gruel": 1816,
      "grunt": 1817,
      "gsm": 1818,
      "guarante": 1819,
      "guard": 1820,
      "guess": 1821,
      "guest": 1822,
      "gui": 1823,
      "guid": 1824,
      "guilt": 1825,
      "habit": 1826,
      "hack": 1827,
      "hackathon": 1828,
      "had": 1829,
      "hadoop": 1830,
      "hail": 1831,
      "half": 1832,
      "halt": 1833,
      "hamper": 1834,
      "hand": 1835,
      "handl": 1836,
      "hang": 1837,
      "happ": 1838,
      "happen": 1839,
      "hapt": 1840,
      "hard": 1841,
      "harm": 1842,
      "harmon": 1843,
      "harness": 1844,
      "harsh": 1845,
      "has": 1846,
      "hash": 1847,
      "haskell": 1848,
      "hassl": 1849,
      "hast": 1850,
      "hat": 1851,
      "haul": 1852,
      "haunt": 1853,
      "hav": 1854,
      "hazard": 1855,
      "hdd": 1856,
      "hdmi": 1857,
      "he": 1858,
      "head": 1860,
      "heal": 1860,
      "health": 1861,
      "heap": 1862,
      "hear": 1863,
      "heart": 1864,
      "heat": 1865,
      "heather": 1866,
      "heav": 1867,
      "heaven": 1868,
      "hedron": 1869,
      "height": 1870,
      "heir": 1871,
      "held": 1872,
      "hello": 1873,
      "help": 1874,
      "hence": 1875,
      "her": 1876,
      "here": 1877,
      "hereby": 1878,
      "hesitat": 1879,
      "heter": 1880,
      "heuristic": 1881,
      "hex": 1882,
      "hi": 1883,
      "hiber": 1884,
      "hid": 1885,
      "hierarch": 1886,
      "high": 1887,
      "hijack": 1888,
      "him": 1889,
      "hinder": 1890,
      "hindranc": 1891,
      "hint": 1892,
      "hir": 1893,
      "his": 1894,
      "hist": 1895,
      "histor": 1896,
      "hit": 1898,
      "hither": 1898,
      "hiv": 1899,
      "hold": 1900,
      "holi": 1901,
      "holistic": 1902,
      "holo": 1903,
      "home": 1904,
      "homo": 1905,
      "homogen": 1906,
      "honest": 1907,
      "honour": 1908,
      "hood": 1909,
      "hook": 1911,
      "hop": 1911,
      "horizon": 1912,
      "horribl": 1913,
      "horror": 1914,
      "hospit": 1915,
      "host": 1916,
      "hot": 1917,
      "hour": 1918,
      "house": 1919,
      "hover": 1920,
      "how": 1921,
      "html": 1922,
      "http": 1923,
      "hub": 1924,
      "huge": 1925,
      "human": 1926,
      "humbl": 1927,
      "humour": 1928,
      "hundred": 1929,
      "hung": 1930,
      "hunt": 1931,
      "hurr": 1932,
      "hurt": 1933,
      "husband": 1934,
      "hush": 1935,
      "hybrid": 1936,
      "hype": 1937,
      "hyper": 1938,
      "hypoth": 1939,
      "ic": 1940,
      "icon": 1941,
      "idea": 1942,
      "ideal": 1943,
      "ident": 1944,
      "identif": 1946,
      "idiom": 1946,
      "idol": 1947,
      "ight": 1948,
      "ignit": 1949,
      "ignor": 1950,
      "ill": 1951,
      "illuminat": 1952,
      "illus": 1953,
      "illustrat": 1954,
      "imag": 1955,
      "imagin": 1956,
      "imbue": 1957,
      "imburs": 1958,
      "imitat": 1959,
      "immediat": 1960,
      "immens": 1961,
      "immers": 1962,
      "imminent": 1963,
      "immut": 1964,
      "impact": 1965,
      "impair": 1966,
      "impart": 1967,
      "imped": 1968,
      "impel": 1969,
      "impend": 1970,
      "impersonat": 1971,
      "impertinen": 1972,
      "impet": 1973,
      "impl": 1974,
      "implant": 1975,
      "implement": 1976,
      "implicat": 1977,
      "implicit": 1978,
      "import": 1980,
      "impos": 1980,
      "impossibl": 1981,
      "impress": 1982,
      "improv": 1983,
      "impuden": 1984,
      "impuls": 1985,
      "impur": 1986,
      "imput": 1987,
      "inaugurat": 1988,
      "incent": 1989,
      "incept": 1990,
      "inch": 1991,
      "incident": 1992,
      "incit": 1993,
      "inclin": 1994,
      "includ": 1995,
      "inclus": 1996,
      "incognito": 1997,
      "increas": 1998,
      "incredibl": 1999,
      "increment": 2000,
      "incubat": 2001,
      "incur": 2002,
      "indebt": 2003,
      "indeed": 2004,
      "indelibl": 2005,
      "indent": 2006,
      "index": 2007,
      "indic": 2008,
      "indicat": 2009,
      "indign": 2010,
      "individual": 2011,
      "indolen": 2012,
      "induc": 2013,
      "induct": 2014,
      "indulg": 2015,
      "industr": 2016,
      "inert": 2017,
      "infect": 2018,
      "infer": 2019,
      "inflat": 2020,
      "inflect": 2021,
      "inflict": 2022,
      "info": 2023,
      "inforc": 2024,
      "inform": 2025,
      "infra": 2026,
      "infring": 2027,
      "infus": 2028,
      "ing": 2029,
      "ingen": 2030,
      "ingest": 2031,
      "ingrain": 2032,
      "ingrat": 2033,
      "ingress": 2034,
      "inherent": 2035,
      "inherit": 2036,
      "inhibit": 2037,
      "inimitab": 2038,
      "init": 2039,
      "initiat": 2040,
      "inject": 2041,
      "injur": 2042,
      "ink": 2043,
      "inlin": 2044,
      "innate": 2045,
      "inner": 2046,
      "inno": 2047,
      "innocent": 2048,
      "innovat": 2049,
      "input": 2050,
      "inquir": 2051,
      "insan": 2052,
      "insert": 2053,
      "insight": 2054,
      "insinuat": 2055,
      "insist": 2056,
      "inso": 2057,
      "insolen": 2058,
      "inspect": 2059,
      "inspir": 2060,
      "inst": 2061,
      "instabil": 2062,
      "install": 2063,
      "instanc": 2064,
      "instant": 2065,
      "instat": 2066,
      "instead": 2067,
      "instigat": 2068,
      "instinct": 2069,
      "institut": 2070,
      "instruct": 2071,
      "instrument": 2072,
      "insuff": 2073,
      "insult": 2074,
      "insur": 2075,
      "integr": 2076,
      "intel": 2077,
      "intellect": 2078,
      "intelli": 2079,
      "inten": 2080,
      "intend": 2081,
      "intens": 2082,
      "intent": 2083,
      "inter": 2084,
      "interact": 2085,
      "intercept": 2086,
      "interest": 2087,
      "interfac": 2088,
      "interfer": 2089,
      "intermiss": 2090,
      "intern": 2091,
      "internet": 2092,
      "interpolat": 2093,
      "interpret": 2094,
      "interrupt": 2095,
      "interval": 2096,
      "interven": 2097,
      "intim": 2098,
      "into": 2099,
      "intra": 2100,
      "intract": 2101,
      "intric": 2102,
      "intrigu": 2103,
      "intrinsic": 2104,
      "intro": 2105,
      "intrusiv": 2106,
      "intuit": 2107,
      "inur": 2108,
      "invad": 2109,
      "invent": 2110,
      "invers": 2111,
      "invert": 2112,
      "invest": 2113,
      "investigat": 2114,
      "invigorat": 2115,
      "invit": 2116,
      "invocat": 2117,
      "invok": 2118,
      "involv": 2119,
      "ion": 2120,
      "is": 2121,
      "isolat": 2122,
      "issu": 2123,
      "istic": 2124,
      "it": 2125,
      "item": 2126,
      "itera": 2127,
      "ity": 2128,
      "jam": 2129,
      "january": 2130,
      "jasmin": 2131,
      "java": 2132,
      "jdk": 2133,
      "jdo": 2134,
      "jealous": 2135,
      "jenkins": 2136,
      "jest": 2137,
      "jet": 2138,
      "jinja": 2139,
      "jira": 2140,
      "jitter": 2141,
      "job": 2142,
      "joic": 2143,
      "join": 2144,
      "jok": 2145,
      "joomla": 2146,
      "jott": 2147,
      "journ": 2148,
      "journal": 2149,
      "joy": 2150,
      "jpeg": 2151,
      "jpg": 2152,
      "jre": 2153,
      "json": 2154,
      "judg": 2155,
      "judic": 2156,
      "juggl": 2157,
      "july": 2158,
      "jump": 2159,
      "junct": 2160,
      "june": 2161,
      "junior": 2162,
      "junk": 2163,
      "jupyter": 2164,
      "just": 2165,
      "justic": 2166,
      "justif": 2167,
      "jut": 2168,
      "jvm": 2169,
      "jwt": 2170,
      "kanban": 2171,
      "kde": 2172,
      "keen": 2173,
      "keep": 2174,
      "kept": 2176,
      "keras": 2176,
      "kernel": 2177,
      "key": 2178,
      "kick": 2179,
      "kill": 2180,
      "kilo": 2181,
      "kind": 2182,
      "king": 2183,
      "kit": 2184,
      "kivy": 2185,
      "knack": 2186,
      "knew": 2187,
      "knock": 2188,
      "know": 2189,
      "knowledg": 2190,
      "kotlin": 2191,
      "kubernet": 2192,
      "lab": 2193,
      "label": 2194,
      "labo": 2195,
      "laborator": 2196,
      "lace": 2197,
      "lack": 2198,
      "lag": 2199,
      "lagrang": 2200,
      "laid": 2201,
      "lambd": 2202,
      "lan": 2203,
      "lanc": 2204,
      "land": 2205,
      "lang": 2206,
      "languag": 2207,
      "lap": 2208,
      "laps": 2209,
      "laravel": 2210,
      "large": 2211,
      "lash": 2212,
      "last": 2213,
      "latch": 2214,
      "late": 2215,
      "laten": 2216,
      "lateral": 2217,
      "latin": 2218,
      "latitud": 2219,
      "latter": 2220,
      "laugh": 2221,
      "launch": 2222,
      "lavish": 2223,
      "law": 2224,
      "lay": 2225,
      "layer": 2226,
      "layout": 2227,
      "laz": 2228,
      "lda": 2229,
      "lead": 2230,
      "leaf": 2231,
      "leak": 2232,
      "lean": 2233,
      "leap": 2234,
      "learn": 2235,
      "leas": 2236,
      "leav": 2237,
      "lect": 2238,
      "led": 2239,
      "left": 2240,
      "legac": 2241,
      "legal": 2242,
      "legend": 2243,
      "legib": 2244,
      "legitim": 2245,
      "lemma": 2246,
      "lend": 2247,
      "length": 2248,
      "lens": 2249,
      "lent": 2250,
      "less": 2251,
      "lesson": 2252,
      "let": 2253,
      "letter": 2254,
      "level": 2255,
      "leverag": 2256,
      "leverat": 2257,
      "lexic": 2259,
      "liab": 2259,
      "lib": 2260,
      "liberal": 2261,
      "libert": 2262,
      "libr": 2263,
      "licens": 2264,
      "licentious": 2265,
      "lidar": 2266,
      "lie": 2267,
      "life": 2268,
      "lift": 2269,
      "light": 2270,
      "lik": 2271,
      "limit": 2272,
      "line": 2273,
      "lingu": 2274,
      "linguist": 2275,
      "link": 2276,
      "linux": 2277,
      "liquidat": 2278,
      "list": 2279,
      "listen": 2280,
      "liter": 2281,
      "litera": 2282,
      "littl": 2283,
      "liv": 2284,
      "llama": 2285,
      "llm": 2286,
      "llvm": 2287,
      "load": 2288,
      "local": 2289,
      "locat": 2290,
      "lock": 2291,
      "lodg": 2292,
      "log": 2293,
      "logarithm": 2294,
      "logic": 2296,
      "logistic": 2296,
      "logit": 2297,
      "lonel": 2298,
      "long": 2299,
      "look": 2300,
      "loom": 2301,
      "loop": 2302,
      "loose": 2303,
      "los": 2304,
      "loud": 2305,
      "lov": 2306,
      "low": 2307,
      "loyal": 2308,
      "lstm": 2309,
      "luck": 2310,
      "lumin": 2311,
      "lurk": 2312,
      "luxur": 2313,
      "ly": 2314,
      "mac": 2315,
      "machin": 2316,
      "macro": 2317,
      "mad": 2318,
      "made": 2319,
      "magic": 2320,
      "magnet": 2321,
      "magnif": 2322,
      "magnitud": 2323,
      "mail": 2324,
      "main": 2325,
      "mainfram": 2326,
      "maintain": 2328,
      "mainten": 2328,
      "majest": 2329,
      "major": 2330,
      "mak": 2331,
      "male": 2332,
      "malic": 2333,
      "mama": 2334,
      "man": 2335,
      "manag": 2336,
      "mandat": 2337,
      "maneuver": 2338,
      "manifest": 2339,
      "manipul": 2340,
      "manual": 2341,
      "manufactur": 2342,
      "many": 2343,
      "map": 2344,
      "march": 2345,
      "margin": 2346,
      "marginal": 2347,
      "mark": 2348,
      "market": 2349,
      "marr": 2350,
      "marriag": 2351,
      "marshall": 2352,
      "mash": 2353,
      "mask": 2354,
      "mass": 2355,
      "master": 2356,
      "mat": 2357,
      "match": 2358,
      "material": 2359,
      "math": 2360,
      "matric": 2361,
      "matrimon": 2362,
      "matrix": 2363,
      "matter": 2364,
      "matur": 2365,
      "max": 2366,
      "may": 2367,
      "meal": 2368,
      "mean": 2369,
      "measur": 2370,
      "mechan": 2371,
      "mechanic": 2372,
      "meddl": 2373,
      "media": 2374,
      "medic": 2375,
      "meditat": 2376,
      "meet": 2377,
      "mega": 2378,
      "melanchol": 2379,
      "meld": 2380,
      "melod": 2381,
      "mem": 2382,
      "member": 2383,
      "memor": 2384,
      "men": 2385,
      "ment": 2386,
      "mention": 2387,
      "mentor": 2388,
      "menu": 2389,
      "mercant": 2390,
      "merchan": 2391,
      "mere": 2392,
      "merg": 2393,
      "merit": 2394,
      "mesh": 2395,
      "mess": 2396,
      "messag": 2397,
      "met": 2398,
      "meta": 2399,
      "metal": 2400,
      "metaphor": 2401,
      "meter": 2402,
      "method": 2403,
      "metr": 2404,
      "micro": 2405,
      "mid": 2406,
      "middl": 2407,
      "might": 2408,
      "migrat": 2410,
      "mild": 2410,
      "mile": 2411,
      "milli": 2412,
      "million": 2413,
      "mimic": 2414,
      "mind": 2415,
      "mini": 2416,
      "miniatur": 2417,
      "minif": 2418,
      "minor": 2419,
      "minus": 2420,
      "minute": 2421,
      "mirror": 2422,
      "mis": 2423,
      "miscellaneous": 2424,
      "miser": 2425,
      "miss": 2426,
      "mission": 2427,
      "mistak": 2428,
      "mitigat": 2429,
      "mix": 2430,
      "mixture": 2431,
      "mobil": 2432,
      "mock": 2433,
      "mod": 2434,
      "modal": 2435,
      "model": 2436,
      "modem": 2437,
      "moderat": 2438,
      "modern": 2439,
      "modest": 2440,
      "modif": 2441,
      "modul": 2442,
      "moment": 2443,
      "mon": 2444,
      "money": 2445,
      "mongo": 2446,
      "monitor": 2447,
      "mono": 2448,
      "monolith": 2449,
      "monoton": 2450,
      "month": 2451,
      "moon": 2452,
      "moor": 2453,
      "moral": 2454,
      "more": 2455,
      "morning": 2456,
      "morph": 2457,
      "morrow": 2458,
      "mortif": 2459,
      "most": 2460,
      "mother": 2461,
      "motion": 2462,
      "motiv": 2463,
      "motivat": 2464,
      "motor": 2465,
      "mount": 2466,
      "mountain": 2467,
      "mouse": 2468,
      "mov": 2469,
      "much": 2470,
      "mull": 2471,
      "multi": 2472,
      "multipl": 2473,
      "multiplatform": 2474,
      "multiplay": 2475,
      "multiple": 2476,
      "multiplex": 2477,
      "murmur": 2478,
      "music": 2479,
      "must": 2480,
      "mut": 2481,
      "mutab": 2482,
      "mutat": 2483,
      "mutex": 2484,
      "mutter": 2485,
      "mutual": 2486,
      "mvc": 2487,
      "mvp": 2488,
      "myster": 2489,
      "mystif": 2490,
      "nail": 2491,
      "naive": 2492,
      "nam": 2493,
      "nano": 2494,
      "narrat": 2495,
      "narrow": 2496,
      "nation": 2497,
      "nativ": 2498,
      "natur": 2499,
      "navi": 2500,
      "near": 2501,
      "neat": 2502,
      "necess": 2503,
      "neck": 2504,
      "need": 2505,
      "negat": 2506,
      "negativ": 2507,
      "neglect": 2508,
      "neglig": 2509,
      "negotiat": 2510,
      "neighbo": 2511,
      "neither": 2512,
      "nerv": 2513,
      "ness": 2514,
      "net": 2515,
      "network": 2516,
      "neur": 2517,
      "neutral": 2518,
      "never": 2519,
      "new": 2520,
      "next": 2521,
      "ng": 2522,
      "nice": 2523,
      "night": 2524,
      "nine": 2525,
      "nlp": 2526,
      "nltk": 2527,
      "no": 2528,
      "nod": 2529,
      "node": 2530,
      "nois": 2531,
      "nom": 2532,
      "nomi": 2533,
      "nominal": 2534,
      "nominat": 2535,
      "non": 2536,
      "noname": 2537,
      "nonsens": 2538,
      "noone": 2540,
      "nope": 2540,
      "norm": 2541,
      "normaliz": 2542,
      "north": 2543,
      "not": 2544,
      "notat": 2545,
      "notic": 2546,
      "notif": 2547,
      "notorious": 2548,
      "nought": 2549,
      "noun": 2550,
      "nourish": 2551,
      "novel": 2552,
      "november": 2553,
      "novic": 2554,
      "now": 2555,
      "null": 2556,
      "numb": 2557,
      "numer": 2558,
      "nurs": 2559,
      "obedien": 2560,
      "obey": 2561,
      "obfuscat": 2562,
      "object": 2563,
      "oblig": 2564,
      "obliquity": 2565,
      "obliterat": 2566,
      "obscur": 2567,
      "observ": 2568,
      "obsess": 2569,
      "obsolet": 2570,
      "obstacl": 2571,
      "obstinate": 2572,
      "obstruct": 2573,
      "obtain": 2574,
      "obtrud": 2575,
      "obviat": 2576,
      "obvious": 2577,
      "occasion": 2578,
      "occlud": 2579,
      "occup": 2580,
      "occur": 2581,
      "octa": 2582,
      "october": 2583,
      "odd": 2584,
      "oem": 2585,
      "of": 2586,
      "off": 2587,
      "offenc": 2588,
      "offend": 2589,
      "offens": 2590,
      "offer": 2591,
      "offic": 2592,
      "offset": 2593,
      "often": 2594,
      "old": 2595,
      "omit": 2596,
      "on": 2597,
      "once": 2598,
      "one": 2599,
      "onerous": 2600,
      "only": 2601,
      "opaci": 2602,
      "opaque": 2603,
      "open": 2604,
      "oper": 2605,
      "operat": 2606,
      "opinion": 2607,
      "opponent": 2608,
      "opportun": 2609,
      "oppos": 2610,
      "opposs": 2611,
      "oppress": 2612,
      "ops": 2613,
      "opt": 2614,
      "optic": 2615,
      "optim": 2616,
      "optimal": 2617,
      "optimis": 2618,
      "optimiz": 2619,
      "option": 2620,
      "or": 2621,
      "oracle": 2622,
      "order": 2623,
      "ordinar": 2624,
      "ordinat": 2625,
      "organic": 2626,
      "organiz": 2627,
      "orient": 2628,
      "origin": 2629,
      "ornament": 2630,
      "ortho": 2631,
      "oscill": 2632,
      "oscillat": 2633,
      "osten": 2634,
      "other": 2635,
      "ought": 2636,
      "oust": 2637,
      "outage": 2638,
      "outer": 2639,
      "outlast": 2640,
      "outrage": 2641,
      "over": 2642,
      "overlap": 2643,
      "overrid": 2644,
      "own": 2645,
      "pack": 2646,
      "packag": 2647,
      "pad": 2648,
      "pag": 2649,
      "paid": 2650,
      "pain": 2651,
      "paint": 2652,
      "pair": 2653,
      "palette": 2654,
      "panel": 2655,
      "paper": 2656,
      "para": 2657,
      "parabol": 2658,
      "parad": 2659,
      "paradigm": 2660,
      "paradox": 2661,
      "paragraph": 2662,
      "parallax": 2663,
      "parallel": 2664,
      "param": 2665,
      "pardon": 2666,
      "parent": 2667,
      "park": 2668,
      "pars": 2669,
      "part": 2670,
      "particip": 2671,
      "particl": 2672,
      "particul": 2673,
      "pass": 2674,
      "passag": 2675,
      "passiv": 2676,
      "past": 2677,
      "patch": 2678,
      "patent": 2679,
      "path": 2680,
      "patien": 2681,
      "patron": 2682,
      "patronag": 2683,
      "pattern": 2684,
      "paus": 2685,
      "peac": 2686,
      "peak": 2687,
      "peculiar": 2688,
      "pedia": 2689,
      "peek": 2690,
      "peep": 2691,
      "peer": 2692,
      "pen": 2693,
      "penal": 2694,
      "pencil": 2695,
      "pend": 2696,
      "penetrat": 2697,
      "pens": 2698,
      "pent": 2699,
      "peopl": 2700,
      "perceiv": 2701,
      "percent": 2702,
      "percept": 2703,
      "perfect": 2704,
      "perform": 2705,
      "period": 2706,
      "peripher": 2707,
      "perl": 2708,
      "permanent": 2709,
      "permeat": 2710,
      "permiss": 2711,
      "permit": 2712,
      "permut": 2713,
      "perpendicular": 2714,
      "perplex": 2715,
      "persever": 2716,
      "persist": 2717,
      "person": 2718,
      "perspectiv": 2719,
      "persuad": 2720,
      "persuas": 2721,
      "pertain": 2722,
      "pertin": 2723,
      "perturb": 2724,
      "perus": 2725,
      "pervad": 2726,
      "pessimi": 2727,
      "peta": 2728,
      "phase": 2729,
      "phenomen": 2730,
      "philosoph": 2731,
      "phish": 2732,
      "phone": 2733,
      "phonet": 2734,
      "photo": 2735,
      "php": 2736,
      "phras": 2737,
      "physic": 2738,
      "pick": 2739,
      "pict": 2740,
      "pictur": 2741,
      "piece": 2742,
      "pilot": 2743,
      "pin": 2744,
      "ping": 2745,
      "pioneer": 2746,
      "pip": 2747,
      "pipe": 2748,
      "pipeline": 2749,
      "pit": 2750,
      "pitch": 2751,
      "pivot": 2752,
      "pix": 2753,
      "pixel": 2754,
      "plac": 2755,
      "plagued": 2756,
      "plain": 2757,
      "plan": 2758,
      "planar": 2759,
      "plane": 2760,
      "planet": 2761,
      "plast": 2762,
      "platform": 2763,
      "plausib": 2764,
      "play": 2765,
      "plead": 2766,
      "pleas": 2767,
      "pledg": 2768,
      "plent": 2770,
      "plex": 2770,
      "plot": 2771,
      "plug": 2772,
      "plung": 2773,
      "plural": 2774,
      "plus": 2775,
      "poach": 2776,
      "pocket": 2777,
      "pod": 2778,
      "podcast": 2779,
      "poem": 2780,
      "point": 2781,
      "polar": 2782,
      "polic": 2783,
      "polit": 2784,
      "poll": 2785,
      "poly": 2786,
      "pool": 2787,
      "poor": 2788,
      "pop": 2789,
      "popular": 2790,
      "populat": 2791,
      "port": 2792,
      "portal": 2793,
      "portion": 2794,
      "pos": 2795,
      "posit": 2796,
      "positiv": 2797,
      "possess": 2798,
      "possib": 2799,
      "post": 2800,
      "postgres": 2801,
      "postpon": 2802,
      "potent": 2803,
      "pour": 2804,
      "pow": 2805,
      "power": 2806,
      "pract": 2807,
      "pragm": 2808,
      "prais": 2809,
      "pray": 2810,
      "pre": 2811,
      "preach": 2812,
      "preambl": 2813,
      "preced": 2814,
      "precedent": 2815,
      "precipit": 2816,
      "precis": 2817,
      "preclud": 2818,
      "predecess": 2819,
      "predica": 2820,
      "predict": 2821,
      "prefer": 2822,
      "prejudic": 2823,
      "preliminar": 2824,
      "premier": 2825,
      "premis": 2826,
      "preneur": 2827,
      "prepar": 2828,
      "prepend": 2829,
      "present": 2830,
      "preserv": 2831,
      "press": 2832,
      "pressur": 2833,
      "presum": 2834,
      "pretenc": 2835,
      "pretend": 2836,
      "pretens": 2837,
      "prett": 2838,
      "prevail": 2839,
      "prevent": 2840,
      "previous": 2841,
      "pric": 2842,
      "pride": 2843,
      "prim": 2844,
      "primar": 2845,
      "primitiv": 2846,
      "princip": 2847,
      "print": 2848,
      "prior": 2849,
      "privat": 2850,
      "privileg": 2851,
      "pro": 2852,
      "prob": 2853,
      "probab": 2854,
      "problem": 2855,
      "procedur": 2856,
      "proceed": 2857,
      "process": 2858,
      "processor": 2859,
      "procrastinat": 2860,
      "procur": 2861,
      "produc": 2862,
      "profess": 2863,
      "profession": 2864,
      "profic": 2865,
      "profil": 2866,
      "profit": 2867,
      "program": 2868,
      "progress": 2869,
      "prohibit": 2870,
      "project": 2871,
      "prolog": 2872,
      "prolong": 2873,
      "prominen": 2874,
      "promis": 2875,
      "promot": 2876,
      "prompt": 2877,
      "pronoun": 2878,
      "pronunc": 2879,
      "proof": 2880,
      "propagat": 2881,
      "proper": 2882,
      "propos": 2883,
      "propriet": 2884,
      "pros": 2885,
      "prospect": 2886,
      "prosper": 2887,
      "protect": 2888,
      "protest": 2889,
      "proto": 2890,
      "protocol": 2891,
      "prototyp": 2892,
      "protrud": 2893,
      "proud": 2894,
      "prov": 2895,
      "provid": 2896,
      "provis": 2897,
      "provocation": 2898,
      "provok": 2899,
      "prox": 2900,
      "proxim": 2901,
      "pruden": 2902,
      "prun": 2903,
      "pseudo": 2904,
      "publ": 2905,
      "public": 2906,
      "publish": 2907,
      "puff": 2908,
      "pull": 2909,
      "puls": 2910,
      "pump": 2911,
      "punct": 2912,
      "punish": 2913,
      "punk": 2914,
      "pupil": 2915,
      "pur": 2916,
      "purchas": 2917,
      "purpos": 2918,
      "pursu": 2919,
      "push": 2920,
      "put": 2921,
      "puzzl": 2922,
      "python": 2923,
      "quad": 2924,
      "quali": 2925,
      "quant": 2926,
      "quantif": 2927,
      "quarrel": 2928,
      "quarter": 2929,
      "quaternion": 2930,
      "queen": 2931,
      "queer": 2932,
      "quer": 2933,
      "quest": 2934,
      "question": 2935,
      "queu": 2936,
      "quick": 2937,
      "quiet": 2938,
      "quint": 2939,
      "quir": 2940,
      "quit": 2941,
      "quiz": 2942,
      "quot": 2943,
      "rac": 2944,
      "rad": 2945,
      "radiat": 2946,
      "radic": 2947,
      "radio": 2948,
      "radius": 2949,
      "rag": 2950,
      "raid": 2951,
      "rail": 2952,
      "rain": 2953,
      "rais": 2954,
      "rall": 2955,
      "ram": 2956,
      "rambl": 2957,
      "ramp": 2958,
      "ran": 2959,
      "rand": 2960,
      "random": 2961,
      "rang": 2962,
      "rank": 2963,
      "ransom": 2964,
      "rapid": 2965,
      "raptur": 2966,
      "rar": 2967,
      "raspberry": 2968,
      "raster": 2969,
      "rat": 2970,
      "rather": 2971,
      "ratio": 2972,
      "rational": 2973,
      "ravel": 2974,
      "raw": 2975,
      "ray": 2976,
      "re": 2977,
      "reach": 2978,
      "react": 2979,
      "read": 2980,
      "ready": 2981,
      "real": 2982,
      "realiz": 2983,
      "realm": 2984,
      "reanimat": 2985,
      "rear": 2986,
      "rearrang": 2987,
      "reason": 2988,
      "rebut": 2989,
      "recap": 2990,
      "recaptur": 2991,
      "receipt": 2992,
      "receiv": 2993,
      "recent": 2994,
      "recept": 2995,
      "recipe": 2996,
      "recipient": 2997,
      "reciproc": 2998,
      "reckon": 2999,
      "recogni": 3000,
      "recommend": 3001,
      "reconcil": 3002,
      "record": 3003,
      "recover": 3004,
      "recruit": 3005,
      "rectang": 3006,
      "rectif": 3007,
      "recur": 3008,
      "recurren": 3009,
      "recurs": 3010,
      "redact": 3011,
      "reduc": 3013,
      "redundan": 3013,
      "redux": 3014,
      "ref": 3015,
      "refactor": 3016,
      "refer": 3017,
      "refetch": 3018,
      "refil": 3019,
      "refill": 3020,
      "refin": 3021,
      "refit": 3022,
      "reflect": 3023,
      "reflex": 3024,
      "refocus": 3025,
      "reform": 3026,
      "reformat": 3027,
      "reformulat": 3028,
      "refract": 3029,
      "refrain": 3030,
      "refresh": 3031,
      "refund": 3032,
      "refurbish": 3033,
      "refus": 3034,
      "refut": 3035,
      "regain": 3036,
      "regard": 3038,
      "region": 3038,
      "regist": 3039,
      "regress": 3040,
      "regret": 3041,
      "regular": 3042,
      "regulat": 3043,
      "reject": 3044,
      "relat": 3045,
      "relax": 3046,
      "releas": 3047,
      "relegat": 3048,
      "relent": 3049,
      "relevan": 3050,
      "reliab": 3051,
      "relian": 3052,
      "reliev": 3053,
      "relinquish": 3054,
      "relish": 3055,
      "reluctan": 3056,
      "rely": 3057,
      "remain": 3058,
      "remed": 3059,
      "rememb": 3060,
      "remembr": 3061,
      "remind": 3062,
      "remiss": 3063,
      "remonstra": 3064,
      "remot": 3065,
      "remov": 3066,
      "render": 3067,
      "renovat": 3068,
      "rent": 3069,
      "repair": 3070,
      "repeat": 3071,
      "repetit": 3072,
      "repl": 3073,
      "repla": 3074,
      "replac": 3075,
      "replenish": 3076,
      "replet": 3077,
      "replic": 3078,
      "report": 3079,
      "repositor": 3080,
      "reprehen": 3081,
      "represent": 3082,
      "reproach": 3083,
      "reput": 3084,
      "reputa": 3085,
      "reque": 3086,
      "request": 3087,
      "requi": 3088,
      "requir": 3089,
      "requisit": 3090,
      "rescind": 3091,
      "rescu": 3092,
      "reserv": 3093,
      "reset": 3094,
      "resid": 3095,
      "resident": 3096,
      "resilien": 3097,
      "resist": 3098,
      "resolut": 3099,
      "resolv": 3100,
      "resonat": 3101,
      "respect": 3102,
      "respon": 3103,
      "rest": 3104,
      "restart": 3105,
      "restat": 3106,
      "restaurant": 3107,
      "restor": 3108,
      "restrain": 3109,
      "restrict": 3110,
      "restruct": 3111,
      "result": 3112,
      "resum": 3113,
      "resurrect": 3114,
      "retail": 3115,
      "retain": 3116,
      "retent": 3117,
      "retir": 3118,
      "retriev": 3119,
      "retro": 3120,
      "return": 3121,
      "revamp": 3122,
      "reveal": 3123,
      "revel": 3124,
      "revenue": 3125,
      "revers": 3126,
      "revert": 3127,
      "revis": 3128,
      "revisit": 3129,
      "reviv": 3130,
      "revok": 3131,
      "revolt": 3132,
      "revolut": 3133,
      "revolv": 3134,
      "reward": 3135,
      "rgb": 3136,
      "rich": 3137,
      "rid": 3138,
      "ridd": 3139,
      "ridicul": 3140,
      "right": 3141,
      "rigid": 3142,
      "rigorous": 3143,
      "rimm": 3144,
      "rip": 3145,
      "ris": 3146,
      "risk": 3147,
      "rival": 3148,
      "river": 3150,
      "rnn": 3150,
      "road": 3151,
      "roam": 3152,
      "roast": 3153,
      "robo": 3154,
      "robust": 3155,
      "rock": 3156,
      "rol": 3157,
      "roll": 3158,
      "roman": 3159,
      "room": 3160,
      "root": 3161,
      "rose": 3162,
      "rotat": 3163,
      "rough": 3164,
      "round": 3165,
      "rous": 3166,
      "rout": 3167,
      "routine": 3168,
      "row": 3169,
      "rpc": 3170,
      "rpg": 3171,
      "rsa": 3172,
      "rss": 3173,
      "rtti": 3174,
      "rubber": 3175,
      "rubric": 3176,
      "ruby": 3177,
      "rude": 3178,
      "rudimen": 3179,
      "rue": 3180,
      "rugged": 3181,
      "ruin": 3182,
      "rul": 3183,
      "rumor": 3184,
      "rumour": 3185,
      "run": 3186,
      "rush": 3187,
      "rust": 3188,
      "saas": 3189,
      "sad": 3190,
      "saf": 3191,
      "safar": 3192,
      "said": 3193,
      "sail": 3194,
      "sal": 3195,
      "salar": 3196,
      "same": 3197,
      "sampl": 3198,
      "samsung": 3199,
      "sang": 3200,
      "sanit": 3201,
      "sank": 3202,
      "satellit": 3203,
      "satisf": 3204,
      "satur": 3205,
      "saturat": 3206,
      "sauc": 3207,
      "saunter": 3208,
      "sav": 3209,
      "saw": 3210,
      "sawed": 3211,
      "sawn": 3212,
      "say": 3213,
      "scal": 3214,
      "scalar": 3215,
      "scan": 3216,
      "scap": 3217,
      "scar": 3218,
      "scatter": 3219,
      "scen": 3220,
      "scenar": 3221,
      "scept": 3222,
      "schedul": 3223,
      "schem": 3224,
      "scholar": 3225,
      "school": 3226,
      "sci": 3227,
      "scien": 3228,
      "scold": 3229,
      "scop": 3230,
      "scor": 3231,
      "scout": 3232,
      "scrab": 3233,
      "scrambl": 3234,
      "scrap": 3235,
      "scratch": 3236,
      "scream": 3237,
      "screen": 3238,
      "screw": 3239,
      "scrib": 3240,
      "script": 3241,
      "scroll": 3242,
      "scrum": 3243,
      "scrup": 3244,
      "scrut": 3245,
      "scrutiniz": 3246,
      "sdk": 3247,
      "sea": 3248,
      "seal": 3249,
      "seam": 3250,
      "search": 3251,
      "season": 3252,
      "seat": 3253,
      "second": 3254,
      "secret": 3255,
      "sect": 3256,
      "secur": 3257,
      "seduc": 3258,
      "see": 3259,
      "seed": 3260,
      "seek": 3261,
      "seem": 3262,
      "seen": 3263,
      "sees": 3264,
      "segment": 3265,
      "segregat": 3266,
      "segue": 3267,
      "seiz": 3268,
      "seldom": 3269,
      "select": 3270,
      "self": 3271,
      "sell": 3272,
      "selv": 3273,
      "semantic": 3274,
      "semaphor": 3275,
      "sembl": 3276,
      "semi": 3277,
      "seminar": 3278,
      "seminat": 3279,
      "send": 3280,
      "senior": 3281,
      "sens": 3282,
      "sensation": 3283,
      "sensitiv": 3284,
      "sensor": 3285,
      "sent": 3286,
      "sentenc": 3287,
      "sentiment": 3288,
      "seo": 3289,
      "separ": 3290,
      "september": 3291,
      "seque": 3292,
      "serial": 3293,
      "series": 3294,
      "serious": 3295,
      "serv": 3296,
      "server": 3297,
      "servic": 3298,
      "session": 3299,
      "set": 3300,
      "settl": 3301,
      "setup": 3302,
      "seven": 3303,
      "sever": 3304,
      "several": 3305,
      "sex": 3306,
      "sgd": 3307,
      "shad": 3308,
      "shadow": 3309,
      "shak": 3310,
      "shall": 3311,
      "shallow": 3312,
      "sham": 3313,
      "shap": 3314,
      "shar": 3315,
      "shard": 3316,
      "sharp": 3317,
      "she": 3318,
      "shed": 3319,
      "sheet": 3321,
      "shell": 3321,
      "shelter": 3322,
      "shift": 3323,
      "shin": 3324,
      "ship": 3325,
      "shock": 3326,
      "shoe": 3327,
      "shook": 3328,
      "shoot": 3329,
      "shop": 3330,
      "short": 3331,
      "shot": 3332,
      "should": 3333,
      "shout": 3334,
      "show": 3336,
      "shrank": 3337,
      "shrink": 3337,
      "shrunk": 3338,
      "shuffl": 3339,
      "shut": 3340,
      "shy": 3341,
      "sick": 3342,
      "side": 3343,
      "sigh": 3344,
      "sight": 3345,
      "sign": 3346,
      "signal": 3347,
      "signatur": 3348,
      "signif": 3349,
      "silen": 3350,
      "silhouett": 3351,
      "silicon": 3352,
      "sill": 3353,
      "silver": 3354,
      "similar": 3355,
      "simpl": 3357,
      "simplic": 3357,
      "simplif": 3358,
      "simulat": 3359,
      "simultaneous": 3360,
      "since": 3361,
      "sincere": 3362,
      "sing": 3364,
      "singl": 3364,
      "singular": 3365,
      "sink": 3366,
      "sinus": 3367,
      "sion": 3368,
      "sister": 3369,
      "sit": 3370,
      "site": 3371,
      "situat": 3372,
      "six": 3373,
      "siz": 3374,
      "size": 3375,
      "skeleton": 3376,
      "skept": 3377,
      "sketch": 3378,
      "skew": 3379,
      "skill": 3380,
      "skip": 3381,
      "sky": 3382,
      "skype": 3383,
      "slack": 3385,
      "slam": 3385,
      "slang": 3386,
      "slash": 3387,
      "slav": 3388,
      "slay": 3389,
      "sleek": 3390,
      "sleep": 3391,
      "sleet": 3392,
      "slept": 3393,
      "slew": 3394,
      "slic": 3395,
      "slid": 3396,
      "slight": 3397,
      "slim": 3398,
      "sling": 3399,
      "slip": 3400,
      "slop": 3401,
      "slot": 3402,
      "slow": 3403,
      "slugg": 3404,
      "slumber": 3405,
      "slung": 3406,
      "sly": 3407,
      "smack": 3408,
      "small": 3409,
      "smart": 3410,
      "smash": 3411,
      "smell": 3412,
      "smil": 3413,
      "smit": 3414,
      "smok": 3415,
      "smooth": 3416,
      "snap": 3417,
      "sneak": 3418,
      "sneer": 3419,
      "sniff": 3420,
      "snip": 3421,
      "snow": 3422,
      "so": 3423,
      "soap": 3424,
      "soar": 3425,
      "sober": 3426,
      "social": 3427,
      "sociat": 3428,
      "societ": 3429,
      "sock": 3430,
      "socket": 3431,
      "soft": 3432,
      "software": 3433,
      "solace": 3434,
      "sold": 3435,
      "solely": 3436,
      "solemn": 3437,
      "solicit": 3438,
      "solid": 3439,
      "solitar": 3440,
      "solution": 3441,
      "solv": 3442,
      "some": 3443,
      "son": 3444,
      "song": 3445,
      "soon": 3446,
      "sooth": 3447,
      "sophisticat": 3448,
      "sorrow": 3449,
      "sorry": 3450,
      "sort": 3451,
      "soul": 3452,
      "sound": 3453,
      "soup": 3454,
      "sourc": 3455,
      "south": 3456,
      "spac": 3457,
      "space": 3458,
      "spam": 3459,
      "span": 3460,
      "spar": 3461,
      "spark": 3462,
      "spars": 3463,
      "spatial": 3464,
      "spawn": 3465,
      "speak": 3466,
      "spec": 3467,
      "speci": 3468,
      "special": 3469,
      "specializ": 3470,
      "specif": 3472,
      "spect": 3472,
      "spectr": 3473,
      "speculat": 3474,
      "speech": 3475,
      "speed": 3476,
      "spel": 3477,
      "spen": 3478,
      "spend": 3479,
      "spher": 3480,
      "spill": 3481,
      "spin": 3482,
      "spirit": 3483,
      "spit": 3484,
      "splash": 3485,
      "splay": 3486,
      "splend": 3487,
      "splic": 3488,
      "splin": 3489,
      "split": 3490,
      "spoil": 3492,
      "spoke": 3492,
      "sponsor": 3493,
      "spontane": 3494,
      "spoof": 3495,
      "spool": 3496,
      "spoon": 3497,
      "sport": 3498,
      "spot": 3499,
      "sprang": 3500,
      "spread": 3501,
      "spring": 3502,
      "sprinkl": 3503,
      "sprint": 3504,
      "sql": 3505,
      "squar": 3506,
      "squeez": 3507,
      "stab": 3508,
      "stabil": 3509,
      "stabl": 3510,
      "stack": 3511,
      "staff": 3512,
      "stag": 3513,
      "stagnat": 3514,
      "stair": 3515,
      "stak": 3516,
      "stakeholder": 3517,
      "stale": 3518,
      "stall": 3519,
      "stamp": 3520,
      "stand": 3522,
      "standard": 3522,
      "standby": 3523,
      "star": 3524,
      "stare": 3525,
      "start": 3526,
      "stash": 3527,
      "stat": 3528,
      "static": 3529,
      "station": 3530,
      "stationar": 3531,
      "statistic": 3532,
      "status": 3533,
      "stay": 3534,
      "std": 3535,
      "stead": 3536,
      "steal": 3537,
      "steam": 3538,
      "steep": 3539,
      "steer": 3540,
      "stemm": 3541,
      "stencil": 3542,
      "step": 3543,
      "stereo": 3544,
      "stick": 3545,
      "still": 3546,
      "stimul": 3547,
      "stipulat": 3548,
      "stir": 3549,
      "stochast": 3550,
      "stock": 3551,
      "ston": 3553,
      "stood": 3553,
      "stoop": 3554,
      "stop": 3555,
      "stor": 3556,
      "storag": 3557,
      "storm": 3558,
      "story": 3559,
      "stout": 3560,
      "straggl": 3561,
      "straight": 3562,
      "strain": 3563,
      "strang": 3564,
      "strap": 3565,
      "strat": 3566,
      "strateg": 3567,
      "stratif": 3568,
      "stray": 3569,
      "stream": 3570,
      "street": 3571,
      "stren": 3572,
      "strength": 3573,
      "stress": 3575,
      "stretch": 3575,
      "strick": 3576,
      "strict": 3577,
      "strid": 3578,
      "strik": 3579,
      "string": 3580,
      "strip": 3581,
      "striv": 3582,
      "strok": 3583,
      "strong": 3584,
      "strov": 3585,
      "struct": 3586,
      "struggl": 3587,
      "stub": 3588,
      "stuck": 3589,
      "stud": 3590,
      "student": 3591,
      "studio": 3592,
      "stuff": 3593,
      "stumbl": 3594,
      "stump": 3595,
      "stun": 3596,
      "stupid": 3597,
      "styl": 3598,
      "sub": 3599,
      "subject": 3600,
      "submiss": 3601,
      "submit": 3602,
      "subscrib": 3603,
      "subsid": 3604,
      "subsist": 3605,
      "substan": 3606,
      "substantiat": 3607,
      "substitut": 3608,
      "subtl": 3609,
      "subtract": 3610,
      "succe": 3611,
      "succinct": 3612,
      "such": 3613,
      "sudden": 3614,
      "sue": 3615,
      "suffer": 3616,
      "suffic": 3617,
      "suffix": 3618,
      "suggest": 3619,
      "suit": 3620,
      "summ": 3621,
      "summa": 3622,
      "summer": 3623,
      "summit": 3624,
      "summon": 3625,
      "sun": 3626,
      "sung": 3627,
      "sunk": 3628,
      "super": 3629,
      "supper": 3630,
      "suppl": 3631,
      "support": 3632,
      "suppos": 3633,
      "suppress": 3634,
      "suprem": 3635,
      "sure": 3636,
      "surf": 3637,
      "surfac": 3638,
      "surg": 3639,
      "surmis": 3640,
      "surpass": 3641,
      "surpris": 3642,
      "surrender": 3643,
      "surrogate": 3644,
      "surround": 3645,
      "survey": 3646,
      "surviv": 3647,
      "suspect": 3648,
      "suspend": 3649,
      "suspens": 3650,
      "suspic": 3651,
      "sustain": 3652,
      "svd": 3653,
      "svg": 3654,
      "svm": 3655,
      "svn": 3656,
      "swap": 3657,
      "sway": 3658,
      "swear": 3659,
      "sweep": 3660,
      "sweet": 3661,
      "swell": 3662,
      "swift": 3663,
      "swin": 3664,
      "swip": 3665,
      "swish": 3666,
      "switch": 3667,
      "swoop": 3668,
      "swung": 3669,
      "syllabl": 3670,
      "symbol": 3671,
      "symmetr": 3672,
      "sympath": 3673,
      "sync": 3674,
      "synonym": 3675,
      "synt": 3676,
      "syntax": 3677,
      "synth": 3678,
      "synthes": 3679,
      "synthet": 3680,
      "sys": 3681,
      "system": 3682,
      "tab": 3683,
      "tabl": 3684,
      "tabul": 3685,
      "tackl": 3686,
      "tact": 3687,
      "tactic": 3688,
      "tag": 3689,
      "tail": 3690,
      "tailor": 3691,
      "tak": 3692,
      "take": 3693,
      "talent": 3694,
      "talk": 3695,
      "tall": 3696,
      "tam": 3697,
      "tamper": 3698,
      "tangent": 3699,
      "tangl": 3700,
      "tap": 3702,
      "target": 3702,
      "task": 3703,
      "tast": 3704,
      "taught": 3705,
      "tax": 3706,
      "tea": 3707,
      "teach": 3708,
      "team": 3709,
      "tear": 3710,
      "teas": 3711,
      "tech": 3712,
      "techni": 3713,
      "technolog": 3714,
      "tedious": 3715,
      "tele": 3716,
      "tell": 3717,
      "temp": 3718,
      "temper": 3719,
      "temperatur": 3720,
      "templat": 3721,
      "tempor": 3722,
      "tempt": 3723,
      "tenacious": 3724,
      "tend": 3725,
      "tendenc": 3726,
      "tender": 3727,
      "tens": 3728,
      "tensor": 3729,
      "tentat": 3730,
      "tera": 3731,
      "term": 3732,
      "termin": 3733,
      "terminal": 3734,
      "terminat": 3735,
      "terrain": 3736,
      "terribl": 3737,
      "terrif": 3738,
      "tessellat": 3739,
      "test": 3740,
      "tether": 3741,
      "text": 3742,
      "than": 3743,
      "thank": 3744,
      "that": 3745,
      "thaw": 3746,
      "the": 3747,
      "theft": 3748,
      "their": 3749,
      "them": 3750,
      "then": 3751,
      "theor": 3752,
      "theorem": 3753,
      "ther": 3754,
      "there": 3755,
      "thereby": 3756,
      "therm": 3757,
      "thes": 3758,
      "thesa": 3759,
      "thesis": 3760,
      "thest": 3761,
      "theta": 3762,
      "they": 3763,
      "thick": 3764,
      "thin": 3765,
      "thing": 3766,
      "think": 3767,
      "thir": 3768,
      "third": 3769,
      "thirt": 3770,
      "this": 3771,
      "thither": 3772,
      "thorough": 3773,
      "those": 3774,
      "though": 3775,
      "thought": 3776,
      "thous": 3777,
      "thousand": 3778,
      "thread": 3779,
      "threat": 3780,
      "three": 3781,
      "thres": 3782,
      "threw": 3783,
      "thrift": 3784,
      "thrill": 3785,
      "thriv": 3786,
      "through": 3787,
      "throw": 3788,
      "thumb": 3789,
      "thunder": 3790,
      "thunk": 3791,
      "thus": 3792,
      "thwart": 3793,
      "tick": 3794,
      "ticket": 3795,
      "tier": 3796,
      "tight": 3797,
      "til": 3798,
      "till": 3799,
      "tilt": 3800,
      "tim": 3801,
      "time": 3802,
      "timid": 3803,
      "tinker": 3804,
      "tiny": 3805,
      "tion": 3806,
      "tip": 3807,
      "tir": 3808,
      "titl": 3809,
      "to": 3810,
      "toggl": 3811,
      "token": 3812,
      "told": 3813,
      "tolera": 3814,
      "tolerat": 3815,
      "tong": 3816,
      "too": 3817,
      "took": 3818,
      "tool": 3819,
      "tooth": 3820,
      "top": 3821,
      "topic": 3822,
      "topolog": 3823,
      "torch": 3824,
      "torrent": 3825,
      "total": 3826,
      "touch": 3827,
      "tough": 3828,
      "tour": 3829,
      "tournament": 3830,
      "tout": 3831,
      "town": 3832,
      "trac": 3833,
      "track": 3834,
      "tract": 3835,
      "trad": 3836,
      "tradition": 3837,
      "traff": 3838,
      "trail": 3839,
      "train": 3840,
      "trait": 3841,
      "trajector": 3842,
      "tranquil": 3843,
      "trans": 3844,
      "transact": 3845,
      "transceiv": 3846,
      "transcend": 3847,
      "transclud": 3848,
      "transcrib": 3849,
      "transcript": 3850,
      "transduc": 3851,
      "transduct": 3852,
      "transfer": 3853,
      "transform": 3854,
      "transgress": 3855,
      "transient": 3856,
      "transist": 3857,
      "transit": 3858,
      "translat": 3859,
      "transliterat": 3860,
      "transmiss": 3861,
      "transmit": 3862,
      "transparen": 3863,
      "transpil": 3864,
      "transplant": 3865,
      "transport": 3866,
      "transpos": 3867,
      "trap": 3868,
      "trash": 3869,
      "travel": 3870,
      "travers": 3871,
      "tread": 3872,
      "treasur": 3873,
      "treat": 3874,
      "tree": 3875,
      "trembl": 3876,
      "tremend": 3877,
      "trend": 3878,
      "trial": 3879,
      "triang": 3880,
      "triangul": 3881,
      "trick": 3882,
      "trifl": 3883,
      "trigger": 3884,
      "trim": 3885,
      "tripl": 3886,
      "triumph": 3887,
      "trivial": 3888,
      "trop": 3889,
      "troubl": 3890,
      "tru": 3891,
      "true": 3892,
      "truncat": 3894,
      "trunk": 3894,
      "trust": 3895,
      "truth": 3896,
      "try": 3897,
      "tun": 3898,
      "tunel": 3899,
      "tunnel": 3900,
      "tupl": 3901,
      "turbo": 3902,
      "turn": 3903,
      "tutor": 3904,
      "tweak": 3905,
      "tweet": 3906,
      "twelve": 3907,
      "twent": 3908,
      "twice": 3909,
      "twiddl": 3910,
      "twin": 3911,
      "twink": 3912,
      "twist": 3913,
      "twitch": 3914,
      "twitter": 3915,
      "two": 3916,
      "txt": 3917,
      "typ": 3918,
      "type": 3919,
      "typic": 3920,
      "typo": 3921,
      "ubiquit": 3922,
      "ubuntu": 3923,
      "ugl": 3924,
      "uint": 3925,
      "ultimat": 3926,
      "ultra": 3927,
      "unar": 3928,
      "under": 3929,
      "understand": 3930,
      "understood": 3931,
      "underwent": 3932,
      "unfurl": 3933,
      "unicode": 3934,
      "unicorn": 3935,
      "unif": 3936,
      "unifi": 3937,
      "uniform": 3938,
      "union": 3939,
      "unique": 3940,
      "unit": 3941,
      "unity": 3942,
      "univers": 3943,
      "unix": 3944,
      "unleash": 3945,
      "untaint": 3946,
      "until": 3947,
      "unveil": 3948,
      "uous": 3949,
      "upbraid": 3950,
      "updat": 3951,
      "upgrad": 3952,
      "upon": 3953,
      "upped": 3954,
      "upper": 3955,
      "upset": 3956,
      "urban": 3957,
      "urg": 3958,
      "url": 3960,
      "us": 3960,
      "usab": 3961,
      "usag": 3962,
      "usb": 3963,
      "use": 3964,
      "user": 3965,
      "usual": 3966,
      "utf": 3967,
      "util": 3968,
      "utmost": 3969,
      "utter": 3970,
      "ux": 3971,
      "vacan": 3972,
      "vacat": 3973,
      "vagar": 3974,
      "vague": 3975,
      "vain": 3976,
      "val": 3977,
      "valen": 3978,
      "valenc": 3979,
      "valent": 3980,
      "valid": 3981,
      "valley": 3982,
      "valu": 3983,
      "vanish": 3984,
      "vanit": 3985,
      "variab": 3986,
      "variabl": 3987,
      "variad": 3989,
      "varianc": 3989,
      "variant": 3990,
      "variat": 3991,
      "varie": 3992,
      "various": 3993,
      "vary": 3994,
      "vast": 3995,
      "vaunt": 3996,
      "vector": 3997,
      "vehicl": 3998,
      "vendor": 3999,
      "ventilat": 4000,
      "ventur": 4001,
      "venue": 4002,
      "verb": 4003,
      "verbos": 4004,
      "veri": 4005,
      "verif": 4006,
      "verity": 4007,
      "vers": 4008,
      "versa": 4009,
      "version": 4010,
      "versus": 4011,
      "vertex": 4012,
      "vertic": 4013,
      "very": 4014,
      "vexat": 4015,
      "vga": 4016,
      "vgg": 4017,
      "via": 4018,
      "viab": 4019,
      "vib": 4020,
      "vibr": 4021,
      "vici": 4022,
      "vict": 4023,
      "video": 4024,
      "view": 4025,
      "vigorous": 4026,
      "vigour": 4027,
      "village": 4028,
      "vindic": 4029,
      "violat": 4030,
      "violen": 4031,
      "viral": 4032,
      "virtual": 4033,
      "virtue": 4034,
      "virus": 4035,
      "vis": 4036,
      "visib": 4037,
      "vision": 4038,
      "visit": 4039,
      "visual": 4040,
      "vocabular": 4041,
      "vocal": 4042,
      "vocat": 4043,
      "voic": 4044,
      "void": 4045,
      "volatil": 4046,
      "volt": 4047,
      "volub": 4048,
      "volum": 4049,
      "volunt": 4050,
      "vot": 4051,
      "vouch": 4052,
      "vpn": 4053,
      "vr": 4054,
      "vs": 4055,
      "vue": 4056,
      "vulgar": 4057,
      "vulner": 4058,
      "wait": 4059,
      "waiv": 4060,
      "wak": 4061,
      "walk": 4062,
      "wall": 4063,
      "wander": 4064,
      "want": 4065,
      "war": 4066,
      "ward": 4067,
      "ware": 4068,
      "warm": 4069,
      "warn": 4070,
      "warp": 4071,
      "warrant": 4072,
      "was": 4073,
      "wash": 4074,
      "wasm": 4075,
      "wast": 4076,
      "watch": 4077,
      "water": 4078,
      "wav": 4079,
      "way": 4080,
      "we": 4081,
      "weak": 4082,
      "wear": 4083,
      "web": 4084,
      "webinar": 4085,
      "wedg": 4086,
      "week": 4087,
      "weigh": 4088,
      "weight": 4089,
      "weird": 4090,
      "welcom": 4091,
      "weld": 4092,
      "well": 4093,
      "went": 4094,
      "were": 4095,
      "west": 4096,
      "what": 4097,
      "whelm": 4098,
      "when": 4099,
      "whence": 4100,
      "where": 4101,
      "which": 4102,
      "while": 4103,
      "whilst": 4104,
      "whim": 4105,
      "whip": 4106,
      "whirl": 4107,
      "whisp": 4108,
      "white": 4109,
      "whither": 4110,
      "who": 4111,
      "whole": 4112,
      "whop": 4113,
      "why": 4114,
      "wick": 4115,
      "wide": 4116,
      "widget": 4117,
      "widow": 4118,
      "width": 4119,
      "wield": 4120,
      "wife": 4121,
      "wifi": 4122,
      "wiki": 4123,
      "wild": 4124,
      "will": 4125,
      "willing": 4126,
      "win": 4127,
      "wind": 4128,
      "window": 4129,
      "winter": 4130,
      "wip": 4131,
      "wire": 4132,
      "wise": 4133,
      "wish": 4134,
      "with": 4135,
      "within": 4136,
      "without": 4137,
      "witness": 4138,
      "wizard": 4139,
      "woke": 4140,
      "woman": 4141,
      "women": 4142,
      "won": 4143,
      "wonder": 4144,
      "wont": 4145,
      "wood": 4146,
      "wor": 4147,
      "word": 4148,
      "work": 4149,
      "world": 4150,
      "worr": 4151,
      "wors": 4152,
      "worship": 4153,
      "worth": 4154,
      "would": 4155,
      "wound": 4156,
      "wrap": 4157,
      "wreak": 4158,
      "wretch": 4159,
      "wright": 4160,
      "writ": 4161,
      "wrong": 4162,
      "wrote": 4163,
      "www": 4164,
      "x64": 4165,
      "x86": 4166,
      "xml": 4167,
      "xor": 4168,
      "yaml": 4169,
      "yeah": 4170,
      "year": 4171,
      "yellow": 4172,
      "yes": 4173,
      "yet": 4174,
      "yield": 4175,
      "you": 4176,
      "young": 4177,
      "your": 4178,
      "youth": 4179,
      "youtub": 4180,
      "zero": 4181,
      "zip": 4182,
      "zon": 4183,
      "zoom": 4184,
      "##0": 4185,
      "##1": 4186,
      "##2": 4187,
      "##3": 4188,
      "##4": 4189,
      "##5": 4190,
      "##6": 4191,
      "##7": 4192,
      "##8": 4193,
      "##9": 4194,
      "##est": 4195,
      "##edly": 4196,
      "##ful": 4197,
      "##day": 4198,
      "##after": 4199,
      "##in": 4200,
      "##ing": 4201,
      "##ive": 4202,
      "##is": 4203,
      "##er": 4204,
      "##es": 4205,
      "##ed": 4206,
      "##ion": 4207,
      "##ment": 4208,
      "##less": 4209,
      "##ness": 4210,
      "##ly": 4211,
      "##al": 4212,
      "##ally": 4213,
      "##ous": 4214,
      "##ability": 4215,
      "##able": 4216,
      "##ably": 4217,
      "##ely": 4218,
      "##ently": 4219,
      "##ately": 4220,
      "##tion": 4221,
      "##ity": 4222,
      "##or": 4223,
      "##ior": 4224,
      "##up": 4225,
      "##out": 4226,
      "##about": 4227,
      "##over": 4228,
      "##fore": 4229,
      "##upon": 4230,
      "##self": 4231,
      "##time": 4232,
      "##ware": 4233,
      "##ever": 4234,
      "##some": 4235,
      "##back": 4236,
      "##ic": 4237,
      "##pad": 4238,
      "##mat": 4239,
      "##plot": 4240,
      "##lib": 4241,
      "##graph": 4242,
      "##shop": 4243,
      "##real": 4244,
      "##math": 4245,
      "##atic": 4246,
      "##noon": 4247,
      "##logic": 4248,
      "##load": 4249,
      "##ify": 4250,
      "##of": 4251,
      "##off": 4252,
      "##date": 4253,
      "##on": 4254,
      "##down": 4255,
      "##work": 4256,
      "##code": 4257,
      "##type": 4258,
      "##cod": 4259
    }
  }
}