{
  "version": "1.0",
  "truncation": null,
  "padding": null,
  "added_tokens": [
    {
      "id": 0,
      "content": "[PAD]",
      "single_word": false,
      "lstrip": false,
      "rstrip": false,
      "normalized": false,
      "special": true
    },
    {
      "id": 1,
      "content": "[UNK]",
      "single_word": false,
      "lstrip": false,
      "rstrip": false,
      "normalized": false,
      "special": true
    },
    {
      "id": 2,
      "content": "[CLS]",
      "single_word": false,
      "lstrip": false,
      "rstrip": false,
      "normalized": false,
      "special": true
    },
    {
      "id": 3,
      "content": "[SEP]",
      "single_word": false,
      "lstrip": false,
      "rstrip": false,
      "normalized": false,
      "special": true
    },
    {
      "id": 4,
      "content": "[MASK]",
      "single_word": false,
      "lstrip": false,
      "rstrip": false,
      "normalized": false,
      "special": true
    },
    {
      "id": 5,
      "content": "##a",
      "single_word": false,
      "lstrip": false,
      "rstrip": false,
      "normalized": false,
      "special": true
    },
    {
      "id": 6,
      "content": "##b",
      "single_word": false,
      "lstrip": false,
      "rstrip": false,
      "normalized": false,
      "special": true
    },
    {
      "id": 7,
      "content": "##c",
      "single_word": false,
      "lstrip": false,
      "rstrip": false,
      "normalized": false,
      "special": true
    },
    {
      "id": 8,
      "content": "##d",
      "single_word": false,
      "lstrip": false,
      "rstrip": false,
      "normalized": false,
      "special": true
    },
    {
      "id": 9,
      "content": "##e",
      "single_word": false,
      "lstrip": false,
      "rstrip": false,
      "normalized": false,
      "special": true
    },
    {
      "id": 10,
      "content": "##f",
      "single_word": false,
      "lstrip": false,
      "rstrip": false,
      "normalized": false,
      "special": true
    },
    {
      "id": 11,
      "content": "##g",
      "single_word": false,
      "lstrip": false,
      "rstrip": false,
      "normalized": false,
      "special": true
    },
    {
      "id": 12,
      "content": "##h",
      "single_word": false,
      "lstrip": false,
      "rstrip": false,
      "normalized": false,
      "special": true
    },
    {
      "id": 13,
      "content": "##i",
      "single_word": false,
      "lstrip": false,
      "rstrip": false,
      "normalized": false,
      "special": true
    },
    {
      "id": 14,
      "content": "##j",
      "single_word": false,
      "lstrip": false,
      "rstrip": false,
      "normalized": false,
      "special": true
    },
    {
      "id": 15,
      "content": "##k",
      "single_word": false,
      "lstrip": false,
      "rstrip": false,
      "normalized": false,
      "special": true
    },
    {
      "id": 16,
      "content": "##l",
      "single_word": false,
      "lstrip": false,
      "rstrip": false,
      "normalized": false,
      "special": true
    },
    {
      "id": 17,
      "content": "##m",
      "single_word": false,
      "lstrip": false,
      "rstrip": false,
      "normalized": false,
      "special": true
    },
    {
      "id": 18,
      "content": "##n",
      "single_word": false,
      "lstrip": false,
      "rstrip": false,
      "normalized": false,
      "special": true
    },
    {
      "id": 19,
      "content": "##o",
      "single_word": false,
      "lstrip": false,
      "rstrip": false,
      "normalized": false,
      "special": true
    },
    {
      "id": 20,
      "content": "##p",
      "single_word": false,
      "lstrip": false,
      "rstrip": false,
      "normalized": false,
      "special": true
    },
    {
      "id": 21,
      "content": "##q",
      "single_word": false,
      "lstrip": false,
      "rstrip": false,
      "normalized": false,
      "special": true
    },
    {
      "id": 22,
      "content": "##r",
      "single_word": false,
      "lstrip": false,
      "rstrip": false,
      "normalized": false,
      "special": true
    },
    {
      "id": 23,
      "content": "##s",
      "single_word": false,
      "lstrip": false,
      "rstrip": false,
      "normalized": false,
      "special": true
    },
    {
      "id": 24,
      "content": "##t",
      "single_word": false,
      "lstrip": false,
      "rstrip": false,
      "normalized": false,
      "special": true
    },
    {
      "id": 25,
      "content": "##u",
      "single_word": false,
      "lstrip": false,
      "rstrip": false,
      "normalized": false,
      "special": true
    },
    {
      "id": 26,
      "content": "##v",
      "single_word": false,
      "lstrip": false,
      "rstrip": false,
      "normalized": false,
      "special": true
    },
    {
      "id": 27,
      "content": "##w",
      "single_word": false,
      "lstrip": false,
      "rstrip": false,
      "normalized": false,
      "special": true
    },
    {
      "id": 28,
      "content": "##x",
      "single_word": false,
      "lstrip": false,
      "rstrip": false,
      "normalized": false,
      "special": true
    },
    {
      "id": 29,
      "content": "##y",
      "single_word": false,
      "lstrip": false,
      "rstrip": false,
      "normalized": false,
      "special": true
    },
    {
      "id": 30,
      "content": "##z",
      "single_word": false,
      "lstrip": false,
      "rstrip": false,
      "normalized": false,
      "special": true
    }
  ],
  "normalizer": {
    "type": "BertNormalizer",
    "clean_text": true,
    "handle_chinese_chars": true,
    "strip_accents": true,
    "lowercase": true
  },
  "pre_tokenizer": {
    "type": "BertPreTokenizer"
  },
  "post_processor": null,
  "decoder": {
    "type": "WordPiece",
    "prefix": "##",
    "cleanup": true
  },
  "model": {
    "type": "WordPiece",
    "unk_token": "[UNK]",
    "continuing_subword_prefix": "##",
    "max_input_chars_per_word": 100,
    "vocab": {
      "[PAD]": 0,
      "[UNK]": 1,
      "[CLS]": 2,
      "[SEP]": 3,
      "[MASK]": 4,
      "##a": 5,
      "##b": 6,
      "##c": 7,
      "##d": 8,
      "##e": 9,
      "##f": 10,
      "##g": 11,
      "##h": 12,
      "##i": 13,
      "##j": 14,
      "##k": 15,
      "##l": 16,
      "##m": 17,
      "##n": 18,
      "##o": 19,
      "##p": 20,
      "##q": 21,
      "##r": 22,
      "##s": 23,
      "##t": 24,
      "##u": 25,
      "##v": 26,
      "##w": 27,
      "##x": 28,
      "##y": 29,
      "##z": 30,
      "+": 31,
      "-": 32,
      "0": 33,
      "1": 34,
      "2": 35,
      "3": 36,
      "4": 37,
      "5": 38,
      "6": 39,
      "7": 40,
      "8": 41,
      "9": 42,
      "_": 43,
      "a": 44,
      "b": 45,
      "c": 46,
      "d": 47,
      "e": 48,
      "f": 49,
      "g": 50,
      "h": 51,
      "i": 52,
      "j": 53,
      "k": 54,
      "l": 55,
      "m": 56,
      "n": 57,
      "o": 58,
      "p": 59,
      "q": 60,
      "r": 61,
      "s": 62,
      "t": 63,
      "u": 64,
      "v": 65,
      "w": 66,
      "x": 67,
      "y": 68,
      "z": 69,
      ".js": 70,
      "abandon": 71,
      "abat": 72,
      "abbreviat": 73,
      "aberrant": 74,
      "abhor": 75,
      "abid": 76,
      "ability": 77,
      "ablat": 78,
      "able": 79,
      "aboli": 80,
      "abomina": 81,
      "abort": 82,
      "abound": 83,
      "about": 84,
      "above": 85,
      "abreast": 86,
      "abrogat": 87,
      "abrupt": 88,
      "abscond": 89,
      "absen": 90,
      "absolut": 91,
      "absorb": 92,
      "abstain": 93,
      "abstract": 94,
      "abundan": 95,
      "abus": 96,
      "academ": 97,
      "acced": 98,
      "accelerat": 99,
      "accent": 100,
      "accept": 101,
      "access": 102,
      "accident": 103,
      "acclaim": 104,
      "accommodat": 105,
      "accomplish": 106,
      "accord": 107,
      "account": 108,
      "accrue": 109,
      "accumulat": 110,
      "accur": 111,
      "accus": 112,
      "ache": 113,
      "achiev": 114,
      "acoust": 115,
      "acquaint": 116,
      "acquies": 117,
      "acquir": 118,
      "acquisition": 119,
      "acquit": 120,
      "acronym": 121,
      "act": 122,
      "action": 123,
      "activ": 124,
      "activat": 125,
      "actual": 126,
      "actuat": 127,
      "acute": 128,
      "ada": 129,
      "adapt": 130,
      "add": 131,
      "addendum": 132,
      "addict": 133,
      "addit": 134,
      "address": 135,
      "adept": 136,
      "adequat": 137,
      "adher": 138,
      "adjacen": 139,
      "adjectiv": 140,
      "adjoin": 141,
      "adjust": 142,
      "admin": 143,
      "admir": 144,
      "admiss": 145,
      "admit": 146,
      "adopt": 147,
      "ador": 148,
      "adorn": 149,
      "advanc": 150,
      "advantag": 151,
      "adventur": 152,
      "advers": 153,
      "advert": 154,
      "advic": 155,
      "advis": 156,
      "adware": 157,
      "affab": 158,
      "affair": 159,
      "affect": 160,
      "affiliat": 161,
      "affin": 162,
      "affirm": 163,
      "affix": 164,
      "afflict": 165,
      "afford": 166,
      "affront": 167,
      "afraid": 168,
      "after": 169,
      "again": 170,
      "against": 171,
      "age": 172,
      "agenc": 173,
      "agenda": 174,
      "agent": 175,
      "agglomerat": 176,
      "aggravat": 177,
      "aggregat": 178,
      "aggress": 179,
      "aghast": 180,
      "agil": 181,
      "agitat": 182,
      "ago": 183,
      "agree": 184,
      "ahead": 185,
      "aim": 186,
      "air": 187,
      "ajax": 188,
      "aka": 189,
      "al": 190,
      "alack": 191,
      "alacrit": 192,
      "alarm": 193,
      "alert": 194,
      "alex": 195,
      "algebra": 196,
      "algorithm": 197,
      "alias": 198,
      "align": 199,
      "alike": 200,
      "alive": 201,
      "all": 202,
      "alleg": 203,
      "allegor": 204,
      "alleviat": 205,
      "alli": 206,
      "allianc": 207,
      "allocat": 208,
      "allot": 209,
      "allow": 210,
      "allud": 211,
      "allus": 212,
      "ally": 213,
      "alone": 214,
      "along": 215,
      "aloud": 216,
      "alpha": 217,
      "alphabet": 218,
      "already": 219,
      "also": 220,
      "alter": 221,
      "alternat": 222,
      "although": 223,
      "always": 224,
      "am": 225,
      "amass": 226,
      "amaz": 227,
      "amazon": 228,
      "ambi": 229,
      "ambient": 230,
      "ambigu": 231,
      "ambit": 232,
      "amend": 233,
      "amiabl": 234,
      "amid": 235,
      "amiss": 236,
      "amo": 237,
      "among": 238,
      "amount": 239,
      "amper": 240,
      "ampersand": 241,
      "ampl": 242,
      "amplic": 243,
      "amplif": 244,
      "amplitud": 245,
      "amus": 246,
      "an": 247,
      "analog": 248,
      "analys": 249,
      "analytic": 250,
      "analyz": 251,
      "anchor": 252,
      "ancient": 253,
      "and": 254,
      "android": 255,
      "anew": 256,
      "angel": 257,
      "angl": 258,
      "angular": 259,
      "anim": 260,
      "animat": 261,
      "anneal": 262,
      "anniversary": 263,
      "annotat": 264,
      "announc": 265,
      "annoy": 266,
      "annual": 267,
      "anomal": 268,
      "anonym": 269,
      "ansi": 270,
      "ansible": 271,
      "answer": 272,
      "antenn": 273,
      "anti": 274,
      "anticipat": 275,
      "anxious": 276,
      "any": 277,
      "apache": 278,
      "apart": 279,
      "apartment": 280,
      "apertur": 281,
      "api": 282,
      "apolog": 283,
      "apostrophe": 284,
      "app": 285,
      "apparent": 286,
      "appeal": 287,
      "appear": 288,
      "appeas": 289,
      "appellation": 290,
      "append": 291,
      "appl": 292,
      "applaud": 293,
      "apple": 294,
      "applet": 295,
      "applianc": 296,
      "applic": 297,
      "appoint": 298,
      "apposit": 299,
      "apprais": 300,
      "apprecia": 301,
      "apprehen": 302,
      "approach": 303,
      "approb": 304,
      "appropriat": 305,
      "approv": 306,
      "approximat": 307,
      "april": 308,
      "apt": 309,
      "aptly": 310,
      "arbit": 311,
      "arch": 312,
      "architect": 313,
      "archiv": 314,
      "ardent": 315,
      "arduino": 316,
      "arduous": 317,
      "are": 318,
      "area": 319,
      "argu": 320,
      "argument": 321,
      "aris": 322,
      "arithmet": 323,
      "arm": 324,
      "around": 325,
      "arrang": 326,
      "array": 327,
      "arrear": 328,
      "arriv": 329,
      "arrogan": 330,
      "arrow": 331,
      "art": 332,
      "arti": 333,
      "articl": 334,
      "articulat": 335,
      "artist": 336,
      "as": 337,
      "asap": 338,
      "ascend": 339,
      "ascent": 340,
      "ascertain": 341,
      "ascii": 342,
      "ascrib": 343,
      "asham": 344,
      "aside": 345,
      "ask": 346,
      "asm": 347,
      "asp": 348,
      "aspect": 349,
      "asper": 350,
      "aspir": 351,
      "assail": 352,
      "assault": 353,
      "assembl": 354,
      "assent": 355,
      "assert": 356,
      "assess": 357,
      "asset": 358,
      "assid": 359,
      "assign": 360,
      "assist": 361,
      "associat": 362,
      "assort": 363,
      "assuag": 364,
      "assum": 365,
      "assur": 366,
      "assuranc": 367,
      "astonish": 368,
      "astound": 369,
      "astray": 370,
      "asunder": 371,
      "asymmetr": 372,
      "asymptot": 373,
      "async": 374,
      "atic": 375,
      "ativ": 376,
      "atlas": 377,
      "atmo": 378,
      "atom": 379,
      "aton": 380,
      "attach": 381,
      "attack": 382,
      "attain": 383,
      "attempt": 384,
      "attend": 385,
      "attent": 386,
      "attenuat": 387,
      "attest": 388,
      "attorn": 389,
      "attract": 390,
      "attribut": 391,
      "attrit": 392,
      "audi": 393,
      "audio": 394,
      "audit": 395,
      "augment": 396,
      "august": 397,
      "auth": 398,
      "authent": 399,
      "author": 400,
      "auto": 401,
      "autonom": 402,
      "autumn": 403,
      "auxiliar": 404,
      "avail": 405,
      "avatar": 406,
      "averag": 407,
      "avert": 408,
      "avoid": 409,
      "awak": 410,
      "award": 411,
      "aware": 412,
      "away": 413,
      "awe": 414,
      "awful": 415,
      "awk": 416,
      "aws": 417,
      "axes": 418,
      "axiom": 419,
      "axis": 420,
      "azure": 421,
      "back": 422,
      "bad": 423,
      "badg": 424,
      "baffl": 425,
      "bag": 426,
      "balanc": 427,
      "ball": 428,
      "ban": 429,
      "band": 430,
      "banish": 431,
      "bar": 432,
      "bas": 433,
      "base": 434,
      "bash": 435,
      "basic": 436,
      "basis": 437,
      "bat": 438,
      "batch": 439,
      "batter": 440,
      "battle": 441,
      "bayes": 442,
      "be": 443,
      "beam": 444,
      "bear": 445,
      "beat": 446,
      "beaut": 447,
      "became": 448,
      "because": 449,
      "becom": 450,
      "been": 451,
      "befor": 452,
      "beg": 453,
      "began": 454,
      "begin": 455,
      "begun": 456,
      "behav": 457,
      "behavio": 458,
      "behaviou": 459,
      "behind": 460,
      "belief": 461,
      "believ": 462,
      "bell": 463,
      "belong": 464,
      "bench": 465,
      "bend": 467,
      "beneath": 467,
      "benefic": 468,
      "benefit": 469,
      "bent": 470,
      "bereav": 471,
      "bereft": 472,
      "bert": 473,
      "beside": 474,
      "best": 475,
      "bestow": 476,
      "beta": 477,
      "betray": 478,
      "between": 479,
      "beyond": 480,
      "bi": 481,
      "bias": 482,
      "bifurcat": 483,
      "big": 484,
      "bigram": 485,
      "bill": 486,
      "bin": 487,
      "binanc": 488,
      "bind": 489,
      "bing": 490,
      "bio": 491,
      "bion": 492,
      "bios": 493,
      "bird": 494,
      "bisect": 495,
      "bit": 496,
      "black": 497,
      "blam": 498,
      "blank": 499,
      "bleak": 500,
      "blend": 501,
      "bless": 502,
      "blew": 503,
      "blind": 504,
      "blink": 505,
      "blob": 506,
      "block": 507,
      "blog": 508,
      "bloom": 509,
      "blossom": 510,
      "blow": 511,
      "blue": 512,
      "blund": 513,
      "blunt": 514,
      "blur": 515,
      "board": 516,
      "boast": 517,
      "body": 518,
      "boil": 519,
      "bold": 520,
      "bond": 521,
      "bone": 522,
      "bonus": 523,
      "book": 524,
      "bool": 525,
      "boom": 526,
      "boost": 527,
      "boot": 528,
      "bor": 529,
      "border": 530,
      "born": 531,
      "borrow": 532,
      "boss": 533,
      "bot": 534,
      "both": 535,
      "bother": 536,
      "bottle": 537,
      "bottom": 538,
      "bought": 539,
      "bounc": 540,
      "bound": 541,
      "bow": 542,
      "bowl": 543,
      "box": 544,
      "boy": 545,
      "brac": 546,
      "brack": 547,
      "brag": 548,
      "brain": 549,
      "brak": 550,
      "branch": 551,
      "brand": 552,
      "brave": 553,
      "breach": 554,
      "break": 555,
      "breath": 556,
      "brevity": 557,
      "bridg": 558,
      "brief": 559,
      "bright": 560,
      "bring": 561,
      "brisk": 562,
      "broach": 563,
      "broad": 564,
      "broke": 565,
      "brother": 566,
      "brought": 567,
      "brows": 568,
      "brush": 569,
      "btw": 570,
      "buch": 571,
      "bucket": 572,
      "budget": 573,
      "buf": 574,
      "bug": 575,
      "buil": 576,
      "bulk": 577,
      "bump": 578,
      "bunch": 579,
      "bundl": 580,
      "bur": 581,
      "burn": 582,
      "burst": 583,
      "bus": 584,
      "business": 585,
      "but": 586,
      "button": 587,
      "buy": 588,
      "by": 589,
      "bye": 590,
      "byte": 591,
      "cable": 592,
      "cach": 593,
      "cad": 594,
      "calcul": 595,
      "calendar": 596,
      "calibrat": 597,
      "call": 598,
      "calm": 599,
      "cam": 600,
      "came": 601,
      "camera": 602,
      "camp": 603,
      "campaign": 604,
      "campus": 605,
      "can": 606,
      "cancel": 607,
      "candid": 608,
      "candidat": 609,
      "canonical": 610,
      "canvas": 611,
      "capab": 612,
      "capacit": 613,
      "capital": 614,
      "caps": 615,
      "capsul": 616,
      "capt": 617,
      "captcha": 618,
      "caption": 619,
      "captivat": 620,
      "captur": 621,
      "car": 622,
      "card": 623,
      "cardinal": 624,
      "care": 625,
      "carr": 626,
      "cart": 627,
      "carv": 628,
      "cas": 629,
      "cascad": 630,
      "case": 631,
      "cast": 632,
      "catalog": 633,
      "catch": 634,
      "categor": 635,
      "caught": 636,
      "caus": 637,
      "cautio": 638,
      "cbow": 639,
      "ceas": 640,
      "ceil": 641,
      "celebrat": 642,
      "cell": 643,
      "center": 644,
      "centr": 645,
      "ceremon": 646,
      "certain": 647,
      "certif": 648,
      "chain": 649,
      "chair": 650,
      "challeng": 651,
      "champ": 652,
      "chanc": 653,
      "chang": 654,
      "channel": 655,
      "chao": 656,
      "chapt": 657,
      "char": 658,
      "character": 659,
      "charg": 660,
      "charit": 661,
      "charm": 662,
      "chart": 663,
      "chat": 664,
      "cheap": 665,
      "cheat": 666,
      "check": 667,
      "cheer": 668,
      "chief": 669,
      "child": 670,
      "chin": 671,
      "chip": 672,
      "choic": 673,
      "choos": 674,
      "chop": 675,
      "chose": 676,
      "chrom": 677,
      "chronologic": 678,
      "chunk": 679,
      "cipher": 680,
      "circl": 681,
      "circuit": 682,
      "circular": 683,
      "circulat": 684,
      "circum": 685,
      "cisco": 686,
      "citation": 687,
      "civil": 688,
      "claim": 689,
      "clamp": 690,
      "clarif": 691,
      "clarity": 692,
      "clash": 693,
      "class": 694,
      "classif": 695,
      "clause": 696,
      "clean": 697,
      "clear": 698,
      "clever": 699,
      "cli": 700,
      "click": 701,
      "client": 702,
      "climb": 703,
      "cling": 704,
      "clip": 705,
      "clobber": 706,
      "clock": 707,
      "clog": 708,
      "clon": 709,
      "clos": 710,
      "cloth": 711,
      "cloud": 712,
      "club": 713,
      "clue": 714,
      "cluster": 715,
      "clutter": 716,
      "cmd": 717,
      "cmos": 718,
      "cms": 719,
      "cnn": 720,
      "coach": 721,
      "coaxial": 722,
      "cobol": 723,
      "cocoa": 724,
      "cod": 725,
      "code": 726,
      "codif": 727,
      "coefficient": 728,
      "coffee": 729,
      "cofound": 730,
      "cognit": 731,
      "coheren": 732,
      "cohesi": 733,
      "coin": 734,
      "coincid": 735,
      "cold": 736,
      "collaborat": 737,
      "collaps": 738,
      "collat": 739,
      "colleague": 740,
      "collect": 741,
      "college": 742,
      "collid": 743,
      "collinear": 744,
      "collis": 745,
      "collud": 746,
      "collung": 747,
      "colon": 748,
      "color": 749,
      "colour": 750,
      "column": 751,
      "combat": 752,
      "combin": 753,
      "combo": 754,
      "come": 755,
      "comfort": 756,
      "comfy": 757,
      "coming": 758,
      "comma": 759,
      "command": 760,
      "commenc": 761,
      "commend": 762,
      "comment": 763,
      "commerc": 764,
      "commiserat": 765,
      "commiss": 766,
      "commit": 767,
      "commodit": 768,
      "common": 769,
      "commun": 770,
      "communic": 771,
      "commut": 772,
      "compact": 773,
      "compan": 774,
      "compar": 775,
      "compass": 776,
      "compat": 777,
      "compel": 778,
      "compensat": 779,
      "compet": 780,
      "competen": 781,
      "compil": 782,
      "complacen": 783,
      "complai": 784,
      "complement": 785,
      "complet": 786,
      "complex": 787,
      "compli": 788,
      "complian": 789,
      "complicat": 790,
      "compliment": 791,
      "comply": 792,
      "component": 793,
      "compos": 794,
      "compound": 795,
      "comprehen": 796,
      "compres": 797,
      "compris": 798,
      "compromis": 799,
      "compuls": 800,
      "comput": 801,
      "computer": 802,
      "concatenat": 803,
      "concav": 804,
      "conceal": 805,
      "conced": 806,
      "conceit": 807,
      "conceiv": 808,
      "concentrat": 809,
      "concept": 810,
      "concern": 811,
      "concert": 812,
      "concess": 813,
      "conciliat": 814,
      "concis": 815,
      "conclud": 816,
      "conclusi": 817,
      "concord": 818,
      "concret": 819,
      "concurr": 820,
      "condemn": 821,
      "condens": 822,
      "condit": 823,
      "condolenc": 824,
      "conduc": 825,
      "conduct": 826,
      "cone": 827,
      "confer": 828,
      "conferenc": 829,
      "confes": 830,
      "confid": 831,
      "config": 832,
      "confin": 833,
      "confirm": 834,
      "conflat": 835,
      "conflict": 836,
      "confluen": 837,
      "conform": 838,
      "confound": 839,
      "confront": 840,
      "confus": 841,
      "congest": 842,
      "congrat": 843,
      "congratulat": 844,
      "congregat": 845,
      "congress": 846,
      "congru": 847,
      "congruent": 848,
      "conjectur": 849,
      "conjuga": 850,
      "conjunct": 851,
      "connect": 852,
      "conniv": 853,
      "conquer": 854,
      "conscious": 855,
      "consecutiv": 856,
      "consent": 857,
      "conserv": 858,
      "consider": 859,
      "consist": 860,
      "consol": 861,
      "consonan": 862,
      "conspic": 863,
      "conspir": 864,
      "const": 865,
      "constit": 866,
      "constrain": 867,
      "construct": 868,
      "consult": 869,
      "consum": 870,
      "contact": 871,
      "contain": 872,
      "contemp": 873,
      "contemplat": 874,
      "contempt": 875,
      "contend": 876,
      "content": 877,
      "contest": 878,
      "context": 879,
      "contigu": 880,
      "contingen": 881,
      "continu": 882,
      "contour": 883,
      "contr": 884,
      "contract": 885,
      "contradict": 886,
      "contrast": 887,
      "contribut": 888,
      "contrit": 889,
      "contriv": 890,
      "control": 891,
      "controver": 892,
      "conundrum": 893,
      "conv": 894,
      "conven": 895,
      "convenien": 896,
      "convent": 897,
      "converg": 898,
      "convers": 899,
      "convert": 900,
      "convex": 901,
      "convey": 902,
      "convict": 903,
      "convinc": 904,
      "conviv": 905,
      "convol": 906,
      "cook": 907,
      "cool": 908,
      "cooperat": 909,
      "coordinat": 910,
      "copi": 911,
      "copy": 912,
      "cord": 913,
      "core": 914,
      "corner": 915,
      "corollar": 916,
      "coroutin": 917,
      "corpora": 918,
      "corpus": 919,
      "correct": 920,
      "correlat": 921,
      "correspond": 922,
      "corroborat": 923,
      "corrupt": 924,
      "cosin": 925,
      "cost": 926,
      "couch": 927,
      "could": 928,
      "counsel": 929,
      "count": 930,
      "coupl": 931,
      "courag": 932,
      "cours": 933,
      "couth": 934,
      "cover": 935,
      "covet": 936,
      "cpu": 937,
      "crack": 938,
      "craft": 939,
      "cramp": 940,
      "crank": 941,
      "crash": 942,
      "crav": 943,
      "crawl": 944,
      "creat": 945,
      "creden": 946,
      "credib": 947,
      "credit": 948,
      "cri": 949,
      "crim": 950,
      "cris": 951,
      "criteri": 952,
      "critic": 953,
      "critique": 954,
      "crm": 955,
      "croach": 956,
      "cron": 957,
      "crop": 958,
      "cross": 959,
      "crowd": 960,
      "crucial": 961,
      "crude": 962,
      "crumbl": 963,
      "crunch": 964,
      "crush": 965,
      "crux": 966,
      "cry": 967,
      "crypt": 968,
      "crypto": 969,
      "crystal": 970,
      "css": 971,
      "cub": 972,
      "cuda": 973,
      "cull": 974,
      "culminat": 975,
      "cultivat": 976,
      "cultur": 977,
      "cumulat": 978,
      "cur": 979,
      "curat": 980,
      "curio": 981,
      "curl": 982,
      "currenc": 983,
      "current": 984,
      "cursor": 985,
      "curtail": 986,
      "curv": 987,
      "custom": 988,
      "cut": 989,
      "cyber": 990,
      "cycl": 991,
      "dabbl": 992,
      "daemon": 993,
      "damag": 994,
      "damp": 995,
      "danc": 996,
      "dang": 997,
      "danger": 998,
      "dangl": 999,
      "dar": 1000,
      "dark": 1001,
      "darl": 1002,
      "dart": 1003,
      "dash": 1004,
      "dat": 1005,
      "data": 1006,
      "date": 1007,
      "daughter": 1008,
      "daunt": 1009,
      "dawdl": 1010,
      "day": 1011,
      "dbc": 1012,
      "dbms": 1013,
      "ddr": 1014,
      "dead": 1015,
      "deal": 1016,
      "dear": 1017,
      "debat": 1018,
      "debug": 1019,
      "debut": 1020,
      "decad": 1021,
      "decay": 1022,
      "deceit": 1023,
      "deceiv": 1024,
      "decelerat": 1025,
      "december": 1026,
      "decen": 1027,
      "decentraliz": 1028,
      "decept": 1029,
      "decid": 1030,
      "decimal": 1031,
      "decisi": 1032,
      "declar": 1033,
      "declin": 1034,
      "decorat": 1035,
      "decreas": 1036,
      "decrement": 1037,
      "dedicat": 1038,
      "deduc": 1039,
      "deed": 1040,
      "deem": 1041,
      "deep": 1042,
      "default": 1043,
      "defeat": 1044,
      "defect": 1045,
      "defenc": 1046,
      "defend": 1047,
      "defens": 1048,
      "defer": 1049,
      "defi": 1050,
      "defian": 1051,
      "defic": 1052,
      "defin": 1053,
      "definit": 1054,
      "deflat": 1055,
      "deflect": 1056,
      "deform": 1057,
      "deft": 1058,
      "defus": 1059,
      "degrad": 1060,
      "degree": 1061,
      "delay": 1062,
      "delegat": 1063,
      "delet": 1064,
      "deliberat": 1065,
      "delic": 1066,
      "delight": 1067,
      "deliver": 1068,
      "delphi": 1069,
      "delta": 1070,
      "delv": 1071,
      "demand": 1072,
      "demo": 1073,
      "demodulat": 1074,
      "demolish": 1075,
      "demonstra": 1076,
      "demot": 1077,
      "deni": 1078,
      "dens": 1079,
      "densif": 1080,
      "depart": 1081,
      "department": 1082,
      "depend": 1083,
      "depict": 1084,
      "deplet": 1085,
      "deploy": 1086,
      "deposit": 1087,
      "deprecat": 1088,
      "depreciat": 1089,
      "depreciate": 1090,
      "depress": 1091,
      "depriv": 1092,
      "depth": 1093,
      "deput": 1094,
      "deque": 1095,
      "deriv": 1096,
      "descen": 1097,
      "descri": 1098,
      "describ": 1099,
      "descript": 1100,
      "desert": 1101,
      "deserv": 1102,
      "design": 1103,
      "desir": 1104,
      "desk": 1105,
      "despit": 1106,
      "destin": 1107,
      "destroy": 1108,
      "destruct": 1109,
      "detach": 1110,
      "detail": 1111,
      "detain": 1112,
      "detect": 1113,
      "determin": 1114,
      "detract": 1115,
      "dev": 1116,
      "devalu": 1117,
      "devastat": 1118,
      "develop": 1119,
      "deviat": 1120,
      "devic": 1121,
      "devis": 1122,
      "devoid": 1123,
      "devolv": 1124,
      "devot": 1125,
      "dexter": 1126,
      "dia": 1127,
      "diagnos": 1128,
      "diagonal": 1129,
      "dial": 1130,
      "dialect": 1131,
      "dialog": 1132,
      "dict": 1133,
      "dictat": 1134,
      "did": 1135,
      "die": 1136,
      "diff": 1137,
      "differ": 1138,
      "differentia": 1139,
      "difficult": 1140,
      "diffiden": 1141,
      "diffus": 1142,
      "dig": 1143,
      "digit": 1144,
      "dignit": 1145,
      "dilat": 1146,
      "dilemma": 1147,
      "diligen": 1148,
      "dilut": 1149,
      "dimens": 1150,
      "diminish": 1151,
      "dinner": 1152,
      "diod": 1153,
      "dire": 1154,
      "direct": 1155,
      "dirt": 1156,
      "dis": 1157,
      "disabl": 1158,
      "disappoint": 1159,
      "discard": 1160,
      "discern": 1161,
      "disciplin": 1162,
      "discord": 1163,
      "discount": 1164,
      "discourag": 1165,
      "discover": 1166,
      "discreet": 1167,
      "discrep": 1168,
      "discret": 1169,
      "discriminant": 1170,
      "discriminat": 1171,
      "discuss": 1172,
      "disdain": 1173,
      "disgrac": 1174,
      "disguis": 1175,
      "disgust": 1176,
      "dish": 1177,
      "disjoin": 1178,
      "disk": 1179,
      "dismal": 1180,
      "dismiss": 1181,
      "dispar": 1182,
      "dispens": 1183,
      "dispers": 1184,
      "display": 1185,
      "dispos": 1186,
      "disposit": 1187,
      "disput": 1188,
      "disrupt": 1189,
      "dissent": 1190,
      "dissipat": 1191,
      "dissonan": 1192,
      "dissuad": 1193,
      "distan": 1194,
      "distill": 1195,
      "distinct": 1196,
      "distinguish": 1197,
      "distort": 1198,
      "distract": 1199,
      "distress": 1200,
      "distribut": 1201,
      "disturb": 1202,
      "div": 1203,
      "diverg": 1204,
      "divers": 1205,
      "diversif": 1206,
      "divert": 1207,
      "divid": 1208,
      "divis": 1209,
      "django": 1210,
      "dll": 1211,
      "dnn": 1212,
      "do": 1213,
      "doat": 1214,
      "doc": 1215,
      "dock": 1216,
      "docker": 1217,
      "doctrin": 1218,
      "document": 1219,
      "dole": 1220,
      "dom": 1221,
      "domain": 1222,
      "domestic": 1223,
      "dominan": 1224,
      "dominat": 1225,
      "donat": 1226,
      "doom": 1227,
      "door": 1228,
      "dos": 1229,
      "dot": 1230,
      "doth": 1231,
      "doubl": 1232,
      "doubt": 1233,
      "down": 1234,
      "draft": 1235,
      "drag": 1236,
      "drain": 1237,
      "dram": 1238,
      "drama": 1239,
      "drank": 1241,
      "drastic": 1241,
      "draw": 1242,
      "dread": 1243,
      "dream": 1244,
      "dress": 1245,
      "drew": 1246,
      "drill": 1247,
      "drink": 1248,
      "driv": 1249,
      "dron": 1250,
      "drop": 1251,
      "drown": 1252,
      "drunk": 1253,
      "drupal": 1254,
      "dry": 1255,
      "dual": 1256,
      "dub": 1257,
      "duc": 1258,
      "duck": 1259,
      "due": 1260,
      "dull": 1261,
      "dump": 1262,
      "duo": 1263,
      "dup": 1264,
      "dupl": 1265,
      "durab": 1266,
      "duration": 1267,
      "during": 1269,
      "dusk": 1269,
      "dust": 1270,
      "dut": 1271,
      "dwel": 1272,
      "dwindl": 1273,
      "dynam": 1274,
      "each": 1275,
      "eager": 1276,
      "ear": 1277,
      "earl": 1278,
      "earn": 1280,
      "earth": 1280,
      "eas": 1281,
      "east": 1282,
      "eat": 1283,
      "ebriet": 1284,
      "echo": 1285,
      "eclips": 1286,
      "ecma": 1287,
      "ecolog": 1288,
      "econom": 1289,
      "ed": 1290,
      "edge": 1291,
      "edit": 1292,
      "educat": 1293,
      "effect": 1294,
      "effic": 1295,
      "efficien": 1296,
      "effort": 1297,
      "eigen": 1298,
      "eight": 1299,
      "either": 1300,
      "eject": 1301,
      "elaborat": 1302,
      "elaps": 1303,
      "elastic": 1304,
      "elde": 1305,
      "elect": 1306,
      "electr": 1308,
      "electrif": 1308,
      "electron": 1309,
      "elegan": 1310,
      "element": 1311,
      "elevat": 1312,
      "elicit": 1313,
      "eligib": 1314,
      "eliminat": 1315,
      "ellip": 1316,
      "elongat": 1317,
      "else": 1318,
      "elucidat": 1319,
      "elud": 1320,
      "elusiv": 1321,
      "embark": 1322,
      "embarrass": 1323,
      "embed": 1324,
      "embellish": 1325,
      "ember": 1326,
      "emblem": 1327,
      "embod": 1328,
      "embrac": 1329,
      "emerg": 1330,
      "eminen": 1331,
      "emiss": 1332,
      "emit": 1333,
      "emotion": 1334,
      "emphas": 1335,
      "emphat": 1336,
      "empir": 1337,
      "employ": 1338,
      "empt": 1339,
      "emulat": 1340,
      "enabl": 1341,
      "enact": 1342,
      "encapsulat": 1343,
      "enchant": 1344,
      "encumb": 1345,
      "end": 1346,
      "endeav": 1347,
      "endors": 1348,
      "endur": 1349,
      "enem": 1350,
      "energ": 1351,
      "enforc": 1352,
      "engag": 1353,
      "engine": 1354,
      "engross": 1355,
      "enhanc": 1356,
      "enjoy": 1357,
      "enlarg": 1358,
      "enough": 1359,
      "enquir": 1360,
      "enroll": 1361,
      "ensembl": 1362,
      "ensu": 1363,
      "ensur": 1364,
      "entail": 1365,
      "entangl": 1366,
      "enter": 1367,
      "enterpris": 1368,
      "entertain": 1369,
      "enthusiast": 1370,
      "entic": 1371,
      "entire": 1372,
      "entit": 1373,
      "entitl": 1374,
      "entr": 1375,
      "entrain": 1376,
      "entrance": 1377,
      "entrant": 1378,
      "entrap": 1379,
      "entre": 1380,
      "entreat": 1381,
      "entrench": 1382,
      "entrop": 1384,
      "entropic": 1384,
      "entrust": 1385,
      "enum": 1386,
      "enumer": 1387,
      "envelop": 1388,
      "envi": 1389,
      "environ": 1390,
      "envision": 1391,
      "epic": 1392,
      "epilog": 1393,
      "episod": 1394,
      "epoch": 1395,
      "equal": 1396,
      "equaliz": 1397,
      "equat": 1398,
      "equi": 1399,
      "equip": 1400,
      "equit": 1401,
      "er": 1402,
      "eradicate": 1403,
      "eras": 1404,
      "ergonom": 1405,
      "erlang": 1406,
      "errand": 1407,
      "errant": 1408,
      "erroneous": 1409,
      "error": 1410,
      "es": 1411,
      "escalat": 1412,
      "escap": 1413,
      "escort": 1414,
      "especial": 1415,
      "essen": 1416,
      "essential": 1417,
      "establish": 1418,
      "estate": 1419,
      "esteem": 1420,
      "estima": 1421,
      "etc": 1422,
      "etern": 1423,
      "ether": 1424,
      "euclid": 1425,
      "euler": 1426,
      "euro": 1427,
      "evad": 1428,
      "evaluat": 1429,
      "evaporat": 1430,
      "evas": 1431,
      "even": 1432,
      "evening": 1433,
      "event": 1434,
      "ever": 1435,
      "every": 1436,
      "evict": 1437,
      "eviden": 1438,
      "evok": 1439,
      "evolut": 1440,
      "evolv": 1441,
      "exact": 1442,
      "exaggerat": 1443,
      "exam": 1444,
      "examin": 1445,
      "exampl": 1446,
      "exceed": 1447,
      "excel": 1448,
      "except": 1449,
      "excess": 1450,
      "excit": 1451,
      "exclud": 1452,
      "exclus": 1453,
      "exclusiv": 1454,
      "excus": 1455,
      "exec": 1456,
      "execut": 1457,
      "exempl": 1458,
      "exempt": 1459,
      "exercis": 1460,
      "exert": 1461,
      "exhaust": 1462,
      "exhibit": 1463,
      "exigen": 1464,
      "exist": 1465,
      "exit": 1466,
      "expand": 1467,
      "expans": 1468,
      "expect": 1469,
      "expedien": 1470,
      "expedit": 1471,
      "expedite": 1472,
      "expend": 1473,
      "expens": 1474,
      "experien": 1475,
      "experiment": 1476,
      "expert": 1477,
      "expir": 1478,
      "explain": 1479,
      "explanat": 1480,
      "explic": 1481,
      "explod": 1482,
      "exploit": 1483,
      "explor": 1484,
      "explos": 1485,
      "exponent": 1486,
      "export": 1487,
      "expos": 1488,
      "expound": 1489,
      "express": 1490,
      "exten": 1491,
      "extenuat": 1492,
      "exterior": 1493,
      "extern": 1494,
      "extinguish": 1495,
      "extra": 1496,
      "extract": 1497,
      "extrapolat": 1498,
      "extravagan": 1499,
      "extrem": 1500,
      "extricat": 1501,
      "extrinsic": 1502,
      "exult": 1503,
      "eye": 1504,
      "fabl": 1505,
      "fabric": 1506,
      "fac": 1507,
      "face": 1508,
      "facilit": 1509,
      "fact": 1510,
      "factor": 1511,
      "fad": 1512,
      "fail": 1513,
      "faint": 1514,
      "fair": 1516,
      "faith": 1516,
      "fake": 1517,
      "fall": 1518,
      "false": 1519,
      "fame": 1520,
      "famil": 1521,
      "familiar": 1522,
      "famous": 1523,
      "fan": 1524,
      "fanc": 1525,
      "fantas": 1526,
      "faq": 1527,
      "far": 1528,
      "fare": 1529,
      "farth": 1530,
      "fascinat": 1531,
      "fashion": 1532,
      "fast": 1533,
      "fasten": 1534,
      "fastidious": 1535,
      "fat": 1536,
      "fatal": 1537,
      "father": 1538,
      "fatig": 1539,
      "fault": 1540,
      "favo": 1541,
      "fear": 1542,
      "feasib": 1543,
      "featur": 1544,
      "february": 1545,
      "federal": 1546,
      "federat": 1547,
      "feebl": 1548,
      "feed": 1549,
      "feel": 1550,
      "fees": 1551,
      "feet": 1552,
      "feign": 1553,
      "felic": 1554,
      "fell": 1555,
      "fellow": 1556,
      "felt": 1557,
      "female": 1558,
      "femin": 1559,
      "fenc": 1560,
      "fend": 1561,
      "festiv": 1562,
      "fetch": 1563,
      "few": 1564,
      "ficat": 1565,
      "ficial": 1566,
      "fickl": 1567,
      "fide": 1568,
      "fidel": 1569,
      "fidget": 1570,
      "field": 1571,
      "fift": 1572,
      "fight": 1573,
      "figur": 1574,
      "file": 1575,
      "fill": 1576,
      "filt": 1577,
      "filtrat": 1578,
      "fin": 1579,
      "final": 1580,
      "financ": 1581,
      "find": 1582,
      "fine": 1583,
      "finger": 1584,
      "finish": 1585,
      "finit": 1586,
      "fir": 1587,
      "fire": 1588,
      "firm": 1589,
      "first": 1590,
      "fish": 1591,
      "fit": 1592,
      "five": 1593,
      "fix": 1594,
      "fixat": 1595,
      "flag": 1596,
      "flam": 1597,
      "flare": 1598,
      "flash": 1599,
      "flask": 1600,
      "flat": 1601,
      "flav": 1602,
      "flaw": 1603,
      "flect": 1604,
      "fled": 1605,
      "flee": 1606,
      "fleet": 1607,
      "flew": 1608,
      "flex": 1609,
      "fli": 1610,
      "flick": 1611,
      "flight": 1612,
      "fling": 1613,
      "flip": 1614,
      "flirt": 1615,
      "float": 1616,
      "flock": 1617,
      "flood": 1618,
      "floor": 1619,
      "flopp": 1620,
      "flourish": 1621,
      "flow": 1622,
      "fluctuat": 1623,
      "fluen": 1624,
      "fluff": 1625,
      "flung": 1626,
      "flurr": 1627,
      "flush": 1628,
      "flutter": 1629,
      "flux": 1630,
      "fly": 1631,
      "focal": 1632,
      "focus": 1633,
      "fold": 1634,
      "foll": 1635,
      "follow": 1636,
      "fond": 1637,
      "font": 1638,
      "food": 1639,
      "fool": 1640,
      "foot": 1641,
      "fopp": 1642,
      "for": 1643,
      "foray": 1644,
      "forb": 1645,
      "forbid": 1646,
      "forc": 1647,
      "fore": 1648,
      "forebod": 1649,
      "foresee": 1650,
      "forest": 1651,
      "foretell": 1652,
      "forever": 1653,
      "forfeit": 1654,
      "forgav": 1655,
      "forge": 1656,
      "forget": 1657,
      "forgiv": 1658,
      "forgo": 1659,
      "forgot": 1660,
      "fork": 1661,
      "form": 1662,
      "formaliz": 1663,
      "format": 1664,
      "formul": 1665,
      "formulat": 1666,
      "forswear": 1667,
      "forth": 1668,
      "fortif": 1669,
      "fortran": 1670,
      "fortun": 1671,
      "forum": 1672,
      "forward": 1673,
      "fought": 1674,
      "found": 1675,
      "four": 1676,
      "fox": 1677,
      "fps": 1678,
      "fract": 1679,
      "fraction": 1680,
      "fragil": 1681,
      "fragment": 1682,
      "fragran": 1683,
      "fram": 1684,
      "framework": 1685,
      "franca": 1686,
      "frantic": 1687,
      "fraud": 1688,
      "free": 1689,
      "freez": 1690,
      "frequen": 1691,
      "fresh": 1692,
      "fri": 1693,
      "friend": 1694,
      "fright": 1695,
      "from": 1696,
      "front": 1697,
      "froz": 1698,
      "frugal": 1699,
      "fruit": 1700,
      "frustrat": 1701,
      "frustum": 1702,
      "ftp": 1703,
      "fuck": 1704,
      "fuel": 1705,
      "ful": 1706,
      "fulfil": 1707,
      "full": 1708,
      "fumbl": 1709,
      "fun": 1710,
      "func": 1711,
      "fund": 1712,
      "fundament": 1713,
      "funder": 1714,
      "fungib": 1715,
      "funnel": 1716,
      "furbish": 1717,
      "furcat": 1718,
      "further": 1719,
      "fus": 1720,
      "futur": 1721,
      "fuzz": 1722,
      "gadget": 1723,
      "gain": 1724,
      "gallant": 1725,
      "galler": 1726,
      "gam": 1727,
      "gambl": 1728,
      "game": 1729,
      "gamif": 1730,
      "gan": 1731,
      "gap": 1732,
      "garbag": 1733,
      "garment": 1734,
      "gat": 1735,
      "gather": 1736,
      "gaug": 1737,
      "gauss": 1738,
      "gave": 1739,
      "gaz": 1740,
      "gb": 1741,
      "gcc": 1742,
      "geek": 1743,
      "gem": 1745,
      "gemini": 1745,
      "gen": 1746,
      "gener": 1747,
      "general": 1748,
      "generat": 1749,
      "generic": 1750,
      "genet": 1751,
      "geni": 1752,
      "gentl": 1753,
      "genuin": 1754,
      "geo": 1755,
      "gestur": 1756,
      "get": 1758,
      "gether": 1758,
      "ghost": 1759,
      "giant": 1760,
      "gift": 1761,
      "gig": 1762,
      "giga": 1763,
      "gigant": 1764,
      "girl": 1765,
      "gist": 1766,
      "git": 1767,
      "giv": 1768,
      "glad": 1769,
      "glanc": 1770,
      "glar": 1771,
      "glass": 1772,
      "glean": 1773,
      "glee": 1774,
      "glimps": 1775,
      "glitch": 1776,
      "glob": 1777,
      "gloom": 1778,
      "glor": 1779,
      "gloss": 1780,
      "glow": 1781,
      "glue": 1782,
      "glyph": 1783,
      "gnome": 1784,
      "gnu": 1785,
      "go": 1786,
      "goal": 1787,
      "gold": 1788,
      "gonal": 1789,
      "good": 1790,
      "googl": 1791,
      "gorgeous": 1792,
      "got": 1793,
      "goto": 1794,
      "govern": 1795,
      "gps": 1796,
      "gpt": 1797,
      "gpu": 1798,
      "grab": 1799,
      "grace": 1800,
      "gracious": 1801,
      "grad": 1802,
      "gradat": 1803,
      "gradient": 1804,
      "gradl": 1805,
      "gradual": 1806,
      "graduat": 1807,
      "gram": 1808,
      "gramm": 1809,
      "grand": 1810,
      "grant": 1811,
      "granular": 1812,
      "graph": 1813,
      "graphic": 1814,
      "grappl": 1815,
      "grasp": 1816,
      "grat": 1817,
      "grate": 1818,
      "gratif": 1820,
      "grav": 1820,
      "gravit": 1821,
      "gray": 1822,
      "great": 1823,
      "greed": 1824,
      "greet": 1825,
      "grep": 1826,
      "grew": 1827,
      "grid": 1828,
      "griev": 1829,
      "grind": 1830,
      "grip": 1831,
      "groom": 1832,
      "groov": 1833,
      "gross": 1834,
      "ground": 1835,
      "group": 1836,
      "grow": 1837,
      "grpc": 1838,
      "grudg": 1839,
      "gruel": 1840,
      "grunt": 1841,
      "gsm": 1842,
      "guarante": 1843,
      "guard": 1844,
      "guess": 1845,
      "guest": 1846,
      "gui": 1847,
      "guid": 1848,
      "guilt": 1849,
      "habit": 1850,
      "hack": 1851,
      "hackathon": 1852,
      "had": 1853,
      "hadoop": 1854,
      "hail": 1855,
      "half": 1856,
      "halt": 1857,
      "hamper": 1858,
      "hand": 1859,
      "handl": 1860,
      "hang": 1861,
      "happ": 1862,
      "happen": 1863,
      "hapt": 1864,
      "hard": 1865,
      "harm": 1866,
      "harmon": 1867,
      "harness": 1868,
      "harsh": 1869,
      "has": 1870,
      "hash": 1871,
      "haskell": 1872,
      "hassl": 1873,
      "hast": 1874,
      "hat": 1875,
      "haul": 1876,
      "haunt": 1877,
      "hav": 1878,
      "hazard": 1879,
      "hdd": 1880,
      "hdmi": 1881,
      "he": 1882,
      "head": 1884,
      "heal": 1884,
      "health": 1885,
      "heap": 1886,
      "hear": 1887,
      "heart": 1888,
      "heat": 1889,
      "heather": 1890,
      "heav": 1891,
      "heaven": 1892,
      "hedron": 1893,
      "height": 1894,
      "heir": 1895,
      "held": 1896,
      "hello": 1897,
      "help": 1898,
      "hence": 1899,
      "her": 1900,
      "here": 1901,
      "hereby": 1902,
      "hesitat": 1903,
      "heter": 1904,
      "heuristic": 1905,
      "hex": 1906,
      "hi": 1907,
      "hiber": 1908,
      "hid": 1909,
      "hierarch": 1910,
      "high": 1911,
      "hijack": 1912,
      "him": 1913,
      "hinder": 1914,
      "hindranc": 1915,
      "hint": 1916,
      "hir": 1917,
      "his": 1918,
      "hist": 1919,
      "histor": 1920,
      "hit": 1922,
      "hither": 1922,
      "hiv": 1923,
      "hold": 1924,
      "holi": 1925,
      "holistic": 1926,
      "holo": 1927,
      "home": 1928,
      "homo": 1929,
      "homogen": 1930,
      "honest": 1931,
      "honour": 1932,
      "hood": 1933,
      "hook": 1935,
      "hop": 1935,
      "horizon": 1936,
      "horribl": 1937,
      "horror": 1938,
      "hospit": 1939,
      "host": 1940,
      "hot": 1941,
      "hour": 1942,
      "house": 1943,
      "hover": 1944,
      "how": 1945,
      "html": 1946,
      "http": 1947,
      "hub": 1948,
      "huge": 1949,
      "human": 1950,
      "humbl": 1951,
      "humour": 1952,
      "hundred": 1953,
      "hung": 1954,
      "hunt": 1955,
      "hurr": 1956,
      "hurt": 1957,
      "husband": 1958,
      "hush": 1959,
      "hybrid": 1960,
      "hype": 1961,
      "hyper": 1962,
      "hypoth": 1963,
      "ic": 1964,
      "icon": 1965,
      "idea": 1966,
      "ideal": 1967,
      "ident": 1968,
      "identif": 1970,
      "idiom": 1970,
      "idol": 1971,
      "ight": 1972,
      "ignit": 1973,
      "ignor": 1974,
      "ill": 1975,
      "illuminat": 1976,
      "illus": 1977,
      "illustrat": 1978,
      "imag": 1979,
      "imagin": 1980,
      "imbue": 1981,
      "imburs": 1982,
      "imitat": 1983,
      "immediat": 1984,
      "immens": 1985,
      "immers": 1986,
      "imminent": 1987,
      "immut": 1988,
      "impact": 1989,
      "impair": 1990,
      "impart": 1991,
      "imped": 1992,
      "impel": 1993,
      "impend": 1994,
      "impersonat": 1995,
      "impertinen": 1996,
      "impet": 1997,
      "impl": 1998,
      "implant": 1999,
      "implement": 2000,
      "implicat": 2001,
      "implicit": 2002,
      "import": 2004,
      "impos": 2004,
      "impossibl": 2005,
      "impress": 2006,
      "improv": 2007,
      "impuden": 2008,
      "impuls": 2009,
      "impur": 2010,
      "imput": 2011,
      "inasmuch": 2012,
      "inaugurat": 2013,
      "incent": 2014,
      "incept": 2015,
      "inch": 2016,
      "incident": 2017,
      "incit": 2018,
      "inclin": 2019,
      "includ": 2020,
      "inclus": 2021,
      "incognito": 2022,
      "increas": 2023,
      "incredibl": 2024,
      "increment": 2025,
      "incubat": 2026,
      "incur": 2027,
      "indebt": 2028,
      "indeed": 2029,
      "indelibl": 2030,
      "indent": 2031,
      "index": 2032,
      "indic": 2033,
      "indicat": 2034,
      "indign": 2035,
      "individual": 2036,
      "indolen": 2037,
      "indub": 2038,
      "induc": 2040,
      "induct": 2040,
      "indulg": 2041,
      "industr": 2042,
      "inert": 2043,
      "infatuat": 2044,
      "infect": 2045,
      "infer": 2046,
      "inflat": 2047,
      "inflect": 2048,
      "inflict": 2049,
      "info": 2050,
      "inforc": 2051,
      "inform": 2052,
      "infra": 2053,
      "infring": 2054,
      "infus": 2055,
      "ing": 2056,
      "ingen": 2057,
      "ingest": 2058,
      "ingrain": 2059,
      "ingrat": 2060,
      "ingress": 2061,
      "inherent": 2062,
      "inherit": 2063,
      "inhibit": 2064,
      "inimitab": 2065,
      "init": 2066,
      "initiat": 2067,
      "inject": 2068,
      "injur": 2069,
      "ink": 2070,
      "inlin": 2071,
      "innate": 2072,
      "inner": 2073,
      "inno": 2074,
      "innocent": 2075,
      "innovat": 2076,
      "input": 2077,
      "inquir": 2078,
      "insan": 2079,
      "insert": 2080,
      "insight": 2081,
      "insinuat": 2082,
      "insist": 2083,
      "inso": 2084,
      "insolen": 2085,
      "inspect": 2086,
      "inspir": 2087,
      "inst": 2088,
      "instabil": 2089,
      "install": 2090,
      "instanc": 2091,
      "instant": 2092,
      "instat": 2093,
      "instead": 2094,
      "instigat": 2095,
      "instinct": 2096,
      "institut": 2097,
      "instruct": 2098,
      "instrument": 2099,
      "insuff": 2100,
      "insult": 2101,
      "insur": 2102,
      "intact": 2103,
      "integr": 2104,
      "intel": 2105,
      "intellect": 2106,
      "intelli": 2107,
      "inten": 2108,
      "intend": 2109,
      "intens": 2110,
      "intent": 2111,
      "inter": 2112,
      "interact": 2113,
      "intercept": 2114,
      "interest": 2115,
      "interfac": 2116,
      "interfer": 2117,
      "interim": 2118,
      "intermiss": 2119,
      "intern": 2120,
      "internet": 2121,
      "interpolat": 2122,
      "interpret": 2123,
      "interrupt": 2124,
      "interval": 2125,
      "interven": 2126,
      "intim": 2127,
      "into": 2128,
      "intra": 2129,
      "intract": 2130,
      "intric": 2131,
      "intrigu": 2132,
      "intrinsic": 2133,
      "intro": 2134,
      "intrusiv": 2135,
      "intuit": 2136,
      "inur": 2137,
      "invad": 2138,
      "invasi": 2139,
      "invent": 2140,
      "invers": 2141,
      "invert": 2142,
      "invest": 2143,
      "investigat": 2144,
      "invigorat": 2145,
      "invit": 2146,
      "invocat": 2147,
      "invok": 2148,
      "involv": 2149,
      "ion": 2150,
      "is": 2151,
      "isolat": 2152,
      "issu": 2153,
      "istic": 2154,
      "it": 2155,
      "item": 2156,
      "itera": 2157,
      "ity": 2158,
      "jam": 2159,
      "january": 2160,
      "jasmin": 2161,
      "java": 2162,
      "jdk": 2163,
      "jdo": 2164,
      "jealous": 2165,
      "jenkins": 2166,
      "jest": 2167,
      "jet": 2168,
      "jinja": 2169,
      "jira": 2170,
      "jitter": 2171,
      "job": 2172,
      "joic": 2173,
      "join": 2174,
      "jok": 2175,
      "joomla": 2176,
      "jott": 2177,
      "journ": 2178,
      "journal": 2179,
      "joy": 2180,
      "jpeg": 2181,
      "jpg": 2182,
      "jre": 2183,
      "json": 2184,
      "judg": 2185,
      "judic": 2186,
      "juggl": 2187,
      "july": 2188,
      "jump": 2189,
      "junct": 2190,
      "june": 2191,
      "junior": 2192,
      "junk": 2193,
      "jupyter": 2194,
      "just": 2195,
      "justic": 2196,
      "justif": 2197,
      "jut": 2198,
      "jvm": 2199,
      "jwt": 2200,
      "kanban": 2201,
      "kde": 2202,
      "keen": 2203,
      "keep": 2204,
      "kept": 2206,
      "keras": 2206,
      "kernel": 2207,
      "key": 2208,
      "kick": 2209,
      "kill": 2210,
      "kilo": 2211,
      "kind": 2212,
      "king": 2213,
      "kit": 2214,
      "kivy": 2215,
      "knack": 2216,
      "knew": 2217,
      "knock": 2218,
      "know": 2219,
      "knowledg": 2220,
      "kotlin": 2221,
      "kubernet": 2222,
      "lab": 2223,
      "label": 2224,
      "labo": 2225,
      "laborator": 2226,
      "lace": 2227,
      "lack": 2228,
      "lag": 2229,
      "lagrang": 2230,
      "laid": 2231,
      "lambd": 2232,
      "lan": 2233,
      "lanc": 2234,
      "land": 2235,
      "lang": 2236,
      "languag": 2237,
      "lap": 2238,
      "laps": 2239,
      "laravel": 2240,
      "large": 2241,
      "lash": 2242,
      "last": 2243,
      "latch": 2244,
      "late": 2245,
      "laten": 2246,
      "lateral": 2247,
      "latin": 2248,
      "latitud": 2249,
      "latter": 2250,
      "laugh": 2251,
      "launch": 2252,
      "lavish": 2253,
      "law": 2254,
      "lay": 2255,
      "layer": 2256,
      "layout": 2257,
      "laz": 2258,
      "lda": 2259,
      "lead": 2260,
      "leaf": 2261,
      "leak": 2262,
      "lean": 2263,
      "leap": 2264,
      "learn": 2265,
      "leas": 2266,
      "leav": 2267,
      "lect": 2268,
      "led": 2269,
      "left": 2270,
      "legac": 2271,
      "legal": 2272,
      "legend": 2273,
      "legib": 2274,
      "legitim": 2275,
      "lemma": 2276,
      "lend": 2277,
      "length": 2278,
      "lens": 2279,
      "lent": 2280,
      "less": 2281,
      "lesson": 2282,
      "let": 2283,
      "letter": 2284,
      "level": 2285,
      "leverag": 2286,
      "leverat": 2287,
      "lexic": 2289,
      "liab": 2289,
      "lib": 2290,
      "liberal": 2291,
      "libert": 2292,
      "libr": 2293,
      "licens": 2294,
      "licentious": 2295,
      "lidar": 2296,
      "lie": 2297,
      "life": 2298,
      "lift": 2299,
      "light": 2300,
      "lik": 2301,
      "limit": 2302,
      "line": 2303,
      "lingu": 2304,
      "linguist": 2305,
      "link": 2306,
      "linux": 2307,
      "liquidat": 2308,
      "list": 2309,
      "listen": 2310,
      "liter": 2311,
      "litera": 2312,
      "littl": 2313,
      "liv": 2314,
      "llama": 2315,
      "llm": 2316,
      "llvm": 2317,
      "load": 2318,
      "local": 2319,
      "locat": 2320,
      "lock": 2321,
      "lodg": 2322,
      "log": 2323,
      "logarithm": 2324,
      "logic": 2326,
      "logistic": 2326,
      "logit": 2327,
      "lonel": 2328,
      "long": 2329,
      "look": 2330,
      "loom": 2331,
      "loop": 2332,
      "loose": 2333,
      "los": 2334,
      "loud": 2335,
      "lov": 2336,
      "low": 2337,
      "loyal": 2338,
      "lstm": 2339,
      "luck": 2340,
      "lumin": 2341,
      "lurk": 2342,
      "luxur": 2343,
      "ly": 2344,
      "mac": 2345,
      "machin": 2346,
      "macro": 2347,
      "mad": 2348,
      "made": 2349,
      "magic": 2350,
      "magnet": 2351,
      "magnif": 2352,
      "magnitud": 2353,
      "mail": 2354,
      "main": 2355,
      "mainfram": 2356,
      "maintain": 2358,
      "mainten": 2358,
      "majest": 2359,
      "major": 2360,
      "mak": 2361,
      "male": 2362,
      "malic": 2363,
      "mama": 2364,
      "man": 2365,
      "manag": 2366,
      "mandat": 2367,
      "maneuver": 2368,
      "manifest": 2369,
      "manipul": 2370,
      "manual": 2371,
      "manufactur": 2372,
      "many": 2373,
      "map": 2374,
      "march": 2375,
      "margin": 2376,
      "marginal": 2377,
      "mark": 2378,
      "market": 2379,
      "marr": 2380,
      "marriag": 2381,
      "marshall": 2382,
      "mash": 2383,
      "mask": 2384,
      "mass": 2385,
      "master": 2386,
      "mat": 2387,
      "match": 2388,
      "material": 2389,
      "math": 2390,
      "matric": 2391,
      "matrimon": 2392,
      "matrix": 2393,
      "matter": 2394,
      "matur": 2395,
      "max": 2396,
      "may": 2397,
      "meal": 2398,
      "mean": 2399,
      "measur": 2400,
      "mechan": 2401,
      "mechanic": 2402,
      "meddl": 2403,
      "media": 2404,
      "medic": 2405,
      "meditat": 2406,
      "meet": 2407,
      "mega": 2408,
      "melanchol": 2409,
      "meld": 2410,
      "melod": 2411,
      "mem": 2412,
      "member": 2413,
      "memor": 2414,
      "men": 2415,
      "ment": 2416,
      "mention": 2417,
      "mentor": 2418,
      "menu": 2419,
      "mercant": 2420,
      "merchan": 2421,
      "mere": 2422,
      "merg": 2423,
      "merit": 2424,
      "mesh": 2425,
      "mess": 2426,
      "messag": 2427,
      "met": 2428,
      "meta": 2429,
      "metal": 2430,
      "metaphor": 2431,
      "meter": 2432,
      "method": 2433,
      "metr": 2434,
      "micro": 2435,
      "mid": 2436,
      "middl": 2437,
      "might": 2438,
      "migrat": 2440,
      "mild": 2440,
      "mile": 2441,
      "milli": 2442,
      "million": 2443,
      "mimic": 2444,
      "mind": 2445,
      "mini": 2446,
      "miniatur": 2447,
      "minif": 2448,
      "minor": 2449,
      "minus": 2450,
      "minute": 2451,
      "mirror": 2452,
      "mis": 2453,
      "miscellaneous": 2454,
      "miser": 2455,
      "miss": 2456,
      "mission": 2457,
      "mistak": 2458,
      "mitigat": 2459,
      "mix": 2460,
      "mixture": 2461,
      "mobil": 2462,
      "mock": 2463,
      "mod": 2464,
      "modal": 2465,
      "model": 2466,
      "modem": 2467,
      "moderat": 2468,
      "modern": 2469,
      "modest": 2470,
      "modif": 2471,
      "modul": 2472,
      "moment": 2473,
      "mon": 2474,
      "money": 2475,
      "mongo": 2476,
      "monitor": 2477,
      "mono": 2478,
      "monolith": 2479,
      "monoton": 2480,
      "month": 2481,
      "moon": 2482,
      "moor": 2483,
      "moral": 2484,
      "more": 2485,
      "morning": 2486,
      "morph": 2487,
      "morrow": 2488,
      "mortif": 2489,
      "most": 2490,
      "mother": 2491,
      "motion": 2492,
      "motiv": 2493,
      "motivat": 2494,
      "motor": 2495,
      "mount": 2496,
      "mountain": 2497,
      "mouse": 2498,
      "mov": 2499,
      "much": 2500,
      "mull": 2501,
      "multi": 2502,
      "multipl": 2503,
      "multiplatform": 2504,
      "multiplay": 2505,
      "multiple": 2506,
      "multiplex": 2507,
      "murmur": 2508,
      "music": 2509,
      "must": 2510,
      "mut": 2511,
      "mutab": 2512,
      "mutat": 2513,
      "mutex": 2514,
      "mutter": 2515,
      "mutual": 2516,
      "mvc": 2517,
      "mvp": 2518,
      "myster": 2519,
      "mystif": 2520,
      "nail": 2521,
      "naive": 2522,
      "nam": 2523,
      "nano": 2524,
      "narrat": 2525,
      "narrow": 2526,
      "nation": 2527,
      "nativ": 2528,
      "natur": 2529,
      "navi": 2530,
      "near": 2531,
      "neat": 2532,
      "necess": 2533,
      "neck": 2534,
      "need": 2535,
      "negat": 2536,
      "negativ": 2537,
      "neglect": 2538,
      "neglig": 2539,
      "negotiat": 2540,
      "neighbo": 2541,
      "neither": 2542,
      "nerv": 2543,
      "ness": 2544,
      "net": 2545,
      "network": 2546,
      "neur": 2547,
      "neutral": 2548,
      "never": 2549,
      "new": 2550,
      "next": 2551,
      "ng": 2552,
      "nice": 2553,
      "night": 2554,
      "nine": 2555,
      "nlp": 2556,
      "nltk": 2557,
      "no": 2558,
      "nod": 2559,
      "node": 2560,
      "nois": 2561,
      "nom": 2562,
      "nomi": 2563,
      "nominal": 2564,
      "nominat": 2565,
      "non": 2566,
      "noname": 2567,
      "nonsens": 2568,
      "noone": 2570,
      "nope": 2570,
      "norm": 2571,
      "normaliz": 2572,
      "north": 2573,
      "not": 2574,
      "notat": 2575,
      "notic": 2576,
      "notif": 2577,
      "notorious": 2578,
      "nought": 2579,
      "noun": 2580,
      "nourish": 2581,
      "novel": 2582,
      "november": 2583,
      "novic": 2584,
      "now": 2585,
      "null": 2586,
      "numb": 2587,
      "numer": 2588,
      "nurs": 2589,
      "obedien": 2590,
      "obey": 2591,
      "obfuscat": 2592,
      "object": 2593,
      "oblig": 2594,
      "obliquity": 2595,
      "obliterat": 2596,
      "obscur": 2597,
      "observ": 2598,
      "obsess": 2599,
      "obsolet": 2600,
      "obstacl": 2601,
      "obstinate": 2602,
      "obstruct": 2603,
      "obtain": 2604,
      "obtrud": 2605,
      "obviat": 2606,
      "obvious": 2607,
      "occasion": 2608,
      "occlud": 2609,
      "occup": 2610,
      "occur": 2611,
      "octa": 2612,
      "october": 2613,
      "odd": 2614,
      "oem": 2615,
      "of": 2616,
      "off": 2617,
      "offenc": 2618,
      "offend": 2619,
      "offens": 2620,
      "offer": 2621,
      "offic": 2622,
      "offset": 2623,
      "often": 2624,
      "old": 2625,
      "omit": 2626,
      "on": 2627,
      "once": 2628,
      "one": 2629,
      "onerous": 2630,
      "only": 2631,
      "opaci": 2632,
      "opaque": 2633,
      "open": 2634,
      "oper": 2635,
      "operat": 2636,
      "opinion": 2637,
      "opponent": 2638,
      "opportun": 2639,
      "oppos": 2640,
      "opposs": 2641,
      "oppress": 2642,
      "ops": 2643,
      "opt": 2644,
      "optic": 2645,
      "optim": 2646,
      "optimal": 2647,
      "optimis": 2648,
      "optimiz": 2649,
      "option": 2650,
      "or": 2651,
      "oracle": 2652,
      "order": 2653,
      "ordinar": 2655,
      "ordinat": 2655,
      "organic": 2656,
      "organiz": 2657,
      "orient": 2658,
      "origin": 2659,
      "ornament": 2660,
      "ortho": 2661,
      "oscill": 2662,
      "oscillat": 2663,
      "osten": 2664,
      "other": 2665,
      "ought": 2666,
      "oust": 2667,
      "out": 2668,
      "outage": 2669,
      "outer": 2670,
      "outlast": 2671,
      "outrage": 2672,
      "over": 2673,
      "overlap": 2674,
      "overrid": 2675,
      "own": 2676,
      "pack": 2677,
      "packag": 2678,
      "pad": 2679,
      "pag": 2680,
      "paid": 2681,
      "pain": 2682,
      "paint": 2683,
      "pair": 2684,
      "palette": 2685,
      "panel": 2686,
      "paper": 2687,
      "para": 2688,
      "parabol": 2689,
      "parad": 2690,
      "paradigm": 2691,
      "paradox": 2692,
      "paragraph": 2693,
      "parallax": 2694,
      "parallel": 2695,
      "param": 2696,
      "pardon": 2697,
      "parent": 2698,
      "park": 2699,
      "pars": 2700,
      "part": 2701,
      "particip": 2702,
      "particl": 2703,
      "particul": 2704,
      "pass": 2705,
      "passag": 2706,
      "passiv": 2707,
      "past": 2708,
      "patch": 2709,
      "patent": 2710,
      "path": 2711,
      "patien": 2712,
      "patron": 2713,
      "patronag": 2714,
      "pattern": 2715,
      "paus": 2716,
      "peac": 2717,
      "peak": 2718,
      "peculiar": 2719,
      "pedia": 2720,
      "peek": 2721,
      "peep": 2722,
      "peer": 2723,
      "pen": 2724,
      "penal": 2725,
      "pencil": 2726,
      "pend": 2727,
      "penetrat": 2728,
      "pens": 2729,
      "pent": 2730,
      "peopl": 2731,
      "perceiv": 2732,
      "percent": 2733,
      "percept": 2734,
      "perfect": 2735,
      "perform": 2736,
      "period": 2737,
      "peripher": 2738,
      "perl": 2739,
      "permanent": 2740,
      "permeat": 2741,
      "permiss": 2742,
      "permit": 2743,
      "permut": 2744,
      "perpendicular": 2745,
      "perplex": 2746,
      "persever": 2747,
      "persist": 2748,
      "person": 2749,
      "perspectiv": 2750,
      "persuad": 2751,
      "persuas": 2752,
      "pertain": 2753,
      "pertin": 2754,
      "perturb": 2755,
      "perus": 2756,
      "pervad": 2757,
      "pessimi": 2758,
      "peta": 2759,
      "phase": 2760,
      "phenomen": 2761,
      "philosoph": 2762,
      "phish": 2763,
      "phone": 2764,
      "phonet": 2765,
      "photo": 2766,
      "php": 2767,
      "phras": 2768,
      "physic": 2769,
      "pick": 2770,
      "pict": 2771,
      "pictur": 2772,
      "piece": 2773,
      "pilot": 2774,
      "pin": 2775,
      "ping": 2776,
      "pioneer": 2777,
      "pip": 2778,
      "pipe": 2779,
      "pipeline": 2780,
      "pit": 2781,
      "pitch": 2782,
      "pivot": 2783,
      "pix": 2784,
      "pixel": 2785,
      "plac": 2786,
      "plagued": 2787,
      "plain": 2788,
      "plan": 2789,
      "planar": 2790,
      "plane": 2791,
      "planet": 2792,
      "plast": 2793,
      "platform": 2794,
      "plausib": 2795,
      "play": 2796,
      "plead": 2797,
      "pleas": 2798,
      "pleasure": 2799,
      "pledg": 2800,
      "plent": 2802,
      "plex": 2802,
      "plot": 2803,
      "plug": 2804,
      "plung": 2805,
      "plural": 2806,
      "plus": 2807,
      "poach": 2808,
      "pocket": 2809,
      "pod": 2810,
      "podcast": 2811,
      "poem": 2812,
      "point": 2813,
      "polar": 2814,
      "polic": 2815,
      "polit": 2816,
      "poll": 2817,
      "poly": 2818,
      "pool": 2819,
      "poor": 2820,
      "pop": 2821,
      "popular": 2822,
      "populat": 2823,
      "port": 2824,
      "portal": 2825,
      "portion": 2826,
      "pos": 2827,
      "posit": 2828,
      "positiv": 2829,
      "possess": 2830,
      "possib": 2831,
      "post": 2832,
      "postgres": 2833,
      "postpon": 2834,
      "potent": 2835,
      "pour": 2836,
      "pow": 2837,
      "power": 2838,
      "pract": 2839,
      "pragm": 2840,
      "prais": 2841,
      "pray": 2842,
      "pre": 2843,
      "preach": 2844,
      "preambl": 2845,
      "preced": 2846,
      "precedent": 2847,
      "precipit": 2848,
      "precis": 2849,
      "preclud": 2850,
      "predecess": 2851,
      "predica": 2852,
      "predict": 2853,
      "prefer": 2854,
      "prejudic": 2855,
      "preliminar": 2856,
      "premier": 2857,
      "premis": 2858,
      "preneur": 2859,
      "prepar": 2860,
      "prepend": 2861,
      "present": 2862,
      "preserv": 2863,
      "press": 2864,
      "pressur": 2865,
      "presum": 2866,
      "pretenc": 2867,
      "pretend": 2868,
      "pretens": 2869,
      "prett": 2870,
      "prevail": 2871,
      "prevent": 2872,
      "previous": 2873,
      "pric": 2874,
      "pride": 2875,
      "prim": 2876,
      "primar": 2877,
      "primitiv": 2878,
      "princip": 2879,
      "print": 2880,
      "prior": 2881,
      "privat": 2882,
      "privileg": 2883,
      "pro": 2884,
      "prob": 2885,
      "probab": 2886,
      "problem": 2887,
      "procedur": 2888,
      "proceed": 2889,
      "process": 2890,
      "processor": 2891,
      "procrastinat": 2892,
      "procur": 2893,
      "produc": 2894,
      "profess": 2895,
      "profession": 2896,
      "profic": 2897,
      "profil": 2898,
      "profit": 2899,
      "program": 2900,
      "progress": 2901,
      "prohibit": 2902,
      "project": 2903,
      "prolog": 2904,
      "prolong": 2905,
      "prominen": 2906,
      "promis": 2907,
      "promot": 2908,
      "prompt": 2909,
      "pronoun": 2910,
      "pronunc": 2911,
      "proof": 2912,
      "propagat": 2913,
      "proper": 2914,
      "proportion": 2915,
      "propos": 2916,
      "propriet": 2917,
      "pros": 2918,
      "prospect": 2919,
      "prosper": 2920,
      "protect": 2921,
      "protest": 2922,
      "proto": 2923,
      "protocol": 2924,
      "prototyp": 2925,
      "protrud": 2926,
      "proud": 2927,
      "prov": 2928,
      "provid": 2929,
      "provis": 2930,
      "provocation": 2931,
      "provok": 2932,
      "prox": 2933,
      "proxim": 2934,
      "pruden": 2935,
      "prun": 2936,
      "pseudo": 2937,
      "publ": 2938,
      "public": 2939,
      "publish": 2940,
      "puff": 2941,
      "pull": 2942,
      "puls": 2943,
      "pump": 2944,
      "punct": 2945,
      "punish": 2946,
      "punk": 2947,
      "pupil": 2948,
      "pur": 2949,
      "purchas": 2950,
      "purpos": 2951,
      "pursu": 2952,
      "push": 2953,
      "put": 2954,
      "puzzl": 2955,
      "py": 2956,
      "pyramid": 2957,
      "python": 2958,
      "qa": 2959,
      "quad": 2960,
      "quaint": 2961,
      "qualif": 2962,
      "qualit": 2963,
      "quant": 2964,
      "quantif": 2965,
      "quarrel": 2966,
      "quart": 2967,
      "quarter": 2968,
      "quaternion": 2969,
      "queen": 2970,
      "queer": 2971,
      "quer": 2972,
      "quest": 2973,
      "question": 2974,
      "queu": 2975,
      "quick": 2976,
      "quiet": 2977,
      "quint": 2978,
      "quir": 2979,
      "quit": 2980,
      "quiz": 2981,
      "quot": 2982,
      "rac": 2983,
      "rad": 2984,
      "radiat": 2985,
      "radic": 2986,
      "radio": 2987,
      "radius": 2988,
      "rag": 2989,
      "raid": 2990,
      "rail": 2991,
      "rain": 2992,
      "rais": 2993,
      "rall": 2994,
      "ram": 2995,
      "rambl": 2996,
      "ramp": 2997,
      "ran": 2998,
      "rand": 2999,
      "random": 3000,
      "rang": 3001,
      "rank": 3002,
      "ransom": 3003,
      "rapid": 3004,
      "raptur": 3005,
      "rar": 3006,
      "raspberry": 3007,
      "raster": 3008,
      "rat": 3009,
      "rather": 3010,
      "ratio": 3011,
      "rational": 3012,
      "ravel": 3013,
      "raw": 3014,
      "ray": 3015,
      "re": 3016,
      "reach": 3017,
      "react": 3018,
      "read": 3019,
      "ready": 3020,
      "real": 3021,
      "realiz": 3022,
      "realm": 3023,
      "reanimat": 3024,
      "rear": 3025,
      "rearrang": 3026,
      "reason": 3027,
      "rebut": 3028,
      "recap": 3029,
      "recaptur": 3030,
      "receipt": 3031,
      "receiv": 3032,
      "recent": 3033,
      "recept": 3034,
      "recipe": 3035,
      "recipient": 3036,
      "reciproc": 3037,
      "reckon": 3038,
      "recogni": 3039,
      "recommend": 3040,
      "reconcil": 3041,
      "record": 3042,
      "recover": 3043,
      "recruit": 3044,
      "rectang": 3045,
      "rectif": 3046,
      "recur": 3047,
      "recurren": 3048,
      "recurs": 3049,
      "redact": 3050,
      "redis": 3051,
      "rediscover": 3052,
      "redistribut": 3053,
      "reduc": 3055,
      "redundan": 3055,
      "redux": 3056,
      "ref": 3057,
      "refactor": 3058,
      "refer": 3059,
      "refetch": 3060,
      "refil": 3061,
      "refill": 3062,
      "refin": 3063,
      "refit": 3064,
      "reflect": 3065,
      "reflex": 3066,
      "refocus": 3067,
      "reform": 3068,
      "reformat": 3069,
      "reformulat": 3070,
      "refract": 3071,
      "refrain": 3072,
      "refresh": 3073,
      "refund": 3074,
      "refurbish": 3075,
      "refus": 3076,
      "refut": 3077,
      "regain": 3078,
      "regard": 3080,
      "region": 3080,
      "regist": 3081,
      "regress": 3082,
      "regret": 3083,
      "regular": 3084,
      "regulat": 3085,
      "reif": 3086,
      "reign": 3087,
      "reject": 3088,
      "relat": 3089,
      "relax": 3090,
      "releas": 3091,
      "relegat": 3092,
      "relent": 3093,
      "relevan": 3094,
      "reliab": 3095,
      "relian": 3096,
      "reliev": 3097,
      "relinquish": 3098,
      "relish": 3099,
      "reluctan": 3100,
      "rely": 3101,
      "remain": 3102,
      "remed": 3103,
      "rememb": 3104,
      "remembr": 3105,
      "remind": 3106,
      "remiss": 3107,
      "remonstra": 3108,
      "remot": 3109,
      "remov": 3110,
      "render": 3111,
      "renovat": 3112,
      "rent": 3113,
      "repair": 3114,
      "repeat": 3115,
      "repetit": 3116,
      "repl": 3117,
      "repla": 3118,
      "replac": 3119,
      "replenish": 3120,
      "replet": 3121,
      "replic": 3122,
      "report": 3123,
      "repositor": 3124,
      "reprehen": 3125,
      "represent": 3126,
      "reproach": 3127,
      "reput": 3128,
      "reputa": 3129,
      "reque": 3130,
      "request": 3131,
      "requi": 3132,
      "requir": 3133,
      "requisit": 3134,
      "rescind": 3135,
      "rescu": 3136,
      "reserv": 3137,
      "reset": 3138,
      "resid": 3139,
      "resident": 3140,
      "resilien": 3141,
      "resist": 3142,
      "resolut": 3143,
      "resolv": 3144,
      "resonat": 3145,
      "respect": 3146,
      "respon": 3147,
      "rest": 3148,
      "restart": 3149,
      "restat": 3150,
      "restaurant": 3151,
      "restor": 3152,
      "restrain": 3153,
      "restrict": 3154,
      "restruct": 3155,
      "result": 3156,
      "resum": 3157,
      "resurrect": 3158,
      "retail": 3159,
      "retain": 3160,
      "retent": 3161,
      "retir": 3162,
      "retriev": 3163,
      "retro": 3164,
      "return": 3165,
      "revamp": 3166,
      "reveal": 3167,
      "revel": 3168,
      "revenue": 3169,
      "revers": 3170,
      "revert": 3171,
      "revis": 3172,
      "revisit": 3173,
      "reviv": 3174,
      "revok": 3175,
      "revolt": 3176,
      "revolut": 3177,
      "revolv": 3178,
      "reward": 3179,
      "rgb": 3180,
      "rich": 3181,
      "rid": 3182,
      "ridd": 3183,
      "ridicul": 3184,
      "right": 3185,
      "rigid": 3186,
      "rigorous": 3187,
      "rimm": 3188,
      "rip": 3189,
      "ris": 3190,
      "risk": 3191,
      "rival": 3192,
      "river": 3194,
      "rnn": 3194,
      "road": 3195,
      "roam": 3196,
      "roast": 3197,
      "robo": 3198,
      "robust": 3199,
      "rock": 3200,
      "rol": 3201,
      "roll": 3202,
      "roman": 3203,
      "room": 3204,
      "root": 3205,
      "rose": 3206,
      "rotat": 3207,
      "rough": 3208,
      "round": 3209,
      "rous": 3210,
      "rout": 3211,
      "routine": 3212,
      "row": 3213,
      "rpc": 3214,
      "rpg": 3215,
      "rsa": 3216,
      "rss": 3217,
      "rtti": 3218,
      "rubber": 3219,
      "rubric": 3220,
      "ruby": 3221,
      "rude": 3222,
      "rudimen": 3223,
      "rue": 3224,
      "rugged": 3225,
      "ruin": 3226,
      "rul": 3227,
      "rumor": 3228,
      "rumour": 3229,
      "run": 3230,
      "rush": 3231,
      "rust": 3232,
      "saas": 3233,
      "sad": 3234,
      "saf": 3235,
      "safar": 3236,
      "said": 3237,
      "sail": 3238,
      "sal": 3239,
      "salar": 3240,
      "same": 3241,
      "sampl": 3242,
      "samsung": 3243,
      "sang": 3244,
      "sanit": 3245,
      "sank": 3246,
      "satellit": 3247,
      "satisf": 3248,
      "satur": 3249,
      "saturat": 3250,
      "sauc": 3251,
      "saunter": 3252,
      "sav": 3253,
      "saw": 3254,
      "sawed": 3255,
      "sawn": 3256,
      "say": 3257,
      "scal": 3258,
      "scalar": 3259,
      "scan": 3260,
      "scap": 3261,
      "scar": 3262,
      "scatter": 3263,
      "scen": 3264,
      "scenar": 3265,
      "scept": 3266,
      "schedul": 3267,
      "schem": 3268,
      "scholar": 3269,
      "school": 3270,
      "sci": 3271,
      "scien": 3272,
      "scold": 3273,
      "scop": 3274,
      "scor": 3275,
      "scout": 3276,
      "scrab": 3277,
      "scrambl": 3278,
      "scrap": 3279,
      "scratch": 3280,
      "scream": 3281,
      "screen": 3282,
      "screw": 3283,
      "scrib": 3284,
      "script": 3285,
      "scroll": 3286,
      "scrum": 3287,
      "scrup": 3288,
      "scrut": 3289,
      "scrutiniz": 3290,
      "sdk": 3291,
      "sea": 3292,
      "seal": 3293,
      "seam": 3294,
      "search": 3295,
      "season": 3296,
      "seat": 3297,
      "second": 3298,
      "secret": 3299,
      "sect": 3300,
      "secur": 3301,
      "seduc": 3302,
      "see": 3303,
      "seed": 3304,
      "seek": 3305,
      "seem": 3306,
      "seen": 3307,
      "sees": 3308,
      "segment": 3309,
      "segregat": 3310,
      "segue": 3311,
      "seiz": 3312,
      "seldom": 3313,
      "select": 3314,
      "self": 3315,
      "sell": 3316,
      "selv": 3317,
      "semantic": 3318,
      "semaphor": 3319,
      "sembl": 3320,
      "semi": 3321,
      "seminar": 3322,
      "seminat": 3323,
      "send": 3324,
      "senior": 3325,
      "sens": 3326,
      "sensation": 3327,
      "sensitiv": 3328,
      "sensor": 3329,
      "sent": 3330,
      "sentenc": 3331,
      "sentiment": 3332,
      "seo": 3333,
      "separ": 3334,
      "september": 3335,
      "seque": 3336,
      "serial": 3337,
      "series": 3338,
      "serious": 3339,
      "serv": 3340,
      "server": 3341,
      "servic": 3342,
      "session": 3343,
      "set": 3344,
      "settl": 3345,
      "setup": 3346,
      "seven": 3347,
      "sever": 3348,
      "several": 3349,
      "sex": 3350,
      "sgd": 3351,
      "shad": 3352,
      "shadow": 3353,
      "shak": 3354,
      "shall": 3355,
      "shallow": 3356,
      "sham": 3357,
      "shap": 3358,
      "shar": 3359,
      "shard": 3360,
      "sharp": 3361,
      "she": 3362,
      "shed": 3363,
      "sheet": 3365,
      "shell": 3365,
      "shelter": 3366,
      "shift": 3367,
      "shin": 3368,
      "ship": 3369,
      "shock": 3370,
      "shoe": 3371,
      "shook": 3372,
      "shoot": 3373,
      "shop": 3374,
      "short": 3375,
      "shot": 3376,
      "should": 3377,
      "shout": 3378,
      "show": 3380,
      "shrank": 3381,
      "shrink": 3381,
      "shrunk": 3382,
      "shuffl": 3383,
      "shut": 3384,
      "shy": 3385,
      "sick": 3386,
      "side": 3387,
      "sigh": 3388,
      "sight": 3389,
      "sign": 3390,
      "signal": 3391,
      "signatur": 3392,
      "signif": 3393,
      "silen": 3394,
      "silhouett": 3395,
      "silicon": 3396,
      "sill": 3397,
      "silver": 3398,
      "similar": 3399,
      "simpl": 3401,
      "simplic": 3401,
      "simplif": 3402,
      "simulat": 3403,
      "simultaneous": 3404,
      "since": 3405,
      "sincere": 3406,
      "sing": 3408,
      "singl": 3408,
      "singular": 3409,
      "sink": 3410,
      "sinus": 3411,
      "sion": 3412,
      "sister": 3413,
      "sit": 3414,
      "site": 3415,
      "situat": 3416,
      "six": 3417,
      "siz": 3418,
      "size": 3419,
      "skeleton": 3420,
      "skept": 3421,
      "sketch": 3422,
      "skew": 3423,
      "skill": 3424,
      "skip": 3425,
      "sky": 3426,
      "skype": 3427,
      "slack": 3429,
      "slam": 3429,
      "slang": 3430,
      "slash": 3431,
      "slav": 3432,
      "slay": 3433,
      "sleek": 3434,
      "sleep": 3435,
      "sleet": 3436,
      "slept": 3437,
      "slew": 3438,
      "slic": 3439,
      "slid": 3440,
      "slight": 3441,
      "slim": 3442,
      "sling": 3443,
      "slip": 3444,
      "slop": 3445,
      "slot": 3446,
      "slow": 3447,
      "slugg": 3448,
      "slumber": 3449,
      "slung": 3450,
      "sly": 3451,
      "smack": 3452,
      "small": 3453,
      "smart": 3454,
      "smash": 3455,
      "smell": 3456,
      "smil": 3457,
      "smit": 3458,
      "smok": 3459,
      "smooth": 3460,
      "snap": 3461,
      "sneak": 3462,
      "sneer": 3463,
      "sniff": 3464,
      "snip": 3465,
      "snow": 3466,
      "so": 3467,
      "soap": 3468,
      "soar": 3469,
      "sober": 3470,
      "social": 3471,
      "sociat": 3472,
      "societ": 3473,
      "sock": 3474,
      "socket": 3475,
      "soft": 3476,
      "software": 3477,
      "solace": 3478,
      "sold": 3479,
      "solely": 3480,
      "solemn": 3481,
      "solicit": 3482,
      "solid": 3483,
      "solitar": 3484,
      "solution": 3485,
      "solv": 3486,
      "some": 3487,
      "son": 3488,
      "song": 3489,
      "soon": 3490,
      "sooth": 3491,
      "sophisticat": 3492,
      "sorrow": 3493,
      "sorry": 3494,
      "sort": 3495,
      "soul": 3496,
      "sound": 3497,
      "soup": 3498,
      "sourc": 3499,
      "south": 3500,
      "spac": 3501,
      "space": 3502,
      "spam": 3503,
      "span": 3504,
      "spar": 3505,
      "spark": 3506,
      "spars": 3507,
      "spatial": 3508,
      "spawn": 3509,
      "speak": 3510,
      "spec": 3511,
      "speci": 3512,
      "special": 3513,
      "specializ": 3514,
      "specif": 3516,
      "spect": 3516,
      "spectr": 3517,
      "speculat": 3518,
      "speech": 3519,
      "speed": 3520,
      "spel": 3521,
      "spen": 3522,
      "spend": 3523,
      "spher": 3524,
      "spill": 3525,
      "spin": 3526,
      "spirit": 3527,
      "spit": 3528,
      "splash": 3529,
      "splay": 3530,
      "splend": 3531,
      "splic": 3532,
      "splin": 3533,
      "split": 3534,
      "spoil": 3536,
      "spoke": 3536,
      "sponsor": 3537,
      "spontane": 3538,
      "spoof": 3539,
      "spool": 3540,
      "spoon": 3541,
      "sport": 3542,
      "spot": 3543,
      "sprang": 3544,
      "spread": 3545,
      "spring": 3546,
      "sprinkl": 3547,
      "sprint": 3548,
      "sql": 3549,
      "squar": 3550,
      "squeez": 3551,
      "stab": 3552,
      "stabil": 3553,
      "stabl": 3554,
      "stack": 3555,
      "staff": 3556,
      "stag": 3557,
      "stagnat": 3558,
      "stair": 3559,
      "stak": 3560,
      "stakeholder": 3561,
      "stale": 3562,
      "stall": 3563,
      "stamp": 3564,
      "stand": 3566,
      "standard": 3566,
      "standby": 3567,
      "star": 3568,
      "stare": 3569,
      "start": 3570,
      "stash": 3571,
      "stat": 3572,
      "static": 3573,
      "station": 3574,
      "stationar": 3575,
      "statistic": 3576,
      "status": 3577,
      "stay": 3578,
      "std": 3579,
      "stead": 3580,
      "steal": 3581,
      "steam": 3582,
      "steep": 3583,
      "steer": 3584,
      "stemm": 3585,
      "stencil": 3586,
      "step": 3587,
      "stereo": 3588,
      "stick": 3589,
      "still": 3590,
      "stimul": 3591,
      "stipulat": 3592,
      "stir": 3593,
      "stochast": 3594,
      "stock": 3595,
      "ston": 3597,
      "stood": 3597,
      "stoop": 3598,
      "stop": 3599,
      "stor": 3600,
      "storag": 3601,
      "storm": 3602,
      "story": 3603,
      "stout": 3604,
      "straggl": 3605,
      "straight": 3606,
      "strain": 3607,
      "strang": 3608,
      "strap": 3609,
      "strat": 3610,
      "strateg": 3611,
      "stratif": 3612,
      "stray": 3613,
      "stream": 3614,
      "street": 3615,
      "stren": 3616,
      "strength": 3617,
      "stress": 3619,
      "stretch": 3619,
      "strick": 3620,
      "strict": 3621,
      "strid": 3622,
      "strik": 3623,
      "string": 3624,
      "strip": 3625,
      "striv": 3626,
      "strok": 3627,
      "strong": 3628,
      "strov": 3629,
      "struct": 3630,
      "struggl": 3631,
      "stub": 3632,
      "stuck": 3633,
      "stud": 3634,
      "student": 3635,
      "studio": 3636,
      "stuff": 3637,
      "stumbl": 3638,
      "stump": 3639,
      "stun": 3640,
      "stupid": 3641,
      "styl": 3642,
      "sub": 3643,
      "subdu": 3644,
      "subject": 3645,
      "submiss": 3646,
      "submit": 3647,
      "subscrib": 3648,
      "subsid": 3649,
      "subsist": 3650,
      "substan": 3651,
      "substantiat": 3652,
      "substitut": 3653,
      "subtl": 3654,
      "subtract": 3655,
      "succe": 3656,
      "succinct": 3657,
      "such": 3658,
      "sudden": 3659,
      "sue": 3660,
      "suffer": 3661,
      "suffic": 3662,
      "suffix": 3663,
      "suggest": 3664,
      "suit": 3665,
      "summ": 3666,
      "summa": 3667,
      "summer": 3668,
      "summit": 3669,
      "summon": 3670,
      "sun": 3671,
      "sung": 3672,
      "sunk": 3673,
      "super": 3674,
      "supper": 3675,
      "suppl": 3676,
      "support": 3677,
      "suppos": 3678,
      "suppress": 3679,
      "suprem": 3680,
      "sure": 3681,
      "surf": 3682,
      "surfac": 3683,
      "surg": 3684,
      "surmis": 3685,
      "surpass": 3686,
      "surpris": 3687,
      "surrender": 3688,
      "surrogate": 3689,
      "surround": 3690,
      "survey": 3691,
      "surviv": 3692,
      "susceptib": 3693,
      "suspect": 3694,
      "suspend": 3695,
      "suspens": 3696,
      "suspic": 3697,
      "sustain": 3698,
      "svd": 3699,
      "svg": 3700,
      "svm": 3701,
      "svn": 3702,
      "swap": 3703,
      "sway": 3704,
      "swear": 3705,
      "sweep": 3706,
      "sweet": 3707,
      "swell": 3708,
      "swift": 3709,
      "swin": 3710,
      "swip": 3711,
      "swish": 3712,
      "switch": 3713,
      "swoop": 3714,
      "swung": 3715,
      "syllabl": 3716,
      "symbol": 3717,
      "symmetr": 3718,
      "sympath": 3719,
      "sync": 3720,
      "synchron": 3721,
      "synonym": 3722,
      "synt": 3723,
      "syntax": 3724,
      "synth": 3725,
      "synthes": 3726,
      "synthet": 3727,
      "sys": 3728,
      "system": 3729,
      "tab": 3730,
      "tabl": 3731,
      "tabul": 3732,
      "tackl": 3733,
      "tact": 3734,
      "tactic": 3735,
      "tag": 3736,
      "tail": 3737,
      "tailor": 3738,
      "tak": 3739,
      "take": 3740,
      "talent": 3741,
      "talk": 3742,
      "tall": 3743,
      "tam": 3744,
      "tamper": 3745,
      "tangent": 3746,
      "tangl": 3747,
      "tap": 3749,
      "target": 3749,
      "task": 3750,
      "tast": 3751,
      "taught": 3752,
      "tax": 3753,
      "tea": 3754,
      "teach": 3755,
      "team": 3756,
      "tear": 3757,
      "teas": 3758,
      "tech": 3759,
      "techni": 3760,
      "technolog": 3761,
      "tedious": 3762,
      "tele": 3763,
      "tell": 3764,
      "temp": 3765,
      "temper": 3766,
      "temperatur": 3767,
      "templat": 3768,
      "tempor": 3769,
      "tempt": 3770,
      "tenacious": 3771,
      "tend": 3772,
      "tendenc": 3773,
      "tender": 3774,
      "tens": 3775,
      "tensor": 3776,
      "tentat": 3777,
      "tera": 3778,
      "term": 3779,
      "termin": 3780,
      "terminal": 3781,
      "terminat": 3782,
      "terrain": 3783,
      "terribl": 3784,
      "terrif": 3785,
      "tessellat": 3786,
      "test": 3787,
      "tether": 3788,
      "text": 3789,
      "than": 3790,
      "thank": 3791,
      "that": 3792,
      "thaw": 3793,
      "the": 3794,
      "theft": 3795,
      "their": 3796,
      "them": 3797,
      "then": 3798,
      "theor": 3799,
      "theorem": 3800,
      "ther": 3801,
      "there": 3802,
      "thereby": 3803,
      "therm": 3804,
      "thes": 3805,
      "thesa": 3806,
      "thesis": 3807,
      "thest": 3808,
      "theta": 3809,
      "they": 3810,
      "thick": 3811,
      "thin": 3812,
      "thing": 3813,
      "think": 3814,
      "thir": 3815,
      "third": 3816,
      "thirt": 3817,
      "this": 3818,
      "thither": 3819,
      "thorough": 3820,
      "those": 3821,
      "though": 3822,
      "thought": 3823,
      "thous": 3824,
      "thousand": 3825,
      "thread": 3826,
      "threat": 3827,
      "three": 3828,
      "thres": 3829,
      "threw": 3830,
      "thrift": 3831,
      "thrill": 3832,
      "thriv": 3833,
      "through": 3834,
      "throw": 3835,
      "thumb": 3836,
      "thunder": 3837,
      "thunk": 3838,
      "thus": 3839,
      "thwart": 3840,
      "tick": 3841,
      "ticket": 3842,
      "tier": 3843,
      "tight": 3844,
      "til": 3845,
      "till": 3846,
      "tilt": 3847,
      "tim": 3848,
      "time": 3849,
      "timid": 3850,
      "tinker": 3851,
      "tiny": 3852,
      "tion": 3853,
      "tip": 3854,
      "tir": 3855,
      "titl": 3856,
      "to": 3857,
      "toggl": 3858,
      "token": 3859,
      "told": 3860,
      "tolera": 3861,
      "tolerat": 3862,
      "tong": 3863,
      "too": 3864,
      "took": 3865,
      "tool": 3866,
      "tooth": 3867,
      "top": 3868,
      "topic": 3869,
      "topolog": 3870,
      "torch": 3871,
      "torrent": 3872,
      "total": 3873,
      "touch": 3874,
      "tough": 3875,
      "tour": 3876,
      "tournament": 3877,
      "tout": 3878,
      "toward": 3879,
      "town": 3880,
      "trac": 3881,
      "track": 3882,
      "tract": 3883,
      "trad": 3884,
      "tradition": 3885,
      "traff": 3886,
      "trail": 3887,
      "train": 3888,
      "trait": 3889,
      "trajector": 3890,
      "tranquil": 3891,
      "trans": 3892,
      "transact": 3893,
      "transceiv": 3894,
      "transcend": 3895,
      "transclud": 3896,
      "transcrib": 3897,
      "transcript": 3898,
      "transduc": 3899,
      "transduct": 3900,
      "transfer": 3901,
      "transform": 3902,
      "transgress": 3903,
      "transient": 3904,
      "transist": 3905,
      "transit": 3906,
      "translat": 3907,
      "transliterat": 3908,
      "transmiss": 3909,
      "transmit": 3910,
      "transparen": 3911,
      "transpil": 3912,
      "transplant": 3913,
      "transport": 3914,
      "transpos": 3915,
      "trap": 3916,
      "trash": 3917,
      "travel": 3918,
      "travers": 3919,
      "tread": 3920,
      "treasur": 3921,
      "treat": 3922,
      "tree": 3923,
      "trembl": 3924,
      "tremend": 3925,
      "trend": 3926,
      "trial": 3927,
      "triang": 3928,
      "triangul": 3929,
      "trick": 3930,
      "trifl": 3931,
      "trigger": 3932,
      "trim": 3933,
      "tripl": 3934,
      "triumph": 3935,
      "trivial": 3936,
      "trop": 3937,
      "troubl": 3938,
      "tru": 3939,
      "true": 3940,
      "truncat": 3942,
      "trunk": 3942,
      "trust": 3943,
      "truth": 3944,
      "try": 3945,
      "tun": 3946,
      "tunel": 3947,
      "tunnel": 3948,
      "tupl": 3949,
      "turbo": 3950,
      "turn": 3951,
      "tutor": 3952,
      "tweak": 3953,
      "tweet": 3954,
      "twelve": 3955,
      "twent": 3956,
      "twice": 3957,
      "twiddl": 3958,
      "twin": 3959,
      "twink": 3960,
      "twist": 3961,
      "twitch": 3962,
      "twitter": 3963,
      "two": 3964,
      "txt": 3965,
      "typ": 3966,
      "type": 3967,
      "typic": 3968,
      "typo": 3969,
      "ubiquit": 3970,
      "ubuntu": 3971,
      "ugl": 3972,
      "ui": 3973,
      "uint": 3974,
      "ultimat": 3975,
      "ultra": 3976,
      "unar": 3977,
      "under": 3978,
      "understand": 3979,
      "understood": 3980,
      "underwent": 3981,
      "unfurl": 3982,
      "unicode": 3983,
      "unicorn": 3984,
      "unif": 3985,
      "unifi": 3986,
      "uniform": 3987,
      "union": 3988,
      "unique": 3989,
      "unit": 3990,
      "unity": 3991,
      "univers": 3992,
      "unix": 3993,
      "unleash": 3994,
      "untaint": 3995,
      "until": 3996,
      "unveil": 3997,
      "uous": 3998,
      "upbraid": 3999,
      "updat": 4000,
      "upgrad": 4001,
      "upon": 4002,
      "upped": 4003,
      "upper": 4004,
      "upset": 4005,
      "urban": 4006,
      "urg": 4007,
      "url": 4009,
      "us": 4009,
      "usab": 4010,
      "usag": 4011,
      "usb": 4012,
      "use": 4013,
      "user": 4014,
      "usual": 4015,
      "utf": 4016,
      "util": 4017,
      "utmost": 4018,
      "utter": 4019,
      "ux": 4021,
      "vacan": 4021,
      "vacat": 4022,
      "vagar": 4023,
      "vague": 4024,
      "vain": 4025,
      "val": 4026,
      "valen": 4027,
      "valenc": 4028,
      "valent": 4029,
      "valid": 4030,
      "valley": 4031,
      "valu": 4032,
      "vanish": 4033,
      "vanit": 4034,
      "variab": 4035,
      "variabl": 4036,
      "variad": 4038,
      "varianc": 4038,
      "variant": 4039,
      "variat": 4040,
      "varie": 4041,
      "various": 4042,
      "vary": 4043,
      "vast": 4044,
      "vaunt": 4045,
      "vector": 4046,
      "vehicl": 4047,
      "vendor": 4048,
      "ventilat": 4049,
      "ventur": 4050,
      "venue": 4051,
      "verb": 4052,
      "verbos": 4053,
      "veri": 4054,
      "verif": 4055,
      "verity": 4056,
      "vers": 4057,
      "versa": 4058,
      "version": 4059,
      "versus": 4060,
      "vertex": 4061,
      "vertic": 4062,
      "very": 4063,
      "vexat": 4064,
      "vga": 4065,
      "vgg": 4066,
      "via": 4067,
      "viab": 4068,
      "vib": 4069,
      "vibr": 4070,
      "vici": 4071,
      "vict": 4072,
      "video": 4073,
      "view": 4074,
      "vigorous": 4075,
      "vigour": 4076,
      "village": 4077,
      "vindic": 4078,
      "violat": 4079,
      "violen": 4080,
      "viral": 4081,
      "virtual": 4082,
      "virtue": 4083,
      "virus": 4084,
      "vis": 4085,
      "visib": 4086,
      "vision": 4087,
      "visit": 4088,
      "visual": 4089,
      "vocabular": 4090,
      "vocal": 4091,
      "vocat": 4092,
      "voic": 4093,
      "void": 4094,
      "volatil": 4095,
      "volt": 4096,
      "volub": 4097,
      "volum": 4098,
      "volunt": 4099,
      "vot": 4100,
      "vouch": 4101,
      "vpn": 4102,
      "vr": 4103,
      "vs": 4104,
      "vue": 4105,
      "vulgar": 4106,
      "vulner": 4107,
      "wait": 4108,
      "waiv": 4109,
      "wak": 4110,
      "walk": 4111,
      "wall": 4112,
      "wander": 4113,
      "want": 4114,
      "war": 4115,
      "ward": 4116,
      "ware": 4117,
      "warm": 4118,
      "warn": 4119,
      "warp": 4120,
      "warrant": 4121,
      "was": 4122,
      "wash": 4123,
      "wasm": 4124,
      "wast": 4125,
      "watch": 4126,
      "water": 4127,
      "wav": 4128,
      "way": 4129,
      "we": 4130,
      "weak": 4131,
      "wear": 4132,
      "web": 4133,
      "webinar": 4134,
      "wedg": 4135,
      "week": 4136,
      "weigh": 4137,
      "weight": 4138,
      "weird": 4139,
      "welcom": 4140,
      "weld": 4141,
      "well": 4142,
      "went": 4143,
      "were": 4144,
      "west": 4145,
      "what": 4146,
      "whelm": 4147,
      "when": 4148,
      "whence": 4149,
      "where": 4150,
      "which": 4151,
      "while": 4152,
      "whilst": 4153,
      "whim": 4154,
      "whip": 4155,
      "whirl": 4156,
      "whisp": 4157,
      "white": 4158,
      "whither": 4159,
      "who": 4160,
      "whole": 4161,
      "whop": 4162,
      "why": 4163,
      "wick": 4164,
      "wide": 4165,
      "widget": 4166,
      "widow": 4167,
      "width": 4168,
      "wield": 4169,
      "wife": 4170,
      "wifi": 4171,
      "wiki": 4172,
      "wild": 4173,
      "will": 4174,
      "willing": 4175,
      "win": 4176,
      "wind": 4177,
      "window": 4178,
      "winter": 4179,
      "wip": 4180,
      "wire": 4181,
      "wise": 4182,
      "wish": 4183,
      "with": 4184,
      "within": 4185,
      "without": 4186,
      "witness": 4187,
      "wizard": 4188,
      "woke": 4189,
      "woman": 4190,
      "women": 4191,
      "won": 4192,
      "wonder": 4193,
      "wont": 4194,
      "wood": 4195,
      "wor": 4196,
      "word": 4197,
      "work": 4198,
      "world": 4199,
      "worr": 4200,
      "wors": 4201,
      "worship": 4202,
      "worth": 4203,
      "would": 4204,
      "wound": 4205,
      "wrap": 4206,
      "wreak": 4207,
      "wretch": 4208,
      "wright": 4209,
      "writ": 4210,
      "wrong": 4211,
      "wrote": 4212,
      "www": 4213,
      "x64": 4214,
      "x86": 4215,
      "xml": 4216,
      "xor": 4217,
      "yaml": 4218,
      "yeah": 4219,
      "year": 4220,
      "yellow": 4221,
      "yes": 4222,
      "yet": 4223,
      "yield": 4224,
      "you": 4225,
      "young": 4226,
      "your": 4227,
      "youth": 4228,
      "youtub": 4229,
      "zero": 4230,
      "zip": 4231,
      "zon": 4232,
      "zoom": 4233,
      "##0": 4234,
      "##1": 4235,
      "##2": 4236,
      "##3": 4237,
      "##4": 4238,
      "##5": 4239,
      "##6": 4240,
      "##7": 4241,
      "##8": 4242,
      "##9": 4243,
      "##est": 4244,
      "##edly": 4245,
      "##ful": 4246,
      "##day": 4247,
      "##after": 4248,
      "##in": 4249,
      "##ing": 4250,
      "##ive": 4251,
      "##is": 4252,
      "##er": 4253,
      "##es": 4254,
      "##ed": 4255,
      "##ion": 4256,
      "##ment": 4257,
      "##less": 4258,
      "##ness": 4259,
      "##ly": 4260,
      "##al": 4261,
      "##ally": 4262,
      "##ous": 4263,
      "##ability": 4264,
      "##able": 4265,
      "##ably": 4266,
      "##ely": 4267,
      "##ently": 4268,
      "##ately": 4269,
      "##tion": 4270,
      "##ity": 4271,
      "##or": 4272,
      "##ior": 4273,
      "##up": 4274,
      "##out": 4275,
      "##about": 4276,
      "##over": 4277,
      "##fore": 4278,
      "##upon": 4279,
      "##self": 4280,
      "##time": 4281,
      "##ware": 4282,
      "##ever": 4283,
      "##some": 4284,
      "##back": 4285,
      "##ic": 4286,
      "##pad": 4287,
      "##mat": 4288,
      "##plot": 4289,
      "##lib": 4290,
      "##graph": 4291,
      "##shop": 4292,
      "##real": 4293,
      "##math": 4294,
      "##atic": 4295,
      "##noon": 4429,
      "##logic": 4297,
      "##load": 4298,
      "##ify": 4299,
      "##of": 4300,
      "##off": 4301,
      "##date": 4302,
      "##on": 4303,
      "##down": 4304,
      "##work": 4305,
      "##code": 4306,
      "##type": 4307,
      "##cod": 4308,
      "##ative": 4309,
      "##struct": 4310,
      "##fix": 4311,
      "##made": 4312,
      "##mak": 4313,
      "##ant": 4314,
      "##liv": 4315,
      "##norm": 4316,
      "##rich": 4317,
      "##queu": 4318,
      "##tech": 4319,
      "##search": 4320,
      "##advantag": 4321,
      "##agree": 4322,
      "##allow": 4323,
      "##ambigu": 4324,
      "##appear": 4325,
      "##abilities": 4326,
      "##tast": 4327,
      "##script": 4328,
      "##book": 4329,
      "##system": 4330,
      "##mail": 4331,
      "##case": 4332,
      "##list": 4333,
      "##coming": 4334,
      "##cut": 4335,
      "##fall": 4336,
      "##step": 4337,
      "##link": 4338,
      "##bar": 4339,
      "##line": 4340,
      "##flow": 4341,
      "##fus": 4342,
      "##diffus": 4343,
      "##locat": 4344,
      "##lock": 4345,
      "##activat": 4346,
      "##transform": 4347,
      "##solv": 4348,
      "##solution": 4349,
      "##sociat": 4350,
      "##equal": 4351,
      "##efficien": 4352,
      "##effect": 4353,
      "##elegan": 4354,
      "##ebriet": 4355,
      "##eligib": 4356,
      "##scrib": 4357,
      "##stream": 4358,
      "##quiet": 4359,
      "##paint": 4360,
      "##age": 4361,
      "##pag": 4362,
      "##ordinar": 4363,
      "##sampl": 4364,
      "##to": 4365,
      "##operat": 4366,
      "##ship": 4367,
      "##process": 4368,
      "##relat": 4369,
      "##tune": 4370,
      "##fortun": 4371,
      "##point": 4372,
      "##through": 4373,
      "##stag": 4374,
      "##manag": 4375,
      "##pack": 4376,
      "##packag": 4377,
      "##lang": 4378,
      "##languag": 4379,
      "##storag": 4380,
      "##fast": 4381,
      "##propagat": 4382,
      "##engag": 4383,
      "##damag": 4384,
      "##fastidious": 4385,
      "##top": 4386,
      "##web": 4387,
      "##cord": 4388,
      "##install": 4389,
      "##game": 4390,
      "##mongo": 4391,
      "##test": 4392,
      "##dev": 4393,
      "##torch": 4394,
      "##cuda": 4395,
      "##charm": 4396,
      "##pos": 4397,
      "##obj": 4398,
      "##compil": 4399,
      "##compos": 4400,
      "##compres": 4401,
      "##construct": 4402,
      "##convol": 4403,
      "##dispos": 4404,
      "##differ": 4405,
      "##direct": 4406,
      "##discreet": 4407,
      "##discret": 4408,
      "##disput": 4409,
      "##distinct": 4410,
      "##dispens": 4411,
      "##door": 4412,
      "##valid": 4413,
      "##valu": 4414,
      "##variabl": 4415,
      "##varianc": 4416,
      "##variant": 4417,
      "##tabl": 4418,
      "##phone": 4419,
      "##crypt": 4420,
      "##record": 4421,
      "##view": 4422,
      "##cycl": 4423,
      "##boost": 4424,
      "##delta": 4425,
      "##grad": 4426,
      "##updat": 4427,
      "##ward": 4428,
      "##grand": 4429,
      "##cast": 4430,
      "##mention": 4431,
      "##quarter": 4432,
      "##python": 4433,
      "##escap": 4434,
      "##exact": 4435,
      "##excus": 4436,
      "##expens": 4437,
      "##experien": 4438,
      "##express": 4439,
      "##famous": 4440,
      "##feasib": 4441,
      "##estima": 4442,
      "##class": 4443,
      "##cloud": 4444,
      "##channel": 4445,
      "##byte": 4446,
      "##comput": 4447,
      "##conceiv": 4448,
      "##condit": 4449,
      "##config": 4450,
      "##defin": 4451,
      "##determin": 4452,
      "##discover": 4453,
      "##task": 4454,
      "##map": 4455,
      "##check": 4456,
      "##connect": 4457,
      "##consider": 4458,
      "##creat": 4459,
      "##crawl": 4460,
      "##mark": 4461,
      "##declar": 4462,
      "##deliver": 4463,
      "##deploy": 4464,
      "##design": 4465,
      "##draw": 4466,
      "##enter": 4467,
      "##establish": 4468,
      "##examin": 4469,
      "##count": 4470,
      "##group": 4471,
      "##hash": 4472,
      "##mask": 4473,
      "##center": 4474,
      "##account": 4475,
      "##area": 4476,
      "##array": 4477,
      "##cluster": 4478,
      "##collect": 4479,
      "##command": 4480,
      "##complex": 4481,
      "##conscious": 4482,
      "##contain": 4483,
      "##divid": 4484,
      "##divis": 4485,
      "##document": 4486,
      "##domain": 4487,
      "##element": 4488,
      "##field": 4489,
      "##fold": 4490,
      "##gradient": 4491,
      "##sect": 4492,
      "##seque": 4493,
      "##set": 4494,
      "##space": 4495,
      "##strat": 4496,
      "##piece": 4497,
      "##title": 4498,
      "##tree": 4499,
      "##typ": 4500,
      "##variet": 4501,
      "##vocabular": 4502,
      "##version": 4503,
      "##word": 4504,
      "##wise": 4505,
      "##variat": 4506,
      "##data": 4507,
      "##board": 4508,
      "##lingu": 4509,
      "##classif": 4510,
      "##clutter": 4511,
      "##not": 4512,
      "##notat": 4513,
      "##quest": 4514,
      "##arm": 4515,
      "##attack": 4516,
      "##bion": 4517,
      "##crim": 4518,
      "##net": 4519,
      "##punk": 4520,
      "##secur": 4521,
      "##sport": 4522,
      "##vision": 4523,
      "##zon": 4524,
      "##scien": 4525,
      "##nois": 4526,
      "##nominat": 4527,
      "##normaliz": 4528,
      "##mystif": 4529,
      "##think": 4530,
      "##critic": 4531,
      "##gram": 4532,
      "##tool": 4533,
      "##prov": 4534,
      "##regard": 4535,
      "##respect": 4536,
      "##entangl": 4537,
      "##grunt": 4538,
      "##inclin": 4539,
      "##inform": 4540,
      "##ingen": 4541,
      "##interest": 4542,
      "##junct": 4543,
      "##cach": 4544,
      "##lik": 4545,
      "##order": 4546,
      "##patch": 4547,
      "##satisf": 4548,
      "##plac": 4549,
      "##pleas": 4550,
      "##seminat": 4551,
      "##servic": 4552,
      "##similar": 4553,
      "##proportion": 4554,
      "##approb": 4555,
      "##approv": 4556,
      "##assembl": 4557,
      "##associat": 4558,
      "##charg": 4559,
      "##claim": 4560,
      "##clos": 4561,
      "##concert": 4562,
      "##trust": 4563,
      "##util": 4564,
      "##file": 4565,
      "##click": 4566,
      "##rank": 4567,
      "##right": 4568,
      "##scal": 4569,
      "##side": 4570,
      "##size": 4571,
      "##siz": 4572,
      "##stair": 4573,
      "##turn": 4574,
      "##gen": 4575,
      "##talk": 4576,
      "##team": 4577,
      "##box": 4578,
      "##power": 4579,
      "##hub": 4580,
      "##lab": 4581,
      "##bit": 4582,
      "##away": 4583,
      "##ignor": 4584,
      "##hunt": 4585,
      "##felt": 4586,
      "##weight": 4587,
      "##world": 4588,
      "##desk": 4589,
      "##accur": 4590,
      "##action": 4591,
      "##activ": 4592,
      "##adequat": 4593,
      "##admiss": 4594,
      "##advert": 4595,
      "##advis": 4596,
      "##apprecia": 4597,
      "##appropriat": 4598,
      "##argu": 4599,
      "##attent": 4600,
      "##bound": 4601,
      "##buil": 4602,
      "##capab": 4603,
      "##cautio": 4604,
      "##coheren": 4605,
      "##come": 4606,
      "##commod": 4607,
      "##compar": 4608,
      "##compat": 4609,
      "##complet": 4610,
      "##comprehen": 4611,
      "##conclusi": 4612,
      "##congru": 4613,
      "##consist": 4614,
      "##conspic": 4615,
      "##const": 4616,
      "##convenien": 4617,
      "##corpora": 4618,
      "##correct": 4619,
      "##fatuat": 4620,
      "##fanc": 4621,
      "##control": 4622,
      "##panel": 4623,
      "##metr": 4624,
      "##trop": 4625
    }
  }
}