.js
1d
2d
3d
abandon
abat
abbreviat
aberrant
abhor
abid
ability
ablat
able
aboli
abomina
abort
abound
about
above
abreast
abrogat
abrupt
abscond
absen
absolut
absorb
abstain
abstract
abundan
abus
academ
acced
accelerat
accent
accept
access
accident
acclaim
accommodat
accomplish
accord
account
accrue
accumulat
accur
accus
ache
achiev
acoust
acquaint
acquies
acquir
acquisition
acquit
acronym
act
action
activ
activat
actual
actuat
acute
ada
adapt
add
addendum
addict
addit
address
adept
adequat
adher
adjacen
adjectiv
adjoin
adjust
admin
admir
admiss
admit
adobe
adopt
ador
adorn
advanc
advantag
adventur
advers
advert
advic
advis
adware
affab
affair
affect
affiliat
affin
affirm
affix
afflict
afford
affront
afraid
after
again
against
age
agenc
agenda
agent
agglomerat
aggravat
aggregat
aggress
aghast
agil
agitat
ago
agree
ahead
aim
air
ajax
aka
al
alack
alacrit
alarm
alert
alex
algebra
algorithm
alias
align
alike
alive
all
alleg
allegor
alleviat
alli
allianc
allocat
allot
allow
allud
allus
ally
alone
along
aloud
alpha
alphabet
already
also
alter
alternat
although
always
am
amass
amaz
amazon
ambi
ambient
ambigu
ambit
amend
amiabl
amid
amiss
amo
among
amount
amper
ampersand
ampl
amplic
amplif
amplitud
amus
an
analog
analys
analytic
analyz
anchor
ancient
and
android
anew
angel
angl
angular
anim
animat
anneal
anniversary
annotat
announc
annoy
annual
anomal
anonym
another
ansi
ansible
answer
antenn
anti
anticipat
anxious
any
apache
apart
apartment
apertur
api
apolog
apostrophe
app
apparent
appeal
appear
appeas
appellation
append
appl
applaud
apple
applet
applianc
applic
appoint
apposit
apprais
apprecia
apprehen
approach
approb
appropriat
approv
approximat
april
apt
aptly
arbit
arch
architect
archiv
ardent
arduino
arduous
are
area
argu
argument
aris
arithmet
arm
around
arrang
array
arrear
arriv
arrogan
arrow
art
arti
articl
articulat
artificial
artist
as
asap
ascend
ascent
ascertain
ascii
ascrib
asham
aside
ask
asm
asp
aspect
asper
aspir
assail
assault
assembl
assent
assert
assess
asset
assid
assign
assist
associat
assort
assuag
assum
assur
assuranc
astonish
astound
astray
asunder
asymmetr
asymptot
async
atic
ativ
atlas
atmo
atom
aton
attach
attack
attain
attempt
attend
attent
attenuat
attest
attorn
attract
attribut
attrit
audi
audio
audit
augment
august
auth
authent
author
auto
autonom
autumn
auxiliar
avail
avatar
averag
avert
avoid
avow
awak
award
aware
away
awe
awful
awk
aws
axes
axiom
axis
azure
back
bad
badg
baffl
bag
balanc
ball
ban
band
banish
bank
bar
bas
base
bash
basic
basis
bat
batch
batter
battle
bayes
be
beam
bear
beat
beaut
became
because
becom
been
befor
beg
began
begin
begun
behav
behavio
behaviou
behind
belief
believ
bell
belong
bench
bend
bend
beneath
benefic
benefit
bent
bereav
bereft
bert
beside
best
bestow
beta
betray
between
beyond
bi
bias
bifurcat
big
bigram
bill
bin
binanc
bind
bing
bio
bion
bios
bird
bisect
bit
black
blam
blank
bleak
blend
bless
blew
blind
blink
blob
block
blog
bloom
blossom
blow
blue
blund
blunt
blur
board
boast
body
boil
bold
bond
bone
bonus
book
bool
boom
boost
boot
bor
border
born
borrow
boss
bot
both
bother
bottle
bottom
bought
bounc
bound
bow
bowl
box
boy
brac
brack
brag
brain
brak
branch
brand
brave
breach
break
breath
brevity
bridg
brief
bright
bring
brisk
broach
broad
broke
brother
brought
brows
brush
btw
buch
bucket
budget
buf
bug
buil
bulk
bump
bunch
bundl
bur
burn
burst
bus
business
but
button
buy
by
bye
byte
cable
cach
cad
calcul
calendar
calibrat
call
calm
cam
came
camera
camp
campaign
campus
can
cancel
candid
candidat
canonical
canvas
capab
capacit
capital
caps
capsul
capt
captcha
caption
captivat
captur
car
card
cardinal
care
carr
cart
carv
cas
cascad
case
cast
catalog
catch
categor
caught
caus
cautio
cbow
ceas
ceil
celebrat
cell
center
centr
ceremon
certain
certif
chain
chair
challeng
champ
chanc
chang
channel
chao
chapt
char
character
charg
charit
charm
chart
chat
cheap
cheat
check
cheer
chief
child
chin
chip
choic
choos
chop
chose
chrom
chronologic
chunk
cipher
circl
circuit
circular
circulat
circum
cisco
cit
citation
civil
claim
clamp
clarif
clarity
clash
class
classif
clause
clean
clear
clever
cli
click
client
climb
cling
clip
clobber
clock
clog
clon
clos
cloth
cloud
club
clue
cluster
clutter
cmd
cmos
cms
cnn
coach
coaxial
cobol
cocoa
cod
code
codif
coefficient
coffee
cofound
cognit
coheren
cohesi
coin
coincid
cold
collaborat
collaps
collat
colleague
collect
college
collid
collinear
collis
collud
collung
colon
color
colour
column
combat
combin
combo
come
comfort
comfy
coming
comma
command
commenc
commend
comment
commerc
commiserat
commiss
commit
commodit
common
commun
communic
commut
compact
compan
compar
compass
compat
compel
compensat
compet
competen
compil
complacen
complai
complement
complet
complex
compli
complian
complicat
compliment
comply
component
compos
compound
comprehen
compres
compris
compromis
compuls
comput
computer
concatenat
concav
conceal
conced
conceit
conceiv
concentrat
concept
concern
concert
concess
conciliat
concis
conclud
conclusi
concord
concret
concurr
condemn
condens
condit
condolenc
conduc
conduct
cone
confer
conferenc
confes
confid
config
confin
confirm
conflat
conflict
confluen
conform
confound
confront
confus
congest
congrat
congratulat
congregat
congress
congru
congruent
conjectur
conjuga
conjunct
connect
conniv
conquer
conscious
consecutiv
consent
conserv
consider
consign
consist
consol
consolidat
consonan
consort
conspic
conspir
const
constit
constrain
constru
construct
consult
consum
contact
contain
contemp
contemplat
contempt
contend
content
contest
context
contigu
contingen
continu
contour
contr
contract
contradict
contrast
contribut
contrit
contriv
control
controver
conundrum
conv
conven
convenien
convent
converg
convers
convert
convex
convey
convict
convinc
conviv
convol
cook
cool
cooperat
coordinat
copi
copy
cord
core
corner
corollar
coroutin
corpora
corpus
correct
correlat
correspond
corroborat
corrupt
cosin
cost
couch
could
counsel
count
counter
coupl
courag
cours
couth
cover
covet
cpu
crack
craft
cramp
crank
crash
crav
crawl
creat
creden
credib
credit
cri
crim
cris
criteri
critic
critique
crm
croach
cron
crop
cross
crowd
crucial
crude
crumbl
crunch
crush
crux
cry
crypt
crypto
crystal
css
cub
cuda
cull
culminat
cultivat
cultur
cumulat
cur
curat
curio
curl
currenc
current
cursor
curtail
curv
custom
cut
cyber
cycl
dabbl
daemon
damag
damp
danc
dang
danger
dangl
dar
dark
darl
dart
dash
dat
data
date
daughter
daunt
dawdl
day
dbc
dbms
ddr
dead
deal
dear
debat
debug
debut
decad
decay
deceit
deceiv
decelerat
december
decen
decentraliz
decept
decid
decimal
decisi
declar
declin
decorat
decreas
decrement
dedicat
deduc
deed
deem
deep
default
defeat
defect
defenc
defend
defens
defer
defi
defian
defic
defin
definit
deflat
deflect
deform
deft
defus
degrad
degree
delay
delegat
delet
deliberat
delic
delight
deliver
delphi
delta
delv
demand
demo
demodulat
demolish
demonstra
demot
deni
dens
densif
depart
department
depend
depict
deplet
deploy
deposit
deprecat
depreciat
depreciate
depress
depriv
depth
deput
deque
derang
deriv
descen
descri
describ
descript
desert
deserv
design
desir
desk
despit
destin
destroy
destruct
detach
detail
detain
detect
determin
detract
dev
devalu
devastat
develop
deviat
devic
devis
devoid
devolv
devot
dexter
dia
diagnos
diagonal
dial
dialect
dialog
dict
dictat
did
die
diff
differ
differentia
difficult
diffiden
diffus
dig
digit
dignit
dilat
dilemma
diligen
dilut
dimens
diminish
dinner
diod
dire
direct
dirt
dis
disabl
disappoint
discard
discern
disciplin
discord
discount
discourag
discover
discreet
discrep
discret
discriminant
discriminat
discuss
disdain
disgrac
disguis
disgust
dish
disjoin
disk
dismal
dismiss
dispar
dispens
dispers
display
dispos
disposit
disput
disrupt
dissent
dissipat
dissonan
dissuad
distan
distill
distinct
distinguish
distort
distract
distress
distribut
disturb
div
diverg
divers
diversif
divert
divid
divis
django
dll
dnn
do
doat
doc
dock
docker
doctrin
document
dole
dom
domain
domestic
dominan
dominat
donat
doom
door
dos
dot
doth
doubl
doubt
down
draft
drag
drain
dram
drama
drank
drank
drastic
draw
dread
dream
dress
drew
drill
drink
driv
dron
drop
drown
drunk
drupal
dry
dual
dub
duc
duck
due
dull
dump
duo
dup
dupl
durab
duration
during
during
dusk
dust
dut
dwel
dwindl
dynam
each
eager
ear
earl
earn
earn
earth
eas
east
eat
ebriet
echo
eclips
ecma
ecolog
econom
ed
edge
edit
educat
effect
effic
efficien
effort
eigen
eight
either
eject
elaborat
elaps
elastic
elde
elect
electr
electr
electrif
electron
elegan
element
elevat
eleven
elicit
eligib
eliminat
ellip
elongat
else
elucidat
elud
elusiv
embark
embarrass
embed
embellish
ember
emblem
embod
embrac
emerg
eminen
emiss
emit
emotion
emphas
emphat
empir
employ
empt
emulat
enabl
enact
encapsulat
enchant
encumb
end
endanger
endear
endeav
endors
endur
enem
energ
enforc
engag
engine
engross
enhanc
enjoy
enlarg
enough
enquir
enroll
ensembl
ensu
ensur
entail
entangl
enter
enterpris
entertain
enthusiast
entic
entire
entit
entitl
entr
entrain
entrance
entrant
entrap
entre
entreat
entrench
entrop
entrop
entropic
entrust
enum
enumer
envelop
envi
environ
envision
epic
epilog
episod
epoch
equal
equaliz
equat
equi
equip
equit
er
eradicate
eras
ergonom
erlang
errand
errant
erroneous
error
es
escalat
escap
escort
especial
essen
essential
establish
estate
esteem
estima
etc
etern
ether
euclid
euler
euro
evad
evaluat
evaporat
evas
even
evening
event
ever
every
evict
eviden
evok
evolut
evolv
exact
exaggerat
exam
examin
exampl
exceed
excel
except
excess
excit
exclud
exclus
exclusiv
excus
exec
execut
exempl
exempt
exercis
exert
exhaust
exhibit
exigen
exist
exit
expand
expans
expect
expedien
expedit
expedite
expend
expens
experien
experiment
expert
expir
explain
explanat
explic
explod
exploit
explor
explos
exponent
export
expos
expound
express
exten
extenuat
exterior
extern
extinguish
extra
extract
extrapolat
extravagan
extrem
extricat
extrinsic
exult
eye
fabl
fabric
fac
face
facilit
fact
factor
fad
fail
faint
fair
fair
faith
fake
fall
false
fame
famil
familiar
famous
fan
fanc
fantas
faq
far
fare
farth
fascinat
fashion
fast
fasten
fastidious
fat
fatal
father
fatig
fault
favo
fear
feasib
featur
february
federal
federat
feebl
feed
feel
fees
feet
feign
felic
fell
fellow
felt
female
femin
fenc
fend
festiv
fetch
few
ficat
ficial
fickl
fide
fidel
fidget
field
fift
fight
figur
file
fill
filt
filtrat
fin
final
financ
find
fine
finger
finish
finit
fir
fire
firm
first
fish
fit
five
fix
fixat
flag
flam
flare
flash
flask
flat
flav
flaw
flect
fled
flee
fleet
flew
flex
fli
flick
flight
fling
flip
flirt
float
flock
flood
floor
flopp
flourish
flow
fluctuat
fluen
fluff
flung
flurr
flush
flutter
flux
fly
focal
focus
fold
foll
follow
fond
font
food
fool
foot
fopp
for
foray
forb
forbid
forc
fore
forebod
foresee
forest
foretell
forever
forfeit
forgav
forge
forget
forgiv
forgo
forgot
fork
form
formaliz
format
formul
formulat
forswear
forth
fortif
fortran
fortun
forum
forward
fought
found
four
fox
fps
fract
fraction
fragil
fragment
fragran
fram
framework
franca
frantic
fraud
free
freez
frequen
fresh
fri
friend
fright
from
front
froz
frugal
fruit
frustrat
frustum
ftp
fuck
fuel
ful
fulfil
full
fumbl
fun
func
fund
fundament
funder
fungib
funnel
furbish
furcat
further
fus
futur
fuzz
gadget
gain
gallant
galler
gam
gambl
game
gamif
gan
gap
garbag
garment
gat
gather
gaug
gauss
gave
gaz
gb
gcc
geek
gem
gem
gemini
gen
gener
general
generat
generic
genet
geni
gentl
genuin
geo
gestur
get
get
gether
ghost
giant
gift
gig
giga
gigant
girl
gist
git
giv
glad
glanc
glar
glass
glean
glee
glimps
glitch
glob
gloom
glor
gloss
glow
glue
glyph
gnome
gnu
go
goal
gold
gonal
good
googl
gorgeous
got
goto
govern
gps
gpt
gpu
grab
grace
gracious
grad
gradat
gradient
gradl
gradual
graduat
gram
gramm
grand
grant
granular
graph
graphic
grappl
grasp
grat
grate
gratif
gratif
grav
gravit
gray
great
greed
greet
grep
grew
grid
griev
grind
grip
groom
groov
gross
ground
group
grow
grpc
grudg
gruel
grunt
gsm
guarante
guard
guess
guest
gui
guid
guilt
habit
hack
hackathon
had
hadoop
hail
half
halt
hamper
hand
handl
hang
happ
happen
hapt
hard
harm
harmon
harness
harsh
has
hash
haskell
hassl
hast
hat
haul
haunt
hav
hazard
hdd
hdmi
he
head
head
heal
health
heap
hear
heart
heat
heather
heav
heaven
hedron
height
heir
held
hello
help
hence
her
here
hereby
hesitat
heter
heuristic
hex
hi
hiber
hid
hierarch
high
hijack
him
hinder
hindranc
hint
hir
his
hist
histor
hit
hit
hither
hiv
hold
holi
holistic
holo
home
homo
homogen
honest
honour
hood
hook
hook
hop
horizon
horribl
horror
hospit
host
hot
hour
house
hover
how
html
http
hub
huge
human
humbl
humour
hundred
hung
hunt
hurr
hurt
husband
hush
hybrid
hype
hyper
hypoth
ic
icon
idea
ideal
ident
identif
identif
idiom
idol
ight
ignit
ignor
ill
illuminat
illus
illustrat
imag
imagin
imbue
imburs
imitat
immediat
immens
immers
imminent
immut
impact
impair
impart
imped
impel
impend
impersonat
impertinen
impet
impl
implant
implement
implicat
implicit
import
import
impos
impossibl
impress
improv
impuden
impuls
impur
imput
inasmuch
inaugurat
incent
incept
inch
incident
incit
inclin
includ
inclus
incognito
increas
incredibl
increment
incubat
incur
indebt
indeed
indelibl
indent
index
indic
indicat
indign
individual
indolen
indub
induc
induc
induct
indulg
industr
inert
infatuat
infect
infer
inflat
inflect
inflict
info
inforc
inform
infra
infring
infus
ing
ingen
ingest
ingrain
ingrat
ingress
inherent
inherit
inhibit
inimitab
init
initiat
inject
injur
ink
inlin
innate
inner
inno
innoc
innocent
innovat
input
inquir
inquisit
inroad
insan
insert
insight
insinuat
insist
inso
insolen
inspect
inspir
inst
instabil
install
instanc
instant
instat
instead
instigat
instinct
institut
instruct
instrument
insuff
insult
insur
intact
integr
intel
intellect
intelli
intelligen
inten
intend
intens
intent
inter
interact
intercept
interest
interfac
interfer
interim
intermiss
intern
internet
interpolat
interpret
interrupt
interval
interven
intim
into
intra
intract
intric
intrigu
intrinsic
intro
introduc
intrusiv
intuit
inur
invad
invasi
invent
invers
invert
invest
investigat
invigorat
invit
invocat
invok
involv
ion
is
isolat
issu
istic
it
item
itera
ity
jam
january
jasmin
java
jdk
jdo
jealous
jenkins
jest
jet
jinja
jira
jitter
job
joic
join
jok
joomla
jott
journ
journal
joy
jpeg
jpg
jre
json
judg
judic
juggl
july
jump
junct
june
junior
junk
jupyter
just
justic
justif
jut
juvenat
jvm
jwt
kanban
kde
keen
keep
kept
kept
keras
kernel
key
kick
kill
kilo
kind
king
kit
kivy
knack
knew
knock
know
knowledg
kotlin
kubernet
lab
label
labo
laborator
lace
lack
lag
lagrang
laid
lambd
lan
lanc
land
lang
languag
lap
laps
laravel
large
lash
last
latch
late
laten
lateral
latin
latitud
latter
laugh
launch
lavish
law
lay
layer
layout
laz
lda
lead
leaf
leak
lean
leap
learn
leas
leav
lect
led
left
legac
legal
legend
legib
legitim
lemma
lend
length
lens
lent
less
lesson
let
letter
level
leverag
leverat
lexic
lexic
liab
lib
liberal
libert
libr
licens
licentious
lidar
lie
life
lift
light
lik
limit
line
lingu
linguist
link
linux
liquidat
list
listen
liter
litera
littl
liv
llama
llm
llvm
load
local
locat
lock
lodg
log
logarithm
logic
logic
logistic
logit
lonel
long
look
loom
loop
loose
los
loud
lov
low
loyal
lstm
luck
lumin
lurk
luxur
ly
mac
machin
macro
mad
made
magic
magnet
magnif
magnitud
mail
main
mainfram
maintain
maintain
mainten
majest
major
mak
male
malic
mama
man
manag
mandat
maneuver
manifest
manipul
manual
manufactur
many
map
march
margin
marginal
mark
market
marr
marriag
marshall
mash
mask
mass
master
mat
match
material
math
matric
matrimon
matrix
matter
matur
max
may
meal
mean
measur
mechan
mechanic
meddl
media
medic
meditat
meet
mega
melanchol
meld
melod
mem
member
memor
men
ment
mention
mentor
menu
mercant
merchan
mere
merg
merit
mesh
mess
messag
met
meta
metal
metaphor
meter
method
metr
micro
mid
middl
might
migrat
migrat
mild
mile
milli
million
mimic
min
mind
mine
mini
miniatur
minif
minor
minus
minute
mirror
mirth
mis
miscellaneous
miser
miss
mission
misspel
misspen
mistak
mitigat
mix
mixture
mobil
mock
mod
modal
model
modem
moderat
modern
modest
modif
modul
moment
mon
money
mongo
monitor
mono
monolith
monoton
month
moon
moor
moral
more
morning
morph
morrow
mortif
most
mother
motion
motiv
motivat
motor
mount
mountain
mouse
mov
much
mull
multi
multipl
multiplatform
multiplay
multiple
multiplex
multiplicat
murmur
mus
music
must
mut
mutab
mutat
mutex
mutter
mutual
mvc
mvp
myster
mystif
nab
nail
naive
nam
nano
narrat
narrow
nation
nativ
natur
navi
near
neat
necess
neck
need
negat
negativ
neglect
neglig
negotiat
neighbo
neither
nerv
ness
net
network
neur
neutral
never
new
newb
next
ng
nice
niche
night
nine
nlp
nltk
no
nod
node
nois
nom
nomi
nominal
nominat
non
noname
nonsens
noone
nope
norm
normaliz
north
not
notat
note
nothing
notic
notif
notorious
nought
noun
nourish
novel
november
novic
now
null
numb
numer
nurs
obedien
obey
obfuscat
object
oblig
obliquity
obliterat
obscur
observ
obsess
obsolet
obstacl
obstinate
obstruct
obtain
obtrud
obviat
obvious
occasion
occlud
occup
occur
octa
october
odd
oem
of
off
offenc
offend
offens
offer
offic
official
offset
often
old
omit
on
once
one
onerous
only
opaci
opaque
open
oper
operat
opinion
opponent
opportun
oppos
opposs
oppress
ops
opt
optic
optim
optimal
optimis
optimiz
option
or
oracle
order
ordinar
ordinar
ordinat
organic
organiz
orient
origin
ornament
ortho
oscill
oscillat
osten
other
ought
oust
out
outage
outer
outlast
output
outrage
over
overlap
overrid
ow
own
pac
pack
packag
pad
pag
paid
pain
paint
pair
pal
pale
palette
palpab
panel
paper
para
parabol
parad
paradigm
paradox
paragraph
parallax
parallel
param
pardon
parent
park
pars
part
particip
particl
particul
pass
passag
passiv
past
patch
patent
path
patien
patron
patronag
pattern
paus
peac
peak
peculiar
pedia
peek
peep
peer
pen
penal
pencil
pend
penetrat
pens
pent
peopl
perceiv
percent
percept
perfect
perform
perhaps
period
peripher
perl
permanent
permeat
permiss
permit
permut
perpendicular
perplex
persever
persist
person
perspectiv
persuad
persuas
pertain
pertin
perturb
perus
pervad
pessimi
peta
phase
phenomen
philosoph
phish
phone
phonet
photo
php
phras
physic
pick
pict
pictur
piece
pilot
pin
ping
pioneer
pip
pipe
pipeline
pit
pitch
pivot
pix
pixel
plac
plagued
plain
plan
planar
plane
planet
plast
platform
plausib
play
plead
pleas
pleasure
pledg
plent
plent
plex
plot
plug
plung
plural
plus
poach
pocket
pod
podcast
poem
point
polar
polic
polish
polit
poll
poly
ponder
pool
poor
pop
popular
populat
port
portal
portion
pos
posit
positiv
possess
possib
post
postgres
postpon
potent
pour
pow
power
practi
pragm
prais
pray
pre
preach
preambl
preced
precedent
precipit
precis
preclud
predecess
predica
predict
prefer
prejudic
preliminar
premier
premis
preneur
prepar
prepend
present
preserv
press
pressur
presum
pretenc
pretend
pretens
prett
prevail
prevent
previous
pric
pride
prim
primar
primitiv
princip
print
prior
privat
privileg
pro
prob
probab
problem
procedur
proceed
process
processor
procrastinat
procur
produc
profess
profession
profic
profil
profit
program
progress
prohibit
project
prolog
prolong
prominen
promis
promot
prompt
pronoun
pronunc
proof
propagat
proper
proportion
propos
propriet
pros
prospect
prosper
protect
protest
proto
protocol
prototyp
protract
protrud
proud
prov
provid
provis
provocation
provok
prox
proxim
pruden
prun
pseudo
publ
public
publish
puff
pull
puls
pump
punct
punish
punk
pupil
pur
purchas
purpos
pursu
push
put
puzzl
py
pyramid
python
qa
quad
quaint
qualif
qualit
quant
quantif
quarrel
quart
quarter
quaternion
queen
queer
quer
quest
question
queu
quick
quiet
quint
quir
quit
quiz
quot
rac
rad
radiat
radic
radio
radius
rag
raid
rail
rain
rais
rall
ram
rambl
ramp
ran
rand
random
rang
rank
ransom
rapid
raptur
rar
raspberry
raster
rat
rather
ratio
rational
ravel
raw
ray
re
reach
react
read
ready
real
realiz
realm
reanimat
rear
rearrang
reason
rebut
recap
recaptur
receipt
receiv
recent
recept
recipe
recipient
reciproc
reckon
recogni
recommend
reconcil
record
recover
recruit
rectang
rectif
recur
recurren
recurs
redact
redis
rediscover
redistribut
reduc
reduc
redundan
redux
ref
refactor
refer
refetch
refil
refill
refin
refit
reflect
reflex
refocus
reform
reformat
reformulat
refract
refrain
refresh
refund
refurbish
refus
refut
regain
regard
regard
region
regist
regress
regret
regular
regulat
reif
reign
reject
relat
relax
releas
relegat
relent
relevan
reliab
relian
reliev
relinquish
relish
reluctan
rely
remain
remed
rememb
remembr
remind
remiss
remonstra
remot
remov
render
renovat
rent
repair
repeat
repetit
repl
repla
replac
replenish
replet
replic
report
repositor
reprehen
represent
reproach
reput
reputa
reque
request
requi
requir
requisit
requit
rescind
rescu
reserv
reset
resid
resident
resilien
resist
resolut
resolv
resonat
respect
respon
rest
restart
restat
restaurant
restor
restrain
restrict
restruct
result
resum
resurrect
retail
retain
retent
retir
retract
retriev
retro
return
revamp
reveal
revel
revenue
revers
revert
revis
revisit
reviv
revok
revolt
revolut
revolv
reward
rgb
rich
rid
ridd
ridicul
right
rigid
rigorous
rimm
rip
ris
risk
rival
river
river
rnn
road
roam
roast
robo
robust
rock
rol
roll
roman
room
root
rose
rotat
rough
round
rous
rout
routine
row
rpc
rpg
rsa
rss
rtti
rubber
rubric
ruby
rude
rudimen
rue
rugged
ruin
rul
rumor
rumour
run
rush
rust
saas
sad
saf
safar
said
sail
sal
salar
same
sampl
samsung
sang
sanit
sank
satellit
satisf
satur
saturat
sauc
saunter
sav
saw
sawed
sawn
say
scal
scalar
scan
scap
scar
scatter
scen
scenar
scept
schedul
schem
scholar
school
sci
scien
scold
scop
scor
scout
scrab
scrambl
scrap
scratch
scream
screen
screw
scrib
script
scroll
scrum
scrup
scrut
scrutiniz
sdk
sea
seal
seam
search
season
seat
second
secret
sect
secur
seduc
see
seed
seek
seem
seen
sees
segment
segregat
segue
seiz
seldom
select
self
sell
selv
semantic
semaphor
sembl
semi
seminar
seminat
send
senior
sens
sensation
sensitiv
sensor
sent
sentenc
sentiment
seo
separ
september
seque
serial
series
serious
serv
server
servic
session
set
settl
setup
seven
sever
several
sex
sgd
shad
shadow
shak
shall
shallow
sham
shap
shar
shard
sharp
she
shed
sheet
sheet
shell
shelter
shift
shin
ship
shock
shoe
shook
shoot
shop
short
shot
should
shout
show
show
shrank
shrank
shrink
shrunk
shuffl
shut
shy
sick
side
sigh
sight
sign
signal
signatur
signif
signif
silen
silhouett
silicon
sill
silver
similar
simpl
simpl
simplic
simplif
simulat
simultaneous
since
sincere
sing
sing
singl
singular
sink
sinus
sion
sister
sit
site
situat
six
siz
size
skeleton
skept
sketch
skew
skill
skip
sky
skype
slack
slack
slam
slang
slash
slav
slay
sleek
sleep
sleet
slept
slew
slic
slid
slight
slim
sling
slip
slop
slot
slow
slugg
slumber
slung
sly
smack
small
smart
smash
smell
smil
smit
smok
smooth
snap
sneak
sneer
sniff
snip
snow
so
soap
soar
sober
social
sociat
societ
sock
socket
soft
software
solace
sold
solely
solemn
solicit
solid
solitar
solution
solv
some
son
song
soon
sooth
sophisticat
sorrow
sorry
sort
soul
sound
soup
sourc
south
spac
space
spam
span
spar
spark
spars
spatial
spawn
speak
spec
speci
special
specializ
specif
specif
spect
spectr
speculat
speech
speed
spel
spen
spend
spher
spill
spin
spirit
spit
splash
splay
splend
splic
splin
split
spoil
spoil
spoke
sponsor
spontane
spoof
spool
spoon
sport
spot
sprang
spread
spring
sprinkl
sprint
sql
squar
squeez
stab
stabil
stabl
stack
staff
stag
stagnat
stair
stak
stakeholder
stale
stall
stamp
stand
stand
standard
standby
star
stare
start
stash
stat
static
station
stationar
statistic
status
stay
std
stead
steal
steam
steep
steer
stemm
stencil
step
stereo
stick
still
stimul
stipulat
stir
stochast
stock
ston
ston
stood
stoop
stop
stor
storag
storm
story
stout
straggl
straight
strain
strang
strap
strat
strateg
stratif
stray
stream
street
stren
strength
stress
stress
stretch
strick
strict
strid
strik
string
strip
striv
strok
strong
strov
struct
struggl
stub
stuck
stud
student
studio
studio
stuff
stumbl
stump
stun
stupid
styl
sub
subdu
subject
submiss
submit
subscrib
subsid
subsist
substan
substantiat
substitut
subtl
subtract
succe
succinct
such
sudden
sue
suffer
suffic
suffix
suggest
suit
sull
summ
summa
summer
summit
summon
sun
sung
sunk
super
supervis
supper
suppl
supplant
supplement
support
suppos
suppress
suprem
sure
surf
surfac
surg
surmis
surpass
surpris
surrender
surrogate
surround
survey
surviv
susceptib
suspect
suspend
suspens
suspic
sustain
svd
svg
svm
svn
swap
sway
swear
sweep
sweet
swell
swift
swin
swip
swish
switch
swoop
swung
syllabl
symbol
symmetr
sympath
sync
synchron
synonym
synt
syntax
synth
synthes
synthet
sys
system
tab
tabl
tabul
tackl
tact
tactic
tag
tail
tailor
tak
take
talent
talk
tall
tam
tamper
tangent
tangl
tap
tap
target
task
tast
taught
tax
tea
teach
team
tear
teas
tech
techni
technolog
tedious
tele
tell
temp
temper
temperatur
templat
tempor
tempt
tenabl
tenacious
tend
tendenc
tender
tens
tensor
tentat
tera
term
termin
terminal
terminat
terrain
terribl
terrif
tessellat
test
tether
text
than
thank
that
thaw
the
theft
their
them
then
theor
theorem
ther
there
thereby
therm
thes
thesa
thesis
thest
theta
they
thick
thin
thing
think
thir
third
thirt
this
thither
thorough
those
though
thought
thous
thousand
thread
threat
three
thres
threw
thrift
thrill
thriv
through
throw
thumb
thunder
thunk
thus
thwart
tick
ticket
tier
tight
til
till
tilt
tim
time
timid
tinker
tiny
tion
tip
tir
titl
to
together
toggl
token
told
tolera
tolerat
tong
too
took
tool
tooth
top
topic
topolog
torch
torrent
total
touch
tough
tour
tournament
tout
toward
town
trac
track
tract
trad
tradition
traff
trail
train
trait
trajector
tranquil
trans
transact
transceiv
transcend
transclud
transcrib
transcript
transduc
transduct
transfer
transform
transgress
transient
transist
transit
translat
transliterat
transmiss
transmit
transparen
transpil
transplant
transport
transpos
trap
trash
travel
travers
tread
treasur
treat
tree
trembl
tremend
trend
trial
triang
triangul
trick
trifl
trigger
trim
tripl
triumph
trivial
trop
troubl
tru
true
truncat
truncat
trunk
trust
truth
try
tun
tunel
tunnel
tupl
turbo
turn
tutor
tweak
tweet
twelve
twent
twice
twiddl
twin
twink
twist
twitch
twitter
two
txt
typ
type
typic
typo
ubiquit
ubuntu
ugl
ui
uint
ultimat
ultra
un
unar
under
underneath
understand
understood
underwent
unfurl
unicode
unicorn
unif
unifi
uniform
union
unique
unit
unity
univers
unix
unleash
untaint
until
unveil
uous
upbraid
updat
upend
upgrad
upon
upp
upped
upper
upset
uptill
urban
urg
urgen
url
url
us
usab
usag
usb
use
user
usual
utf
util
utmost
utter
ux
ux
vacan
vacat
vagar
vague
vain
val
valen
valenc
valent
valid
valley
valu
vanish
vanit
var
variab
variabl
variad
variad
varianc
variant
variat
varie
various
vary
vast
vaunt
vector
vehicl
vendor
ventilat
ventur
venue
verb
verbal
verbos
verdur
veri
verif
verity
vers
versa
versatil
version
versus
vertex
vertic
very
veto
vexat
vga
vgg
via
viab
vib
vibr
vici
vict
victim
video
view
vigorous
vigour
village
vindic
violat
violen
viral
virtual
virtue
virus
vis
visib
vision
visit
visual
vital
vivac
vocabular
vocal
vocat
voic
void
volatil
volt
volub
volum
volunt
vot
vouch
vow
vowel
vpn
vpn
vr
vr
vs
vue
vulgar
vulner
wait
waiv
wak
walk
wall
wan
wander
want
war
ward
ware
warm
warn
warp
warrant
was
wash
wasm
wast
watch
water
wav
way
we
weak
wear
weather
web
webinar
wedg
week
weigh
weight
weird
welcom
weld
well
went
were
west
what
whelm
when
whence
where
whether
which
while
whilst
whim
whip
whirl
whisp
whistl
white
whither
who
whole
whop
why
wick
wide
widget
widow
width
wield
wife
wifi
wiki
wild
will
willing
win
wind
window
winter
wip
wire
wise
wish
with
within
without
witness
wizard
woke
woman
women
won
wonder
wont
wood
wor
word
work
world
worr
wors
worship
worth
would
wound
wrap
wreak
wretch
wright
writ
wrong
wrote
www
x64
x86
xml
xor
yaml
yeah
year
yellow
yes
yet
yield
you
young
your
youth
youtub
zero
zip
zon
zoom
##0
##1
##2
##3
##4
##5
##6
##7
##8
##9
##est
##edly
##ful
##day
##after
##in
##ing
##ive
##is
##er
##es
##ed
##ion
##ment
##less
##ness
##ly
##al
##ally
##ous
##ability
##able
##ably
##ely
##ently
##ately
##tion
##ity
##or
##ior
##up
##out
##about
##over
##fore
##upon
##self
##time
##ware
##ever
##some
##back
##ic
##pad
##mat
##plot
##lib
##graph
##shop
##real
##math
##atic
##noon
##logic
##load
##ify
##of
##off
##date
##on
##down
##work
##code
##type
##cod
##ative
##struct
##fix
##made
##mak
##ant
##liv
##norm
##rich
##queu
##tech
##search
##advantag
##agree
##allow
##ambigu
##appear
##abilities
##tast
##script
##book
##system
##mail
##case
##list
##coming
##cut
##fall
##step
##link
##bar
##line
##flow
##fus
##diffus
##locat
##lock
##activat
##transform
##solv
##solution
##sociat
##equal
##efficien
##effect
##elegan
##ebriet
##eligib
##scrib
##stream
##quiet
##paint
##age
##pag
##ordinar
##sampl
##to
##operat
##ship
##process
##relat
##tun
##fortun
##point
##through
##stag
##manag
##pack
##packag
##lang
##languag
##storag
##fast
##propagat
##engag
##damag
##fastidious
##top
##web
##cord
##install
##game
##mongo
##test
##dev
##torch
##cuda
##charm
##pos
##obj
##compil
##compos
##compres
##construct
##convol
##dispos
##differ
##direct
##discreet
##discret
##disput
##distinct
##dispens
##door
##valid
##valu
##variabl
##varianc
##variant
##tabl
##phone
##crypt
##record
##view
##cycl
##boost
##delta
##grad
##updat
##ward
##grand
##cast
##mention
##quarter
##python
##escap
##exact
##excus
##expens
##experien
##express
##famous
##feasib
##estima
##class
##cloud
##channel
##byte
##comput
##conceiv
##condit
##config
##defin
##determin
##discover
##task
##map
##check
##connect
##consider
##creat
##crawl
##mark
##declar
##deliver
##deploy
##design
##draw
##enter
##establish
##examin
##count
##group
##hash
##mask
##center
##account
##area
##array
##cluster
##collect
##command
##complex
##conscious
##contain
##divid
##divis
##document
##domain
##element
##field
##fold
##gradient
##sect
##seque
##set
##space
##strat
##piece
##title
##tree
##typ
##variet
##vocabular
##version
##word
##wise
##variat
##data
##board
##lingu
##classif
##clutter
##not
##notat
##quest
##arm
##attack
##bion
##crim
##net
##punk
##secur
##sport
##vision
##zon
##scien
##nois
##nominat
##normaliz
##mystif
##think
##critic
##gram
##tool
##prov
##regard
##respect
##entangl
##grunt
##inclin
##inform
##ingen
##interest
##junct
##cach
##lik
##order
##patch
##satisf
##plac
##pleas
##seminat
##servic
##similar
##proportion
##approb
##approv
##assembl
##associat
##charg
##claim
##clos
##concert
##trust
##util
##file
##click
##rank
##right
##scal
##side
##size
##siz
##stair
##turn
##gen
##talk
##team
##box
##power
##hub
##lab
##bit
##away
##ignor
##hunt
##felt
##weight
##world
##desk
##accur
##action
##activ
##adequat
##admiss
##advert
##advis
##apprecia
##appropriat
##argu
##attent
##bound
##buil
##capab
##cautio
##coheren
##come
##commod
##compar
##compat
##complet
##comprehen
##conclusi
##congru
##consist
##conspic
##const
##convenien
##corpora
##correct
##fatuat
##fanc
##control
##panel
##metr
##trop
##body
##how
##except
##follow
##look
##driv
##api
##shap
##shuffl
##sign
##signif
##produc
##js
##fragment
##rang
##dram
##brows
##develop
##cam
##font
##form
##hook
##host
##interfac
##master
##kit
##log
##client
##component
##request
##scop
##server
##site
##socket
##stor
##summit
##trend
##xml
##fare
##from
##paper
##app
##just
##justif
##kind
##know
##label
##law
##learn
##licens
##limit
##valent
##luck
##maintain
##man
##marr
##marshall
##match
##merit
##mistak
##mix
##mirth
##modif
##modul
##motivat
##mount
##multipl
##mut
##nam
##natur
##necess
##need
##object
##observ
##parallel
##paus
##perceiv
##permit
##paid
##pardon
##pair
##organiz
##occup
##notic
##ostentat
##optimiz
##open
##official
##persuad
##plan
##plug
##polish
##practic
##pool
##popular
##precedent
##predict
##prepar
##pretend
##prett
##print
##privileg
##profession
##profit
##protect
##provid
##publish
##qualif
##question
##quot
##ravel
##reach
##read
##ready
##reason
##receiv
##recogniz
##recover
##register
##regulat
##reliabl
##requir
##requit
##reserv
##resolv
##respon
##restrict
##reveal
##rival
##roll
##saf
##said
##sav
##say
##season
##see
##seen
##segment
##select
##releas
##sell
##sentiment
##serial
##settl
##shak
##shar
##shift
##send
##skill
##smooth
##solicit
##sort
##specif
##spent
##splash
##sponsor
##stabl
##stat
##stead
##stick
##stop
##stud
##subscrib
##substantiat
##success
##suit
##sull
##supervis
##support
##sure
##surpris
##suspect
##suspicio
##sustain
##synchron
##target
##templat
##tenabl
##terminat
##tether
##told
##touch
##toward
##track
##train
##transcrib
##translat
##treat
##truth
##twin
##typic
##usab
##use
##usual
##vary
##worth
##front
##wrap
##willing
##verif
##visit
##want
##watch
##welcom
##well
##whole
##wield
##wind
##wound
##wont
##writ
##beat
##zip
##grow
##heav
##held
##hold
##lift
##most
##start
##ris
##swing
##take
##vot
##pars
##friend
##engine
##torrent
##error
##model
##port
##studio
##around
##pro
##craft
##optimal
##part
##ordinat
##pixel
##problem
##quer
##routine
##vers
##program
##gpt
##architect
##bench
##chip
##electron
##framework
##grid
##messag
##mobil
##sensor
##soft
##second
##wav
##journ
##night
##summer
##ston
##blow
##collinear
##color
##core
##devic
##dimens
##factor
##func
##index
##layer
##level
##head
##media
##modal
##nation
##nomi
##method
##project
##processor
##resolut
##protocol
##region
##thread
##sql
##param
##face
##particl
##pass
##hav
##compass
##croach
##courag
##pedia
##giv
##guid
##align
##appl
##behav
##chief
##communic
##concept
##conduct
##ratio
##fit
##interpret
##lead
##constru
##mind
##the
##together
##string
##counter
##act
##clock
##measur
##ficial
##fact
##human
##impos
##intelli
##intend
##shin
##add
##intent
##interpolat
##interrupt
##lateral
##implement
##import
##impress
##init
##initiat
##inspir
##imped
##imagin
##inforc
##insert
##instat
##integr
##invent
##issu
##iterat
##joic
##join
##introduc
##launch
##juvenat
##lay
##laps
##laid
##layout
##letter
##virus
##alias
##merg
##motiv
##pilot
##play
##regress
##repl
##rotat
##scroll
##wait
##while
##woke
##bone
##drop
##end
##ground
##light
##slash
##trac
##centr
##soup
##hand
##scor
##represent
##rat
##perform
##break
##keep
##room
##access
##sens
##content
##continu
##cours
##commerc
##text
##vector
##lumin
##magnet
##mechanic
##techni
##sincere
##scrut
##sensitiv
##sent
##separ
##hood
##span
##hack
##std
##took
##us
##understand
##understood
##sourc
##stack
##street
##offic
##gonal
##selv
##lie
##spoke
##staff
##stand
##stay
##strip
##weigh
##came
##care
##commit
##complicat
##crowd
##debug
##depend
##hast
##haul
##hear
##heat
##kill
##pric
##relian
##run
##saturat
##shadow
##simplif
##stock
##throw
##tak
##shoot
##sight
##saw
##sea
##whelm
##wrote
##meter
##morph
##hedron
##synth
##forc
##go
##wide
##abat
##accept
##achiev
##adjust
##adorn
##affect
##afraid
##announc
##answer
##assign
##attach
##attain
##attend
##attract
##author
##avail
##avoid
##balanc
